{
  "<bos>": 20005,
  "<eos>": 20006,
  "<unk>": 20007,
  "<pad>": 20008,
  "<start_of_turn>": 20009,
  "<end_of_turn>": 20010,
  "!": 20011,
  "\"": 20012,
  "#": 20013,
  "$": 20014,
  "%": 20015,
  "&": 20016,
  "'": 20017,
  "(": 20018,
  ")": 20019,
  "*": 20020,
  "+": 20021,
  ",": 20022,
  "-": 20023,
  ".": 20024,
  "/": 20025,
  "0": 20026,
  "1": 20027,
  "2": 20028,
  "3": 20029,
  "4": 20030,
  "5": 20031,
  "6": 20032,
  "7": 20033,
  "8": 20034,
  "9": 20035,
  ":": 20036,
  ";": 20037,
  "<": 20038,
  "=": 20039,
  ">": 20040,
  "?": 20041,
  "@": 20042,
  "[": 20043,
  "\\": 20044,
  "]": 20045,
  "^": 20046,
  "_": 20047,
  "`": 20048,
  "a": 20049,
  "b": 20050,
  "c": 20051,
  "d": 20052,
  "e": 20053,
  "f": 20054,
  "g": 20055,
  "h": 20056,
  "i": 20057,
  "j": 20058,
  "k": 20059,
  "l": 20060,
  "m": 20061,
  "n": 20062,
  "o": 20063,
  "p": 20064,
  "q": 20065,
  "r": 20066,
  "s": 20067,
  "t": 20068,
  "u": 20069,
  "v": 20070,
  "w": 20071,
  "x": 20072,
  "y": 20073,
  "z": 20074,
  "{": 20075,
  "|": 20076,
  "}": 20077,
  "~": 20078,
  "": 20079,
  "": 20080,
  "": 20081,
  "": 20082,
  "": 20083,
  "": 20084,
  "": 20085,
  "": 20086,
  "¡": 20087,
  "¢": 20088,
  "£": 20089,
  "¤": 20090,
  "¥": 20091,
  "¦": 20092,
  "§": 20093,
  "¨": 20094,
  "©": 20095,
  "ª": 20096,
  "«": 20097,
  "¬": 20098,
  "­": 20099,
  "®": 20100,
  "¯": 20101,
  "°": 20102,
  "±": 20103,
  "²": 20104,
  "³": 20105,
  "´": 20106,
  "µ": 20107,
  "¶": 20108,
  "·": 20109,
  "¸": 20110,
  "¹": 20111,
  "º": 20112,
  "»": 20113,
  "¼": 20114,
  "½": 20115,
  "¾": 20116,
  "¿": 20117,
  "×": 20118,
  "ß": 20119,
  "à": 20120,
  "á": 20121,
  "â": 20122,
  "ã": 20123,
  "ä": 20124,
  "å": 20125,
  "æ": 20126,
  "ç": 20127,
  "è": 20128,
  "é": 20129,
  "ê": 20130,
  "ë": 20131,
  "ì": 20132,
  "í": 20133,
  "î": 20134,
  "ï": 20135,
  "ð": 20136,
  "ñ": 20137,
  "ò": 20138,
  "ó": 20139,
  "ô": 20140,
  "õ": 20141,
  "ö": 20142,
  "÷": 20143,
  "ø": 20144,
  "ù": 20145,
  "ú": 20146,
  "û": 20147,
  "ü": 20148,
  "ý": 20149,
  "þ": 20150,
  "ÿ": 20151,
  "ā": 20152,
  "ă": 20153,
  "ą": 20154,
  "ć": 20155,
  "č": 20156,
  "ď": 20157,
  "đ": 20158,
  "ē": 20159,
  "ė": 20160,
  "ę": 20161,
  "ě": 20162,
  "ĝ": 20163,
  "ğ": 20164,
  "ġ": 20165,
  "ģ": 20166,
  "ħ": 20167,
  "ī": 20168,
  "ı": 20169,
  "ķ": 20170,
  "ļ": 20171,
  "ł": 20172,
  "ń": 20173,
  "ņ": 20174,
  "ň": 20175,
  "ŋ": 20176,
  "ō": 20177,
  "ŏ": 20178,
  "ő": 20179,
  "œ": 20180,
  "ř": 20181,
  "ś": 20182,
  "ş": 20183,
  "š": 20184,
  "ţ": 20185,
  "ť": 20186,
  "ū": 20187,
  "ŭ": 20188,
  "ů": 20189,
  "ű": 20190,
  "ų": 20191,
  "ź": 20192,
  "ż": 20193,
  "ž": 20194,
  "ƅ": 20195,
  "ƒ": 20196,
  "ư": 20197,
  "ǎ": 20198,
  "ǐ": 20199,
  "ǔ": 20200,
  "ǧ": 20201,
  "ș": 20202,
  "ț": 20203,
  "ɑ": 20204,
  "ɔ": 20205,
  "ə": 20206,
  "ɛ": 20207,
  "ɡ": 20208,
  "ɪ": 20209,
  "ɾ": 20210,
  "ʁ": 20211,
  "ʃ": 20212,
  "ʒ": 20213,
  "ʔ": 20214,
  "ʰ": 20215,
  "ʲ": 20216,
  "ʷ": 20217,
  "ʻ": 20218,
  "ʼ": 20219,
  "ʾ": 20220,
  "ʿ": 20221,
  "ˆ": 20222,
  "ˈ": 20223,
  "ː": 20224,
  "̀": 20225,
  "́": 20226,
  "̂": 20227,
  "̄": 20228,
  "̆": 20229,
  "̇": 20230,
  "̈": 20231,
  "̣": 20232,
  "̧": 20233,
  "̳": 20234,
  "͡": 20235,
  "ά": 20236,
  "έ": 20237,
  "ή": 20238,
  "ί": 20239,
  "α": 20240,
  "β": 20241,
  "γ": 20242,
  "δ": 20243,
  "ε": 20244,
  "ζ": 20245,
  "η": 20246,
  "θ": 20247,
  "ι": 20248,
  "κ": 20249,
  "λ": 20250,
  "μ": 20251,
  "ν": 20252,
  "ξ": 20253,
  "ο": 20254,
  "π": 20255,
  "ρ": 20256,
  "ς": 20257,
  "σ": 20258,
  "τ": 20259,
  "υ": 20260,
  "φ": 20261,
  "χ": 20262,
  "ψ": 20263,
  "ω": 20264,
  "ό": 20265,
  "ύ": 20266,
  "ώ": 20267,
  "ϕ": 20268,
  "а": 20269,
  "б": 20270,
  "в": 20271,
  "г": 20272,
  "д": 20273,
  "е": 20274,
  "ж": 20275,
  "з": 20276,
  "и": 20277,
  "й": 20278,
  "к": 20279,
  "л": 20280,
  "м": 20281,
  "н": 20282,
  "о": 20283,
  "п": 20284,
  "р": 20285,
  "с": 20286,
  "т": 20287,
  "у": 20288,
  "ф": 20289,
  "х": 20290,
  "ц": 20291,
  "ч": 20292,
  "ш": 20293,
  "щ": 20294,
  "ъ": 20295,
  "ы": 20296,
  "ь": 20297,
  "э": 20298,
  "ю": 20299,
  "я": 20300,
  "ё": 20301,
  "є": 20302,
  "ѕ": 20303,
  "і": 20304,
  "ї": 20305,
  "ј": 20306,
  "ћ": 20307,
  "ў": 20308,
  "ѵ": 20309,
  "ғ": 20310,
  "қ": 20311,
  "ң": 20312,
  "ү": 20313,
  "ұ": 20314,
  "ӏ": 20315,
  "ә": 20316,
  "ө": 20317,
  "ԁ": 20318,
  "ա": 20319,
  "գ": 20320,
  "ե": 20321,
  "թ": 20322,
  "ի": 20323,
  "կ": 20324,
  "հ": 20325,
  "մ": 20326,
  "յ": 20327,
  "ն": 20328,
  "ո": 20329,
  "ս": 20330,
  "վ": 20331,
  "տ": 20332,
  "ր": 20333,
  "ւ": 20334,
  "ք": 20335,
  "ְ": 20336,
  "ִ": 20337,
  "ָ": 20338,
  "ּ": 20339,
  "א": 20340,
  "ב": 20341,
  "ג": 20342,
  "ד": 20343,
  "ה": 20344,
  "ו": 20345,
  "ז": 20346,
  "ח": 20347,
  "ט": 20348,
  "י": 20349,
  "ך": 20350,
  "כ": 20351,
  "ל": 20352,
  "ם": 20353,
  "מ": 20354,
  "ן": 20355,
  "נ": 20356,
  "ס": 20357,
  "ע": 20358,
  "פ": 20359,
  "צ": 20360,
  "ק": 20361,
  "ר": 20362,
  "ש": 20363,
  "ת": 20364,
  "،": 20365,
  "؟": 20366,
  "ء": 20367,
  "آ": 20368,
  "أ": 20369,
  "ؤ": 20370,
  "إ": 20371,
  "ئ": 20372,
  "ا": 20373,
  "ب": 20374,
  "ة": 20375,
  "ت": 20376,
  "ث": 20377,
  "ج": 20378,
  "ح": 20379,
  "خ": 20380,
  "د": 20381,
  "ذ": 20382,
  "ر": 20383,
  "ز": 20384,
  "س": 20385,
  "ش": 20386,
  "ص": 20387,
  "ض": 20388,
  "ط": 20389,
  "ظ": 20390,
  "ع": 20391,
  "غ": 20392,
  "ـ": 20393,
  "ف": 20394,
  "ق": 20395,
  "ك": 20396,
  "ل": 20397,
  "م": 20398,
  "ن": 20399,
  "ه": 20400,
  "و": 20401,
  "ى": 20402,
  "ي": 20403,
  "ً": 20404,
  "ٌ": 20405,
  "ٍ": 20406,
  "َ": 20407,
  "ُ": 20408,
  "ِ": 20409,
  "ّ": 20410,
  "ْ": 20411,
  "ٓ": 20412,
  "ٖ": 20413,
  "١": 20414,
  "ٰ": 20415,
  "ٱ": 20416,
  "پ": 20417,
  "چ": 20418,
  "ک": 20419,
  "گ": 20420,
  "ں": 20421,
  "ہ": 20422,
  "ی": 20423,
  "ے": 20424,
  "ە": 20425,
  "ۜ": 20426,
  "۞": 20427,
  "۩": 20428,
  "۪": 20429,
  "۱": 20430,
  "ं": 20431,
  "अ": 20432,
  "आ": 20433,
  "ए": 20434,
  "क": 20435,
  "ग": 20436,
  "च": 20437,
  "ज": 20438,
  "ट": 20439,
  "ड": 20440,
  "ण": 20441,
  "त": 20442,
  "थ": 20443,
  "द": 20444,
  "ध": 20445,
  "न": 20446,
  "प": 20447,
  "ब": 20448,
  "भ": 20449,
  "म": 20450,
  "य": 20451,
  "र": 20452,
  "ल": 20453,
  "व": 20454,
  "श": 20455,
  "ष": 20456,
  "स": 20457,
  "ह": 20458,
  "ा": 20459,
  "ि": 20460,
  "ी": 20461,
  "ु": 20462,
  "ू": 20463,
  "े": 20464,
  "ै": 20465,
  "ो": 20466,
  "्": 20467,
  "।": 20468,
  "ং": 20469,
  "আ": 20470,
  "ই": 20471,
  "এ": 20472,
  "ক": 20473,
  "গ": 20474,
  "চ": 20475,
  "জ": 20476,
  "ট": 20477,
  "ত": 20478,
  "দ": 20479,
  "ন": 20480,
  "প": 20481,
  "ব": 20482,
  "ভ": 20483,
  "ম": 20484,
  "য": 20485,
  "র": 20486,
  "ল": 20487,
  "শ": 20488,
  "স": 20489,
  "হ": 20490,
  "়": 20491,
  "া": 20492,
  "ি": 20493,
  "ী": 20494,
  "ু": 20495,
  "ে": 20496,
  "ো": 20497,
  "্": 20498,
  "ৰ": 20499,
  "ਂ": 20500,
  "ਅ": 20501,
  "ਆ": 20502,
  "ਇ": 20503,
  "ਕ": 20504,
  "ਗ": 20505,
  "ਚ": 20506,
  "ਜ": 20507,
  "ਟ": 20508,
  "ਣ": 20509,
  "ਤ": 20510,
  "ਦ": 20511,
  "ਨ": 20512,
  "ਪ": 20513,
  "ਬ": 20514,
  "ਮ": 20515,
  "ਰ": 20516,
  "ਲ": 20517,
  "ਵ": 20518,
  "ਸ": 20519,
  "ਹ": 20520,
  "਼": 20521,
  "ਾ": 20522,
  "ਿ": 20523,
  "ੀ": 20524,
  "ੁ": 20525,
  "ੂ": 20526,
  "ੇ": 20527,
  "ੈ": 20528,
  "ੋ": 20529,
  "੍": 20530,
  "ੰ": 20531,
  "ੱ": 20532,
  "ં": 20533,
  "આ": 20534,
  "ક": 20535,
  "ગ": 20536,
  "જ": 20537,
  "ટ": 20538,
  "ડ": 20539,
  "ત": 20540,
  "દ": 20541,
  "ન": 20542,
  "પ": 20543,
  "બ": 20544,
  "મ": 20545,
  "ય": 20546,
  "ર": 20547,
  "લ": 20548,
  "વ": 20549,
  "શ": 20550,
  "સ": 20551,
  "ા": 20552,
  "િ": 20553,
  "ી": 20554,
  "ુ": 20555,
  "ે": 20556,
  "ો": 20557,
  "્": 20558,
  "କ": 20559,
  "ତ": 20560,
  "ଦ": 20561,
  "ନ": 20562,
  "ପ": 20563,
  "ବ": 20564,
  "ମ": 20565,
  "ର": 20566,
  "ସ": 20567,
  "ହ": 20568,
  "ା": 20569,
  "ି": 20570,
  "ୀ": 20571,
  "ୁ": 20572,
  "େ": 20573,
  "୍": 20574,
  "ୟ": 20575,
  "அ": 20576,
  "இ": 20577,
  "உ": 20578,
  "எ": 20579,
  "க": 20580,
  "ங": 20581,
  "ச": 20582,
  "ட": 20583,
  "ண": 20584,
  "த": 20585,
  "ந": 20586,
  "ன": 20587,
  "ப": 20588,
  "ம": 20589,
  "ய": 20590,
  "ர": 20591,
  "ற": 20592,
  "ல": 20593,
  "ள": 20594,
  "ழ": 20595,
  "வ": 20596,
  "ா": 20597,
  "ி": 20598,
  "ு": 20599,
  "ூ": 20600,
  "ெ": 20601,
  "ே": 20602,
  "ை": 20603,
  "ொ": 20604,
  "ோ": 20605,
  "்": 20606,
  "ం": 20607,
  "అ": 20608,
  "క": 20609,
  "గ": 20610,
  "చ": 20611,
  "జ": 20612,
  "ట": 20613,
  "డ": 20614,
  "త": 20615,
  "ద": 20616,
  "ధ": 20617,
  "న": 20618,
  "ప": 20619,
  "బ": 20620,
  "భ": 20621,
  "మ": 20622,
  "య": 20623,
  "ర": 20624,
  "ల": 20625,
  "వ": 20626,
  "శ": 20627,
  "ష": 20628,
  "స": 20629,
  "ా": 20630,
  "ి": 20631,
  "ీ": 20632,
  "ు": 20633,
  "ూ": 20634,
  "ె": 20635,
  "ే": 20636,
  "ై": 20637,
  "ో": 20638,
  "్": 20639,
  "ಂ": 20640,
  "ಕ": 20641,
  "ಗ": 20642,
  "ಡ": 20643,
  "ತ": 20644,
  "ದ": 20645,
  "ನ": 20646,
  "ಮ": 20647,
  "ಯ": 20648,
  "ರ": 20649,
  "ಲ": 20650,
  "ವ": 20651,
  "ಸ": 20652,
  "ಾ": 20653,
  "ಿ": 20654,
  "ು": 20655,
  "ೆ": 20656,
  "್": 20657,
  "ം": 20658,
  "ക": 20659,
  "ട": 20660,
  "ത": 20661,
  "ന": 20662,
  "പ": 20663,
  "മ": 20664,
  "യ": 20665,
  "ര": 20666,
  "റ": 20667,
  "ല": 20668,
  "ള": 20669,
  "വ": 20670,
  "സ": 20671,
  "ാ": 20672,
  "ി": 20673,
  "ു": 20674,
  "െ": 20675,
  "്": 20676,
  "ก": 20677,
  "ข": 20678,
  "ค": 20679,
  "ง": 20680,
  "จ": 20681,
  "ช": 20682,
  "ด": 20683,
  "ต": 20684,
  "ท": 20685,
  "น": 20686,
  "บ": 20687,
  "ป": 20688,
  "พ": 20689,
  "ภ": 20690,
  "ม": 20691,
  "ย": 20692,
  "ร": 20693,
  "ล": 20694,
  "ว": 20695,
  "ษ": 20696,
  "ส": 20697,
  "ห": 20698,
  "อ": 20699,
  "ะ": 20700,
  "ั": 20701,
  "า": 20702,
  "ิ": 20703,
  "ี": 20704,
  "ื": 20705,
  "ุ": 20706,
  "ู": 20707,
  "เ": 20708,
  "แ": 20709,
  "โ": 20710,
  "ใ": 20711,
  "ไ": 20712,
  "่": 20713,
  "้": 20714,
  "์": 20715,
  "๑": 20716,
  "ກ": 20717,
  "ງ": 20718,
  "ດ": 20719,
  "ນ": 20720,
  "ມ": 20721,
  "ລ": 20722,
  "ວ": 20723,
  "ອ": 20724,
  "ະ": 20725,
  "ັ": 20726,
  "າ": 20727,
  "ີ": 20728,
  "ເ": 20729,
  "່": 20730,
  "້": 20731,
  "་": 20732,
  "မ": 20733,
  "ာ": 20734,
  "်": 20735,
  "ა": 20736,
  "ბ": 20737,
  "გ": 20738,
  "დ": 20739,
  "ე": 20740,
  "ვ": 20741,
  "ზ": 20742,
  "თ": 20743,
  "ი": 20744,
  "კ": 20745,
  "ლ": 20746,
  "მ": 20747,
  "ნ": 20748,
  "ო": 20749,
  "პ": 20750,
  "რ": 20751,
  "ს": 20752,
  "ტ": 20753,
  "უ": 20754,
  "ფ": 20755,
  "ქ": 20756,
  "შ": 20757,
  "ც": 20758,
  "ძ": 20759,
  "წ": 20760,
  "ხ": 20761,
  "រ": 20762,
  "ា": 20763,
  "្": 20764,
  "ḥ": 20765,
  "ḫ": 20766,
  "ḳ": 20767,
  "ṣ": 20768,
  "ṭ": 20769,
  "ạ": 20770,
  "ả": 20771,
  "ẹ": 20772,
  "ế": 20773,
  "ệ": 20774,
  "ị": 20775,
  "ọ": 20776,
  "ụ": 20777,
  "ἀ": 20778,
  "​": 20779,
  "‌": 20780,
  "‍": 20781,
  "‎": 20782,
  "‏": 20783,
  "‐": 20784,
  "–": 20785,
  "—": 20786,
  "―": 20787,
  "‘": 20788,
  "’": 20789,
  "‚": 20790,
  "“": 20791,
  "”": 20792,
  "„": 20793,
  "‟": 20794,
  "†": 20795,
  "‡": 20796,
  "•": 20797,
  "‣": 20798,
  "…": 20799,
  "‬": 20800,
  "‭": 20801,
  "′": 20802,
  "″": 20803,
  "‹": 20804,
  "›": 20805,
  "⁄": 20806,
  "⁺": 20807,
  "⁻": 20808,
  "₀": 20809,
  "₁": 20810,
  "₂": 20811,
  "₃": 20812,
  "₄": 20813,
  "ₙ": 20814,
  "€": 20815,
  "₺": 20816,
  "℃": 20817,
  "№": 20818,
  "™": 20819,
  "ℤ": 20820,
  "←": 20821,
  "↑": 20822,
  "→": 20823,
  "↓": 20824,
  "↔": 20825,
  "↘": 20826,
  "↙": 20827,
  "↳": 20828,
  "⇌": 20829,
  "⇒": 20830,
  "⇓": 20831,
  "∂": 20832,
  "∅": 20833,
  "∆": 20834,
  "∇": 20835,
  "∈": 20836,
  "∑": 20837,
  "−": 20838,
  "√": 20839,
  "∞": 20840,
  "∧": 20841,
  "∩": 20842,
  "∪": 20843,
  "∫": 20844,
  "≅": 20845,
  "≈": 20846,
  "≠": 20847,
  "≡": 20848,
  "≤": 20849,
  "≥": 20850,
  "⊆": 20851,
  "⊕": 20852,
  "⊗": 20853,
  "⋅": 20854,
  "⋊": 20855,
  "⋮": 20856,
  "─": 20857,
  "│": 20858,
  "█": 20859,
  "■": 20860,
  "▪": 20861,
  "▬": 20862,
  "▲": 20863,
  "△": 20864,
  "▶": 20865,
  "▷": 20866,
  "►": 20867,
  "▼": 20868,
  "◊": 20869,
  "●": 20870,
  "★": 20871,
  "☆": 20872,
  "☎": 20873,
  "☺": 20874,
  "♀": 20875,
  "♂": 20876,
  "♥": 20877,
  "♦": 20878,
  "♪": 20879,
  "♫": 20880,
  "⚡": 20881,
  "✂": 20882,
  "✅": 20883,
  "✌": 20884,
  "✓": 20885,
  "✔": 20886,
  "✕": 20887,
  "✨": 20888,
  "❌": 20889,
  "❤": 20890,
  "➡": 20891,
  "➤": 20892,
  "⟨": 20893,
  "⟩": 20894,
  "⠀": 20895,
  "⤓": 20896,
  "⦁": 20897,
  "⭐": 20898,
  "、": 20899,
  "。": 20900,
  "「": 20901,
  "」": 20902,
  "【": 20903,
  "】": 20904,
  "あ": 20905,
  "い": 20906,
  "う": 20907,
  "え": 20908,
  "お": 20909,
  "か": 20910,
  "が": 20911,
  "き": 20912,
  "く": 20913,
  "け": 20914,
  "こ": 20915,
  "さ": 20916,
  "し": 20917,
  "す": 20918,
  "せ": 20919,
  "そ": 20920,
  "た": 20921,
  "だ": 20922,
  "ち": 20923,
  "っ": 20924,
  "つ": 20925,
  "て": 20926,
  "で": 20927,
  "と": 20928,
  "ど": 20929,
  "な": 20930,
  "に": 20931,
  "の": 20932,
  "は": 20933,
  "ま": 20934,
  "み": 20935,
  "め": 20936,
  "も": 20937,
  "や": 20938,
  "よ": 20939,
  "ら": 20940,
  "り": 20941,
  "る": 20942,
  "れ": 20943,
  "わ": 20944,
  "を": 20945,
  "ん": 20946,
  "ア": 20947,
  "ィ": 20948,
  "イ": 20949,
  "ウ": 20950,
  "ェ": 20951,
  "エ": 20952,
  "オ": 20953,
  "カ": 20954,
  "キ": 20955,
  "ク": 20956,
  "グ": 20957,
  "コ": 20958,
  "サ": 20959,
  "シ": 20960,
  "ジ": 20961,
  "ス": 20962,
  "タ": 20963,
  "チ": 20964,
  "ッ": 20965,
  "テ": 20966,
  "デ": 20967,
  "ト": 20968,
  "ド": 20969,
  "ナ": 20970,
  "ニ": 20971,
  "ノ": 20972,
  "バ": 20973,
  "パ": 20974,
  "ビ": 20975,
  "フ": 20976,
  "ブ": 20977,
  "プ": 20978,
  "ポ": 20979,
  "マ": 20980,
  "ム": 20981,
  "メ": 20982,
  "ャ": 20983,
  "ュ": 20984,
  "ラ": 20985,
  "リ": 20986,
  "ル": 20987,
  "レ": 20988,
  "ロ": 20989,
  "ン": 20990,
  "・": 20991,
  "ー": 20992,
  "一": 20993,
  "三": 20994,
  "上": 20995,
  "不": 20996,
  "世": 20997,
  "中": 20998,
  "主": 20999,
  "事": 21000,
  "产": 21001,
  "人": 21002,
  "代": 21003,
  "会": 21004,
  "体": 21005,
  "免": 21006,
  "兒": 21007,
  "公": 21008,
  "出": 21009,
  "分": 21010,
  "北": 21011,
  "区": 21012,
  "南": 21013,
  "县": 21014,
  "可": 21015,
  "合": 21016,
  "名": 21017,
  "和": 21018,
  "国": 21019,
  "在": 21020,
  "地": 21021,
  "大": 21022,
  "天": 21023,
  "女": 21024,
  "子": 21025,
  "学": 21026,
  "安": 21027,
  "定": 21028,
  "家": 21029,
  "小": 21030,
  "山": 21031,
  "州": 21032,
  "市": 21033,
  "年": 21034,
  "彼": 21035,
  "後": 21036,
  "性": 21037,
  "情": 21038,
  "成": 21039,
  "我": 21040,
  "播": 21041,
  "放": 21042,
  "文": 21043,
  "新": 21044,
  "方": 21045,
  "族": 21046,
  "日": 21047,
  "明": 21048,
  "是": 21049,
  "時": 21050,
  "最": 21051,
  "月": 21052,
  "有": 21053,
  "本": 21054,
  "民": 21055,
  "水": 21056,
  "治": 21057,
  "法": 21058,
  "洞": 21059,
  "海": 21060,
  "物": 21061,
  "王": 21062,
  "理": 21063,
  "生": 21064,
  "用": 21065,
  "癟": 21066,
  "的": 21067,
  "社": 21068,
  "私": 21069,
  "童": 21070,
  "简": 21071,
  "繁": 21072,
  "线": 21073,
  "羹": 21074,
  "者": 21075,
  "脹": 21076,
  "自": 21077,
  "色": 21078,
  "行": 21079,
  "西": 21080,
  "要": 21081,
  "見": 21082,
  "覺": 21083,
  "视": 21084,
  "言": 21085,
  "語": 21086,
  "费": 21087,
  "通": 21088,
  "道": 21089,
  "部": 21090,
  "金": 21091,
  "間": 21092,
  "频": 21093,
  "體": 21094,
  "高": 21095,
  "가": 21096,
  "고": 21097,
  "국": 21098,
  "기": 21099,
  "나": 21100,
  "는": 21101,
  "다": 21102,
  "대": 21103,
  "동": 21104,
  "라": 21105,
  "로": 21106,
  "리": 21107,
  "마": 21108,
  "사": 21109,
  "수": 21110,
  "스": 21111,
  "시": 21112,
  "아": 21113,
  "어": 21114,
  "에": 21115,
  "의": 21116,
  "이": 21117,
  "인": 21118,
  "자": 21119,
  "정": 21120,
  "지": 21121,
  "하": 21122,
  "한": 21123,
  "": 21124,
  "": 21125,
  "": 21126,
  "": 21127,
  "": 21128,
  "": 21129,
  "": 21130,
  "": 21131,
  "": 21132,
  "": 21133,
  "": 21134,
  "": 21135,
  "": 21136,
  "": 21137,
  "": 21138,
  "": 21139,
  "": 21140,
  "": 21141,
  "": 21142,
  "": 21143,
  "": 21144,
  "": 21145,
  "": 21146,
  "": 21147,
  "﴾": 21148,
  "﴿": 21149,
  "️": 21150,
  "﻿": 21151,
  "！": 21152,
  "（": 21153,
  "）": 21154,
  "，": 21155,
  "：": 21156,
  "￦": 21157,
  "￼": 21158,
  "�": 21159,
  "🇷": 21160,
  "🇹": 21161,
  "🌈": 21162,
  "🌞": 21163,
  "🌟": 21164,
  "🌸": 21165,
  "🌹": 21166,
  "🌻": 21167,
  "🏻": 21168,
  "🏼": 21169,
  "👇": 21170,
  "👈": 21171,
  "👉": 21172,
  "👍": 21173,
  "👎": 21174,
  "👏": 21175,
  "👤": 21176,
  "💕": 21177,
  "💖": 21178,
  "💪": 21179,
  "💬": 21180,
  "📋": 21181,
  "📌": 21182,
  "📍": 21183,
  "📞": 21184,
  "🔥": 21185,
  "🖊": 21186,
  "😀": 21187,
  "😁": 21188,
  "😂": 21189,
  "😃": 21190,
  "😄": 21191,
  "😇": 21192,
  "😉": 21193,
  "😊": 21194,
  "😍": 21195,
  "😎": 21196,
  "😔": 21197,
  "😘": 21198,
  "😡": 21199,
  "😥": 21200,
  "😦": 21201,
  "😱": 21202,
  "🙁": 21203,
  "🙂": 21204,
  "🙏": 21205,
  "🚀": 21206,
  "🤍": 21207,
  "🤗": 21208,
  "🥰": 21209,
  "🥺": 21210,
  "ar": 21211,
  "er": 21212,
  "an": 21213,
  "in": 21214,
  "en": 21215,
  "ir": 21216,
  "il": 21217,
  "ın": 21218,
  "al": 21219,
  "ak": 21220,
  "de": 21221,
  "lar": 21222,
  "ya": 21223,
  "el": 21224,
  "da": 21225,
  "ek": 21226,
  "or": 21227,
  "ma": 21228,
  "et": 21229,
  "la": 21230,
  "si": 21231,
  "ve": 21232,
  "un": 21233,
  "on": 21234,
  "ler": 21235,
  "ol": 21236,
  "ka": 21237,
  "bir": 21238,
  "te": 21239,
  "ik": 21240,
  "le": 21241,
  "sa": 21242,
  "me": 21243,
  "ır": 21244,
  "ta": 21245,
  "iz": 21246,
  "ur": 21247,
  "im": 21248,
  "ba": 21249,
  "di": 21250,
  "ul": 21251,
  "lı": 21252,
  "iş": 21253,
  "ha": 21254,
  "ün": 21255,
  "is": 21256,
  "sı": 21257,
  "i̇": 21258,
  "iy": 21259,
  "ür": 21260,
  "bil": 21261,
  "dı": 21262,
  "es": 21263,
  "lan": 21264,
  "den": 21265,
  "ara": 21266,
  "li": 21267,
  "um": 21268,
  "iç": 21269,
  "20": 21270,
  "tı": 21271,
  "bu": 21272,
  "st": 21273,
  "ları": 21274,
  "ra": 21275,
  "yı": 21276,
  "dan": 21277,
  "ını": 21278,
  "ok": 21279,
  "ce": 21280,
  "ti": 21281,
  "ön": 21282,
  "mı": 21283,
  "re": 21284,
  "se": 21285,
  "du": 21286,
  "gö": 21287,
  "it": 21288,
  "ında": 21289,
  "ay": 21290,
  "dir": 21291,
  "alı": 21292,
  "mak": 21293,
  "man": 21294,
  "üz": 21295,
  "eri": 21296,
  "için": 21297,
  "ini": 21298,
  "em": 21299,
  "ey": 21300,
  "yor": 21301,
  "leri": 21302,
  "ca": 21303,
  "yap": 21304,
  "ine": 21305,
  "ğı": 21306,
  "ver": 21307,
  "üm": 21308,
  "inde": 21309,
  "at": 21310,
  "ük": 21311,
  "kar": 21312,
  "uz": 21313,
  "ile": 21314,
  "şt": 21315,
  "gi": 21316,
  "us": 21317,
  "baş": 21318,
  "va": 21319,
  "ne": 21320,
  "dır": 21321,
  "son": 21322,
  "ki": 21323,
  "do": 21324,
  "yan": 21325,
  "ye": 21326,
  "cı": 21327,
  "mek": 21328,
  "ro": 21329,
  "şı": 21330,
  "arı": 21331,
  "ına": 21332,
  "ut": 21333,
  "çı": 21334,
  "iler": 21335,
  "gel": 21336,
  "az": 21337,
  "to": 21338,
  "ge": 21339,
  "ül": 21340,
  "kı": 21341,
  "lik": 21342,
  "der": 21343,
  "bilir": 21344,
  "öz": 21345,
  "bul": 21346,
  "inin": 21347,
  "cak": 21348,
  "olar": 21349,
  "iniz": 21350,
  "kul": 21351,
  "ği": 21352,
  "19": 21353,
  "anı": 21354,
  "ci": 21355,
  "ken": 21356,
  "aki": 21357,
  "ger": 21358,
  "olarak": 21359,
  "kon": 21360,
  "uy": 21361,
  "oy": 21362,
  "gün": 21363,
  "lık": 21364,
  "tür": 21365,
  "za": 21366,
  "ter": 21367,
  "şa": 21368,
  "ların": 21369,
  "lu": 21370,
  "==": 21371,
  "len": 21372,
  "ev": 21373,
  "bi": 21374,
  "kullan": 21375,
  "zı": 21376,
  "eler": 21377,
  "os": 21378,
  "tem": 21379,
  "ko": 21380,
  "yon": 21381,
  "hi": 21382,
  "be": 21383,
  "as": 21384,
  "201": 21385,
  "alar": 21386,
  "tar": 21387,
  "oldu": 21388,
  "ması": 21389,
  "yen": 21390,
  "değ": 21391,
  "tir": 21392,
  "ad": 21393,
  "he": 21394,
  "fa": 21395,
  "iyor": 21396,
  "kur": 21397,
  "her": 21398,
  "san": 21399,
  "ından": 21400,
  "na": 21401,
  "bel": 21402,
  "yer": 21403,
  "met": 21404,
  "unu": 21405,
  "cu": 21406,
  "..": 21407,
  "tan": 21408,
  "ed": 21409,
  "ör": 21410,
  "kal": 21411,
  "yıl": 21412,
  "öl": 21413,
  "mi": 21414,
  "ğu": 21415,
  "mu": 21416,
  "çok": 21417,
  "daha": 21418,
  "ğr": 21419,
  "yük": 21420,
  "olan": 21421,
  "siz": 21422,
  "ola": 21423,
  "dur": 21424,
  "yapı": 21425,
  "ke": 21426,
  "olu": 21427,
  "daki": 21428,
  "sor": 21429,
  "miş": 21430,
  "00": 21431,
  "tek": 21432,
  "dü": 21433,
  "ber": 21434,
  "ili": 21435,
  "ça": 21436,
  "gen": 21437,
  "men": 21438,
  "mas": 21439,
  "par": 21440,
  "diğ": 21441,
  "hal": 21442,
  "iye": 21443,
  "gör": 21444,
  "kad": 21445,
  "gü": 21446,
  "bet": 21447,
  "yar": 21448,
  "ort": 21449,
  "bü": 21450,
  "kan": 21451,
  "var": 21452,
  "kay": 21453,
  "cek": 21454,
  "co": 21455,
  "yat": 21456,
  "öy": 21457,
  "ının": 21458,
  "sağ": 21459,
  "sür": 21460,
  "mo": 21461,
  "çek": 21462,
  "bah": 21463,
  "gor": 21464,
  "kullanı": 21465,
  "mer": 21466,
  "vi": 21467,
  "202": 21468,
  "yın": 21469,
  "pro": 21470,
  "veya": 21471,
  "eli": 21472,
  "türk": 21473,
  "fi": 21474,
  "alan": 21475,
  "tr": 21476,
  "mü": 21477,
  "mesi": 21478,
  "geç": 21479,
  "pa": 21480,
  "mal": 21481,
  "ilen": 21482,
  "gir": 21483,
  "ama": 21484,
  "site": 21485,
  "kate": 21486,
  "tara": 21487,
  "bo": 21488,
  "ana": 21489,
  "inden": 21490,
  "sp": 21491,
  "gerek": 21492,
  "hak": 21493,
  "lü": 21494,
  "göre": 21495,
  "ştır": 21496,
  "yön": 21497,
  "lama": 21498,
  "han": 21499,
  "açı": 21500,
  "kategor": 21501,
  "çe": 21502,
  "şek": 21503,
  "dım": 21504,
  "ih": 21505,
  "bak": 21506,
  "uk": 21507,
  "sel": 21508,
  "kiş": 21509,
  "i̇n": 21510,
  "lam": 21511,
  "ri": 21512,
  "yla": 21513,
  "gibi": 21514,
  "çalı": 21515,
  "üzer": 21516,
  "tır": 21517,
  "top": 21518,
  "ot": 21519,
  "ben": 21520,
  "am": 21521,
  "let": 21522,
  "ınız": 21523,
  "imiz": 21524,
  "sal": 21525,
  "zaman": 21526,
  "ten": 21527,
  "har": 21528,
  "taraf": 21529,
  "mar": 21530,
  "mes": 21531,
  "oyun": 21532,
  "böl": 21533,
  "cel": 21534,
  "yeni": 21535,
  "sonra": 21536,
  "su": 21537,
  "yaz": 21538,
  "bulun": 21539,
  "kategori": 21540,
  "mış": 21541,
  "kü": 21542,
  "yi": 21543,
  "ru": 21544,
  "özel": 21545,
  "sun": 21546,
  "for": 21547,
  "eğ": 21548,
  "ven": 21549,
  "ser": 21550,
  "uyg": 21551,
  "yorum": 21552,
  "önem": 21553,
  "şe": 21554,
  "po": 21555,
  "bile": 21556,
  "lerin": 21557,
  "eleri": 21558,
  "bağ": 21559,
  "unda": 21560,
  "sin": 21561,
  "10": 21562,
  "tal": 21563,
  "sek": 21564,
  "eti": 21565,
  "makta": 21566,
  "fil": 21567,
  "seç": 21568,
  "res": 21569,
  "lo": 21570,
  "bun": 21571,
  "çalış": 21572,
  "yal": 21573,
  "maya": 21574,
  "can": 21575,
  "belir": 21576,
  "ku": 21577,
  "200": 21578,
  "2022": 21579,
  "per": 21580,
  "bahis": 21581,
  "ada": 21582,
  "larını": 21583,
  "lem": 21584,
  "dığı": 21585,
  "dik": 21586,
  "kap": 21587,
  "esc": 21588,
  "bur": 21589,
  "karşı": 21590,
  "yak": 21591,
  "lara": 21592,
  "sen": 21593,
  "nin": 21594,
  "escort": 21595,
  "ceva": 21596,
  "edi": 21597,
  "stan": 21598,
  "mekte": 21599,
  "laş": 21600,
  "alt": 21601,
  "rı": 21602,
  "yet": 21603,
  "yayın": 21604,
  "imi": 21605,
  "siniz": 21606,
  "ist": 21607,
  "kadar": 21608,
  "büyük": 21609,
  "düş": 21610,
  "sim": 21611,
  "ch": 21612,
  "mız": 21613,
  "sında": 21614,
  "ço": 21615,
  "gra": 21616,
  "ım": 21617,
  "olduğ": 21618,
  "tarafından": 21619,
  "ız": 21620,
  "haz": 21621,
  "alık": 21622,
  "hiz": 21623,
  "düz": 21624,
  "iyi": 21625,
  "şu": 21626,
  "kor": 21627,
  "tak": 21628,
  "ede": 21629,
  "ileri": 21630,
  "ğını": 21631,
  "öyle": 21632,
  "dün": 21633,
  "şekil": 21634,
  "olma": 21635,
  "sır": 21636,
  "ban": 21637,
  "sahi": 21638,
  "hizmet": 21639,
  "ster": 21640,
  "tüm": 21641,
  "yüz": 21642,
  "neden": 21643,
  "ştur": 21644,
  "iyle": 21645,
  "yazı": 21646,
  "mil": 21647,
  "yol": 21648,
  "i̇l": 21649,
  "ran": 21650,
  "ürün": 21651,
  "ho": 21652,
  "av": 21653,
  "far": 21654,
  "nak": 21655,
  "kat": 21656,
  "maktadır": 21657,
  "say": 21658,
  "ele": 21659,
  "lerini": 21660,
  "açık": 21661,
  "haber": 21662,
  "hat": 21663,
  "sit": 21664,
  "sayı": 21665,
  "öğr": 21666,
  "kin": 21667,
  "doğ": 21668,
  "lığı": 21669,
  "ise": 21670,
  "güven": 21671,
  "orta": 21672,
  "sız": 21673,
  "doğr": 21674,
  "so": 21675,
  "edil": 21676,
  "tü": 21677,
  "iste": 21678,
  "if": 21679,
  "şekilde": 21680,
  "olo": 21681,
  "bilirsiniz": 21682,
  "iyet": 21683,
  "gerçek": 21684,
  "giriş": 21685,
  "...": 21686,
  "konu": 21687,
  "tur": 21688,
  "kara": 21689,
  "mektedir": 21690,
  "ştir": 21691,
  "ab": 21692,
  "değiş": 21693,
  "tık": 21694,
  "leş": 21695,
  "hem": 21696,
  "sın": 21697,
  "eş": 21698,
  "12": 21699,
  "ulu": 21700,
  "dür": 21701,
  "durum": 21702,
  "usu": 21703,
  "cevap": 21704,
  "ilg": 21705,
  "sis": 21706,
  "tik": 21707,
  "yaş": 21708,
  "18": 21709,
  "ıl": 21710,
  "arak": 21711,
  "faz": 21712,
  "com": 21713,
  "ayrı": 21714,
  "hir": 21715,
  "genel": 21716,
  "ip": 21717,
  "no": 21718,
  "sıl": 21719,
  "meye": 21720,
  "min": 21721,
  "yo": 21722,
  "ala": 21723,
  "diği": 21724,
  "kez": 21725,
  "dev": 21726,
  "tas": 21727,
  "bilg": 21728,
  "id": 21729,
  "deki": 21730,
  "lere": 21731,
  "sitesi": 21732,
  "ula": 21733,
  "esi": 21734,
  "fark": 21735,
  "ck": 21736,
  "we": 21737,
  "i̇ş": 21738,
  "15": 21739,
  "art": 21740,
  "tarih": 21741,
  "nın": 21742,
  "biz": 21743,
  "ing": 21744,
  "söz": 21745,
  "ilk": 21746,
  "sahip": 21747,
  "ali": 21748,
  "göster": 21749,
  "elik": 21750,
  "içer": 21751,
  "para": 21752,
  "anla": 21753,
  "dem": 21754,
  "bilgi": 21755,
  "iki": 21756,
  "sonu": 21757,
  "nı": 21758,
  "larda": 21759,
  "tor": 21760,
  "değil": 21761,
  "ans": 21762,
  "diğer": 21763,
  "önce": 21764,
  "şey": 21765,
  "türkiye": 21766,
  "kendi": 21767,
  "ceğ": 21768,
  "the": 21769,
  "liği": 21770,
  "por": 21771,
  "ji": 21772,
  "dünya": 21773,
  "ancak": 21774,
  "bek": 21775,
  "aret": 21776,
  "mayı": 21777,
  "sev": 21778,
  "insan": 21779,
  "tanı": 21780,
  "dön": 21781,
  "kası": 21782,
  "eder": 21783,
  "üc": 21784,
  "yanı": 21785,
  "hakk": 21786,
  "fazla": 21787,
  "etti": 21788,
  "pol": 21789,
  "doğru": 21790,
  "net": 21791,
  "göz": 21792,
  "--": 21793,
  "unun": 21794,
  "çocu": 21795,
  "kaz": 21796,
  "dil": 21797,
  "kes": 21798,
  "başla": 21799,
  "11": 21800,
  "deva": 21801,
  "kö": 21802,
  "olduğu": 21803,
  "nasıl": 21804,
  "oto": 21805,
  "tör": 21806,
  "go": 21807,
  "bar": 21808,
  "bölüm": 21809,
  "değer": 21810,
  "vur": 21811,
  "film": 21812,
  "üş": 21813,
  "çev": 21814,
  "bol": 21815,
  "yaşa": 21816,
  "tut": 21817,
  "geliş": 21818,
  "ren": 21819,
  "pi": 21820,
  "süre": 21821,
  "gaz": 21822,
  "fer": 21823,
  "sat": 21824,
  "mez": 21825,
  "kır": 21826,
  "aynı": 21827,
  "sü": 21828,
  "önemli": 21829,
  "okul": 21830,
  "yok": 21831,
  "get": 21832,
  "van": 21833,
  "din": 21834,
  "ilgili": 21835,
  "tekn": 21836,
  "leştir": 21837,
  "of": 21838,
  "sak": 21839,
  "ket": 21840,
  "larının": 21841,
  "sistem": 21842,
  "malar": 21843,
  "una": 21844,
  "etk": 21845,
  "bin": 21846,
  "dış": 21847,
  "gı": 21848,
  "ah": 21849,
  "maz": 21850,
  "aç": 21851,
  "öğren": 21852,
  "14": 21853,
  "ret": 21854,
  "sını": 21855,
  "yardım": 21856,
  "alın": 21857,
  "ünü": 21858,
  "kim": 21859,
  "mp": 21860,
  "devam": 21861,
  "ni": 21862,
  "kaynak": 21863,
  "larına": 21864,
  "liğ": 21865,
  "miştir": 21866,
  "kaç": 21867,
  "ilik": 21868,
  "ağ": 21869,
  "bit": 21870,
  "soru": 21871,
  "olduğunu": 21872,
  "16": 21873,
  "sağla": 21874,
  "fir": 21875,
  "dık": 21876,
  "mıştır": 21877,
  "13": 21878,
  "kita": 21879,
  "çi": 21880,
  "leme": 21881,
  "cüm": 21882,
  "ht": 21883,
  "oluştur": 21884,
  "gön": 21885,
  "eğit": 21886,
  "sil": 21887,
  "yapıl": 21888,
  "duy": 21889,
  "sta": 21890,
  "aşa": 21891,
  "birlik": 21892,
  "hay": 21893,
  "adım": 21894,
  "eye": 21895,
  "likle": 21896,
  "düzen": 21897,
  "lerinin": 21898,
  "),": 21899,
  "lay": 21900,
  "getir": 21901,
  "merkez": 21902,
  "spor": 21903,
  "tes": 21904,
  "yüksek": 21905,
  "tığı": 21906,
  "del": 21907,
  "çocuk": 21908,
  "hangi": 21909,
  "i̇stan": 21910,
  "arka": 21911,
  "iliş": 21912,
  "resi": 21913,
  "lendir": 21914,
  "iti": 21915,
  "17": 21916,
  "i̇stanbul": 21917,
  "web": 21918,
  "ga": 21919,
  "üst": 21920,
  "farklı": 21921,
  "fak": 21922,
  "ilir": 21923,
  "dar": 21924,
  "pay": 21925,
  "sik": 21926,
  "arasında": 21927,
  "gu": 21928,
  "hakkında": 21929,
  "30": 21930,
  "gru": 21931,
  "zor": 21932,
  "mut": 21933,
  "25": 21934,
  "şık": 21935,
  "bon": 21936,
  "uzun": 21937,
  "şir": 21938,
  "etim": 21939,
  "kadın": 21940,
  "tu": 21941,
  "mad": 21942,
  "masına": 21943,
  "tıl": 21944,
  "tama": 21945,
  "i̇z": 21946,
  "gil": 21947,
  "med": 21948,
  "bı": 21949,
  "fon": 21950,
  "199": 21951,
  "lerde": 21952,
  "raf": 21953,
  "kazan": 21954,
  "i̇s": 21955,
  "şehir": 21956,
  "aları": 21957,
  "hur": 21958,
  "ecek": 21959,
  "malı": 21960,
  "kanı": 21961,
  "sam": 21962,
  "hesa": 21963,
  "bey": 21964,
  "larında": 21965,
  "taki": 21966,
  "çıkar": 21967,
  "ilerin": 21968,
  "uyu": 21969,
  "pos": 21970,
  "üy": 21971,
  "dığ": 21972,
  "olmak": 21973,
  "tari": 21974,
  "şi": 21975,
  "rek": 21976,
  "lardan": 21977,
  "det": 21978,
  "esinde": 21979,
  "çık": 21980,
  "canlı": 21981,
  "gan": 21982,
  "lerine": 21983,
  "gelen": 21984,
  "tay": 21985,
  "izi": 21986,
  "siyon": 21987,
  "lin": 21988,
  "karar": 21989,
  "luk": 21990,
  "lantı": 21991,
  "maları": 21992,
  "hiç": 21993,
  "izle": 21994,
  "üç": 21995,
  "gram": 21996,
  "görev": 21997,
  "bat": 21998,
  "güz": 21999,
  "=\"": 22000,
  "tam": 22001,
  "lığ": 22002,
  "fiyat": 22003,
  "olur": 22004,
  "birlikte": 22005,
  "söyle": 22006,
  "dest": 22007,
  "eme": 22008,
  "pe": 22009,
  "24": 22010,
  "kend": 22011,
  "kr": 22012,
  "lak": 22013,
  "adı": 22014,
  "pla": 22015,
  "2021": 22016,
  "çer": 22017,
  "gönder": 22018,
  "fen": 22019,
  "om": 22020,
  "düşün": 22021,
  "küç": 22022,
  "güzel": 22023,
  "kol": 22024,
  "uygun": 22025,
  "onu": 22026,
  "tion": 22027,
  "eden": 22028,
  "eğitim": 22029,
  "biri": 22030,
  "güncel": 22031,
  "masını": 22032,
  "iver": 22033,
  "tış": 22034,
  "ulan": 22035,
  "bazı": 22036,
  "görün": 22037,
  "tl": 22038,
  "dığını": 22039,
  "ifa": 22040,
  "emek": 22041,
  "sına": 22042,
  "etmek": 22043,
  "kullanıl": 22044,
  "cümle": 22045,
  "inizi": 22046,
  "umlu": 22047,
  "daş": 22048,
  "sos": 22049,
  "his": 22050,
  "çeş": 22051,
  "ğun": 22052,
  "yılında": 22053,
  "işim": 22054,
  "aşağı": 22055,
  "kil": 22056,
  "destek": 22057,
  "ez": 22058,
  "erek": 22059,
  "arım": 22060,
  "olabilir": 22061,
  "hazır": 22062,
  "kasım": 22063,
  "ard": 22064,
  "and": 22065,
  "müşt": 22066,
  "mev": 22067,
  "adresi": 22068,
  "yle": 22069,
  "elek": 22070,
  "lis": 22071,
  "cü": 22072,
  "mem": 22073,
  "hil": 22074,
  "lük": 22075,
  "bas": 22076,
  "hız": 22077,
  "küçük": 22078,
  "tif": 22079,
  "aş": 22080,
  "zer": 22081,
  "üzere": 22082,
  "indeki": 22083,
  "taş": 22084,
  "devlet": 22085,
  "ekim": 22086,
  "ünde": 22087,
  "aralık": 22088,
  "ayrıca": 22089,
  "başvur": 22090,
  "===": 22091,
  "cağı": 22092,
  "kabul": 22093,
  "içinde": 22094,
  "ses": 22095,
  "seçen": 22096,
  "ifade": 22097,
  "kullanıcı": 22098,
  "temiz": 22099,
  "50": 22100,
  "yayınları": 22101,
  "oku": 22102,
  "saat": 22103,
  "ap": 22104,
  "larla": 22105,
  "asyon": 22106,
  "müz": 22107,
  "sağlık": 22108,
  "bes": 22109,
  "sade": 22110,
  "sonuç": 22111,
  "caktır": 22112,
  "kitap": 22113,
  "cin": 22114,
  "oğ": 22115,
  "bunun": 22116,
  "inci": 22117,
  "af": 22118,
  "bay": 22119,
  "kayı": 22120,
  "2020": 22121,
  "ış": 22122,
  "okulları": 22123,
  "dönem": 22124,
  "sino": 22125,
  "lül": 22126,
  "cum": 22127,
  "lanan": 22128,
  "çeşit": 22129,
  "fut": 22130,
  "sine": 22131,
  "layı": 22132,
  "kür": 22133,
  "üniver": 22134,
  "dav": 22135,
  "köy": 22136,
  "tra": 22137,
  "yoruz": 22138,
  "23": 22139,
  "çöz": 22140,
  "cen": 22141,
  "ası": 22142,
  "diye": 22143,
  "anaokulları": 22144,
  "deniz": 22145,
  "belirt": 22146,
  "tah": 22147,
  "ner": 22148,
  "haf": 22149,
  "posta": 22150,
  "fes": 22151,
  "üne": 22152,
  ").": 22153,
  "şim": 22154,
  "kül": 22155,
  "car": 22156,
  "yin": 22157,
  "sadece": 22158,
  "pu": 22159,
  "yanıt": 22160,
  "i̇ngil": 22161,
  "plan": 22162,
  "nun": 22163,
  "ındaki": 22164,
  "rak": 22165,
  "güç": 22166,
  "od": 22167,
  "yardımcı": 22168,
  "22": 22169,
  "mart": 22170,
  "yapılan": 22171,
  "dö": 22172,
  "kek": 22173,
  "pek": 22174,
  "manın": 22175,
  "lerinde": 22176,
  "umu": 22177,
  "oloji": 22178,
  "futbol": 22179,
  "val": 22180,
  "isel": 22181,
  "hayat": 22182,
  "git": 22183,
  "şar": 22184,
  "tesi": 22185,
  "ton": 22186,
  "şan": 22187,
  "istan": 22188,
  "blo": 22189,
  "taşı": 22190,
  "sosyal": 22191,
  "mah": 22192,
  "işlem": 22193,
  "fik": 22194,
  "gar": 22195,
  "şirket": 22196,
  "sorun": 22197,
  "nis": 22198,
  "suz": 22199,
  "lerden": 22200,
  "casino": 22201,
  "yarı": 22202,
  "lim": 22203,
  "ps": 22204,
  "tat": 22205,
  "muz": 22206,
  "harek": 22207,
  "sayfa": 22208,
  "tele": 22209,
  "usunda": 22210,
  "ğü": 22211,
  "fır": 22212,
  "bağlantı": 22213,
  "sanat": 22214,
  "tel": 22215,
  "ulus": 22216,
  "yür": 22217,
  "nok": 22218,
  "incel": 22219,
  "198": 22220,
  "olması": 22221,
  "arası": 22222,
  "resim": 22223,
  "ebilir": 22224,
  "yatır": 22225,
  "sava": 22226,
  "anlam": 22227,
  "mat": 22228,
  "siya": 22229,
  "pan": 22230,
  "muş": 22231,
  "hen": 22232,
  "dr": 22233,
  "2019": 22234,
  "yara": 22235,
  "cil": 22236,
  "fin": 22237,
  "paz": 22238,
  "bulunan": 22239,
  "syon": 22240,
  "araştır": 22241,
  "bor": 22242,
  "set": 22243,
  "temel": 22244,
  "başka": 22245,
  "madde": 22246,
  "geri": 22247,
  "teş": 22248,
  "kız": 22249,
  "parti": 22250,
  "ham": 22251,
  "karı": 22252,
  "eylül": 22253,
  "kısa": 22254,
  "yazar": 22255,
  "kişisel": 22256,
  "bilecek": 22257,
  "takip": 22258,
  "sanı": 22259,
  "000": 22260,
  "yu": 22261,
  "21": 22262,
  "boy": 22263,
  "ayd": 22264,
  "onun": 22265,
  "bır": 22266,
  "vide": 22267,
  "ankara": 22268,
  "def": 22269,
  "col": 22270,
  ".|": 22271,
  "kişi": 22272,
  "bağlı": 22273,
  "kolay": 22274,
  "dok": 22275,
  "cer": 22276,
  "2018": 22277,
  "gal": 22278,
  "mobil": 22279,
  "kom": 22280,
  "i̇ç": 22281,
  "mesine": 22282,
  "yapa": 22283,
  "elektr": 22284,
  "ocak": 22285,
  "fran": 22286,
  "veril": 22287,
  "bunu": 22288,
  "dedi": 22289,
  "size": 22290,
  "dere": 22291,
  "başkanı": 22292,
  "ülk": 22293,
  "zi": 22294,
  "hava": 22295,
  "siteleri": 22296,
  "mir": 22297,
  "ternet": 22298,
  "mesini": 22299,
  "başarı": 22300,
  "bal": 22301,
  "enin": 22302,
  "28": 22303,
  "op": 22304,
  "bilgiler": 22305,
  "kir": 22306,
  "dim": 22307,
  "ep": 22308,
  "deney": 22309,
  "seçenek": 22310,
  "bilim": 22311,
  "2017": 22312,
  "th": 22313,
  "mesa": 22314,
  "26": 22315,
  "hast": 22316,
  "proj": 22317,
  "verilen": 22318,
  "tün": 22319,
  "üzerinde": 22320,
  "etmen": 22321,
  "gın": 22322,
  "ete": 22323,
  "br": 22324,
  "tin": 22325,
  "mon": 22326,
  "isinde": 22327,
  "27": 22328,
  "nedir": 22329,
  "erkek": 22330,
  "bilin": 22331,
  "gn": 22332,
  "tım": 22333,
  "anal": 22334,
  "fe": 22335,
  "oloj": 22336,
  "kün": 22337,
  "larından": 22338,
  "genç": 22339,
  "mayıs": 22340,
  "iran": 22341,
  "satın": 22342,
  "tamam": 22343,
  ".\"": 22344,
  "cumhur": 22345,
  "telefon": 22346,
  "kayıt": 22347,
  "trol": 22348,
  "laşı": 22349,
  "yasa": 22350,
  "lıyor": 22351,
  "ciler": 22352,
  "üye": 22353,
  "veri": 22354,
  "ücret": 22355,
  "zon": 22356,
  "başkan": 22357,
  "edin": 22358,
  "uç": 22359,
  "manı": 22360,
  "ize": 22361,
  "i̇m": 22362,
  "con": 22363,
  "beledi": 22364,
  "ekon": 22365,
  "diğini": 22366,
  "ww": 22367,
  "sur": 22368,
  "nü": 22369,
  "don": 22370,
  "gin": 22371,
  "str": 22372,
  "ağu": 22373,
  "avru": 22374,
  "tiya": 22375,
  "kurulu": 22376,
  "mızı": 22377,
  "lerinden": 22378,
  "geliştir": 22379,
  "2016": 22380,
  "dül": 22381,
  "hük": 22382,
  "temmuz": 22383,
  "stos": 22384,
  "geçir": 22385,
  "ğini": 22386,
  "ğin": 22387,
  "unuz": 22388,
  "bayan": 22389,
  "nisan": 22390,
  "meler": 22391,
  "landır": 22392,
  "lah": 22393,
  "maş": 22394,
  "ade": 22395,
  "ker": 22396,
  "bırak": 22397,
  "iyorum": 22398,
  "rus": 22399,
  "lerle": 22400,
  "ağustos": 22401,
  "haziran": 22402,
  "sınız": 22403,
  "birçok": 22404,
  "olduk": 22405,
  "kut": 22406,
  "yü": 22407,
  "porno": 22408,
  "bileceğ": 22409,
  "etik": 22410,
  "güvenilir": 22411,
  "uluk": 22412,
  "kültür": 22413,
  "kontrol": 22414,
  "mey": 22415,
  "uygu": 22416,
  "2015": 22417,
  "29": 22418,
  "eski": 22419,
  "ediyor": 22420,
  "foto": 22421,
  "grup": 22422,
  "ilet": 22423,
  "herhangi": 22424,
  "rar": 22425,
  "mağ": 22426,
  "veren": 22427,
  "halk": 22428,
  "avrupa": 22429,
  "vak": 22430,
  "rol": 22431,
  "edilen": 22432,
  "cılık": 22433,
  "mik": 22434,
  "şubat": 22435,
  "lek": 22436,
  "zar": 22437,
  "topl": 22438,
  "ze": 22439,
  "wit": 22440,
  "model": 22441,
  "//": 22442,
  "etme": 22443,
  "sınır": 22444,
  "bakan": 22445,
  "ja": 22446,
  "başvuru": 22447,
  "asında": 22448,
  "tılı": 22449,
  "gelir": 22450,
  "urt": 22451,
  "sık": 22452,
  "çün": 22453,
  "ihtiya": 22454,
  "ortaya": 22455,
  "abd": 22456,
  "üs": 22457,
  "jo": 22458,
  "takım": 22459,
  "ziy": 22460,
  "197": 22461,
  "layın": 22462,
  "nes": 22463,
  "yum": 22464,
  "giz": 22465,
  "i̇ngiliz": 22466,
  "aşağıdaki": 22467,
  "gür": 22468,
  "zen": 22469,
  "oğlu": 22470,
  "indir": 22471,
  "ener": 22472,
  "lenen": 22473,
  "hareket": 22474,
  "gerçekleştir": 22475,
  "ata": 22476,
  "böyle": 22477,
  "2014": 22478,
  "tav": 22479,
  "adres": 22480,
  "zamanda": 22481,
  "yakın": 22482,
  "ft": 22483,
  "çeşitli": 22484,
  "kesin": 22485,
  "qu": 22486,
  "elim": 22487,
  "pat": 22488,
  "çünkü": 22489,
  "100": 22490,
  "i̇r": 22491,
  "beğ": 22492,
  "öde": 22493,
  "özellik": 22494,
  "pazar": 22495,
  "diz": 22496,
  "liste": 22497,
  "dal": 22498,
  "arkadaş": 22499,
  "biy": 22500,
  "num": 22501,
  "ori": 22502,
  "üzerine": 22503,
  "form": 22504,
  "ici": 22505,
  "şeh": 22506,
  "dolayı": 22507,
  "yaptığı": 22508,
  "değiştir": 22509,
  "maç": 22510,
  "duğu": 22511,
  "uygula": 22512,
  "tic": 22513,
  "huk": 22514,
  "yerine": 22515,
  "40": 22516,
  "tep": 22517,
  "dikkat": 22518,
  "yazılı": 22519,
  "yapan": 22520,
  "kre": 22521,
  "lerimiz": 22522,
  "araç": 22523,
  "yemek": 22524,
  "kah": 22525,
  "2013": 22526,
  "kurum": 22527,
  "rim": 22528,
  "ekle": 22529,
  "tanım": 22530,
  "i̇lk": 22531,
  "mel": 22532,
  "oyuncu": 22533,
  "paylaş": 22534,
  "sar": 22535,
  "dair": 22536,
  "mahal": 22537,
  "----": 22538,
  "ğraf": 22539,
  "htt": 22540,
  "günü": 22541,
  "uş": 22542,
  "terci": 22543,
  "nedeniyle": 22544,
  "hızlı": 22545,
  "nüf": 22546,
  "sebe": 22547,
  "madan": 22548,
  "sav": 22549,
  "konusunda": 22550,
  "nek": 22551,
  "yaşam": 22552,
  "etkin": 22553,
  "işle": 22554,
  "abilir": 22555,
  "hemen": 22556,
  "evet": 22557,
  "üret": 22558,
  "gerekli": 22559,
  "dos": 22560,
  "ted": 22561,
  "ris": 22562,
  "si̇": 22563,
  "ziyaret": 22564,
  "diğiniz": 22565,
  "adam": 22566,
  "olup": 22567,
  "ceği": 22568,
  "özellikle": 22569,
  "pen": 22570,
  "müm": 22571,
  "vardır": 22572,
  "hale": 22573,
  "düğ": 22574,
  "program": 22575,
  "i̇k": 22576,
  "ardından": 22577,
  "alman": 22578,
  "yım": 22579,
  "kurul": 22580,
  "ex": 22581,
  "yay": 22582,
  "şarkı": 22583,
  "hiçbir": 22584,
  "benim": 22585,
  "yani": 22586,
  "tarihi": 22587,
  "izin": 22588,
  "değerlendir": 22589,
  "ulaş": 22590,
  "sanız": 22591,
  "osman": 22592,
  "meden": 22593,
  "beğen": 22594,
  "rü": 22595,
  "tası": 22596,
  "değişik": 22597,
  "döv": 22598,
  "görüş": 22599,
  "elde": 22600,
  "üp": 22601,
  "ince": 22602,
  "fet": 22603,
  "60": 22604,
  "oyna": 22605,
  "2012": 22606,
  "bölge": 22607,
  "sındaki": 22608,
  "anda": 22609,
  "dahil": 22610,
  "ii": 22611,
  "bütün": 22612,
  "nde": 22613,
  "ildi": 22614,
  "kumaş": 22615,
  "çerez": 22616,
  "boz": 22617,
  "toplam": 22618,
  "meyi": 22619,
  "tercih": 22620,
  "adan": 22621,
  "eyi": 22622,
  "burada": 22623,
  "yöntem": 22624,
  "dak": 22625,
  "mis": 22626,
  "boyun": 22627,
  "belediye": 22628,
  "mümkün": 22629,
  "kıs": 22630,
  "büyü": 22631,
  "span": 22632,
  "ona": 22633,
  "sınıf": 22634,
  "üniversitesi": 22635,
  "alım": 22636,
  "dis": 22637,
  "sından": 22638,
  "medya": 22639,
  "yeniden": 22640,
  "yağ": 22641,
  "tim": 22642,
  "dırı": 22643,
  "teknik": 22644,
  "ait": 22645,
  "satı": 22646,
  "çar": 22647,
  "elerin": 22648,
  "organ": 22649,
  "vat": 22650,
  "evi": 22651,
  "bugün": 22652,
  "konuş": 22653,
  "nız": 22654,
  "align": 22655,
  "lüt": 22656,
  "kapsam": 22657,
  "dum": 22658,
  "bağı": 22659,
  "öner": 22660,
  "alet": 22661,
  "jan": 22662,
  "alama": 22663,
  "üzerinden": 22664,
  "yatırım": 22665,
  "des": 22666,
  "ödül": 22667,
  "lilik": 22668,
  "artık": 22669,
  "olacak": 22670,
  "bildir": 22671,
  "yalnız": 22672,
  "ts": 22673,
  "politi": 22674,
  "test": 22675,
  "laştır": 22676,
  "og": 22677,
  "rahat": 22678,
  "ümüz": 22679,
  "meli": 22680,
  "ic": 22681,
  "uzak": 22682,
  "kullanım": 22683,
  "yasal": 22684,
  "kav": 22685,
  "**": 22686,
  "amaç": 22687,
  "karak": 22688,
  "şimdi": 22689,
  "kaynakça": 22690,
  "cut": 22691,
  "video": 22692,
  "çan": 22693,
  "biliyor": 22694,
  "olay": 22695,
  "birleş": 22696,
  "kapı": 22697,
  "görül": 22698,
  "ilmesi": 22699,
  "mus": 22700,
  "://": 22701,
  "\",": 22702,
  "engel": 22703,
  "kem": 22704,
  "2011": 22705,
  "by": 22706,
  "one": 22707,
  "gül": 22708,
  "dava": 22709,
  "matik": 22710,
  "2010": 22711,
  "isim": 22712,
  "beş": 22713,
  "ğa": 22714,
  "eğer": 22715,
  "hüküm": 22716,
  "yatı": 22717,
  "uyla": 22718,
  "ac": 22719,
  "vis": 22720,
  "pop": 22721,
  "sının": 22722,
  "mesaj": 22723,
  "yönet": 22724,
  "reklam": 22725,
  "35": 22726,
  "merkezi": 22727,
  "ilişk": 22728,
  "renk": 22729,
  "dol": 22730,
  "futbolcu": 22731,
  "tük": 22732,
  "çevir": 22733,
  "lamak": 22734,
  "makal": 22735,
  "lütfen": 22736,
  "blog": 22737,
  "tv": 22738,
  "hafta": 22739,
  "ly": 22740,
  "emin": 22741,
  "vet": 22742,
  "talya": 22743,
  "mevcut": 22744,
  "suç": 22745,
  "koş": 22746,
  "ölç": 22747,
  "geniş": 22748,
  "haberler": 22749,
  "esine": 22750,
  "aya": 22751,
  "visi": 22752,
  "savaş": 22753,
  "up": 22754,
  "raki": 22755,
  "belirle": 22756,
  "dağı": 22757,
  "bonus": 22758,
  "tarihinde": 22759,
  "parça": 22760,
  "çif": 22761,
  "hedef": 22762,
  "erli": 22763,
  "derece": 22764,
  "sözleş": 22765,
  "tez": 22766,
  "manız": 22767,
  "kış": 22768,
  "line": 22769,
  "bl": 22770,
  "larımız": 22771,
  "ss": 22772,
  "muştur": 22773,
  "ortak": 22774,
  "seri": 22775,
  "malz": 22776,
  "undan": 22777,
  "olmayan": 22778,
  "alanlar": 22779,
  "landı": 22780,
  "book": 22781,
  "detay": 22782,
  "ülke": 22783,
  "labilir": 22784,
  "hayvan": 22785,
  "yurt": 22786,
  "ilişkin": 22787,
  "çözüm": 22788,
  "ameri": 22789,
  "dör": 22790,
  "seçim": 22791,
  "müzik": 22792,
  "kuz": 22793,
  "atı": 22794,
  "oda": 22795,
  "ünün": 22796,
  "kırı": 22797,
  "yordu": 22798,
  "siy": 22799,
  "hari": 22800,
  "196": 22801,
  "amacı": 22802,
  "yapmak": 22803,
  "gereken": 22804,
  "mahalle": 22805,
  "hu": 22806,
  "ladı": 22807,
  "new": 22808,
  "kali": 22809,
  "ağır": 22810,
  "altında": 22811,
  "di̇": 22812,
  "lat": 22813,
  "wor": 22814,
  "milyon": 22815,
  "ceza": 22816,
  "taj": 22817,
  "fotoğraf": 22818,
  "sey": 22819,
  "içerisinde": 22820,
  "sıcak": 22821,
  "siteler": 22822,
  "part": 22823,
  "konusu": 22824,
  "05": 22825,
  "hep": 22826,
  "ikinci": 22827,
  "uc": 22828,
  "oran": 22829,
  "tekrar": 22830,
  "dığında": 22831,
  "benzer": 22832,
  "link": 22833,
  "yaptı": 22834,
  "aliyet": 22835,
  "üler": 22836,
  "hesap": 22837,
  "i̇let": 22838,
  "gerekir": 22839,
  "nüfus": 22840,
  "red": 22841,
  "laşık": 22842,
  "isini": 22843,
  "işi": 22844,
  "geler": 22845,
  "katıl": 22846,
  "twit": 22847,
  "dakika": 22848,
  "sektör": 22849,
  "çalışma": 22850,
  "ram": 22851,
  "sıyla": 22852,
  "demir": 22853,
  "sunu": 22854,
  "neler": 22855,
  "aile": 22856,
  "boyunca": 22857,
  "örne": 22858,
  "cam": 22859,
  "sini": 22860,
  "çıktı": 22861,
  "sinde": 22862,
  "almak": 22863,
  "pak": 22864,
  "nda": 22865,
  "win": 22866,
  "söy": 22867,
  "muh": 22868,
  "geçen": 22869,
  "sah": 22870,
  "ec": 22871,
  "değildir": 22872,
  "dağ": 22873,
  "tarifi": 22874,
  "tasarım": 22875,
  "45": 22876,
  "ilmiş": 22877,
  "allah": 22878,
  "nor": 22879,
  "amer": 22880,
  "ent": 22881,
  "aldı": 22882,
  "kamp": 22883,
  "deneyim": 22884,
  "sol": 22885,
  "edile": 22886,
  "beri": 22887,
  "doğan": 22888,
  "güvenlik": 22889,
  "isyon": 22890,
  "profes": 22891,
  "ğrı": 22892,
  "2009": 22893,
  "çalışan": 22894,
  "hin": 22895,
  "koy": 22896,
  "satış": 22897,
  "giy": 22898,
  "ister": 22899,
  "uygulama": 22900,
  "ayan": 22901,
  "uluslar": 22902,
  "ıntı": 22903,
  "alış": 22904,
  "aların": 22905,
  "sıra": 22906,
  "31": 22907,
  "est": 22908,
  "pet": 22909,
  "amerik": 22910,
  "twitter": 22911,
  "nit": 22912,
  "lış": 22913,
  "umuz": 22914,
  "yürü": 22915,
  "sunuz": 22916,
  "bebek": 22917,
  "sırasında": 22918,
  "not": 22919,
  "genellikle": 22920,
  "yarak": 22921,
  "internet": 22922,
  "bası": 22923,
  "stra": 22924,
  "ces": 22925,
  "vil": 22926,
  "luğu": 22927,
  "uğ": 22928,
  "aydın": 22929,
  "çift": 22930,
  "aracı": 22931,
  "ğe": 22932,
  "doğu": 22933,
  "yüksel": 22934,
  "36": 22935,
  "yönetim": 22936,
  "doğal": 22937,
  "cağını": 22938,
  "sitemiz": 22939,
  "90": 22940,
  "acak": 22941,
  "oluş": 22942,
  "dek": 22943,
  "altın": 22944,
  "başladı": 22945,
  "mur": 22946,
  "mda": 22947,
  "yalı": 22948,
  "ımı": 22949,
  "laya": 22950,
  "altı": 22951,
  "malıdır": 22952,
  "key": 22953,
  "ders": 22954,
  "ina": 22955,
  "bakım": 22956,
  "veriler": 22957,
  "mail": 22958,
  "yönelik": 22959,
  "lacak": 22960,
  "dy": 22961,
  "teknoloji": 22962,
  "bölg": 22963,
  "poz": 22964,
  "masının": 22965,
  "alma": 22966,
  "müdür": 22967,
  "boş": 22968,
  "talep": 22969,
  "iyeti": 22970,
  "güney": 22971,
  "lenme": 22972,
  "diş": 22973,
  "şart": 22974,
  "dizi": 22975,
  "yine": 22976,
  "sizin": 22977,
  "bana": 22978,
  "arlan": 22979,
  "çiz": 22980,
  "ekonom": 22981,
  "fo": 22982,
  "müşter": 22983,
  "koru": 22984,
  "kent": 22985,
  "enerji": 22986,
  "i̇nsan": 22987,
  "birbir": 22988,
  "amerika": 22989,
  "açıklama": 22990,
  "oldukça": 22991,
  "çin": 22992,
  "rağ": 22993,
  "gol": 22994,
  "ayak": 22995,
  "millet": 22996,
  "duğ": 22997,
  "yaklaşık": 22998,
  "mağaz": 22999,
  "gider": 23000,
  "faaliyet": 23001,
  "türkçe": 23002,
  "örnek": 23003,
  "acı": 23004,
  "koşul": 23005,
  "fiyatları": 23006,
  "uluslararası": 23007,
  "hakkı": 23008,
  "i̇yi": 23009,
  "cep": 23010,
  "yıcı": 23011,
  "oyn": 23012,
  "iyoruz": 23013,
  "33": 23014,
  "uml": 23015,
  "ght": 23016,
  "bağlantılar": 23017,
  "inize": 23018,
  "keli": 23019,
  "i̇ngilizce": 23020,
  "lardır": 23021,
  "diler": 23022,
  "içi": 23023,
  "ekli": 23024,
  "ef": 23025,
  "sistemi": 23026,
  "yolu": 23027,
  "isinin": 23028,
  "layan": 23029,
  "dele": 23030,
  "beyaz": 23031,
  "fat": 23032,
  "toplum": 23033,
  "44": 23034,
  "görüntü": 23035,
  "alb": 23036,
  "arasındaki": 23037,
  "menin": 23038,
  "yanın": 23039,
  "sayar": 23040,
  "rip": 23041,
  "pre": 23042,
  "ölüm": 23043,
  "birkaç": 23044,
  "otur": 23045,
  "vir": 23046,
  "bra": 23047,
  "şif": 23048,
  "koca": 23049,
  "ödeme": 23050,
  "gun": 23051,
  "araştırma": 23052,
  "medi": 23053,
  "cağ": 23054,
  "kural": 23055,
  "ıyor": 23056,
  "firma": 23057,
  "2008": 23058,
  "mm": 23059,
  "lamalar": 23060,
  "müşteri": 23061,
  "dönüş": 23062,
  "teh": 23063,
  "ırken": 23064,
  "omi": 23065,
  "meydan": 23066,
  "dra": 23067,
  "uzman": 23068,
  "80": 23069,
  "mor": 23070,
  "lığını": 23071,
  "https": 23072,
  "plat": 23073,
  "temsil": 23074,
  "nedenle": 23075,
  "avu": 23076,
  "anne": 23077,
  "ettiği": 23078,
  "iddi": 23079,
  "yıldı": 23080,
  "hav": 23081,
  "sipar": 23082,
  "müca": 23083,
  "izm": 23084,
  "yaban": 23085,
  "kurt": 23086,
  "sul": 23087,
  "üyor": 23088,
  "geldi": 23089,
  "meyen": 23090,
  "bilgileri": 23091,
  "pr": 23092,
  "birliği": 23093,
  "kullanarak": 23094,
  "''": 23095,
  "kuzey": 23096,
  "resmi": 23097,
  "karakter": 23098,
  "elen": 23099,
  "analiz": 23100,
  "kullanılan": 23101,
  "servis": 23102,
  "zu": 23103,
  "zarar": 23104,
  "hukuk": 23105,
  "sinin": 23106,
  "eser": 23107,
  "olsun": 23108,
  "anın": 23109,
  "larıyla": 23110,
  "yüzde": 23111,
  "eceğ": 23112,
  "kötü": 23113,
  "günlük": 23114,
  "ticaret": 23115,
  "sap": 23116,
  "oper": 23117,
  "kişinin": 23118,
  "anti": 23119,
  "sayısı": 23120,
  "bizim": 23121,
  "gece": 23122,
  "artır": 23123,
  "dayan": 23124,
  "celik": 23125,
  "hol": 23126,
  "onik": 23127,
  "üncü": 23128,
  "sarı": 23129,
  "face": 23130,
  "fakat": 23131,
  "37": 23132,
  "cevabı": 23133,
  "kişiler": 23134,
  "işaret": 23135,
  "fı": 23136,
  "yarış": 23137,
  "eği": 23138,
  "bilgisayar": 23139,
  "bilmek": 23140,
  "yalnızca": 23141,
  "elektrik": 23142,
  "leriyle": 23143,
  "kaldır": 23144,
  "durumda": 23145,
  "34": 23146,
  "dört": 23147,
  "albüm": 23148,
  "ant": 23149,
  "gem": 23150,
  "dışı": 23151,
  "etki": 23152,
  "olun": 23153,
  "güçlü": 23154,
  "hastan": 23155,
  "soruml": 23156,
  "dosya": 23157,
  "balık": 23158,
  "hoş": 23159,
  "biraz": 23160,
  "ari": 23161,
  "ital": 23162,
  "saç": 23163,
  "utu": 23164,
  "larak": 23165,
  "tiğ": 23166,
  "i̇zmir": 23167,
  "hizmeti": 23168,
  "itibar": 23169,
  "izyon": 23170,
  "belirli": 23171,
  "ordu": 23172,
  "sas": 23173,
  "teda": 23174,
  "vek": 23175,
  "içeri": 23176,
  "perfor": 23177,
  "gazi": 23178,
  "hesab": 23179,
  "ayr": 23180,
  "ds": 23181,
  "batı": 23182,
  "cılar": 23183,
  "pas": 23184,
  "karde": 23185,
  "katkı": 23186,
  "unut": 23187,
  ".”": 23188,
  "esel": 23189,
  "online": 23190,
  "sex": 23191,
  "mec": 23192,
  "istik": 23193,
  "ph": 23194,
  "ihtiyaç": 23195,
  "olacaktır": 23196,
  "öğretmen": 23197,
  "rağmen": 23198,
  "kızı": 23199,
  "yukarı": 23200,
  "katı": 23201,
  "39": 23202,
  "performan": 23203,
  "bize": 23204,
  "gre": 23205,
  "buna": 23206,
  "01": 23207,
  "çağ": 23208,
  "danış": 23209,
  "rapor": 23210,
  "i̇letişim": 23211,
  "zin": 23212,
  "kanun": 23213,
  "onay": 23214,
  "sem": 23215,
  "sahibi": 23216,
  "osu": 23217,
  "sürdür": 23218,
  "ınızı": 23219,
  "birleşik": 23220,
  "ああ": 23221,
  "adet": 23222,
  "bursa": 23223,
  "sayılı": 23224,
  "şamp": 23225,
  "yoğun": 23226,
  "sonraki": 23227,
  "eki": 23228,
  "hastalık": 23229,
  "lanma": 23230,
  "birey": 23231,
  "hbet": 23232,
  "tesp": 23233,
  "09": 23234,
  "mızda": 23235,
  "hane": 23236,
  "masa": 23237,
  "center": 23238,
  "facebook": 23239,
  "içerik": 23240,
  "ünden": 23241,
  "bonusu": 23242,
  "doktor": 23243,
  "ücretsiz": 23244,
  "tip": 23245,
  "antalya": 23246,
  "olası": 23247,
  "teşek": 23248,
  "güneş": 23249,
  "fiz": 23250,
  "tekli": 23251,
  "durumu": 23252,
  "cevapla": 23253,
  "paylaşı": 23254,
  "yonel": 23255,
  "tül": 23256,
  "195": 23257,
  "meleri": 23258,
  "çiler": 23259,
  "örgü": 23260,
  "pra": 23261,
  "ucu": 23262,
  "',": 23263,
  "kapa": 23264,
  "hâ": 23265,
  "lon": 23266,
  "hmet": 23267,
  "kalı": 23268,
  "cm": 23269,
  "2007": 23270,
  "tiği": 23271,
  "ilecek": 23272,
  "olojik": 23273,
  "miyor": 23274,
  "38": 23275,
  "çalışmalar": 23276,
  "www": 23277,
  "08": 23278,
  "cihaz": 23279,
  "şekl": 23280,
  "geçmiş": 23281,
  "stik": 23282,
  "pres": 23283,
  "sh": 23284,
  "çıkan": 23285,
  "kalit": 23286,
  "sohbet": 23287,
  "esinin": 23288,
  "dük": 23289,
  "sefer": 23290,
  "nokta": 23291,
  "profesyonel": 23292,
  "dışında": 23293,
  "partisi": 23294,
  "aray": 23295,
  "diyor": 23296,
  "anan": 23297,
  "32": 23298,
  "kuruluş": 23299,
  "yetiş": 23300,
  "kredi": 23301,
  "ilan": 23302,
  "üretim": 23303,
  "lemek": 23304,
  "lerdir": 23305,
  "sayf": 23306,
  "hayır": 23307,
  "süreç": 23308,
  "fayd": 23309,
  "soruyu": 23310,
  "oyunları": 23311,
  "kum": 23312,
  "söyledi": 23313,
  "yüzyıl": 23314,
  "etiket": 23315,
  "umsuz": 23316,
  "dığınız": 23317,
  "üçüncü": 23318,
  "kamu": 23319,
  "teki": 23320,
  "arama": 23321,
  "halinde": 23322,
  "sipariş": 23323,
  "mos": 23324,
  "iyon": 23325,
  "mesinin": 23326,
  "tüp": 23327,
  "eve": 23328,
  "cisi": 23329,
  "kral": 23330,
  "deli": 23331,
  "bera": 23332,
  "motor": 23333,
  "başlan": 23334,
  "anad": 23335,
  "şah": 23336,
  "vatan": 23337,
  "kâ": 23338,
  "jin": 23339,
  "yayım": 23340,
  "düşük": 23341,
  "mahke": 23342,
  "dam": 23343,
  "yargı": 23344,
  "gro": 23345,
  "ydı": 23346,
  "roman": 23347,
  "iletişim": 23348,
  "kale": 23349,
  "insanlar": 23350,
  "puan": 23351,
  "anlamına": 23352,
  "02": 23353,
  "hayal": 23354,
  "osmanlı": 23355,
  "bağım": 23356,
  "unan": 23357,
  "ekip": 23358,
  "keş": 23359,
  "seniz": 23360,
  "ley": 23361,
  "liğini": 23362,
  "siye": 23363,
  "başlık": 23364,
  "tepe": 23365,
  "cor": 23366,
  "halı": 23367,
  "kelim": 23368,
  "hüc": 23369,
  "tamamen": 23370,
  "mücadele": 23371,
  "biç": 23372,
  "kın": 23373,
  "mekan": 23374,
  "sezon": 23375,
  "stagram": 23376,
  "teşekkür": 23377,
  "|-": 23378,
  "lüğü": 23379,
  "hizmetleri": 23380,
  "ry": 23381,
  "mıyor": 23382,
  "ia": 23383,
  "akıl": 23384,
  "lanması": 23385,
  "tarif": 23386,
  "şıl": 23387,
  "mıza": 23388,
  "saha": 23389,
  "dövme": 23390,
  "kaliteli": 23391,
  "und": 23392,
  "değişiklik": 23393,
  "lenmiş": 23394,
  "ilç": 23395,
  "alanı": 23396,
  "ederek": 23397,
  "hn": 23398,
  "seks": 23399,
  "ştu": 23400,
  "65": 23401,
  "kuv": 23402,
  "şım": 23403,
  "i̇lg": 23404,
  "cik": 23405,
  "malzem": 23406,
  "popüler": 23407,
  "isine": 23408,
  "zir": 23409,
  "oz": 23410,
  "beni": 23411,
  "öncelik": 23412,
  "öncek": 23413,
  "lili": 23414,
  "person": 23415,
  "48": 23416,
  "adlı": 23417,
  "yazın": 23418,
  "şöyle": 23419,
  "jen": 23420,
  "gelecek": 23421,
  "gisi": 23422,
  "yanıtla": 23423,
  "bilen": 23424,
  "tarı": 23425,
  "yanlış": 23426,
  "ty": 23427,
  "olumsuz": 23428,
  "lig": 23429,
  "soy": 23430,
  "türlü": 23431,
  "anadolu": 23432,
  "gerekiyor": 23433,
  "edilir": 23434,
  "iptal": 23435,
  "örneğin": 23436,
  "hipo": 23437,
  "i̇nternet": 23438,
  "itik": 23439,
  ");": 23440,
  "tok": 23441,
  "07": 23442,
  "tren": 23443,
  "etkinlik": 23444,
  "meniz": 23445,
  "ilerini": 23446,
  "kargo": 23447,
  "parç": 23448,
  "yabancı": 23449,
  "yacak": 23450,
  "haberleri": 23451,
  "diğinde": 23452,
  "sonuc": 23453,
  "ilendir": 23454,
  "03": 23455,
  "beraber": 23456,
  "inan": 23457,
  "||": 23458,
  "nerede": 23459,
  "yas": 23460,
  "aldığı": 23461,
  "istiyor": 23462,
  "imize": 23463,
  "lıkla": 23464,
  "göl": 23465,
  "lenmesi": 23466,
  "uyor": 23467,
  "barı": 23468,
  "lâ": 23469,
  "bri": 23470,
  "duk": 23471,
  "kaya": 23472,
  "uygulan": 23473,
  "olmadığını": 23474,
  "önceki": 23475,
  "zat": 23476,
  "önc": 23477,
  "km": 23478,
  "ws": 23479,
  "are": 23480,
  "işe": 23481,
  "olumlu": 23482,
  "yapılır": 23483,
  "ınıza": 23484,
  "kalan": 23485,
  "asl": 23486,
  "yıldız": 23487,
  "kuş": 23488,
  "i̇h": 23489,
  "ayrıl": 23490,
  "korun": 23491,
  "ple": 23492,
  "sonunda": 23493,
  "47": 23494,
  "sc": 23495,
  "ürünler": 23496,
  "nu": 23497,
  "geliyor": 23498,
  "açıl": 23499,
  "gazete": 23500,
  "06": 23501,
  "aday": 23502,
  "öldür": 23503,
  "yerek": 23504,
  "ova": 23505,
  "baskı": 23506,
  "masında": 23507,
  "inizin": 23508,
  "şen": 23509,
  "__": 23510,
  "99": 23511,
  "laması": 23512,
  "otel": 23513,
  "kas": 23514,
  "tabi": 23515,
  "şam": 23516,
  "sağlamak": 23517,
  "yeş": 23518,
  "sahiptir": 23519,
  "kla": 23520,
  "alır": 23521,
  "rusya": 23522,
  "kod": 23523,
  "cinsel": 23524,
  "sürekli": 23525,
  "taşıma": 23526,
  "paket": 23527,
  "goog": 23528,
  "anlaş": 23529,
  "yerel": 23530,
  "lari": 23531,
  "adresimi": 23532,
  "gök": 23533,
  "bakır": 23534,
  "kanal": 23535,
  "eksik": 23536,
  "doğrudan": 23537,
  "dünyanın": 23538,
  "google": 23539,
  "ettiğ": 23540,
  "oluşan": 23541,
  "yılı": 23542,
  "has": 23543,
  "ırı": 23544,
  "paşa": 23545,
  "ulusal": 23546,
  "hatır": 23547,
  "amacıyla": 23548,
  "tıcı": 23549,
  "sağlar": 23550,
  "açısından": 23551,
  "kart": 23552,
  "kırmızı": 23553,
  "mit": 23554,
  "ranı": 23555,
  "herkes": 23556,
  "erken": 23557,
  "dolar": 23558,
  "okra": 23559,
  "verdi": 23560,
  "tıp": 23561,
  "çiç": 23562,
  "gur": 23563,
  "tasyon": 23564,
  "verileri": 23565,
  "inşa": 23566,
  "yapar": 23567,
  "içeren": 23568,
  "bulunmaktadır": 23569,
  "futbolcuları": 23570,
  "eğlen": 23571,
  "tere": 23572,
  "lanır": 23573,
  "yaşayan": 23574,
  "saldırı": 23575,
  "katılı": 23576,
  "fel": 23577,
  "çevre": 23578,
  "imizin": 23579,
  "lor": 23580,
  "fikir": 23581,
  "kariy": 23582,
  "fan": 23583,
  "dost": 23584,
  "46": 23585,
  "ray": 23586,
  "yız": 23587,
  "kampan": 23588,
  "lisans": 23589,
  "veriş": 23590,
  "kuvvet": 23591,
  "tec": 23592,
  "leyen": 23593,
  "metin": 23594,
  "larınız": 23595,
  "gerçekten": 23596,
  "verir": 23597,
  "üyelik": 23598,
  "makine": 23599,
  "anım": 23600,
  "iri": 23601,
  "esini": 23602,
  "teslim": 23603,
  "cumhuriyet": 23604,
  "sok": 23605,
  "siyle": 23606,
  "konum": 23607,
  "kapsamında": 23608,
  "uğra": 23609,
  "çoğu": 23610,
  "wil": 23611,
  "ayet": 23612,
  "lot": 23613,
  "odak": 23614,
  "trans": 23615,
  "49": 23616,
  "port": 23617,
  "name": 23618,
  "olsa": 23619,
  "doğumlu": 23620,
  "sayesinde": 23621,
  "memnun": 23622,
  "hika": 23623,
  "elere": 23624,
  "baba": 23625,
  "bileceği": 23626,
  "çor": 23627,
  "hap": 23628,
  "ima": 23629,
  "fu": 23630,
  "güm": 23631,
  "diğimiz": 23632,
  "silah": 23633,
  "bağlam": 23634,
  "kaydet": 23635,
  "etkil": 23636,
  "toprak": 23637,
  "mayacak": 23638,
  "elektronik": 23639,
  "tanın": 23640,
  "üşt": 23641,
  "ortam": 23642,
  "lıdır": 23643,
  "eleştir": 23644,
  "onları": 23645,
  "savun": 23646,
  "cal": 23647,
  "04": 23648,
  "mıştı": 23649,
  "etkili": 23650,
  "john": 23651,
  "zek": 23652,
  "ail": 23653,
  "muha": 23654,
  "imde": 23655,
  "miktar": 23656,
  "yata": 23657,
  "araya": 23658,
  "doğum": 23659,
  "hakları": 23660,
  "gs": 23661,
  "instagram": 23662,
  "etic": 23663,
  "basın": 23664,
  "teknoloj": 23665,
  "bahse": 23666,
  "yapımı": 23667,
  "işlet": 23668,
  "günümüz": 23669,
  "birinci": 23670,
  "bahçe": 23671,
  "i̇t": 23672,
  "tespit": 23673,
  "dıktan": 23674,
  "ünlü": 23675,
  "başarılı": 23676,
  "55": 23677,
  "asi": 23678,
  "abilirsiniz": 23679,
  "dile": 23680,
  "basit": 23681,
  "eylem": 23682,
  "2000": 23683,
  "ity": 23684,
  "i̇çin": 23685,
  "jap": 23686,
  "başlangı": 23687,
  "derin": 23688,
  "şampiyon": 23689,
  "özgür": 23690,
  "ürünleri": 23691,
  "rin": 23692,
  "ilmiştir": 23693,
  "aktif": 23694,
  "left": 23695,
  "servisi": 23696,
  "aka": 23697,
  "araba": 23698,
  "leyi": 23699,
  "cının": 23700,
  "bb": 23701,
  "piyasa": 23702,
  "dolayısıyla": 23703,
  "ekonomi": 23704,
  "ayır": 23705,
  "sever": 23706,
  "sho": 23707,
  "isteyen": 23708,
  "yeri": 23709,
  "gerçekleş": 23710,
  "ney": 23711,
  "oluyor": 23712,
  "au": 23713,
  "ayar": 23714,
  "bro": 23715,
  "haline": 23716,
  "gerektir": 23717,
  "asker": 23718,
  "ayı": 23719,
  "pin": 23720,
  "nakli": 23721,
  "uro": 23722,
  "inç": 23723,
  "ste": 23724,
  "leye": 23725,
  "yeten": 23726,
  "üle": 23727,
  "başı": 23728,
  "kütüp": 23729,
  "tiğini": 23730,
  "mim": 23731,
  "almanya": 23732,
  "sk": 23733,
  "yorumlar": 23734,
  "elerini": 23735,
  "gazet": 23736,
  "yapma": 23737,
  "organiz": 23738,
  "moder": 23739,
  "hatta": 23740,
  "şun": 23741,
  "cid": 23742,
  "mill": 23743,
  "yeşil": 23744,
  "platform": 23745,
  "yalar": 23746,
  "toplantı": 23747,
  "hikay": 23748,
  "naz": 23749,
  "kısı": 23750,
  "hurda": 23751,
  "polis": 23752,
  "color": 23753,
  "prob": 23754,
  "formu": 23755,
  "sep": 23756,
  "biliriz": 23757,
  "park": 23758,
  "dij": 23759,
  "duyur": 23760,
  "makin": 23761,
  "fizik": 23762,
  "les": 23763,
  "mol": 23764,
  "ekonomik": 23765,
  "tun": 23766,
  "iyim": 23767,
  "edilmesi": 23768,
  "sidir": 23769,
  "sizlere": 23770,
  "tasar": 23771,
  "benz": 23772,
  "mic": 23773,
  "mür": 23774,
  "ebilirsiniz": 23775,
  "lider": 23776,
  "onlar": 23777,
  "ağrı": 23778,
  "telev": 23779,
  "eksiyon": 23780,
  "i̇şte": 23781,
  "jinal": 23782,
  "politika": 23783,
  "aslında": 23784,
  "ulaşa": 23785,
  "grubu": 23786,
  "meslek": 23787,
  "deri": 23788,
  "şıyor": 23789,
  "je": 23790,
  "ila": 23791,
  "wn": 23792,
  "çelik": 23793,
  "hd": 23794,
  "meydana": 23795,
  "sonucu": 23796,
  "dijital": 23797,
  "gündem": 23798,
  "boyut": 23799,
  "vardı": 23800,
  "spot": 23801,
  "dıkları": 23802,
  "ajan": 23803,
  "yeterli": 23804,
  "sorumlu": 23805,
  "e9": 23806,
  "bunlar": 23807,
  "gus": 23808,
  "seçenekler": 23809,
  "ınca": 23810,
  "may": 23811,
  "fransız": 23812,
  "imizi": 23813,
  "kıl": 23814,
  "stand": 23815,
  "che": 23816,
  "vel": 23817,
  "yapım": 23818,
  "vol": 23819,
  "mehmet": 23820,
  "progra": 23821,
  "siyel": 23822,
  "filmi": 23823,
  "70": 23824,
  "televizyon": 23825,
  "tartış": 23826,
  "çu": 23827,
  "abet": 23828,
  "tatlı": 23829,
  "edecek": 23830,
  "75": 23831,
  "normal": 23832,
  "char": 23833,
  "ment": 23834,
  "leniyor": 23835,
  "güvenli": 23836,
  "post": 23837,
  "bileceğiniz": 23838,
  "eb": 23839,
  "alışveriş": 23840,
  "yıllık": 23841,
  "ide": 23842,
  "ruh": 23843,
  "lez": 23844,
  "yapıyor": 23845,
  "my": 23846,
  "siyaset": 23847,
  "arap": 23848,
  "nakliyat": 23849,
  "seviy": 23850,
  "yangın": 23851,
  "kaybet": 23852,
  "iade": 23853,
  "üstü": 23854,
  "strate": 23855,
  "özet": 23856,
  "tiv": 23857,
  "şid": 23858,
  "isi": 23859,
  "elerde": 23860,
  "banka": 23861,
  "2006": 23862,
  "tavsiye": 23863,
  "i̇ncel": 23864,
  "mük": 23865,
  "list": 23866,
  "böylece": 23867,
  "isti": 23868,
  "mayan": 23869,
  "liyor": 23870,
  "davranı": 23871,
  "alığı": 23872,
  "sınav": 23873,
  "arkada": 23874,
  "olduğundan": 23875,
  "itibaren": 23876,
  "risk": 23877,
  "kilo": 23878,
  "potan": 23879,
  "türü": 23880,
  "ilaç": 23881,
  "alıyor": 23882,
  "int": 23883,
  "vik": 23884,
  "düşünü": 23885,
  "merha": 23886,
  "ölçü": 23887,
  "diy": 23888,
  "demokra": 23889,
  "müşteriler": 23890,
  "ateş": 23891,
  "bla": 23892,
  "cısı": 23893,
  "samsun": 23894,
  "onya": 23895,
  "çarp": 23896,
  "varsa": 23897,
  "terna": 23898,
  "cık": 23899,
  "ğın": 23900,
  "larınızı": 23901,
  "tahmin": 23902,
  "edildi": 23903,
  "kayna": 23904,
  "ıs": 23905,
  "py": 23906,
  "yana": 23907,
  "etkile": 23908,
  "mühen": 23909,
  "yaptır": 23910,
  "42": 23911,
  "uluğu": 23912,
  "emiz": 23913,
  "tma": 23914,
  "uyar": 23915,
  "best": 23916,
  "modelleri": 23917,
  "adana": 23918,
  "500": 23919,
  "sayıda": 23920,
  "land": 23921,
  "sanay": 23922,
  "yazılım": 23923,
  "dikleri": 23924,
  "marka": 23925,
  "etmiş": 23926,
  "politikası": 23927,
  "deneme": 23928,
  "psik": 23929,
  "adına": 23930,
  "elerinin": 23931,
  "vid": 23932,
  "imli": 23933,
  "musta": 23934,
  "htar": 23935,
  "lığıyla": 23936,
  "boya": 23937,
  "pey": 23938,
  "yaygın": 23939,
  "kullanılır": 23940,
  "i̇kin": 23941,
  "denk": 23942,
  "reh": 23943,
  "vaş": 23944,
  "düzey": 23945,
  "lanmış": 23946,
  "yanında": 23947,
  "px": 23948,
  "amerikalı": 23949,
  "back": 23950,
  "antep": 23951,
  "tarım": 23952,
  "bunların": 23953,
  "ani": 23954,
  "lendi": 23955,
  "hikaye": 23956,
  "duygu": 23957,
  "mutlu": 23958,
  "sanatçı": 23959,
  "ff": 23960,
  "lana": 23961,
  "wo": 23962,
  "prof": 23963,
  "i̇ki": 23964,
  "seçin": 23965,
  "vermek": 23966,
  "hü": 23967,
  "alarda": 23968,
  "vaz": 23969,
  "bağımsız": 23970,
  "bilmektedir": 23971,
  "öp": 23972,
  "colspan": 23973,
  "pil": 23974,
  "tarayıcı": 23975,
  "önüne": 23976,
  "ticar": 23977,
  "tutar": 23978,
  "gay": 23979,
  "metre": 23980,
  "gam": 23981,
  "bilinen": 23982,
  "merak": 23983,
  "sizi": 23984,
  "sonrasında": 23985,
  "ümü": 23986,
  "ılması": 23987,
  "kel": 23988,
  "üniversite": 23989,
  "tle": 23990,
  "sağlıklı": 23991,
  "bank": 23992,
  "onların": 23993,
  "öğ": 23994,
  "kus": 23995,
  "avan": 23996,
  "mini": 23997,
  "anahtar": 23998,
  "chi": 23999,
  "vatandaş": 24000,
  "aj": 24001,
  "fre": 24002,
  "yoksa": 24003,
  "zorunda": 24004,
  "ağı": 24005,
  "fra": 24006,
  "ov": 24007,
  "süper": 24008,
  "yağı": 24009,
  "i̇ngiltere": 24010,
  "tedavi": 24011,
  "listesi": 24012,
  "resimleri": 24013,
  "teklif": 24014,
  "mada": 24015,
  "sy": 24016,
  "rad": 24017,
  "nem": 24018,
  "dönüşt": 24019,
  "kupa": 24020,
  "....": 24021,
  "tab": 24022,
  "kaçak": 24023,
  "gesi": 24024,
  "karşılaş": 24025,
  "konya": 24026,
  "kategoriler": 24027,
  "i̇span": 24028,
  "müş": 24029,
  "savaşı": 24030,
  "cami": 24031,
  "alarını": 24032,
  "bre": 24033,
  "41": 24034,
  "şüp": 24035,
  "yetk": 24036,
  "öncelikle": 24037,
  "arşi": 24038,
  "eg": 24039,
  "final": 24040,
  "isten": 24041,
  "ml": 24042,
  "çiçek": 24043,
  "fırsat": 24044,
  "hisse": 24045,
  "yaşında": 24046,
  "sebep": 24047,
  "buz": 24048,
  "olmaya": 24049,
  "liye": 24050,
  "gez": 24051,
  "imleri": 24052,
  "masından": 24053,
  "şikay": 24054,
  "lenir": 24055,
  "belediyesi": 24056,
  "yunan": 24057,
  "henüz": 24058,
  "day": 24059,
  "azal": 24060,
  "kendini": 24061,
  "başına": 24062,
  "yavaş": 24063,
  ".)": 24064,
  "katılım": 24065,
  "günde": 24066,
  "belli": 24067,
  "çak": 24068,
  "altına": 24069,
  "yerleş": 24070,
  "ekran": 24071,
  "çevrim": 24072,
  "hel": 24073,
  "çay": 24074,
  "mustafa": 24075,
  "kütüphan": 24076,
  "li̇": 24077,
  "luğ": 24078,
  "huku": 24079,
  "modern": 24080,
  "demek": 24081,
  "ilgi": 24082,
  "lığın": 24083,
  "66": 24084,
  "xt": 24085,
  "kardeş": 24086,
  "i̇lçe": 24087,
  "kullanımı": 24088,
  "milli": 24089,
  "cilik": 24090,
  "doldur": 24091,
  "ilebilir": 24092,
  "filmleri": 24093,
  "lamaya": 24094,
  "lüğ": 24095,
  "bulunduğu": 24096,
  "edebi": 24097,
  "yayıncılık": 24098,
  "gizlilik": 24099,
  "zey": 24100,
  "sch": 24101,
  "admin": 24102,
  "asyonu": 24103,
  "programı": 24104,
  "insanların": 24105,
  "eriş": 24106,
  "harika": 24107,
  "zengin": 24108,
  "yüzden": 24109,
  "müs": 24110,
  "alarında": 24111,
  "lerce": 24112,
  "lığına": 24113,
  "şeklinde": 24114,
  "karşılaştır": 24115,
  "--------": 24116,
  "lamaz": 24117,
  "devletleri": 24118,
  "bakanlığı": 24119,
  "sig": 24120,
  "all": 24121,
  "numar": 24122,
  "blogspot": 24123,
  "direk": 24124,
  "vie": 24125,
  "yada": 24126,
  "aşk": 24127,
  "mayın": 24128,
  "sert": 24129,
  "yoktur": 24130,
  "siyasi": 24131,
  "deste": 24132,
  "gh": 24133,
  "erişim": 24134,
  "ast": 24135,
  "vin": 24136,
  "kısm": 24137,
  "vey": 24138,
  "bundan": 24139,
  "cağız": 24140,
  "ct": 24141,
  "taşın": 24142,
  "celi": 24143,
  "aksiyon": 24144,
  "önemlidir": 24145,
  "ısı": 24146,
  "bileceğini": 24147,
  "beden": 24148,
  "plak": 24149,
  "kasa": 24150,
  "hack": 24151,
  "bulunur": 24152,
  "you": 24153,
  "iyile": 24154,
  "vas": 24155,
  "kuru": 24156,
  "sultan": 24157,
  "43": 24158,
  "fransa": 24159,
  "düğü": 24160,
  "yapay": 24161,
  "yerde": 24162,
  "durumunda": 24163,
  "öğrenciler": 24164,
  "kararı": 24165,
  "rom": 24166,
  "parator": 24167,
  "verilerin": 24168,
  "ult": 24169,
  "sonrası": 24170,
  "standart": 24171,
  "eşit": 24172,
  "bö": 24173,
  "etmeye": 24174,
  "mara": 24175,
  "dah": 24176,
  "las": 24177,
  "şır": 24178,
  "değerli": 24179,
  "zaten": 24180,
  "lerinizi": 24181,
  "lenin": 24182,
  "şikayet": 24183,
  "tarihli": 24184,
  "enf": 24185,
  "problem": 24186,
  "erdoğan": 24187,
  "çap": 24188,
  "kiler": 24189,
  "bulundu": 24190,
  "alya": 24191,
  "detaylı": 24192,
  "parçası": 24193,
  "özellikleri": 24194,
  "seya": 24195,
  "metal": 24196,
  "öne": 24197,
  "him": 24198,
  "hor": 24199,
  "aşı": 24200,
  "yararlan": 24201,
  "faktör": 24202,
  "yeme": 24203,
  "lığa": 24204,
  "krip": 24205,
  "ucuz": 24206,
  "hasta": 24207,
  "restor": 24208,
  "i̇lan": 24209,
  "2005": 24210,
  "sağlaya": 24211,
  "duvar": 24212,
  "danışman": 24213,
  "sürec": 24214,
  "kit": 24215,
  "yansı": 24216,
  "yolc": 24217,
  "http": 24218,
  "sorunun": 24219,
  "olmadan": 24220,
  "bilmesi": 24221,
  "avantaj": 24222,
  "melidir": 24223,
  "diğim": 24224,
  "nik": 24225,
  "orijinal": 24226,
  "hayatı": 24227,
  "tre": 24228,
  "yse": 24229,
  "coin": 24230,
  "</": 24231,
  "heye": 24232,
  "ıntılı": 24233,
  "olanak": 24234,
  "i̇kinci": 24235,
  "kodu": 24236,
  "kesi": 24237,
  "niyet": 24238,
  "potansiyel": 24239,
  "nan": 24240,
  "kli": 24241,
  "bulunu": 24242,
  "gaziantep": 24243,
  "ınızda": 24244,
  "tuz": 24245,
  "başlangıç": 24246,
  "siten": 24247,
  "komut": 24248,
  "kesinlikle": 24249,
  "58": 24250,
  "hipotez": 24251,
  "mutlak": 24252,
  "hey": 24253,
  "öğrenc": 24254,
  "disi": 24255,
  "mükem": 24256,
  "78": 24257,
  "tiyat": 24258,
  "kariyer": 24259,
  "ücü": 24260,
  "olmadığı": 24261,
  "dayanı": 24262,
  "pratik": 24263,
  "ahmet": 24264,
  "yeter": 24265,
  "kamer": 24266,
  "taban": 24267,
  "çalışmaları": 24268,
  "bölgeler": 24269,
  "sevg": 24270,
  "filmin": 24271,
  "yarat": 24272,
  "takdir": 24273,
  "ışı": 24274,
  "bula": 24275,
  "masıyla": 24276,
  "konuda": 24277,
  "çıkı": 24278,
  "bizi": 24279,
  "zev": 24280,
  "bakanı": 24281,
  "feder": 24282,
  "style": 24283,
  "gerekmektedir": 24284,
  "mükemmel": 24285,
  "keti": 24286,
  "ciddi": 24287,
  "cilt": 24288,
  "aşırı": 24289,
  "uyun": 24290,
  "kk": 24291,
  "şiş": 24292,
  "ilim": 24293,
  "kitab": 24294,
  "\";": 24295,
  "elerine": 24296,
  "cy": 24297,
  "sene": 24298,
  "ction": 24299,
  "zet": 24300,
  "kadınlar": 24301,
  "alanında": 24302,
  "dip": 24303,
  "kahra": 24304,
  "sistemleri": 24305,
  "lal": 24306,
  "soğu": 24307,
  "üzerindeki": 24308,
  "itir": 24309,
  "oyunu": 24310,
  "alarının": 24311,
  "kalite": 24312,
  "2004": 24313,
  "alarına": 24314,
  "ju": 24315,
  "i̇sim": 24316,
  "istanbul": 24317,
  "cir": 24318,
  "yönetimi": 24319,
  "dolu": 24320,
  "şeyi": 24321,
  "öğrenci": 24322,
  "bulmak": 24323,
  "cağım": 24324,
  "görevi": 24325,
  "forum": 24326,
  "seyahat": 24327,
  "tehlik": 24328,
  "evden": 24329,
  "ms": 24330,
  "dikten": 24331,
  "diren": 24332,
  "madı": 24333,
  "olmuştur": 24334,
  "yere": 24335,
  "inizde": 24336,
  "şiddet": 24337,
  "çevr": 24338,
  "kağı": 24339,
  "lasyon": 24340,
  "terör": 24341,
  "sıkı": 24342,
  "ticari": 24343,
  "grafi": 24344,
  "hafi": 24345,
  "takımı": 24346,
  "tuk": 24347,
  "davranış": 24348,
  "57": 24349,
  "öncül": 24350,
  "i̇slam": 24351,
  "ebe": 24352,
  "i̇st": 24353,
  "performans": 24354,
  "kapat": 24355,
  "harf": 24356,
  "hır": 24357,
  "ışık": 24358,
  "geçerli": 24359,
  "gizli": 24360,
  "pir": 24361,
  "piş": 24362,
  "ğan": 24363,
  "ladığı": 24364,
  "59": 24365,
  "koruma": 24366,
  "mahallesi": 24367,
  "makale": 24368,
  "senin": 24369,
  "siyah": 24370,
  "kurumsal": 24371,
  "koç": 24372,
  "belirtilen": 24373,
  "verdiği": 24374,
  "kendisine": 24375,
  "istediğiniz": 24376,
  "veriyor": 24377,
  "haval": 24378,
  "):": 24379,
  "evde": 24380,
  "personel": 24381,
  "orman": 24382,
  "mersin": 24383,
  "zorun": 24384,
  "siklet": 24385,
  "gıda": 24386,
  "zeka": 24387,
  "endü": 24388,
  "sağlayan": 24389,
  "yönetmen": 24390,
  "fakül": 24391,
  "tiyatro": 24392,
  "dep": 24393,
  "kapalı": 24394,
  "firmalar": 24395,
  "nur": 24396,
  "yazıl": 24397,
  "gele": 24398,
  "sir": 24399,
  "aracılığıyla": 24400,
  "what": 24401,
  "sabah": 24402,
  "anlat": 24403,
  "umak": 24404,
  "kaldı": 24405,
  "işleri": 24406,
  "fonk": 24407,
  "alarak": 24408,
  "ue": 24409,
  "bazen": 24410,
  "üyesi": 24411,
  "düzenle": 24412,
  "read": 24413,
  "ura": 24414,
  "kalp": 24415,
  "ünüz": 24416,
  "yiye": 24417,
  "ask": 24418,
  "cook": 24419,
  "youtu": 24420,
  "mate": 24421,
  "yasak": 24422,
  "ödülü": 24423,
  "56": 24424,
  "i̇p": 24425,
  "cat": 24426,
  "fonksiyon": 24427,
  "}}": 24428,
  "çıkış": 24429,
  "kelime": 24430,
  "yiz": 24431,
  "çekme": 24432,
  "müda": 24433,
  "mesel": 24434,
  "köp": 24435,
  "iter": 24436,
  "otomatik": 24437,
  "i̇le": 24438,
  "oyunc": 24439,
  "görsel": 24440,
  "kılı": 24441,
  "hafif": 24442,
  "amerikan": 24443,
  "tıyor": 24444,
  "karşılık": 24445,
  "aktarı": 24446,
  "i̇lgili": 24447,
  "ayda": 24448,
  "adımı": 24449,
  "dit": 24450,
  "saray": 24451,
  "vb": 24452,
  "şef": 24453,
  "uçak": 24454,
  "köpek": 24455,
  "pozisyon": 24456,
  "gelenek": 24457,
  "pri": 24458,
  "doğumlular": 24459,
  "alterna": 24460,
  "isa": 24461,
  "euro": 24462,
  "alınan": 24463,
  "çal": 24464,
  "yıldır": 24465,
  "iğ": 24466,
  "arada": 24467,
  "süresi": 24468,
  "uyarı": 24469,
  "muhtemel": 24470,
  "tığ": 24471,
  "dönüştür": 24472,
  "devamını": 24473,
  "york": 24474,
  "ajansı": 24475,
  "vü": 24476,
  "gören": 24477,
  "home": 24478,
  "bilgilendir": 24479,
  "wer": 24480,
  "zan": 24481,
  "sigor": 24482,
  "halde": 24483,
  "iydi": 24484,
  "ortalama": 24485,
  "mühendis": 24486,
  "ron": 24487,
  "uydu": 24488,
  "oluşturun": 24489,
  "ilerek": 24490,
  "çoğ": 24491,
  "yerleştir": 24492,
  "dor": 24493,
  "gümüş": 24494,
  "ayrıntılı": 24495,
  "turk": 24496,
  "graf": 24497,
  "öğretim": 24498,
  "rik": 24499,
  "ılan": 24500,
  "i̇çer": 24501,
  "mark": 24502,
  "mişti": 24503,
  "gala": 24504,
  "proje": 24505,
  "ie": 24506,
  "mam": 24507,
  "sırada": 24508,
  "şeker": 24509,
  "(\"": 24510,
  "weet": 24511,
  "olog": 24512,
  "trab": 24513,
  "vücu": 24514,
  "ilişki": 24515,
  "arya": 24516,
  "iği": 24517,
  "diyar": 24518,
  "çeve": 24519,
  "çerçeve": 24520,
  "birim": 24521,
  "merhaba": 24522,
  "esas": 24523,
  "yarar": 24524,
  "kop": 24525,
  "okulu": 24526,
  "girişim": 24527,
  "atör": 24528,
  "cad": 24529,
  "adalet": 24530,
  "mamış": 24531,
  "biyo": 24532,
  "zayı": 24533,
  "şans": 24534,
  "eğitimi": 24535,
  "trabzon": 24536,
  "lemi": 24537,
  "süt": 24538,
  "wa": 24539,
  "tap": 24540,
  "lıklar": 24541,
  "verme": 24542,
  "meş": 24543,
  "saygı": 24544,
  "gul": 24545,
  "landa": 24546,
  "tiler": 24547,
  "youtube": 24548,
  "istem": 24549,
  "mali": 24550,
  "nitelik": 24551,
  "sanal": 24552,
  "vo": 24553,
  "ürünü": 24554,
  "serbest": 24555,
  "vüc": 24556,
  "etkisi": 24557,
  "yöneti": 24558,
  "tali": 24559,
  "kimse": 24560,
  "başlayan": 24561,
  "larım": 24562,
  "tom": 24563,
  "hala": 24564,
  "i̇d": 24565,
  "çanak": 24566,
  "mızın": 24567,
  "press": 24568,
  "yüzey": 24569,
  "karma": 24570,
  "sinema": 24571,
  "kaf": 24572,
  "anlar": 24573,
  "xx": 24574,
  "ağaç": 24575,
  "dışarı": 24576,
  "filmler": 24577,
  "arşiv": 24578,
  "ulması": 24579,
  "anlayı": 24580,
  "ğer": 24581,
  "belki": 24582,
  "asya": 24583,
  "maliyet": 24584,
  "hacklink": 24585,
  "akıllı": 24586,
  "düzenlenen": 24587,
  "eşya": 24588,
  "kupası": 24589,
  "kırık": 24590,
  "komisyon": 24591,
  "layarak": 24592,
  "şet": 24593,
  "kendisi": 24594,
  "vücut": 24595,
  "ell": 24596,
  "duğunu": 24597,
  "pal": 24598,
  "yapın": 24599,
  "bölümü": 24600,
  "ılır": 24601,
  "hükümet": 24602,
  "tıklayın": 24603,
  "keyif": 24604,
  "bedava": 24605,
  "98": 24606,
  "yel": 24607,
  "ıcı": 24608,
  "lir": 24609,
  "şiir": 24610,
  "right": 24611,
  "düzel": 24612,
  "birleştir": 24613,
  "davet": 24614,
  "görmek": 24615,
  "yaparak": 24616,
  "kulü": 24617,
  "kanunu": 24618,
  "kam": 24619,
  "kitapları": 24620,
  "leri̇": 24621,
  "desi": 24622,
  "tanrı": 24623,
  "kampanya": 24624,
  "istiyorum": 24625,
  "bunları": 24626,
  "başlar": 24627,
  "mevzu": 24628,
  "kıya": 24629,
  "teşvik": 24630,
  "uygulamalar": 24631,
  "ilçe": 24632,
  "önünde": 24633,
  "dro": 24634,
  "sürede": 24635,
  "mesinde": 24636,
  "pg": 24637,
  "kripto": 24638,
  "şirketi": 24639,
  "ああああ": 24640,
  "yapılacak": 24641,
  "garanti": 24642,
  "içerir": 24643,
  "kadro": 24644,
  "gon": 24645,
  "otik": 24646,
  "olmaz": 24647,
  "kahraman": 24648,
  "geçer": 24649,
  "alternatif": 24650,
  "uyum": 24651,
  "eyalet": 24652,
  "etmektedir": 24653,
  "çağrı": 24654,
  "keşf": 24655,
  "til": 24656,
  "kahve": 24657,
  "imin": 24658,
  "slot": 24659,
  "yanıtlar": 24660,
  "mavi": 24661,
  "yaptık": 24662,
  "sağlam": 24663,
  "seçenekleri": 24664,
  "coun": 24665,
  "oranı": 24666,
  "ettik": 24667,
  "ika": 24668,
  "derne": 24669,
  "siyet": 24670,
  "çoğun": 24671,
  "hediye": 24672,
  "şap": 24673,
  "edebilir": 24674,
  "sona": 24675,
  "uluğ": 24676,
  "inanı": 24677,
  "görünü": 24678,
  "mac": 24679,
  "oluşturmak": 24680,
  "başar": 24681,
  "ilerine": 24682,
  "kişilerin": 24683,
  "iliği": 24684,
  "cağınız": 24685,
  "use": 24686,
  "şeyler": 24687,
  "şer": 24688,
  "koltuk": 24689,
  "hum": 24690,
  "uni": 24691,
  "akşam": 24692,
  "sanayi": 24693,
  "milletvek": 24694,
  "milyar": 24695,
  "cümleyi": 24696,
  "gösteren": 24697,
  "askeri": 24698,
  "kemal": 24699,
  "porn": 24700,
  "sokak": 24701,
  "göç": 24702,
  "pazarlama": 24703,
  "cumhurbaşkanı": 24704,
  "urum": 24705,
  "gat": 24706,
  "tutuk": 24707,
  "yazılar": 24708,
  "eyen": 24709,
  "inceleme": 24710,
  "dönemde": 24711,
  "cez": 24712,
  "dili": 24713,
  "kütüphanesi": 24714,
  "68": 24715,
  "kg": 24716,
  "bür": 24717,
  "zayıf": 24718,
  "ofis": 24719,
  "bül": 24720,
  "\":": 24721,
  "şak": 24722,
  "org": 24723,
  "fiziksel": 24724,
  "bot": 24725,
  "ğunuz": 24726,
  "taz": 24727,
  "cumhuriyeti": 24728,
  "basket": 24729,
  "dergisi": 24730,
  "leyici": 24731,
  "rahatsız": 24732,
  "cevab": 24733,
  "77": 24734,
  "dekor": 24735,
  "anlaşıl": 24736,
  "galeri": 24737,
  "windo": 24738,
  "2023": 24739,
  "market": 24740,
  "büs": 24741,
  "ukray": 24742,
  "yoluyla": 24743,
  "sizlik": 24744,
  "politik": 24745,
  "fiyatı": 24746,
  "küresel": 24747,
  "ferans": 24748,
  "hus": 24749,
  "çatı": 24750,
  "stratej": 24751,
  "liğe": 24752,
  "dun": 24753,
  "sağlığı": 24754,
  "aça": 24755,
  "süz": 24756,
  "kullanılmak": 24757,
  "zım": 24758,
  "yayınevi": 24759,
  "gr": 24760,
  "götür": 24761,
  "moda": 24762,
  "almaktadır": 24763,
  "etraf": 24764,
  "ecektir": 24765,
  "malat": 24766,
  "baz": 24767,
  "edilmiş": 24768,
  "vurg": 24769,
  "yaklaşı": 24770,
  "hesabınız": 24771,
  "adını": 24772,
  "atatürk": 24773,
  "tatil": 24774,
  "mıyla": 24775,
  "sorunu": 24776,
  "imz": 24777,
  "bitki": 24778,
  "bala": 24779,
  "alındığında": 24780,
  "yaşan": 24781,
  "veç": 24782,
  "ayında": 24783,
  "nedeni": 24784,
  "soğuk": 24785,
  "work": 24786,
  "grafik": 24787,
  "afri": 24788,
  "çerezler": 24789,
  "2002": 24790,
  "bulunma": 24791,
  "ehir": 24792,
  "komp": 24793,
  "andro": 24794,
  "değişim": 24795,
  "nat": 24796,
  "asını": 24797,
  "çıka": 24798,
  "onlara": 24799,
  "edebilirsiniz": 24800,
  "2003": 24801,
  "birden": 24802,
  "beklen": 24803,
  "bölgesi": 24804,
  "azı": 24805,
  "arttır": 24806,
  "nelerdir": 24807,
  "diyet": 24808,
  "lıkları": 24809,
  "distan": 24810,
  "asıl": 24811,
  "iddia": 24812,
  "stil": 24813,
  "pik": 24814,
  "işime": 24815,
  "88": 24816,
  "edilebilir": 24817,
  "erz": 24818,
  "leriniz": 24819,
  "büt": 24820,
  "latma": 24821,
  "sus": 24822,
  "müslü": 24823,
  "dola": 24824,
  "hukuki": 24825,
  "alacak": 24826,
  "kayseri": 24827,
  "yapılması": 24828,
  "esir": 24829,
  "gerektiğini": 24830,
  "kişehir": 24831,
  "ıp": 24832,
  "sefere": 24833,
  "e9e9": 24834,
  "malzeme": 24835,
  "çuk": 24836,
  "{{": 24837,
  "iyan": 24838,
  "koz": 24839,
  "bulu": 24840,
  "ford": 24841,
  "mün": 24842,
  "sapp": 24843,
  "başında": 24844,
  "edilmiştir": 24845,
  "boğ": 24846,
  "etiketler": 24847,
  "kanıt": 24848,
  "53": 24849,
  "becer": 24850,
  "ati": 24851,
  "işlemi": 24852,
  "star": 24853,
  "mikro": 24854,
  "ilerle": 24855,
  "tığını": 24856,
  "bulunuyor": 24857,
  "mc": 24858,
  "yapmış": 24859,
  "akadem": 24860,
  "denizli": 24861,
  "olmasına": 24862,
  "gönül": 24863,
  "otomobil": 24864,
  "kun": 24865,
  "sabit": 24866,
  "irken": 24867,
  "pt": 24868,
  "esk": 24869,
  "67": 24870,
  "mantık": 24871,
  "amaz": 24872,
  "i̇ran": 24873,
  "esen": 24874,
  "lanıyor": 24875,
  "ştan": 24876,
  "mesinden": 24877,
  "belirleyin": 24878,
  "52": 24879,
  "mezun": 24880,
  "54": 24881,
  "ederim": 24882,
  "max": 24883,
  "asla": 24884,
  "yaşlı": 24885,
  "kitabı": 24886,
  "yiyecek": 24887,
  "kendine": 24888,
  "tezi": 24889,
  "aktar": 24890,
  "kenar": 24891,
  "hy": 24892,
  "mimar": 24893,
  "elif": 24894,
  "tri": 24895,
  "diyarbakır": 24896,
  "makinesi": 24897,
  "sakarya": 24898,
  "şem": 24899,
  "mutfak": 24900,
  "olduğuna": 24901,
  "yazarın": 24902,
  "dikkate": 24903,
  "tarz": 24904,
  "pren": 24905,
  "mutlaka": 24906,
  "bakış": 24907,
  "yerinde": 24908,
  "ground": 24909,
  "düzenli": 24910,
  "etmesi": 24911,
  "whatsapp": 24912,
  "ligi": 24913,
  "ilere": 24914,
  "büyükşehir": 24915,
  "liğine": 24916,
  "liğin": 24917,
  "bert": 24918,
  "kaza": 24919,
  "ediyorum": 24920,
  "bolu": 24921,
  "incele": 24922,
  "küçükresim": 24923,
  "eskişehir": 24924,
  "rast": 24925,
  "devre": 24926,
  "müslüman": 24927,
  "iliyor": 24928,
  "ding": 24929,
  "kocaeli": 24930,
  "elerinde": 24931,
  "ulur": 24932,
  "?\"": 24933,
  "olduğunuz": 24934,
  "kenin": 24935,
  "gelişim": 24936,
  "dahaki": 24937,
  "düşünce": 24938,
  "jack": 24939,
  "çik": 24940,
  "i̇mparator": 24941,
  "bün": 24942,
  "unsur": 24943,
  "lığında": 24944,
  "çocuklar": 24945,
  "kimlik": 24946,
  "tro": 24947,
  "this": 24948,
  "imkan": 24949,
  "bununla": 24950,
  "kısmı": 24951,
  "kesim": 24952,
  "söylemek": 24953,
  "i̇ndir": 24954,
  "eni": 24955,
  "güc": 24956,
  "ary": 24957,
  "ceğini": 24958,
  "traf": 24959,
  "ıldı": 24960,
  "bilgisi": 24961,
  "alanda": 24962,
  "97": 24963,
  "buraya": 24964,
  ".,": 24965,
  "fun": 24966,
  "kurulan": 24967,
  "isyen": 24968,
  "que": 24969,
  "memiş": 24970,
  "))": 24971,
  "ish": 24972,
  "gelin": 24973,
  "tweet": 24974,
  "ester": 24975,
  "süreci": 24976,
  "misiniz": 24977,
  "51": 24978,
  "defa": 24979,
  "seni": 24980,
  "üsü": 24981,
  "yatak": 24982,
  "zam": 24983,
  "orada": 24984,
  "td": 24985,
  "inc": 24986,
  "lisi": 24987,
  "tesis": 24988,
  "yem": 24989,
  "ny": 24990,
  "tasarı": 24991,
  "dat": 24992,
  "elem": 24993,
  "arda": 24994,
  "hut": 24995,
  "oksi": 24996,
  "kurtar": 24997,
  "kartı": 24998,
  "tamir": 24999,
  "karbon": 25000,
  "prote": 25001,
  "konuşma": 25002,
  "…]": 25003,
  "vasyon": 25004,
  "konak": 25005,
  "ihtiyacı": 25006,
  "cektir": 25007,
  "pub": 25008,
  "olmuş": 25009,
  "başvurucu": 25010,
  "asına": 25011,
  "lardı": 25012,
  "vakit": 25013,
  "kola": 25014,
  "kıb": 25015,
  "konus": 25016,
  "aykırı": 25017,
  "ân": 25018,
  "64": 25019,
  "1990": 25020,
  "tedav": 25021,
  "istek": 25022,
  "bekle": 25023,
  "ene": 25024,
  "gözlem": 25025,
  "işlev": 25026,
  "başta": 25027,
  "ves": 25028,
  "[…]": 25029,
  "sözleşme": 25030,
  "editör": 25031,
  "çevres": 25032,
  "buk": 25033,
  "hata": 25034,
  "ülebilir": 25035,
  "roma": 25036,
  "söylü": 25037,
  "ğla": 25038,
  "atıl": 25039,
  "vası": 25040,
  "cevaplayın": 25041,
  "tecrü": 25042,
  "lığının": 25043,
  "cınız": 25044,
  "acil": 25045,
  "kişilik": 25046,
  "ğine": 25047,
  "maktan": 25048,
  "kazandı": 25049,
  "nden": 25050,
  "maden": 25051,
  "lanmıştır": 25052,
  "sorumluluk": 25053,
  "firmaları": 25054,
  "uma": 25055,
  "takipçi": 25056,
  "yaman": 25057,
  "dini": 25058,
  "i̇zle": 25059,
  "kavram": 25060,
  "gücü": 25061,
  "kök": 25062,
  "seo": 25063,
  "afrika": 25064,
  "urfa": 25065,
  "2001": 25066,
  "saf": 25067,
  "bitir": 25068,
  "girdi": 25069,
  "başkanlığı": 25070,
  "cuma": 25071,
  "aylık": 25072,
  "mutl": 25073,
  "background": 25074,
  "varı": 25075,
  "bbi": 25076,
  "lezzet": 25077,
  "döneminde": 25078,
  "matematik": 25079,
  "artış": 25080,
  "hı": 25081,
  "ukrayna": 25082,
  "uldu": 25083,
  "denklem": 25084,
  "sana": 25085,
  "yumu": 25086,
  "300": 25087,
  "zil": 25088,
  "edebiyat": 25089,
  "lise": 25090,
  "imizde": 25091,
  "millî": 25092,
  "69": 25093,
  "yaları": 25094,
  "arkadaşı": 25095,
  "cümlenin": 25096,
  "zih": 25097,
  "huz": 25098,
  "manızı": 25099,
  "mısır": 25100,
  "tesli": 25101,
  "dünyada": 25102,
  "yip": 25103,
  "malara": 25104,
  "cla": 25105,
  "projesi": 25106,
  "sebeb": 25107,
  "yıllara": 25108,
  "hr": 25109,
  "sonuçları": 25110,
  "adlandır": 25111,
  "malısınız": 25112,
  "kayde": 25113,
  "cem": 25114,
  "cev": 25115,
  "düşür": 25116,
  "neredeyse": 25117,
  "eral": 25118,
  "layıcı": 25119,
  "sikiş": 25120,
  "duygus": 25121,
  "transfer": 25122,
  "topluluk": 25123,
  "barış": 25124,
  "turizm": 25125,
  "yıllar": 25126,
  "ölçüde": 25127,
  "tb": 25128,
  "hücr": 25129,
  "alara": 25130,
  "iyileştir": 25131,
  "suyu": 25132,
  "çekici": 25133,
  "kulüp": 25134,
  "katkıda": 25135,
  "nar": 25136,
  "klasik": 25137,
  "ilip": 25138,
  "yorumları": 25139,
  "ayrıntı": 25140,
  "çevrimiçi": 25141,
  "sti": 25142,
  "operasyon": 25143,
  "akti": 25144,
  "yaşındaki": 25145,
  "masyon": 25146,
  "nö": 25147,
  "tarayıcıya": 25148,
  "gibiy": 25149,
  "====": 25150,
  "soruştur": 25151,
  "anlık": 25152,
  "yazarlar": 25153,
  "liam": 25154,
  "kıbrı": 25155,
  "hac": 25156,
  "yerler": 25157,
  "yılın": 25158,
  "korunması": 25159,
  "bozuk": 25160,
  "oker": 25161,
  "ikti": 25162,
  "basketbol": 25163,
  "hepsi": 25164,
  "android": 25165,
  "bahç": 25166,
  "aklı": 25167,
  "oyuncak": 25168,
  "ölen": 25169,
  "kullanılabilir": 25170,
  "gösteriyor": 25171,
  "zorunlu": 25172,
  "gide": 25173,
  "yerli": 25174,
  "play": 25175,
  "klı": 25176,
  "ılmış": 25177,
  "içine": 25178,
  "çanakkale": 25179,
  "harita": 25180,
  "dayanarak": 25181,
  "ademi": 25182,
  "df": 25183,
  "daa": 25184,
  "yönlendir": 25185,
  "atan": 25186,
  "heyecan": 25187,
  "enerj": 25188,
  "uzay": 25189,
  "bilimsel": 25190,
  "liğinde": 25191,
  "diven": 25192,
  "ag": 25193,
  "yaptığımda": 25194,
  "müdürlüğü": 25195,
  "geleneksel": 25196,
  "i̇talya": 25197,
  "karmaşık": 25198,
  "wi": 25199,
  "etkilen": 25200,
  "kazanç": 25201,
  "yayını": 25202,
  "arayı": 25203,
  "savunma": 25204,
  "dığından": 25205,
  "giyim": 25206,
  "ble": 25207,
  "yandan": 25208,
  "bran": 25209,
  "odası": 25210,
  "stur": 25211,
  "ilerinin": 25212,
  "besin": 25213,
  "paylaşım": 25214,
  "yüküm": 25215,
  "lanmaktadır": 25216,
  "akademi": 25217,
  "lav": 25218,
  "zevk": 25219,
  "kimyasal": 25220,
  "ortadan": 25221,
  "kayıp": 25222,
  "uygulaması": 25223,
  "yapmaya": 25224,
  "borç": 25225,
  "gran": 25226,
  "undaki": 25227,
  "kıbrıs": 25228,
  "yayınlanan": 25229,
  "elbet": 25230,
  "nakliye": 25231,
  "günümüzde": 25232,
  "out": 25233,
  "memur": 25234,
  "gösterir": 25235,
  "kafa": 25236,
  "yav": 25237,
  "profil": 25238,
  "serg": 25239,
  "finans": 25240,
  "ildiği": 25241,
  "yatırma": 25242,
  "alına": 25243,
  "chp": 25244,
  "ülkenin": 25245,
  "sözleri": 25246,
  "kazandır": 25247,
  "klar": 25248,
  "organizasyon": 25249,
  "lit": 25250,
  "bilme": 25251,
  "sö": 25252,
  "cha": 25253,
  "işlemleri": 25254,
  "bölgesinde": 25255,
  "kızıl": 25256,
  "ndan": 25257,
  "kaynağı": 25258,
  "nev": 25259,
  "ettir": 25260,
  "çil": 25261,
  "bis": 25262,
  "köyü": 25263,
  "arıza": 25264,
  "toplu": 25265,
  "elerden": 25266,
  "kuralları": 25267,
  "beslenme": 25268,
  "sonucunda": 25269,
  "sınırlı": 25270,
  "vergi": 25271,
  "95": 25272,
  "huzur": 25273,
  "arz": 25274,
  "babası": 25275,
  "geçiş": 25276,
  "alanları": 25277,
  "sırala": 25278,
  "laşma": 25279,
  "finan": 25280,
  "tanıtım": 25281,
  "muhtemelen": 25282,
  "anında": 25283,
  "sıfır": 25284,
  "ful": 25285,
  "yur": 25286,
  "anlama": 25287,
  "artan": 25288,
  "fakültesi": 25289,
  "şehr": 25290,
  "pencer": 25291,
  "asist": 25292,
  "sinden": 25293,
  "hattı": 25294,
  "durumlarda": 25295,
  "uyucu": 25296,
  "hisset": 25297,
  "ülü": 25298,
  "yetiştir": 25299,
  "hit": 25300,
  "konut": 25301,
  "harca": 25302,
  "sunucu": 25303,
  "sıkıntı": 25304,
  "evren": 25305,
  "vu": 25306,
  "belgeler": 25307,
  "teşkil": 25308,
  "bahar": 25309,
  "zeytin": 25310,
  "log": 25311,
  "kişiye": 25312,
  "sitemizde": 25313,
  "sözleşmesi": 25314,
  "ela": 25315,
  "derneği": 25316,
  "bisiklet": 25317,
  "html": 25318,
  "olursa": 25319,
  "ündeki": 25320,
  "peş": 25321,
  "tarifleri": 25322,
  "reaksiyon": 25323,
  "sorular": 25324,
  "ulaşım": 25325,
  "more": 25326,
  "açma": 25327,
  "sitede": 25328,
  "verilir": 25329,
  "ameli": 25330,
  "tih": 25331,
  "bireysel": 25332,
  "magaz": 25333,
  "idi": 25334,
  "1999": 25335,
  "sunulan": 25336,
  "avukat": 25337,
  "felse": 25338,
  "yukarıdaki": 25339,
  "nef": 25340,
  "with": 25341,
  "şartları": 25342,
  "altyapı": 25343,
  "örgüt": 25344,
  "lerim": 25345,
  "kullana": 25346,
  "japon": 25347,
  "bara": 25348,
  "temizlik": 25349,
  "çö": 25350,
  "amik": 25351,
  "efen": 25352,
  "yayımlan": 25353,
  "wal": 25354,
  "seviye": 25355,
  "stit": 25356,
  "muğla": 25357,
  "bi̇r": 25358,
  "birini": 25359,
  "pati": 25360,
  "cd": 25361,
  "tey": 25362,
  "olmalıdır": 25363,
  "radyo": 25364,
  "kendisini": 25365,
  "tın": 25366,
  "açıkça": 25367,
  "kabı": 25368,
  "ettiğini": 25369,
  "numarası": 25370,
  "kiralama": 25371,
  "niş": 25372,
  "ırlar": 25373,
  "bulut": 25374,
  "sakin": 25375,
  "city": 25376,
  "malatya": 25377,
  "anasayfa": 25378,
  "i̇la": 25379,
  "peki": 25380,
  "windows": 25381,
  "erzurum": 25382,
  "96": 25383,
  "kup": 25384,
  "wid": 25385,
  "güvenliği": 25386,
  "düşünün": 25387,
  "hindistan": 25388,
  "sitesinde": 25389,
  "kör": 25390,
  "geleri": 25391,
  "kullanmak": 25392,
  "karıştır": 25393,
  "bük": 25394,
  "bos": 25395,
  "diya": 25396,
  "sez": 25397,
  "kore": 25398,
  "yapıla": 25399,
  "değeri": 25400,
  "ınar": 25401,
  "kalın": 25402,
  "time": 25403,
  "numara": 25404,
  "kalıcı": 25405,
  "makam": 25406,
  "i̇tal": 25407,
  "taları": 25408,
  "email": 25409,
  "malzemeleri": 25410,
  "war": 25411,
  "saklıdır": 25412,
  "beşik": 25413,
  "şanlı": 25414,
  "balar": 25415,
  "250": 25416,
  "your": 25417,
  "iletişime": 25418,
  "biridir": 25419,
  "yardımcısı": 25420,
  "devamı": 25421,
  "kanser": 25422,
  "king": 25423,
  "verilecek": 25424,
  "hesapla": 25425,
  "elbette": 25426,
  "io": 25427,
  "forma": 25428,
  "devr": 25429,
  "yöner": 25430,
  "i̇şlem": 25431,
  "sivas": 25432,
  "akar": 25433,
  "zorluk": 25434,
  "bart": 25435,
  "tipi": 25436,
  "kutu": 25437,
  "stok": 25438,
  "safir": 25439,
  "hatay": 25440,
  "hoca": 25441,
  "esinden": 25442,
  "trafik": 25443,
  "ciğer": 25444,
  "aca": 25445,
  "açıklaması": 25446,
  "liliği": 25447,
  "150": 25448,
  "yıllarda": 25449,
  "hip": 25450,
  "aşağıda": 25451,
  "yetkili": 25452,
  "özelliği": 25453,
  "bn": 25454,
  "yürüt": 25455,
  "way": 25456,
  "sivil": 25457,
  "stor": 25458,
  "i̇spanyol": 25459,
  "tehdit": 25460,
  "vazgeç": 25461,
  "murat": 25462,
  "ullah": 25463,
  "nas": 25464,
  "\\.": 25465,
  "yağmur": 25466,
  "görü": 25467,
  "ust": 25468,
  "rail": 25469,
  ":#": 25470,
  "kra": 25471,
  "panel": 25472,
  "ülkemiz": 25473,
  "=>": 25474,
  "malarını": 25475,
  "ld": 25476,
  "okuma": 25477,
  "öncesi": 25478,
  "mediği": 25479,
  "açıkla": 25480,
  "düm": 25481,
  "üyle": 25482,
  "gazetesi": 25483,
  "meclis": 25484,
  "metni": 25485,
  "hayatını": 25486,
  "korku": 25487,
  "molek": 25488,
  "sion": 25489,
  "dığımız": 25490,
  "benzeri": 25491,
  "fal": 25492,
  "söylüyor": 25493,
  "yakı": 25494,
  "ments": 25495,
  "wat": 25496,
  "olim": 25497,
  "word": 25498,
  "örü": 25499,
  "edici": 25500,
  "üreti": 25501,
  "fener": 25502,
  "mod": 25503,
  "endüstr": 25504,
  "hik": 25505,
  "ale": 25506,
  "rehber": 25507,
  "sizler": 25508,
  "koşulları": 25509,
  "ürünün": 25510,
  "saldır": 25511,
  "tane": 25512,
  "hür": 25513,
  "varlık": 25514,
  "was": 25515,
  "durdur": 25516,
  "tifi": 25517,
  "i̇çerik": 25518,
  "dv": 25519,
  "belirlemek": 25520,
  "kağıt": 25521,
  "anız": 25522,
  "edildiği": 25523,
  "alak": 25524,
  "63": 25525,
  "sahne": 25526,
  "tavuk": 25527,
  "yaşanan": 25528,
  "seb": 25529,
  "müştür": 25530,
  "yazarı": 25531,
  "​​": 25532,
  "şifre": 25533,
  "brit": 25534,
  "rum": 25535,
  "biçimde": 25536,
  "sün": 25537,
  "içindeki": 25538,
  "i̇liş": 25539,
  "kok": 25540,
  "birinin": 25541,
  "anayasa": 25542,
  "talimat": 25543,
  "edir": 25544,
  "pl": 25545,
  "ob": 25546,
  "ting": 25547,
  "düğün": 25548,
  "dayalı": 25549,
  "almış": 25550,
  "kapsa": 25551,
  "koltu": 25552,
  "eklen": 25553,
  "feri": 25554,
  "dönüşüm": 25555,
  "firmamız": 25556,
  "ilmektedir": 25557,
  "umut": 25558,
  "ward": 25559,
  "erkekler": 25560,
  "anket": 25561,
  "1000": 25562,
  "çalışıyor": 25563,
  "ies": 25564,
  "hizmetler": 25565,
  "liğinin": 25566,
  "takv": 25567,
  "bankası": 25568,
  "kolayla": 25569,
  "tad": 25570,
  "kıyı": 25571,
  "i̇talyan": 25572,
  "kullanma": 25573,
  "olmasını": 25574,
  "birik": 25575,
  "kültürel": 25576,
  "kabil": 25577,
  "yenilen": 25578,
  "vı": 25579,
  "kulak": 25580,
  "yedi": 25581,
  "hayata": 25582,
  "beyan": 25583,
  "buluş": 25584,
  "hasar": 25585,
  "ınızın": 25586,
  "mahkeme": 25587,
  "api": 25588,
  "depre": 25589,
  "azer": 25590,
  "1997": 25591,
  "kalem": 25592,
  "stri": 25593,
  "yorumunuz": 25594,
  "rock": 25595,
  "shar": 25596,
  "yardı": 25597,
  "eng": 25598,
  "fol": 25599,
  "zira": 25600,
  "çatış": 25601,
  "direktör": 25602,
  "afyon": 25603,
  "üyeleri": 25604,
  "maktayız": 25605,
  "()": 25606,
  "larındaki": 25607,
  "promos": 25608,
  "bitk": 25609,
  "uyan": 25610,
  "algı": 25611,
  "tarak": 25612,
  "geçti": 25613,
  "kalma": 25614,
  "aa": 25615,
  "paris": 25616,
  "promosyon": 25617,
  "alınır": 25618,
  "şın": 25619,
  "coğraf": 25620,
  "suriye": 25621,
  "şehri": 25622,
  "tedavisi": 25623,
  "bulundur": 25624,
  "yerini": 25625,
  "uar": 25626,
  "selçuk": 25627,
  "yılları": 25628,
  "fl": 25629,
  "rem": 25630,
  "sigorta": 25631,
  "hayatta": 25632,
  "rep": 25633,
  "bileşen": 25634,
  "uzmanı": 25635,
  "tıbbi": 25636,
  "iyiz": 25637,
  "barın": 25638,
  "özen": 25639,
  "yapabilirsiniz": 25640,
  "imler": 25641,
  "ilgilen": 25642,
  "kurumu": 25643,
  "yıka": 25644,
  "tablo": 25645,
  "ilçesine": 25646,
  "____": 25647,
  "leşme": 25648,
  "ges": 25649,
  "londra": 25650,
  "rekabet": 25651,
  "öden": 25652,
  "dılar": 25653,
  "ayakkabı": 25654,
  "ulmuş": 25655,
  "giden": 25656,
  "yılda": 25657,
  "yahu": 25658,
  "günün": 25659,
  "ihlal": 25660,
  "cunun": 25661,
  "sınıflandır": 25662,
  "jı": 25663,
  "görülen": 25664,
  "ceğim": 25665,
  "iyordu": 25666,
  "gibiyim": 25667,
  "mesiyle": 25668,
  "ğinde": 25669,
  "yıp": 25670,
  "dâ": 25671,
  "mül": 25672,
  "ihra": 25673,
  "sonuçlar": 25674,
  "eh": 25675,
  "denet": 25676,
  "uygulamaları": 25677,
  "ükle": 25678,
  "ajans": 25679,
  "çey": 25680,
  "1998": 25681,
  "laşa": 25682,
  "noktası": 25683,
  "mr": 25684,
  "bine": 25685,
  "kullanan": 25686,
  "low": 25687,
  "sinir": 25688,
  "borsa": 25689,
  "verecek": 25690,
  "misafir": 25691,
  "firması": 25692,
  "konular": 25693,
  "çat": 25694,
  "bulma": 25695,
  "85": 25696,
  "avustr": 25697,
  "ulaşabilirsiniz": 25698,
  "içeriği": 25699,
  "yapıldı": 25700,
  "aittir": 25701,
  "seçeneği": 25702,
  "tions": 25703,
  "yola": 25704,
  "okun": 25705,
  "sıcaklık": 25706,
  "olağan": 25707,
  "usul": 25708,
  "güzellik": 25709,
  "cur": 25710,
  "doğrult": 25711,
  "tüket": 25712,
  "sepete": 25713,
  "edip": 25714,
  "üyeler": 25715,
  "kısım": 25716,
  "plastik": 25717,
  "rit": 25718,
  "alıcı": 25719,
  "mülk": 25720,
  "taleb": 25721,
  "iv": 25722,
  "sunan": 25723,
  "müdürü": 25724,
  "width": 25725,
  "dans": 25726,
  "asistanı": 25727,
  "hasan": 25728,
  "fatih": 25729,
  "satır": 25730,
  "düşt": 25731,
  "binlerce": 25732,
  "fas": 25733,
  "hisar": 25734,
  "merdiven": 25735,
  "onur": 25736,
  "fayda": 25737,
  "ceğiz": 25738,
  "çağı": 25739,
  "dığım": 25740,
  "teri": 25741,
  "hazırlık": 25742,
  "ğında": 25743,
  "doğa": 25744,
  "metro": 25745,
  "ate": 25746,
  "duyar": 25747,
  "ediyoruz": 25748,
  "bayram": 25749,
  "tabl": 25750,
  "fabri": 25751,
  "mektu": 25752,
  "sorunları": 25753,
  "reti": 25754,
  "poziti": 25755,
  "yaklaş": 25756,
  "los": 25757,
  "kedi": 25758,
  "önceden": 25759,
  "bom": 25760,
  "jpg": 25761,
  "lea": 25762,
  "takdirde": 25763,
  "insanın": 25764,
  "yöntemi": 25765,
  "renkli": 25766,
  "vere": 25767,
  "nokt": 25768,
  "fit": 25769,
  "cüml": 25770,
  "ağırlık": 25771,
  "sov": 25772,
  "desteği": 25773,
  "depola": 25774,
  "black": 25775,
  "zamanı": 25776,
  "72": 25777,
  "konuştu": 25778,
  "deliyim": 25779,
  "ers": 25780,
  "besi": 25781,
  "bt": 25782,
  "röp": 25783,
  "balıkesir": 25784,
  "tedar": 25785,
  "data": 25786,
  "bayrak": 25787,
  "deliyimgibiyim": 25788,
  "kısıt": 25789,
  "şehrin": 25790,
  "görünüyor": 25791,
  "genin": 25792,
  "dırma": 25793,
  "versiyon": 25794,
  "taksi": 25795,
  "akses": 25796,
  "spa": 25797,
  "ğinin": 25798,
  "kullanıcılar": 25799,
  "peygam": 25800,
  "psi": 25801,
  "rüz": 25802,
  "emir": 25803,
  "röporta": 25804,
  "dayanıklı": 25805,
  "hakkımızda": 25806,
  "div": 25807,
  "bazıları": 25808,
  "hızla": 25809,
  "led": 25810,
  "adaki": 25811,
  "meyecek": 25812,
  "ire": 25813,
  "muham": 25814,
  "dığına": 25815,
  "amaçlı": 25816,
  "havuz": 25817,
  "!!": 25818,
  "elazı": 25819,
  "bakımı": 25820,
  "azalt": 25821,
  "hing": 25822,
  "etkileşim": 25823,
  "olgun": 25824,
  "yürütül": 25825,
  "super": 25826,
  "yenilik": 25827,
  "79": 25828,
  "oturum": 25829,
  "verin": 25830,
  "vs": 25831,
  "bi̇": 25832,
  "yüzü": 25833,
  "manıza": 25834,
  "aut": 25835,
  "yetenek": 25836,
  "ömer": 25837,
  "olmaktadır": 25838,
  "herkesin": 25839,
  "nefes": 25840,
  "toz": 25841,
  "i̇dar": 25842,
  "berg": 25843,
  "kelimeler": 25844,
  "ann": 25845,
  "astr": 25846,
  "doğrultusunda": 25847,
  "tasarlan": 25848,
  "sport": 25849,
  "hekim": 25850,
  "evlilik": 25851,
  "medyum": 25852,
  "kısaca": 25853,
  "çıkara": 25854,
  "kv": 25855,
  "belediy": 25856,
  "yakalan": 25857,
  "i̇nceleme": 25858,
  "karşısında": 25859,
  "dahi": 25860,
  "sing": 25861,
  "manisa": 25862,
  "”,": 25863,
  "nesil": 25864,
  "yedek": 25865,
  "lerimizi": 25866,
  "verimli": 25867,
  "yetkil": 25868,
  "alabilirsiniz": 25869,
  "cs": 25870,
  "sızlık": 25871,
  "iii": 25872,
  "layınız": 25873,
  "olimpi": 25874,
  "antik": 25875,
  "konser": 25876,
  "toplumsal": 25877,
  "tepki": 25878,
  "ks": 25879,
  "tanış": 25880,
  "çalışı": 25881,
  "çalışması": 25882,
  "köşe": 25883,
  "tional": 25884,
  "süs": 25885,
  "pozitif": 25886,
  "güçlendir": 25887,
  "geçici": 25888,
  "futbolcular": 25889,
  "kolaylaştır": 25890,
  "ermen": 25891,
  "otobüs": 25892,
  "bitcoin": 25893,
  "modeli": 25894,
  "geor": 25895,
  "hali": 25896,
  "işlen": 25897,
  "önlem": 25898,
  "mağaza": 25899,
  "imza": 25900,
  "deneyimi": 25901,
  "cerra": 25902,
  "ong": 25903,
  "76": 25904,
  "döndür": 25905,
  "verici": 25906,
  "kullanabilir": 25907,
  "görünüm": 25908,
  "verilmiştir": 25909,
  "lou": 25910,
  "insanları": 25911,
  "almaya": 25912,
  "400": 25913,
  "istiyorsanız": 25914,
  "korumak": 25915,
  "iyel": 25916,
  "kilit": 25917,
  "kurban": 25918,
  "kapsamlı": 25919,
  "birisi": 25920,
  "yumur": 25921,
  "yapacak": 25922,
  "alıp": 25923,
  "boyu": 25924,
  "geleceğ": 25925,
  "arken": 25926,
  "ism": 25927,
  "bilirler": 25928,
  "arna": 25929,
  "anlamda": 25930,
  "çekim": 25931,
  "verim": 25932,
  "stat": 25933,
  "bilirim": 25934,
  "pişir": 25935,
  "lanabilir": 25936,
  "kılıç": 25937,
  "dilek": 25938,
  "abone": 25939,
  "gue": 25940,
  "kıy": 25941,
  "protein": 25942,
  "videolar": 25943,
  "suna": 25944,
  "view": 25945,
  "famil": 25946,
  "kullanın": 25947,
  "düğünü": 25948,
  "cra": 25949,
  "comments": 25950,
  "landığı": 25951,
  "biçim": 25952,
  "kolayca": 25953,
  "kapısı": 25954,
  "meyve": 25955,
  "i̇y": 25956,
  "vali": 25957,
  "sigara": 25958,
  "vi̇": 25959,
  "ruk": 25960,
  "memiz": 25961,
  "kaçır": 25962,
  "usta": 25963,
  "gerekçe": 25964,
  "değerlendirme": 25965,
  "maruz": 25966,
  "i̇srail": 25967,
  "website": 25968,
  "sorus": 25969,
  "hayir": 25970,
  "asit": 25971,
  "çoğunluk": 25972,
  "okuyun": 25973,
  "kilis": 25974,
  "bg": 25975,
  "elazığ": 25976,
  "hz": 25977,
  "imal": 25978,
  "beyin": 25979,
  "maraş": 25980,
  "çalıştır": 25981,
  "havalim": 25982,
  "aydınlatma": 25983,
  "şik": 25984,
  "ansı": 25985,
  "krallık": 25986,
  "aksesuar": 25987,
  "etmiştir": 25988,
  "yürür": 25989,
  "kurab": 25990,
  "cia": 25991,
  "hikayeleri": 25992,
  "peygamber": 25993,
  "rakam": 25994,
  "üstün": 25995,
  "teşem": 25996,
  "yaralan": 25997,
  "benzersiz": 25998,
  "anlamak": 25999,
  "dönemi": 26000,
  "yaparken": 26001,
  "william": 26002,
  "aksi": 26003,
  "muhteşem": 26004,
  "tasarru": 26005,
  "çalışır": 26006,
  "belge": 26007,
  "oyuncular": 26008,
  "geldiği": 26009,
  "dıklarını": 26010,
  "jet": 26011,
  "burg": 26012,
  "virüs": 26013,
  "dey": 26014,
  "tedbir": 26015,
  "steri": 26016,
  "ederken": 26017,
  "i̇şlet": 26018,
  "öldürül": 26019,
  "sitenin": 26020,
  "yılmaz": 26021,
  "kürt": 26022,
  "yukarıda": 26023,
  "namaz": 26024,
  "izmir": 26025,
  "idari": 26026,
  "baycan": 26027,
  "fc": 26028,
  "rezer": 26029,
  "1996": 26030,
  "cıları": 26031,
  "katıldı": 26032,
  "pasa": 26033,
  "soft": 26034,
  "maması": 26035,
  "yanıtlasil": 26036,
  "yetişkin": 26037,
  "hapis": 26038,
  "hakim": 26039,
  "etkileye": 26040,
  "düşünüyor": 26041,
  "hri": 26042,
  "text": 26043,
  "temin": 26044,
  "sitesinin": 26045,
  "yayımlanmayacak": 26046,
  "denetim": 26047,
  "eğlence": 26048,
  "pur": 26049,
  "uyumlu": 26050,
  "\".": 26051,
  "yoz": 26052,
  "ente": 26053,
  "eleman": 26054,
  "ters": 26055,
  "izleme": 26056,
  "kartal": 26057,
  "61": 26058,
  "soya": 26059,
  "sovyet": 26060,
  "bilgilere": 26061,
  "ık": 26062,
  "yaklaşım": 26063,
  "yalan": 26064,
  "alıntı": 26065,
  "egzer": 26066,
  "yapısı": 26067,
  "dolaşı": 26068,
  "olimpiyat": 26069,
  "korsan": 26070,
  "katal": 26071,
  "akış": 26072,
  "world": 26073,
  "89": 26074,
  "yürüy": 26075,
  "incelem": 26076,
  "teşekkürler": 26077,
  "ano": 26078,
  "tedarik": 26079,
  "sıvı": 26080,
  "kullanılması": 26081,
  "shop": 26082,
  "zamanlar": 26083,
  "trend": 26084,
  "kusur": 26085,
  "(-": 26086,
  "bağır": 26087,
  "buradan": 26088,
  "unca": 26089,
  "isiniz": 26090,
  "air": 26091,
  "düşman": 26092,
  "ülkeler": 26093,
  "sevgili": 26094,
  "alınması": 26095,
  "endi": 26096,
  "from": 26097,
  "wood": 26098,
  "1995": 26099,
  "devrim": 26100,
  "diniz": 26101,
  "vic": 26102,
  "eğlenceli": 26103,
  "yabilirsiniz": 26104,
  "maddesi": 26105,
  "giren": 26106,
  "udi": 26107,
  "ence": 26108,
  "stır": 26109,
  "teslimat": 26110,
  "vermektedir": 26111,
  "selam": 26112,
  "oyunlar": 26113,
  "ekib": 26114,
  "tamiri": 26115,
  "hastalığı": 26116,
  "şanlıurfa": 26117,
  "gali": 26118,
  "i̇ade": 26119,
  "faydalan": 26120,
  "seksi": 26121,
  "çıkıyor": 26122,
  "edirne": 26123,
  "lamı": 26124,
  "cağına": 26125,
  "köprü": 26126,
  "yapılmış": 26127,
  "tasarımı": 26128,
  "network": 26129,
  "röportaj": 26130,
  "tum": 26131,
  "villa": 26132,
  "vizyon": 26133,
  "dilen": 26134,
  "rey": 26135,
  "kork": 26136,
  "beşiktaş": 26137,
  "isimli": 26138,
  "yükümlül": 26139,
  "uyku": 26140,
  "liler": 26141,
  "mesaf": 26142,
  "montaj": 26143,
  "ung": 26144,
  "faiz": 26145,
  "verildi": 26146,
  "angel": 26147,
  "büy": 26148,
  "yakala": 26149,
  "lev": 26150,
  "derg": 26151,
  "özetle": 26152,
  "işleme": 26153,
  "1994": 26154,
  "ahşap": 26155,
  "japonya": 26156,
  "hp": 26157,
  "coğrafya": 26158,
  "işaretlenmiş": 26159,
  "kullanıcıların": 26160,
  "1980": 26161,
  "tokat": 26162,
  "vermeye": 26163,
  "örneği": 26164,
  "kiralık": 26165,
  "62": 26166,
  "lum": 26167,
  "koor": 26168,
  "paul": 26169,
  "öğrenme": 26170,
  "ismi": 26171,
  "belirlen": 26172,
  "bilinç": 26173,
  "ilmesine": 26174,
  "başlat": 26175,
  "inter": 26176,
  "larımızın": 26177,
  "kanada": 26178,
  "apple": 26179,
  "oyu": 26180,
  "ang": 26181,
  "teb": 26182,
  "sayın": 26183,
  "batman": 26184,
  "evrim": 26185,
  "vurgula": 26186,
  "chris": 26187,
  "malarına": 26188,
  "jer": 26189,
  "yaratıcı": 26190,
  "haft": 26191,
  "teor": 26192,
  "rehberi": 26193,
  "diğinden": 26194,
  "peri": 26195,
  "giderek": 26196,
  "ürünlerin": 26197,
  "diklerini": 26198,
  "azerbaycan": 26199,
  "kıyafet": 26200,
  "köken": 26201,
  "muyor": 26202,
  "87": 26203,
  "ölü": 26204,
  "tercü": 26205,
  "düzce": 26206,
  "chan": 26207,
  "ödem": 26208,
  "cay": 26209,
  "çet": 26210,
  "gelişmiş": 26211,
  "kitaplar": 26212,
  "izleyi": 26213,
  "gezi": 26214,
  "petrol": 26215,
  "tacak": 26216,
  "oluşur": 26217,
  "arız": 26218,
  "eliği": 26219,
  "düzelt": 26220,
  "klima": 26221,
  "değişken": 26222,
  "canlandır": 26223,
  "lazer": 26224,
  "artı": 26225,
  "mun": 26226,
  "yede": 26227,
  "belg": 26228,
  "kumar": 26229,
  "oid": 26230,
  "şunu": 26231,
  "düzenlen": 26232,
  "stres": 26233,
  "kazanan": 26234,
  "brahim": 26235,
  "bakınız": 26236,
  "edilmektedir": 26237,
  "81": 26238,
  "niha": 26239,
  "yolcu": 26240,
  "kaydı": 26241,
  "sayısını": 26242,
  "uyarınca": 26243,
  "işaretlenmişlerdir": 26244,
  "cial": 26245,
  "milletvekili": 26246,
  "denin": 26247,
  "monu": 26248,
  "uluyor": 26249,
  "suret": 26250,
  "eyle": 26251,
  "içe": 26252,
  "sporcu": 26253,
  "maksim": 26254,
  "mero": 26255,
  "bina": 26256,
  "82": 26257,
  "ime": 26258,
  "şehit": 26259,
  "tho": 26260,
  "david": 26261,
  "anlamı": 26262,
  "1992": 26263,
  "yılından": 26264,
  "memnuniyet": 26265,
  "bölümde": 26266,
  "arab": 26267,
  "ilmesini": 26268,
  "gerçe": 26269,
  "lıkta": 26270,
  "alay": 26271,
  "miz": 26272,
  "çocuğun": 26273,
  "mag": 26274,
  "ekipman": 26275,
  "okur": 26276,
  "bende": 26277,
  "ilme": 26278,
  "larca": 26279,
  "parta": 26280,
  "çeviri": 26281,
  "kaynakları": 26282,
  "kombi": 26283,
  "dünyaya": 26284,
  "geliştirme": 26285,
  "indirim": 26286,
  "ederiz": 26287,
  "açıkladı": 26288,
  "türleri": 26289,
  "bayra": 26290,
  "mevcuttur": 26291,
  "tazmin": 26292,
  "mahkemesi": 26293,
  "cos": 26294,
  "hile": 26295,
  "olmalı": 26296,
  "beğenbeğen": 26297,
  "sic": 26298,
  "isinden": 26299,
  "zafer": 26300,
  "etmeyi": 26301,
  "dokun": 26302,
  "zincir": 26303,
  "macer": 26304,
  "işte": 26305,
  "kars": 26306,
  "di̇r": 26307,
  "gösteri": 26308,
  "sunul": 26309,
  "kulübü": 26310,
  "kenti": 26311,
  "yaşı": 26312,
  "alex": 26313,
  "referans": 26314,
  "ino": 26315,
  "gitti": 26316,
  "yunanistan": 26317,
  "sembol": 26318,
  "cre": 26319,
  "sebebiyle": 26320,
  "i̇spanya": 26321,
  "zirve": 26322,
  "vara": 26323,
  "salon": 26324,
  "gençlik": 26325,
  "yaprak": 26326,
  "sup": 26327,
  "yolları": 26328,
  "rul": 26329,
  "atık": 26330,
  "copy": 26331,
  "çerçevesinde": 26332,
  "ulaştır": 26333,
  "boyutu": 26334,
  "lok": 26335,
  "çıl": 26336,
  "görüntül": 26337,
  "pata": 26338,
  "takı": 26339,
  "jim": 26340,
  "kullanabilirsiniz": 26341,
  "finansal": 26342,
  "\"]": 26343,
  "büny": 26344,
  "maçı": 26345,
  "emniyet": 26346,
  "put": 26347,
  "tılan": 26348,
  "yakıt": 26349,
  "zamanlarda": 26350,
  "86": 26351,
  "kala": 26352,
  "yarım": 26353,
  "anlayış": 26354,
  "çekir": 26355,
  "sağlayıcı": 26356,
  "bölgede": 26357,
  "hael": 26358,
  "çocukların": 26359,
  "bilgilerin": 26360,
  "enstit": 26361,
  "sunuyor": 26362,
  "vakfı": 26363,
  "ese": 26364,
  "kayb": 26365,
  "yazılan": 26366,
  ":)": 26367,
  "tahya": 26368,
  "feth": 26369,
  "ebevey": 26370,
  "glo": 26371,
  "attı": 26372,
  "tiğimiz": 26373,
  "karşıya": 26374,
  "fiil": 26375,
  "1993": 26376,
  "avustralya": 26377,
  "bilet": 26378,
  "çisi": 26379,
  "enfeksiyon": 26380,
  "mezar": 26381,
  "elendir": 26382,
  "incelen": 26383,
  "şuyor": 26384,
  "120": 26385,
  "die": 26386,
  "genişlet": 26387,
  "çalışa": 26388,
  "ülkede": 26389,
  "karaman": 26390,
  "taksit": 26391,
  "platformu": 26392,
  "akdeniz": 26393,
  "kullanıcının": 26394,
  "rekor": 26395,
  "söyleye": 26396,
  "yör": 26397,
  "pınar": 26398,
  "muk": 26399,
  "gas": 26400,
  "fenerbahçe": 26401,
  "tbmm": 26402,
  "hastalıkları": 26403,
  "geze": 26404,
  "poker": 26405,
  "evler": 26406,
  "manşet": 26407,
  "ami": 26408,
  "akademik": 26409,
  "işler": 26410,
  "doğdu": 26411,
  "bonusları": 26412,
  "74": 26413,
  "parlak": 26414,
  "yüzyılda": 26415,
  "faydalı": 26416,
  "üretimi": 26417,
  "dae": 26418,
  "okyan": 26419,
  "kadınların": 26420,
  "sağlanan": 26421,
  "öte": 26422,
  "kele": 26423,
  "tarafı": 26424,
  "71": 26425,
  "düzenleme": 26426,
  "akl": 26427,
  "düştü": 26428,
  "adıyla": 26429,
  "box": 26430,
  "olabilirolabilir": 26431,
  "olabilirolabilirmero": 26432,
  "bölün": 26433,
  "turnu": 26434,
  "i̇nşa": 26435,
  "şehirler": 26436,
  "deprem": 26437,
  "mekteyiz": 26438,
  "lmaz": 26439,
  "soğ": 26440,
  "amas": 26441,
  "açtı": 26442,
  "vize": 26443,
  "yemekleri": 26444,
  "istih": 26445,
  "abon": 26446,
  "tol": 26447,
  "stü": 26448,
  "yenin": 26449,
  "cılığı": 26450,
  "kullanır": 26451,
  "ihtim": 26452,
  "kullanılarak": 26453,
  "taah": 26454,
  "ng": 26455,
  "çeken": 26456,
  "terapi": 26457,
  "çel": 26458,
  "bildirim": 26459,
  "duygusal": 26460,
  "haya": 26461,
  "telif": 26462,
  "asistanısınız": 26463,
  "olduğunda": 26464,
  "james": 26465,
  "oldukları": 26466,
  "dolay": 26467,
  "miktarda": 26468,
  "sky": 26469,
  "unutmayın": 26470,
  "pm": 26471,
  "merkezine": 26472,
  "belgesi": 26473,
  "michael": 26474,
  "itibarı": 26475,
  "açıdan": 26476,
  "tabii": 26477,
  "i̇ler": 26478,
  "asans": 26479,
  "ref": 26480,
  "adında": 26481,
  "legal": 26482,
  "toptan": 26483,
  "kadının": 26484,
  "salı": 26485,
  "rut": 26486,
  "birbirine": 26487,
  "mevzuat": 26488,
  "jul": 26489,
  "pazartesi": 26490,
  "alardan": 26491,
  "aran": 26492,
  "etkiler": 26493,
  "makla": 26494,
  "açıklamada": 26495,
  "herkese": 26496,
  "sül": 26497,
  "[\"": 26498,
  "şaşır": 26499,
  "hanım": 26500,
  "adil": 26501,
  "bgcolor": 26502,
  "hollanda": 26503,
  "kullanılmaktadır": 26504,
  "numaralı": 26505,
  "sızın": 26506,
  "gözden": 26507,
  "alfa": 26508,
  "öykü": 26509,
  "kalkın": 26510,
  "dede": 26511,
  "annesi": 26512,
  "cümlede": 26513,
  "nüfusu": 26514,
  "function": 26515,
  "ortamda": 26516,
  "şeyin": 26517,
  "areti": 26518,
  "ücreti": 26519,
  "vermiş": 26520,
  "künye": 26521,
  "84": 26522,
  "alımı": 26523,
  "elle": 26524,
  "pul": 26525,
  "muhammed": 26526,
  "drum": 26527,
  "yolculuk": 26528,
  "hastalı": 26529,
  "sha": 26530,
  "tale": 26531,
  "bez": 26532,
  "ilişkiler": 26533,
  "hücre": 26534,
  "lardaki": 26535,
  "boğaz": 26536,
  "hone": 26537,
  "taze": 26538,
  "gerektiği": 26539,
  "olduğumuz": 26540,
  "1991": 26541,
  "şeri": 26542,
  "satan": 26543,
  "galatas": 26544,
  "danışmanlık": 26545,
  "univer": 26546,
  "taşıyan": 26547,
  "salonu": 26548,
  "terk": 26549,
  "dikkatli": 26550,
  "davran": 26551,
  "dolan": 26552,
  "ayn": 26553,
  "here": 26554,
  "kullanıla": 26555,
  "itiraz": 26556,
  "down": 26557,
  "restoran": 26558,
  "galatasaray": 26559,
  "yahut": 26560,
  "eleme": 26561,
  "atom": 26562,
  "arac": 26563,
  "1985": 26564,
  "sorunsuz": 26565,
  "etkileri": 26566,
  "yumuşak": 26567,
  "maksimum": 26568,
  "xy": 26569,
  "hastanesi": 26570,
  "cok": 26571,
  "yöntemleri": 26572,
  "modül": 26573,
  "kâr": 26574,
  "ambala": 26575,
  "söyler": 26576,
  "ling": 26577,
  "tüketi": 26578,
  "almıştır": 26579,
  "anon": 26580,
  "show": 26581,
  "brik": 26582,
  "ağacı": 26583,
  "malzemeler": 26584,
  "arkadaşlar": 26585,
  "düşünc": 26586,
  "çorum": 26587,
  "tören": 26588,
  "\")": 26589,
  "çekmek": 26590,
  "tabak": 26591,
  "şirketin": 26592,
  "hayran": 26593,
  "zo": 26594,
  "bedel": 26595,
  "gri": 26596,
  "kari": 26597,
  "bizimle": 26598,
  "şunları": 26599,
  "senar": 26600,
  "73": 26601,
  "kimya": 26602,
  "endiş": 26603,
  "mobilya": 26604,
  "xbet": 26605,
  "kamera": 26606,
  "husus": 26607,
  "çizgi": 26608,
  "zemin": 26609,
  "dizisi": 26610,
  "ekibi": 26611,
  "burun": 26612,
  "derecede": 26613,
  "diğine": 26614,
  "menizi": 26615,
  "pür": 26616,
  "kasta": 26617,
  "bekliyor": 26618,
  "kova": 26619,
  "maddi": 26620,
  "şampiyonası": 26621,
  "sub": 26622,
  "bülten": 26623,
  "erotik": 26624,
  "taahhü": 26625,
  "çim": 26626,
  "siteye": 26627,
  "madığı": 26628,
  "::": 26629,
  "iklim": 26630,
  "iyo": 26631,
  "covid": 26632,
  "bebe": 26633,
  "özellikler": 26634,
  "trum": 26635,
  "tive": 26636,
  "müsa": 26637,
  "devleti": 26638,
  "kazanı": 26639,
  "gerekç": 26640,
  "gelişmeler": 26641,
  "kendilerini": 26642,
  "çikola": 26643,
  "sesi": 26644,
  "izleye": 26645,
  "sto": 26646,
  "yaşadığı": 26647,
  "uygul": 26648,
  "amı": 26649,
  "beylik": 26650,
  "iphone": 26651,
  "alarından": 26652,
  "mümkündür": 26653,
  "şüph": 26654,
  "sekiz": 26655,
  "i̇brahim": 26656,
  "çeşitleri": 26657,
  "hesabı": 26658,
  "şirketleri": 26659,
  "eskort": 26660,
  "oluşum": 26661,
  "kalites": 26662,
  "uzu": 26663,
  "tran": 26664,
  "işç": 26665,
  "ebeveyn": 26666,
  "başlıyor": 26667,
  "sonucuna": 26668,
  "ydi": 26669,
  "><": 26670,
  "duyg": 26671,
  "dd": 26672,
  "guldak": 26673,
  "kelimeleri": 26674,
  "çam": 26675,
  "ilmez": 26676,
  "url": 26677,
  "haberi": 26678,
  "esun": 26679,
  "pinter": 26680,
  "kendilerine": 26681,
  "ettiğiniz": 26682,
  "çoğunlukla": 26683,
  "başbakan": 26684,
  "olabil": 26685,
  "seven": 26686,
  "i̇lanları": 26687,
  "öf": 26688,
  "mide": 26689,
  "zonguldak": 26690,
  "pier": 26691,
  "birbirinden": 26692,
  "olacağını": 26693,
  "micro": 26694,
  "i̇sveç": 26695,
  "yumurta": 26696,
  "doma": 26697,
  "format": 26698,
  "lazım": 26699,
  "oluşturur": 26700,
  "ti̇": 26701,
  "adamı": 26702,
  "seçeneğ": 26703,
  "başlı": 26704,
  "uşak": 26705,
  "kasyon": 26706,
  "grubun": 26707,
  "uçuş": 26708,
  "görür": 26709,
  "izlemek": 26710,
  "ekmek": 26711,
  "yemeği": 26712,
  "indi": 26713,
  "terim": 26714,
  "but": 26715,
  "koordin": 26716,
  "ediliyor": 26717,
  "giresun": 26718,
  "kilise": 26719,
  "tis": 26720,
  "dördün": 26721,
  "blok": 26722,
  "bulabilirsiniz": 26723,
  "paragraf": 26724,
  "mardin": 26725,
  "ndeki": 26726,
  "alkol": 26727,
  "atmos": 26728,
  "psikolojik": 26729,
  "ars": 26730,
  "olanlar": 26731,
  "rakip": 26732,
  "next": 26733,
  "copyright": 26734,
  "java": 26735,
  "sco": 26736,
  "muhafaz": 26737,
  "sebebi": 26738,
  "mekaniz": 26739,
  "süren": 26740,
  "bs": 26741,
  "elektrikli": 26742,
  "çözün": 26743,
  "ingir": 26744,
  "kütahya": 26745,
  "ödülleri": 26746,
  "sorgu": 26747,
  "92": 26748,
  "terek": 26749,
  "cookies": 26750,
  "sandal": 26751,
  "tegor": 26752,
  "şöyledir": 26753,
  "sonsuz": 26754,
  "döngü": 26755,
  "ören": 26756,
  "seyin": 26757,
  "ous": 26758,
  "kurabiye": 26759,
  "melik": 26760,
  "çerezleri": 26761,
  "parmak": 26762,
  "kastamonu": 26763,
  "koleksiyon": 26764,
  "ilinin": 26765,
  "83": 26766,
  "blu": 26767,
  "âr": 26768,
  "ırım": 26769,
  "kuy": 26770,
  "milliyet": 26771,
  "süley": 26772,
  "adımları": 26773,
  "serisi": 26774,
  "ğına": 26775,
  "tekir": 26776,
  "küm": 26777,
  "ölenler": 26778,
  "çalıştı": 26779,
  "daire": 26780,
  "fatur": 26781,
  "ziya": 26782,
  "rüya": 26783,
  "pdf": 26784,
  "1970": 26785,
  "telefonu": 26786,
  "sinyal": 26787,
  "yabilir": 26788,
  "beli": 26789,
  "emre": 26790,
  "opt": 26791,
  "eşi": 26792,
  "dt": 26793,
  "hâl": 26794,
  "jon": 26795,
  "ikisi": 26796,
  "nükle": 26797,
  "sürdürülebilir": 26798,
  "sayede": 26799,
  "analizi": 26800,
  "iken": 26801,
  "komün": 26802,
  "bayanlar": 26803,
  "93": 26804,
  "cn": 26805,
  "yürüyüş": 26806,
  "pinterest": 26807,
  "sör": 26808,
  "bodrum": 26809,
  "burcu": 26810,
  "yıkama": 26811,
  "kabl": 26812,
  "depolama": 26813,
  "vanın": 26814,
  "sunar": 26815,
  "forex": 26816,
  "ailesi": 26817,
  "cle": 26818,
  "bağımlı": 26819,
  "altyazılı": 26820,
  "??": 26821,
  "aslan": 26822,
  "peyn": 26823,
  "getiren": 26824,
  "uğur": 26825,
  "cinsiyet": 26826,
  "kişilere": 26827,
  "inanç": 26828,
  "düzeyde": 26829,
  "fri": 26830,
  "cap": 26831,
  "şüphe": 26832,
  "ülkemizde": 26833,
  "inşaat": 26834,
  "duyuru": 26835,
  "düzü": 26836,
  "planı": 26837,
  "aley": 26838,
  "göm": 26839,
  "testi": 26840,
  "cro": 26841,
  "parla": 26842,
  "ğlu": 26843,
  "ea": 26844,
  "aktiv": 26845,
  "hakkındaki": 26846,
  "yayıl": 26847,
  "şıklık": 26848,
  "istasyon": 26849,
  "anka": 26850,
  "cast": 26851,
  "tılması": 26852,
  "94": 26853,
  "frac": 26854,
  "meme": 26855,
  "iştir": 26856,
  "bulgar": 26857,
  "kriter": 26858,
  "mater": 26859,
  "süleyman": 26860,
  "ameliyat": 26861,
  "belirten": 26862,
  "başa": 26863,
  "biber": 26864,
  "yken": 26865,
  "açılış": 26866,
  "asıyla": 26867,
  "emlak": 26868,
  "fav": 26869,
  "ağız": 26870,
  "bm": 26871,
  "memesi": 26872,
  "ege": 26873,
  "açılan": 26874,
  "cumar": 26875,
  "seçimi": 26876,
  "cileri": 26877,
  "kaları": 26878,
  "rize": 26879,
  "beton": 26880,
  "tt": 26881,
  "kuvvetleri": 26882,
  "güncelleme": 26883,
  "fah": 26884,
  "müdahal": 26885,
  "avustur": 26886,
  "egzersiz": 26887,
  "şamba": 26888,
  "ls": 26889,
  "tesisat": 26890,
  "mediğini": 26891,
  "tit": 26892,
  "artvin": 26893,
  "kalır": 26894,
  "olik": 26895,
  "buldu": 26896,
  "kos": 26897,
  "familya": 26898,
  "ال": 26899,
  "i̇mparatorluğu": 26900,
  "kararlı": 26901,
  "kriz": 26902,
  "mantar": 26903,
  "alındı": 26904,
  "cumartesi": 26905,
  "onunla": 26906,
  "ekleyin": 26907,
  "kov": 26908,
  "i̇laç": 26909,
  "dördüncü": 26910,
  "real": 26911,
  "general": 26912,
  "gördü": 26913,
  "asının": 26914,
  "hint": 26915,
  "aktivi": 26916,
  "sevgi": 26917,
  "esn": 26918,
  "kurs": 26919,
  "kalab": 26920,
  "gecik": 26921,
  "nel": 26922,
  "özgürlük": 26923,
  "cus": 26924,
  "araştırmalar": 26925,
  "aler": 26926,
  "tutu": 26927,
  "cuk": 26928,
  "cr": 26929,
  "bunlardan": 26930,
  "randev": 26931,
  "algor": 26932,
  "yakası": 26933,
  "gb": 26934,
  "getirmek": 26935,
  "demokratik": 26936,
  "organik": 26937,
  "pel": 26938,
  "arch": 26939,
  "yorumu": 26940,
  "?”": 26941,
  "ああああああああ": 26942,
  "perşem": 26943,
  "iner": 26944,
  "diplo": 26945,
  "----------------": 26946,
  "ümran": 26947,
  "ramaz": 26948,
  "1989": 26949,
  "vah": 26950,
  "dıköy": 26951,
  "kaba": 26952,
  "oyuncuları": 26953,
  "dondur": 26954,
  "veriliyor": 26955,
  "hamil": 26956,
  "dünyası": 26957,
  "tıldı": 26958,
  "muştu": 26959,
  "mî": 26960,
  "olaylar": 26961,
  "kardeşi": 26962,
  "bitkiler": 26963,
  "kadıköy": 26964,
  "sonuna": 26965,
  "yerleşim": 26966,
  "oksijen": 26967,
  "hoşgel": 26968,
  "getirdi": 26969,
  "full": 26970,
  "algorit": 26971,
  "redde": 26972,
  "mızdan": 26973,
  "çarşamba": 26974,
  "sağlıyor": 26975,
  "kimdir": 26976,
  "ustası": 26977,
  "eşyalar": 26978,
  "yıkı": 26979,
  "öğrenim": 26980,
  "koltuğu": 26981,
  "damar": 26982,
  "göstermektedir": 26983,
  "amasya": 26984,
  "ulaşmak": 26985,
  "hiss": 26986,
  "ciz": 26987,
  "dostu": 26988,
  "anlamlı": 26989,
  "sürücü": 26990,
  "tekirdağ": 26991,
  "örtü": 26992,
  "perşembe": 26993,
  "satışı": 26994,
  "fla": 26995,
  "ig": 26996,
  "irak": 26997,
  "cını": 26998,
  "zim": 26999,
  "buğ": 27000,
  "leyin": 27001,
  "yil": 27002,
  "ğde": 27003,
  "isparta": 27004,
  "yazıları": 27005,
  "göğü": 27006,
  "keyifli": 27007,
  "string": 27008,
  "91": 27009,
  "bilgilendirme": 27010,
  "ebilecek": 27011,
  "efsan": 27012,
  "hatırla": 27013,
  "güne": 27014,
  "sitesine": 27015,
  "günler": 27016,
  "diğince": 27017,
  "festiv": 27018,
  "perde": 27019,
  "sürüm": 27020,
  "tanımlayın": 27021,
  "lerimizin": 27022,
  "silahlı": 27023,
  "konuk": 27024,
  "ice": 27025,
  "ales": 27026,
  "tartı": 27027,
  "bakımından": 27028,
  "kalk": 27029,
  "cıların": 27030,
  "festivali": 27031,
  "molekül": 27032,
  "biliyoruz": 27033,
  "büyüme": 27034,
  "enter": 27035,
  "boşluk": 27036,
  "görevde": 27037,
  "i̇nşaat": 27038,
  "başk": 27039,
  "fırın": 27040,
  "noktada": 27041,
  "rüzgar": 27042,
  "sara": 27043,
  "bölümünde": 27044,
  "tekiz": 27045,
  "önde": 27046,
  "müzesi": 27047,
  "lideri": 27048,
  "dalg": 27049,
  "ure": 27050,
  "raporu": 27051,
  "alp": 27052,
  "inti": 27053,
  "labor": 27054,
  "lendirme": 27055,
  "geliştirmek": 27056,
  "çocukları": 27057,
  "mana": 27058,
  "file": 27059,
  "lamış": 27060,
  "verebilir": 27061,
  "sorumluluğu": 27062,
  "antren": 27063,
  "shi": 27064,
  "lamalı": 27065,
  "çilingir": 27066,
  "dukları": 27067,
  "hang": 27068,
  "olabilirsiniz": 27069,
  "lamayı": 27070,
  "……": 27071,
  "donanım": 27072,
  "kurtul": 27073,
  "dekorasyon": 27074,
  "bilgiye": 27075,
  "asansör": 27076,
  "news": 27077,
  "sıklıkla": 27078,
  "adıyaman": 27079,
  "aksaray": 27080,
  "gelmiş": 27081,
  "ataşehir": 27082,
  "slo": 27083,
  "tablet": 27084,
  "şunlardır": 27085,
  "enflasyon": 27086,
  "öldü": 27087,
  "ite": 27088,
  "scrip": 27089,
  "=\"#": 27090,
  "dolaylı": 27091,
  "duruş": 27092,
  "sahipleri": 27093,
  "oranları": 27094,
  "hüseyin": 27095,
  "sitem": 27096,
  "olabilecek": 27097,
  "brezil": 27098,
  "klin": 27099,
  "ece": 27100,
  "adamın": 27101,
  "mamak": 27102,
  "göt": 27103,
  "örek": 27104,
  "tohum": 27105,
  "üretilen": 27106,
  "vit": 27107,
  "dalga": 27108,
  "esa": 27109,
  "civar": 27110,
  "melerini": 27111,
  "sisteminin": 27112,
  "havalimanı": 27113,
  "düzgün": 27114,
  "uygulana": 27115,
  "yorlar": 27116,
  "ald": 27117,
  "işgal": 27118,
  "imkanı": 27119,
  "ation": 27120,
  "rah": 27121,
  "evin": 27122,
  "alakalı": 27123,
  "kimi": 27124,
  "yaza": 27125,
  "ns": 27126,
  "atif": 27127,
  "latin": 27128,
  "emekli": 27129,
  "belirlenen": 27130,
  "üstüne": 27131,
  "madalya": 27132,
  "tedir": 27133,
  "tımı": 27134,
  "gizem": 27135,
  "maaş": 27136,
  ".'": 27137,
  "albümü": 27138,
  "festi": 27139,
  "arayan": 27140,
  "karanlık": 27141,
  "aldım": 27142,
  "kalitesi": 27143,
  "burdur": 27144,
  "that": 27145,
  "kasaba": 27146,
  "materyal": 27147,
  "seyir": 27148,
  "celeri": 27149,
  "zincan": 27150,
  "sınırsız": 27151,
  "gördüğ": 27152,
  "eld": 27153,
  "kanat": 27154,
  "banlı": 27155,
  "eczan": 27156,
  "şekli": 27157,
  "elan": 27158,
  "hediy": 27159,
  "üstelik": 27160,
  "].": 27161,
  "mağazası": 27162,
  "sadık": 27163,
  "miyorum": 27164,
  "elinde": 27165,
  "dinamik": 27166,
  "ordusu": 27167,
  "şarj": 27168,
  "portekiz": 27169,
  "halkı": 27170,
  "mutfa": 27171,
  "imkâ": 27172,
  "festival": 27173,
  "aktör": 27174,
  "muay": 27175,
  "dedim": 27176,
  "hire": 27177,
  "ciha": 27178,
  "now": 27179,
  "ideal": 27180,
  "sayıl": 27181,
  "istiyan": 27182,
  "cerrahi": 27183,
  "george": 27184,
  "1960": 27185,
  "aktarıl": 27186,
  "stre": 27187,
  "ilçesinde": 27188,
  "bacak": 27189,
  "köş": 27190,
  "bünyesinde": 27191,
  "oyuncusu": 27192,
  "basının": 27193,
  "makya": 27194,
  "detaylar": 27195,
  "medim": 27196,
  "kvkk": 27197,
  "ülen": 27198,
  "çapında": 27199,
  "yerden": 27200,
  "nişan": 27201,
  "hızı": 27202,
  "müdahale": 27203,
  "kaş": 27204,
  "fli": 27205,
  "duğumuz": 27206,
  "varsayı": 27207,
  "ondan": 27208,
  "esnasında": 27209,
  "cing": 27210,
  "\"]=>": 27211,
  "try": 27212,
  "denge": 27213,
  "fransızca": 27214,
  "yerleri": 27215,
  "uf": 27216,
  "betçi": 27217,
  "taahhüt": 27218,
  "ase": 27219,
  "müte": 27220,
  "bi̇l": 27221,
  "kariyeri": 27222,
  "e9e9e9": 27223,
  "spesi": 27224,
  "sorunlar": 27225,
  "insanı": 27226,
  "sw": 27227,
  "hazırlanan": 27228,
  "kayıtlı": 27229,
  "biyografi": 27230,
  "karadeniz": 27231,
  "çıkarmak": 27232,
  "melerine": 27233,
  "ago": 27234,
  "****": 27235,
  "heps": 27236,
  "ilişkili": 27237,
  "vefat": 27238,
  "ilginç": 27239,
  "hiper": 27240,
  "sessiz": 27241,
  "600": 27242,
  "istat": 27243,
  "hun": 27244,
  "meclisi": 27245,
  "yozgat": 27246,
  "rastgele": 27247,
  "süreli": 27248,
  "tc": 27249,
  "robert": 27250,
  "gezegen": 27251,
  "atlan": 27252,
  "icra": 27253,
  "yapmanız": 27254,
  "yaşar": 27255,
  "tech": 27256,
  "unuzu": 27257,
  "genetik": 27258,
  "bilmeniz": 27259,
  "çamaş": 27260,
  "mevsim": 27261,
  "107": 27262,
  "fos": 27263,
  "gereği": 27264,
  "lemeler": 27265,
  "göğüs": 27266,
  "sum": 27267,
  "tiğinde": 27268,
  "odaklan": 27269,
  "!”": 27270,
  "katılan": 27271,
  "öğrenmek": 27272,
  "sunmaktadır": 27273,
  "kemik": 27274,
  "kendinizi": 27275,
  "banyo": 27276,
  "tavsiy": 27277,
  "öneri": 27278,
  "bilinir": 27279,
  "halka": 27280,
  "bağlan": 27281,
  "lastik": 27282,
  "inceleye": 27283,
  "yolo": 27284,
  "li̇k": 27285,
  "konuyu": 27286,
  "doku": 27287,
  "sırt": 27288,
  "tutul": 27289,
  "masaj": 27290,
  "psikoloji": 27291,
  "izler": 27292,
  "yalova": 27293,
  "cezası": 27294,
  "çizg": 27295,
  "verilmesi": 27296,
  "tetik": 27297,
  "değişikliği": 27298,
  "araçları": 27299,
  "öğrencilerin": 27300,
  "lıp": 27301,
  "ettim": 27302,
  "}{": 27303,
  "sinop": 27304,
  "gari": 27305,
  "işin": 27306,
  "öv": 27307,
  "ektif": 27308,
  "saniye": 27309,
  "macar": 27310,
  "hot": 27311,
  "esna": 27312,
  "pasta": 27313,
  "kong": 27314,
  "süredir": 27315,
  "yetki": 27316,
  "verg": 27317,
  "değildi": 27318,
  "istin": 27319,
  "olmayı": 27320,
  "1988": 27321,
  "pendik": 27322,
  "isterseniz": 27323,
  "nez": 27324,
  "adak": 27325,
  "sertifi": 27326,
  "master": 27327,
  "layacak": 27328,
  "tarzı": 27329,
  "makul": 27330,
  "elb": 27331,
  "soruşturma": 27332,
  "alması": 27333,
  "ramazan": 27334,
  "varlığı": 27335,
  "yazan": 27336,
  "gah": 27337,
  "işbirliği": 27338,
  "yazdır": 27339,
  "bence": 27340,
  "sahib": 27341,
  "örgütü": 27342,
  "hon": 27343,
  "i̇ste": 27344,
  "sektöründe": 27345,
  "layıp": 27346,
  "free": 27347,
  "cho": 27348,
  "nün": 27349,
  "oluşturulan": 27350,
  "lens": 27351,
  "atma": 27352,
  "zorlu": 27353,
  "açıklamalar": 27354,
  "başlıklı": 27355,
  "cük": 27356,
  "adi": 27357,
  "itibarıyla": 27358,
  "ğının": 27359,
  "beylikdüzü": 27360,
  "atmosfer": 27361,
  "insanlara": 27362,
  "yayınlandı": 27363,
  "sekret": 27364,
  "maktır": 27365,
  "demektir": 27366,
  "açabilir": 27367,
  "tasarruf": 27368,
  "uyuştur": 27369,
  "ömür": 27370,
  "çeyrek": 27371,
  "değişimi": 27372,
  "viç": 27373,
  "ümin": 27374,
  "imum": 27375,
  "kahval": 27376,
  "erke": 27377,
  "düşünüyorum": 27378,
  "3d": 27379,
  "yönel": 27380,
  "hamur": 27381,
  "1987": 27382,
  "mutluluk": 27383,
  "değerini": 27384,
  "atu": 27385,
  "tarihleri": 27386,
  "ux": 27387,
  "günlerde": 27388,
  "gelmektedir": 27389,
  "ahlak": 27390,
  "yönünde": 27391,
  "ümraniye": 27392,
  "liy": 27393,
  "tehlikeli": 27394,
  "karın": 27395,
  "yaşamı": 27396,
  "sevgil": 27397,
  "dâhil": 27398,
  "erzincan": 27399,
  "sağlayacak": 27400,
  "yakından": 27401,
  "gini": 27402,
  "farkı": 27403,
  "ambalaj": 27404,
  "evinde": 27405,
  "tamamı": 27406,
  "kavra": 27407,
  "magazin": 27408,
  "nevşehir": 27409,
  "kitle": 27410,
  "digit": 27411,
  "hakem": 27412,
  "döndü": 27413,
  "nükleer": 27414,
  "olağanüstü": 27415,
  "evli": 27416,
  "ilerden": 27417,
  "genelinde": 27418,
  "tüz": 27419,
  "kesinti": 27420,
  "elli": 27421,
  "yapabilir": 27422,
  "ai": 27423,
  "muhar": 27424,
  "arzu": 27425,
  "kanunun": 27426,
  "nam": 27427,
  "konfor": 27428,
  "şahin": 27429,
  "mars": 27430,
  "oluşturan": 27431,
  "girişi": 27432,
  "gerilim": 27433,
  "rıza": 27434,
  "sahn": 27435,
  "programları": 27436,
  "reddet": 27437,
  "yapılmıştır": 27438,
  "ıldığında": 27439,
  "fabrika": 27440,
  "i̇ncele": 27441,
  "masın": 27442,
  "taşımacılık": 27443,
  "silin": 27444,
  "alana": 27445,
  "faydaları": 27446,
  "sürece": 27447,
  "class": 27448,
  "kahramanmaraş": 27449,
  "ess": 27450,
  "off": 27451,
  "sorg": 27452,
  "melisiniz": 27453,
  "i̇spanyolca": 27454,
  "pamuk": 27455,
  "kaybe": 27456,
  "''''": 27457,
  "ýn": 27458,
  "end": 27459,
  "cusu": 27460,
  "atöl": 27461,
  "yükselt": 27462,
  "yun": 27463,
  "yazma": 27464,
  "arasından": 27465,
  "sayfası": 27466,
  "vererek": 27467,
  "zihin": 27468,
  "i̇nsanlar": 27469,
  "birimi": 27470,
  "yıldırım": 27471,
  "maye": 27472,
  "bağış": 27473,
  "maların": 27474,
  "kızlar": 27475,
  "desen": 27476,
  "fikri": 27477,
  "jik": 27478,
  "wordpress": 27479,
  "komedi": 27480,
  "âyet": 27481,
  "gitar": 27482,
  "kurulum": 27483,
  "anonim": 27484,
  "projeler": 27485,
  "cis": 27486,
  "cc": 27487,
  "bozul": 27488,
  "ect": 27489,
  "forni": 27490,
  "utma": 27491,
  "çileri": 27492,
  "larınıza": 27493,
  "1986": 27494,
  "kapak": 27495,
  "şair": 27496,
  "yolda": 27497,
  "engelli": 27498,
  "kullanmaya": 27499,
  "diyal": 27500,
  "yuvar": 27501,
  "ğinden": 27502,
  "für": 27503,
  "nehir": 27504,
  "isteye": 27505,
  "pır": 27506,
  "oyunun": 27507,
  "dri": 27508,
  "belirtti": 27509,
  "spon": 27510,
  "piyasaya": 27511,
  "fıkra": 27512,
  "tutan": 27513,
  "çalıştığı": 27514,
  "sn": 27515,
  "kamyon": 27516,
  "kahvaltı": 27517,
  "ardahan": 27518,
  "kullanıyor": 27519,
  "masıdır": 27520,
  "patates": 27521,
  "sanki": 27522,
  "altındaki": 27523,
  "şeye": 27524,
  "olduğum": 27525,
  "kullandı": 27526,
  "bulur": 27527,
  "mektup": 27528,
  "evlen": 27529,
  "çın": 27530,
  "dua": 27531,
  "soruları": 27532,
  "pon": 27533,
  "yürek": 27534,
  "dernek": 27535,
  "mağdur": 27536,
  "bilgiyi": 27537,
  "kazana": 27538,
  "temizliği": 27539,
  "yapmayı": 27540,
  "mıyorum": 27541,
  "döner": 27542,
  "cli": 27543,
  "yaşamak": 27544,
  "ston": 27545,
  "ib": 27546,
  "komutan": 27547,
  "peter": 27548,
  "hariç": 27549,
  "tekstil": 27550,
  "i̇ddaa": 27551,
  "etrafında": 27552,
  "tıklayınız": 27553,
  "değişiklikler": 27554,
  "oli": 27555,
  "koruyucu": 27556,
  "dalı": 27557,
  "fek": 27558,
  "solu": 27559,
  "girer": 27560,
  "imizden": 27561,
  "yusu": 27562,
  "well": 27563,
  "niğde": 27564,
  "şahıs": 27565,
  "kalıp": 27566,
  "aşık": 27567,
  "karabük": 27568,
  "hocam": 27569,
  "denir": 27570,
  "i̇şi̇m": 27571,
  "destekle": 27572,
  "('": 27573,
  "görme": 27574,
  "hikâ": 27575,
  "kadını": 27576,
  "isindeki": 27577,
  "aralarında": 27578,
  "burç": 27579,
  "row": 27580,
  "halısı": 27581,
  "hassa": 27582,
  "pc": 27583,
  "gurur": 27584,
  "atın": 27585,
  "mahall": 27586,
  "1984": 27587,
  "kürtaj": 27588,
  "fuar": 27589,
  "gemi": 27590,
  "bilgilerini": 27591,
  "iyer": 27592,
  "enstitüsü": 27593,
  "lacaktır": 27594,
  "diyerek": 27595,
  "kritik": 27596,
  "lanacak": 27597,
  "inceley": 27598,
  "amatör": 27599,
  "type": 27600,
  "ej": 27601,
  "views": 27602,
  "kalori": 27603,
  "hâlâ": 27604,
  "sq": 27605,
  "kaybı": 27606,
  "çaba": 27607,
  "fırsatı": 27608,
  "got": 27609,
  "demokrat": 27610,
  "ağa": 27611,
  "dk": 27612,
  "mekten": 27613,
  "birine": 27614,
  "bill": 27615,
  "parlamen": 27616,
  "comment": 27617,
  "temas": 27618,
  "bakın": 27619,
  "yapılmaktadır": 27620,
  "imer": 27621,
  "delil": 27622,
  "etmeniz": 27623,
  "akp": 27624,
  "alabilir": 27625,
  "i̇ka": 27626,
  "çocuğu": 27627,
  "eniz": 27628,
  "puanı": 27629,
  "oksit": 27630,
  "polonya": 27631,
  "konumu": 27632,
  "global": 27633,
  "genelde": 27634,
  "dge": 27635,
  "tescil": 27636,
  "share": 27637,
  "kullandığı": 27638,
  "üminyum": 27639,
  "çalışmaya": 27640,
  "tev": 27641,
  "almanca": 27642,
  "i̇çi̇n": 27643,
  "tümü": 27644,
  "paylaşmak": 27645,
  "irt": 27646,
  "komi": 27647,
  "kişiyi": 27648,
  "ore": 27649,
  "diyen": 27650,
  "ende": 27651,
  "gerçekleştirilen": 27652,
  "lüğe": 27653,
  "ölçek": 27654,
  "tarihçe": 27655,
  "esnek": 27656,
  "dağıtım": 27657,
  "strateji": 27658,
  "bugüne": 27659,
  "lira": 27660,
  "saati": 27661,
  "böcek": 27662,
  "cher": 27663,
  "ulaşı": 27664,
  "peynir": 27665,
  "duyu": 27666,
  "ki̇": 27667,
  "zamanlı": 27668,
  "apa": 27669,
  "suyun": 27670,
  "karış": 27671,
  "kalkınma": 27672,
  "ena": 27673,
  "gümüşhane": 27674,
  "sitesini": 27675,
  "elma": 27676,
  "bütçe": 27677,
  "larımızı": 27678,
  "dalık": 27679,
  "kıymet": 27680,
  "beğeni": 27681,
  "pho": 27682,
  "meyin": 27683,
  "bingöl": 27684,
  "bakı": 27685,
  "semin": 27686,
  "sözler": 27687,
  "limi": 27688,
  "yaşıyor": 27689,
  "misin": 27690,
  "zamanında": 27691,
  "makyaj": 27692,
  "produ": 27693,
  "bölgesel": 27694,
  "bitlis": 27695,
  "resimler": 27696,
  "mın": 27697,
  "estetik": 27698,
  "biyet": 27699,
  "kuran": 27700,
  "trump": 27701,
  "gereksin": 27702,
  "yusuf": 27703,
  "gg": 27704,
  "baybur": 27705,
  "gut": 27706,
  "bilecik": 27707,
  "geçtiğimiz": 27708,
  "tabilir": 27709,
  "satılık": 27710,
  "mede": 27711,
  "luğun": 27712,
  "arnav": 27713,
  "hükû": 27714,
  "gidiyor": 27715,
  "şirketler": 27716,
  "biliyorum": 27717,
  "kuşa": 27718,
  "moto": 27719,
  "aleti": 27720,
  "mega": 27721,
  "sizleri": 27722,
  "eko": 27723,
  "enler": 27724,
  "clu": 27725,
  "çıkma": 27726,
  "open": 27727,
  "dakik": 27728,
  "linkedin": 27729,
  "phi": 27730,
  "nesne": 27731,
  "liyoruz": 27732,
  "öre": 27733,
  "ons": 27734,
  "bahsedil": 27735,
  "avusturya": 27736,
  "halkın": 27737,
  "sön": 27738,
  "ülkem": 27739,
  "atıf": 27740,
  "seyi": 27741,
  "animasyon": 27742,
  "önümüz": 27743,
  "akım": 27744,
  "partner": 27745,
  "tercüme": 27746,
  "suretiyle": 27747,
  "whi": 27748,
  "uzan": 27749,
  "alanlarda": 27750,
  "kapan": 27751,
  "protok": 27752,
  "dinle": 27753,
  "öğle": 27754,
  "şişli": 27755,
  "kazanmak": 27756,
  "ian": 27757,
  "krem": 27758,
  "bunlara": 27759,
  "vadeli": 27760,
  "menize": 27761,
  "kurdu": 27762,
  "spesifik": 27763,
  "sili": 27764,
  "britan": 27765,
  "pahalı": 27766,
  "istediği": 27767,
  "arnavut": 27768,
  "~~": 27769,
  "önemi": 27770,
  "edik": 27771,
  "belde": 27772,
  "bartın": 27773,
  "dınız": 27774,
  "leh": 27775,
  "darbe": 27776,
  "idar": 27777,
  "başarısız": 27778,
  "oğl": 27779,
  "\"|": 27780,
  "çağır": 27781,
  "delik": 27782,
  "müziği": 27783,
  "yönetic": 27784,
  "tılmış": 27785,
  "protokol": 27786,
  "demi": 27787,
  "bini": 27788,
  "hakaret": 27789,
  "vakı": 27790,
  "alem": 27791,
  "mö": 27792,
  "bron": 27793,
  "çankırı": 27794,
  "annes": 27795,
  "kurucu": 27796,
  "zamanla": 27797,
  "başvurucunun": 27798,
  "laboratu": 27799,
  "sed": 27800,
  "alüminyum": 27801,
  "istedi": 27802,
  "endüstriyel": 27803,
  "ergen": 27804,
  "host": 27805,
  "gec": 27806,
  "script": 27807,
  "sergil": 27808,
  "field": 27809,
  "zel": 27810,
  "duruma": 27811,
  "izlen": 27812,
  "kutsal": 27813,
  "bağlama": 27814,
  "servi": 27815,
  "samsung": 27816,
  "ilanları": 27817,
  "sahte": 27818,
  "doğrula": 27819,
  "merkezli": 27820,
  "çalışmak": 27821,
  "eleştirmen": 27822,
  "seti": 27823,
  "seçe": 27824,
  "dıran": 27825,
  "getirir": 27826,
  "farklılık": 27827,
  "i̇ye": 27828,
  "aziz": 27829,
  "limit": 27830,
  "sahipliği": 27831,
  "ae": 27832,
  "koron": 27833,
  "istatistik": 27834,
  "ox": 27835,
  "menü": 27836,
  "1983": 27837,
  "önlemek": 27838,
  "gereklidir": 27839,
  "bilişim": 27840,
  "yılına": 27841,
  "stem": 27842,
  "sözcü": 27843,
  "videoları": 27844,
  "farkın": 27845,
  "kurgu": 27846,
  "nakit": 27847,
  "bâ": 27848,
  "rengi": 27849,
  "ilham": 27850,
  "load": 27851,
  "spe": 27852,
  "alanya": 27853,
  "hukuku": 27854,
  "tüketim": 27855,
  "yağlı": 27856,
  "lerdeki": 27857,
  "tuğ": 27858,
  "rüyada": 27859,
  "kontrolü": 27860,
  "cennet": 27861,
  "dom": 27862,
  "fın": 27863,
  "kaçın": 27864,
  "urn": 27865,
  "101": 27866,
  "tuval": 27867,
  "rük": 27868,
  "tici": 27869,
  "tanesi": 27870,
  "iktidar": 27871,
  "atak": 27872,
  "sürüyor": 27873,
  "pp": 27874,
  "tifak": 27875,
  "kaplama": 27876,
  "aşkın": 27877,
  "yazdı": 27878,
  "iyorlar": 27879,
  "hidro": 27880,
  "kaygı": 27881,
  "uyuşturucu": 27882,
  "tral": 27883,
  "bahs": 27884,
  "pasaj": 27885,
  "cana": 27886,
  "cüz": 27887,
  "yüzyılın": 27888,
  "microsoft": 27889,
  "maltepe": 27890,
  "işçi": 27891,
  "hareketi": 27892,
  "uzaktan": 27893,
  "power": 27894,
  "chel": 27895,
  "ked": 27896,
  "luğunu": 27897,
  "üğ": 27898,
  "teker": 27899,
  "sitemize": 27900,
  "bik": 27901,
  "açılır": 27902,
  "kıyas": 27903,
  "öğret": 27904,
  "araçlar": 27905,
  "urken": 27906,
  "mesajı": 27907,
  "cinayet": 27908,
  "opat": 27909,
  "elerle": 27910,
  "yarışması": 27911,
  "rezervasyon": 27912,
  "avir": 27913,
  "hassas": 27914,
  "çanta": 27915,
  "türbanlı": 27916,
  "belirterek": 27917,
  "cephe": 27918,
  "kırım": 27919,
  "nehri": 27920,
  "göçmen": 27921,
  "gatif": 27922,
  "çılık": 27923,
  "mimari": 27924,
  "nesn": 27925,
  "salata": 27926,
  "cim": 27927,
  ")'": 27928,
  "pazarı": 27929,
  "konsan": 27930,
  "uzaklıkta": 27931,
  "ihracat": 27932,
  "şırnak": 27933,
  "kaşı": 27934,
  "tadını": 27935,
  "fethiye": 27936,
  "noktas": 27937,
  "hareketli": 27938,
  "adli": 27939,
  "mağazaları": 27940,
  "maddesinin": 27941,
  "hadi": 27942,
  "yapmaktadır": 27943,
  "söylen": 27944,
  "edilecek": 27945,
  "ailen": 27946,
  "recep": 27947,
  "makaleler": 27948,
  "bayburt": 27949,
  "kemer": 27950,
  "sonuçta": 27951,
  "başak": 27952,
  "une": 27953,
  "parçaları": 27954,
  "meh": 27955,
  "ky": 27956,
  "ilerde": 27957,
  "alev": 27958,
  "sper": 27959,
  "komşu": 27960,
  "haftalık": 27961,
  "kazak": 27962,
  "ning": 27963,
  "istler": 27964,
  "siirt": 27965,
  "aksine": 27966,
  "karışık": 27967,
  "banın": 27968,
  "özgü": 27969,
  "duyarlı": 27970,
  "1982": 27971,
  "şifr": 27972,
  "ilişkileri": 27973,
  "ski": 27974,
  "adresleri": 27975,
  "grand": 27976,
  "lie": 27977,
  "tos": 27978,
  "coş": 27979,
  "ırk": 27980,
  "tazminat": 27981,
  "ndaki": 27982,
  "değişen": 27983,
  "talebi": 27984,
  "geli": 27985,
  "keyf": 27986,
  "yazılımı": 27987,
  "bildiği": 27988,
  "minimum": 27989,
  "açan": 27990,
  "başlığı": 27991,
  "kana": 27992,
  "randevu": 27993,
  "beklenen": 27994,
  "yaka": 27995,
  "kaydedil": 27996,
  "sika": 27997,
  "single": 27998,
  "konuları": 27999,
  "tıktan": 28000,
  "ök": 28001,
  "şük": 28002,
  "çözümü": 28003,
  "çamaşır": 28004,
  "sesli": 28005,
  "boru": 28006,
  "gitmek": 28007,
  "yükümlülük": 28008,
  "garant": 28009,
  "miktarı": 28010,
  "vip": 28011,
  "plin": 28012,
  "çiğ": 28013,
  "count": 28014,
  "prensi": 28015,
  "sports": 28016,
  "lır": 28017,
  "},": 28018,
  "yöneticisi": 28019,
  "şma": 28020,
  "devletin": 28021,
  "eserleri": 28022,
  "saatleri": 28023,
  "kazı": 28024,
  "sabır": 28025,
  "i̇şleri": 28026,
  "duktan": 28027,
  "anık": 28028,
  "lee": 28029,
  "vita": 28030,
  "unutul": 28031,
  "app": 28032,
  "dikal": 28033,
  "tutarlı": 28034,
  "ios": 28035,
  "omuz": 28036,
  "ekstra": 28037,
  "şarkıcı": 28038,
  "kombin": 28039,
  "doları": 28040,
  "sebeple": 28041,
  "west": 28042,
  "sorulan": 28043,
  "kongre": 28044,
  "eur": 28045,
  "uluğunu": 28046,
  "vision": 28047,
  "andre": 28048,
  "larınızın": 28049,
  "klinik": 28050,
  "hington": 28051,
  "görüyor": 28052,
  "anlaşı": 28053,
  "haberdar": 28054,
  "anızı": 28055,
  "öncesinde": 28056,
  "eseri": 28057,
  "premi": 28058,
  "mul": 28059,
  "benimle": 28060,
  "vakıf": 28061,
  "ölçüm": 28062,
  "osmaniye": 28063,
  "bonuslar": 28064,
  "tespiti": 28065,
  "olayı": 28066,
  "değerleri": 28067,
  "oynan": 28068,
  "ud": 28069,
  "yıla": 28070,
  "metr": 28071,
  "info": 28072,
  "özelliklerini": 28073,
  "hayvanlar": 28074,
  "leşe": 28075,
  "yıllardır": 28076,
  "sermaye": 28077,
  "fr": 28078,
  "kutusu": 28079,
  "ayın": 28080,
  "ifadesi": 28081,
  "nil": 28082,
  "united": 28083,
  "lish": 28084,
  "fifa": 28085,
  "istiyoruz": 28086,
  "bakırköy": 28087,
  "lanacaktır": 28088,
  "endüstri": 28089,
  "arke": 28090,
  "leştirme": 28091,
  "i̇smail": 28092,
  "sürecinde": 28093,
  "alandır": 28094,
  "harekete": 28095,
  "okumak": 28096,
  "bulunması": 28097,
  "evine": 28098,
  "gelip": 28099,
  "kaynaklar": 28100,
  "yüzünden": 28101,
  "olabildiğince": 28102,
  "dikçe": 28103,
  "elerinden": 28104,
  "ülasyon": 28105,
  "melek": 28106,
  "lemesi": 28107,
  "server": 28108,
  "işlemler": 28109,
  "hükûmet": 28110,
  "çözmek": 28111,
  "masi": 28112,
  "kaybetti": 28113,
  "i̇sviç": 28114,
  "cookie": 28115,
  "başkenti": 28116,
  "washington": 28117,
  "poli": 28118,
  "işık": 28119,
  "başlangıçta": 28120,
  "uri": 28121,
  "hayatın": 28122,
  "yapması": 28123,
  "kalabalık": 28124,
  "küp": 28125,
  "kere": 28126,
  "olmaması": 28127,
  "madığını": 28128,
  "yoktu": 28129,
  "i̇f": 28130,
  "loj": 28131,
  "lil": 28132,
  "gara": 28133,
  "egem": 28134,
  "negatif": 28135,
  "haklı": 28136,
  "tlar": 28137,
  "baları": 28138,
  "manu": 28139,
  "fazlası": 28140,
  "lamanın": 28141,
  "zehir": 28142,
  "kurmak": 28143,
  "yeteneğ": 28144,
  "0000": 28145,
  "siste": 28146,
  "pis": 28147,
  "elbise": 28148,
  "lım": 28149,
  "temizleme": 28150,
  "hakkari": 28151,
  "house": 28152,
  "dia": 28153,
  "niteli": 28154,
  "yaptıkları": 28155,
  "kendisinin": 28156,
  "elit": 28157,
  "zararlı": 28158,
  "leştirilmiş": 28159,
  "boşan": 28160,
  "hazırlan": 28161,
  "mekanik": 28162,
  "dou": 28163,
  "milletvekil": 28164,
  "uygulanan": 28165,
  "ertesi": 28166,
  "iddaa": 28167,
  "aktivit": 28168,
  "tanık": 28169,
  "kanalı": 28170,
  "açar": 28171,
  "bağışıklık": 28172,
  "conten": 28173,
  "ander": 28174,
  "alarla": 28175,
  "gereğ": 28176,
  "tına": 28177,
  "mann": 28178,
  "kimin": 28179,
  "gümrük": 28180,
  "tatmin": 28181,
  "alışkan": 28182,
  "memektedir": 28183,
  "gösterdi": 28184,
  "bütç": 28185,
  "notlar": 28186,
  "tılır": 28187,
  "tıkları": 28188,
  "derun": 28189,
  "hakkını": 28190,
  "lisesi": 28191,
  "komisyonu": 28192,
  "disiplin": 28193,
  "düşüş": 28194,
  "tüy": 28195,
  "arıyor": 28196,
  "mahkem": 28197,
  "parkı": 28198,
  "inda": 28199,
  "üme": 28200,
  "sunum": 28201,
  "ayrım": 28202,
  "yerlerde": 28203,
  "noktaları": 28204,
  "bahisleri": 28205,
  "konferans": 28206,
  "bire": 28207,
  "lüks": 28208,
  "dî": 28209,
  "manevi": 28210,
  "oc": 28211,
  "yanına": 28212,
  "arkadaşları": 28213,
  "düşünül": 28214,
  "civarında": 28215,
  "lerindeki": 28216,
  "tıpkı": 28217,
  "ehl": 28218,
  "via": 28219,
  "ayla": 28220,
  "league": 28221,
  "reply": 28222,
  "olduklarını": 28223,
  "aldığınız": 28224,
  "1974": 28225,
  "adresine": 28226,
  "özer": 28227,
  "xi": 28228,
  "sity": 28229,
  "meb": 28230,
  "php": 28231,
  "pit": 28232,
  "nereden": 28233,
  "richar": 28234,
  "kaynaklanan": 28235,
  "maddeleri": 28236,
  "kütle": 28237,
  "ekimi": 28238,
  "odaklı": 28239,
  "mid": 28240,
  "apart": 28241,
  "trasyon": 28242,
  "dosyalar": 28243,
  "yazdığı": 28244,
  "efendi": 28245,
  "veli": 28246,
  "anıyor": 28247,
  "kılav": 28248,
  "cilere": 28249,
  "etli": 28250,
  "anlaşma": 28251,
  "galer": 28252,
  "kucak": 28253,
  "görüşmeler": 28254,
  "kavu": 28255,
  "ihtimal": 28256,
  "tuş": 28257,
  "maliyeti": 28258,
  "bili": 28259,
  "paketi": 28260,
  "döviz": 28261,
  "love": 28262,
  "arapça": 28263,
  "board": 28264,
  "kurtulu": 28265,
  "mary": 28266,
  "1979": 28267,
  "toplan": 28268,
  "sanırım": 28269,
  "lıyoruz": 28270,
  "basınç": 28271,
  "getiriyor": 28272,
  "kırıkkale": 28273,
  "sıkça": 28274,
  "viz": 28275,
  "gönüllü": 28276,
  "tansiyon": 28277,
  "pod": 28278,
  "800": 28279,
  "mühendislik": 28280,
  "üzeri": 28281,
  "thon": 28282,
  "protest": 28283,
  "yolunda": 28284,
  "egemen": 28285,
  "etmez": 28286,
  "bıçak": 28287,
  "aralı": 28288,
  "atlet": 28289,
  "voley": 28290,
  "kendimi": 28291,
  "buzdola": 28292,
  "vakti": 28293,
  "astron": 28294,
  "bulunduğunu": 28295,
  "hipotezi": 28296,
  "istis": 28297,
  "inizden": 28298,
  "çağdaş": 28299,
  "ultra": 28300,
  "ory": 28301,
  "berlin": 28302,
  "illa": 28303,
  "1981": 28304,
  "cey": 28305,
  "almayı": 28306,
  "mesleki": 28307,
  "yaptığ": 28308,
  "lerimize": 28309,
  "yir": 28310,
  "mete": 28311,
  "olacağı": 28312,
  "robot": 28313,
  "lamadan": 28314,
  "süreçte": 28315,
  "ikna": 28316,
  "eceğiz": 28317,
  "kırşehir": 28318,
  "duyurdu": 28319,
  "yazık": 28320,
  "özgün": 28321,
  "eren": 28322,
  "güvence": 28323,
  "gönderilen": 28324,
  "yüzlerce": 28325,
  "miras": 28326,
  "tarihinden": 28327,
  "yarışma": 28328,
  "ği̇": 28329,
  "yetersiz": 28330,
  "anlatan": 28331,
  "orhan": 28332,
  "chat": 28333,
  "oynadı": 28334,
  "dergi": 28335,
  "yönetici": 28336,
  "sunduğu": 28337,
  "asgari": 28338,
  "konuşan": 28339,
  "lâm": 28340,
  "başvurusu": 28341,
  "yaşama": 28342,
  "göv": 28343,
  "yapılmasına": 28344,
  "add": 28345,
  "oğul": 28346,
  "bakanlık": 28347,
  "eğr": 28348,
  "değiştirme": 28349,
  "pic": 28350,
  "yapıldığı": 28351,
  "ziyaretçiler": 28352,
  "brezilya": 28353,
  "kare": 28354,
  "zem": 28355,
  "obj": 28356,
  "ressam": 28357,
  "statü": 28358,
  "onarım": 28359,
  "heykel": 28360,
  "$$": 28361,
  "laşması": 28362,
  "teknolojik": 28363,
  "merdiveni": 28364,
  "sahil": 28365,
  "tamamlan": 28366,
  "lerinize": 28367,
  "cevabını": 28368,
  "sec": 28369,
  "keşif": 28370,
  "fiyata": 28371,
  "ihtiyacınız": 28372,
  "dry": 28373,
  "dışına": 28374,
  "kuruldu": 28375,
  "lamaları": 28376,
  "turkey": 28377,
  "dakikada": 28378,
  "sürecin": 28379,
  "sû": 28380,
  "manz": 28381,
  "gençler": 28382,
  "yönetmelik": 28383,
  "açmak": 28384,
  "cilerin": 28385,
  "yazarak": 28386,
  "mg": 28387,
  "dolaşımı": 28388,
  "hatalı": 28389,
  "long": 28390,
  "eşsiz": 28391,
  "hikayesi": 28392,
  "dışındaki": 28393,
  "yang": 28394,
  "yılının": 28395,
  "gündüz": 28396,
  "fazlasını": 28397,
  "ci̇": 28398,
  "güreş": 28399,
  "i̇sa": 28400,
  "mesle": 28401,
  "priz": 28402,
  "sman": 28403,
  "i̇rlanda": 28404,
  "anılan": 28405,
  "yarın": 28406,
  "âh": 28407,
  "düşen": 28408,
  "gi̇r": 28409,
  "depo": 28410,
  "1950": 28411,
  "sizden": 28412,
  "eğil": 28413,
  "olabileceğini": 28414,
  "dışişleri": 28415,
  "senaryo": 28416,
  "ysa": 28417,
  "grupları": 28418,
  "sektörü": 28419,
  "meta": 28420,
  "güler": 28421,
  "otomo": 28422,
  "felsefe": 28423,
  "caz": 28424,
  "sınavı": 28425,
  "i̇lç": 28426,
  "tamamlamak": 28427,
  "sınırları": 28428,
  "mine": 28429,
  "skor": 28430,
  "koyu": 28431,
  "stal": 28432,
  "yıldızı": 28433,
  "caddesi": 28434,
  "sözcük": 28435,
  "meksika": 28436,
  "bizlere": 28437,
  "kl": 28438,
  "endek": 28439,
  "sıralama": 28440,
  "cation": 28441,
  "farkında": 28442,
  "mesela": 28443,
  "damla": 28444,
  "our": 28445,
  "lezzetli": 28446,
  "tanır": 28447,
  "tanımı": 28448,
  "jor": 28449,
  "figür": 28450,
  "diyorum": 28451,
  "federasyonu": 28452,
  "yılan": 28453,
  "irti": 28454,
  "dine": 28455,
  "tipik": 28456,
  "çekirdek": 28457,
  "f2": 28458,
  "duğunuz": 28459,
  "büyüsü": 28460,
  "sten": 28461,
  "yoğ": 28462,
  "merkezinde": 28463,
  "çilerin": 28464,
  "alanına": 28465,
  "birer": 28466,
  "konsol": 28467,
  "haritası": 28468,
  "hakan": 28469,
  "sayfalar": 28470,
  "kot": 28471,
  "1975": 28472,
  "kadir": 28473,
  "göstermek": 28474,
  "zik": 28475,
  "kaşığı": 28476,
  "isteme": 28477,
  "110": 28478,
  "clo": 28479,
  "demokrasi": 28480,
  "piyan": 28481,
  "english": 28482,
  "romantik": 28483,
  "miyiz": 28484,
  "üğü": 28485,
  "geldiğini": 28486,
  "cent": 28487,
  "söyleyen": 28488,
  "gayrim": 28489,
  "ture": 28490,
  "paylaşıl": 28491,
  "kısmen": 28492,
  "taç": 28493,
  "ardı": 28494,
  "oynamak": 28495,
  "ltd": 28496,
  "kısmını": 28497,
  "dolandırı": 28498,
  "mb": 28499,
  "terap": 28500,
  "rid": 28501,
  "arazi": 28502,
  "oynayan": 28503,
  "koyun": 28504,
  "uzunluğu": 28505,
  "anlatıyor": 28506,
  "rolü": 28507,
  "ithal": 28508,
  "çıplak": 28509,
  "organize": 28510,
  "şiddetli": 28511,
  "gelebilir": 28512,
  "kırklar": 28513,
  "okuyucu": 28514,
  "ğiyle": 28515,
  "tain": 28516,
  "oks": 28517,
  "tamamla": 28518,
  "cl": 28519,
  "masraf": 28520,
  "turu": 28521,
  "rt": 28522,
  "çorbası": 28523,
  "konseyi": 28524,
  "cket": 28525,
  "tüketici": 28526,
  "sebze": 28527,
  "kazanma": 28528,
  "dyo": 28529,
  "açıldı": 28530,
  "isbn": 28531,
  "buhar": 28532,
  "tunceli": 28533,
  "rap": 28534,
  "vermiştir": 28535,
  "1978": 28536,
  "müzisyen": 28537,
  "->": 28538,
  "sistemini": 28539,
  "yüzük": 28540,
  "aro": 28541,
  "kanın": 28542,
  "durumun": 28543,
  "bets": 28544,
  "phil": 28545,
  "gelişen": 28546,
  "üstünde": 28547,
  "yapmıştır": 28548,
  "pilot": 28549,
  "sezonu": 28550,
  "over": 28551,
  "günden": 28552,
  "dokuz": 28553,
  "çekti": 28554,
  "puro": 28555,
  "1973": 28556,
  "lisanslı": 28557,
  "kısal": 28558,
  "sağlayın": 28559,
  "evrak": 28560,
  "ateşli": 28561,
  "sponsor": 28562,
  "rica": 28563,
  "çıkarın": 28564,
  "bec": 28565,
  "kesme": 28566,
  "geçirmek": 28567,
  "aktivite": 28568,
  "ulaştı": 28569,
  "vitam": 28570,
  "ther": 28571,
  "çöp": 28572,
  "ceğiniz": 28573,
  "şok": 28574,
  "devir": 28575,
  "bozukluk": 28576,
  "eceğini": 28577,
  "anlaya": 28578,
  "oba": 28579,
  "sunmak": 28580,
  "resmî": 28581,
  "seçilen": 28582,
  "kaldırı": 28583,
  "fikr": 28584,
  "değin": 28585,
  "konularda": 28586,
  "fiyatlar": 28587,
  "charles": 28588,
  "kris": 28589,
  "amaçla": 28590,
  "önümüzdeki": 28591,
  "old": 28592,
  "havale": 28593,
  "i̇çeri": 28594,
  "thomas": 28595,
  "life": 28596,
  "gelmiştir": 28597,
  "keskin": 28598,
  "üyeli": 28599,
  "bakter": 28600,
  "memlek": 28601,
  "sitemizi": 28602,
  "kilometre": 28603,
  "ica": 28604,
  "köf": 28605,
  "görülür": 28606,
  "dudak": 28607,
  "federal": 28608,
  "balkon": 28609,
  "lup": 28610,
  "ılmıştır": 28611,
  "çılgın": 28612,
  "sözü": 28613,
  "tikten": 28614,
  "doktora": 28615,
  "çır": 28616,
  "sağladı": 28617,
  "title": 28618,
  "yesi": 28619,
  "stratejik": 28620,
  "meşru": 28621,
  "mum": 28622,
  "liliğini": 28623,
  "gerekirse": 28624,
  "ettiler": 28625,
  "yn": 28626,
  "makineleri": 28627,
  "arat": 28628,
  "babasının": 28629,
  "edi̇": 28630,
  "diğerleri": 28631,
  "cüzdan": 28632,
  "richard": 28633,
  "yıllarında": 28634,
  "ufak": 28635,
  "tutmak": 28636,
  "teknolojileri": 28637,
  "okal": 28638,
  "duğunda": 28639,
  "1972": 28640,
  "vent": 28641,
  "fez": 28642,
  "bağlamda": 28643,
  "sıdır": 28644,
  "si̇te": 28645,
  "dökül": 28646,
  "kalb": 28647,
  "imparator": 28648,
  "yapılabilir": 28649,
  "diğin": 28650,
  "arasına": 28651,
  "hakkının": 28652,
  "padi": 28653,
  "frank": 28654,
  "yavuz": 28655,
  "yanlı": 28656,
  "kiz": 28657,
  "non": 28658,
  "işini": 28659,
  "limon": 28660,
  "teşhis": 28661,
  "dani": 28662,
  "iyileş": 28663,
  "larımıza": 28664,
  "kültürü": 28665,
  "emez": 28666,
  "kablo": 28667,
  "kule": 28668,
  "aker": 28669,
  "çekin": 28670,
  "bus": 28671,
  "oranında": 28672,
  "patent": 28673,
  "yeni̇": 28674,
  "seviş": 28675,
  "sizinle": 28676,
  "bizans": 28677,
  "martin": 28678,
  "sınıfı": 28679,
  "yeterince": 28680,
  "age": 28681,
  "bant": 28682,
  "basa": 28683,
  "1977": 28684,
  "mith": 28685,
  "hitap": 28686,
  "satıcı": 28687,
  "ötes": 28688,
  "larken": 28689,
  "tex": 28690,
  "ortasında": 28691,
  "kırklareli": 28692,
  "green": 28693,
  "layabilir": 28694,
  "işletme": 28695,
  "kalmış": 28696,
  "iyice": 28697,
  "istihdam": 28698,
  "gelmesi": 28699,
  "sinan": 28700,
  "buradaki": 28701,
  "şansı": 28702,
  "sea": 28703,
  "pot": 28704,
  "prim": 28705,
  "şö": 28706,
  "performansı": 28707,
  "aşağıdak": 28708,
  "maçta": 28709,
  "tag": 28710,
  "alınarak": 28711,
  "game": 28712,
  "frek": 28713,
  "mühendisliği": 28714,
  "cili": 28715,
  "itibariyle": 28716,
  "koku": 28717,
  "adsız": 28718,
  "akın": 28719,
  "bileti": 28720,
  "cas": 28721,
  "pilav": 28722,
  "koronavir": 28723,
  "bırakın": 28724,
  "luğunda": 28725,
  "eğilim": 28726,
  "metrik": 28727,
  "disk": 28728,
  "bağlantılı": 28729,
  "mülkiyet": 28730,
  "ahmed": 28731,
  "tarihsel": 28732,
  "bob": 28733,
  "kapsamda": 28734,
  "homeopat": 28735,
  "gidip": 28736,
  "etkinlikler": 28737,
  "tuzla": 28738,
  "gev": 28739,
  "yayınlan": 28740,
  "savcı": 28741,
  "chen": 28742,
  "mhp": 28743,
  "pasi": 28744,
  "i̇si̇": 28745,
  "dna": 28746,
  "sağlanması": 28747,
  "öncü": 28748,
  "sağlamaktadır": 28749,
  "1976": 28750,
  "imkansız": 28751,
  "nereye": 28752,
  "fatura": 28753,
  "1965": 28754,
  "cevaplar": 28755,
  "gene": 28756,
  "paylaşa": 28757,
  "hist": 28758,
  "gerektirir": 28759,
  "perak": 28760,
  "emedi": 28761,
  "abdullah": 28762,
  "okyanus": 28763,
  "defter": 28764,
  "özlem": 28765,
  "işletmeler": 28766,
  "hij": 28767,
  "offi": 28768,
  "evcil": 28769,
  "acaba": 28770,
  "icin": 28771,
  "posted": 28772,
  "bulabilir": 28773,
  "hesaplan": 28774,
  "vasıtası": 28775,
  "eksiksiz": 28776,
  "queen": 28777,
  "espor": 28778,
  "prose": 28779,
  "lığından": 28780,
  "konsantrasyon": 28781,
  "tarihte": 28782,
  "cinin": 28783,
  "hacı": 28784,
  "nefret": 28785,
  "kralı": 28786,
  "hesaplama": 28787,
  "ness": 28788,
  "kitabevi": 28789,
  "hormon": 28790,
  "180": 28791,
  "pem": 28792,
  "atmak": 28793,
  "anlayışı": 28794,
  "toplama": 28795,
  "yoksul": 28796,
  "yahudi": 28797,
  "reg": 28798,
  "eşlik": 28799,
  "bellek": 28800,
  "stüdyo": 28801,
  "imzalan": 28802,
  "yaşaya": 28803,
  "annem": 28804,
  "i̇sviçre": 28805,
  "dig": 28806,
  "günleri": 28807,
  "big": 28808,
  "sağlan": 28809,
  "bulama": 28810,
  "rulet": 28811,
  "afgan": 28812,
  "stel": 28813,
  "\");": 28814,
  "voleybol": 28815,
  "yorgun": 28816,
  "had": 28817,
  "sözlük": 28818,
  "yazılmış": 28819,
  "şube": 28820,
  "i̇ne": 28821,
  "hatun": 28822,
  "gerektiren": 28823,
  "belgesel": 28824,
  "........": 28825,
  "çıkardı": 28826,
  "olmanın": 28827,
  "1971": 28828,
  "tank": 28829,
  "ikili": 28830,
  "danışmanlığı": 28831,
  "ayarlan": 28832,
  "alırken": 28833,
  "eyici": 28834,
  "likleri": 28835,
  "koşullar": 28836,
  "halif": 28837,
  "bilimleri": 28838,
  "publi": 28839,
  "karan": 28840,
  "vücudun": 28841,
  "ulaşın": 28842,
  "colle": 28843,
  "faaliyetleri": 28844,
  "faf": 28845,
  "sanın": 28846,
  "sistemin": 28847,
  "bağlıdır": 28848,
  "koşu": 28849,
  "belirtir": 28850,
  "olmasa": 28851,
  "misyon": 28852,
  "ст": 28853,
  "filtr": 28854,
  "buy": 28855,
  "university": 28856,
  "üstlen": 28857,
  "tutulamaz": 28858,
  "nb": 28859,
  "topu": 28860,
  "ederler": 28861,
  "fed": 28862,
  "semp": 28863,
  "sürül": 28864,
  "şlı": 28865,
  "saydı": 28866,
  "cav": 28867,
  "kursu": 28868,
  "alim": 28869,
  "sayısal": 28870,
  "dıkça": 28871,
  "steroid": 28872,
  "geriye": 28873,
  "1968": 28874,
  "yapılandır": 28875,
  "hurdacı": 28876,
  "phy": 28877,
  "cihazı": 28878,
  "yetik": 28879,
  "parlamento": 28880,
  "step": 28881,
  "yükle": 28882,
  "protec": 28883,
  "teknolojisi": 28884,
  "how": 28885,
  "pkk": 28886,
  "oluşa": 28887,
  "çika": 28888,
  "çilik": 28889,
  "etkisini": 28890,
  "apache": 28891,
  "bahset": 28892,
  "arkadaşım": 28893,
  "ğra": 28894,
  "ll": 28895,
  "görünür": 28896,
  "incil": 28897,
  "dul": 28898,
  "like": 28899,
  "gördük": 28900,
  "kiyat": 28901,
  "diyabet": 28902,
  "okunan": 28903,
  "ved": 28904,
  "stin": 28905,
  "ole": 28906,
  "rok": 28907,
  "vücud": 28908,
  "teklifi": 28909,
  "istifa": 28910,
  "eceği": 28911,
  "şeyleri": 28912,
  "gücünü": 28913,
  "yır": 28914,
  "börek": 28915,
  "abi": 28916,
  "tartışma": 28917,
  "uzunluk": 28918,
  "karşılığında": 28919,
  "yarda": 28920,
  "geb": 28921,
  "cesaret": 28922,
  "liman": 28923,
  "tebliğ": 28924,
  "hadis": 28925,
  "olanı": 28926,
  "görüşme": 28927,
  "user": 28928,
  "imkân": 28929,
  "liber": 28930,
  "çav": 28931,
  "yapımcı": 28932,
  "uncu": 28933,
  "kolaylıkla": 28934,
  "boyama": 28935,
  "dirme": 28936,
  "tiş": 28937,
  "orth": 28938,
  "yönetmeli": 28939,
  "olmanız": 28940,
  "belik": 28941,
  "dışarıda": 28942,
  "hayatına": 28943,
  "perakende": 28944,
  "sığ": 28945,
  "mekle": 28946,
  "mesafe": 28947,
  "selim": 28948,
  "lüğünü": 28949,
  "kalmak": 28950,
  "detayları": 28951,
  "yönde": 28952,
  "malt": 28953,
  "nitelikli": 28954,
  "ilişkisi": 28955,
  "içecek": 28956,
  "i̇slâm": 28957,
  "gayrimen": 28958,
  "izasyon": 28959,
  "prosedür": 28960,
  "ortamı": 28961,
  "pes": 28962,
  "çözümler": 28963,
  "sr": 28964,
  "flor": 28965,
  "celen": 28966,
  "görüntüleme": 28967,
  "kula": 28968,
  "artırmak": 28969,
  "başlamıştır": 28970,
  "betsat": 28971,
  "yazısı": 28972,
  "sürük": 28973,
  "kurallarına": 28974,
  "önemini": 28975,
  "temsilcisi": 28976,
  "lojistik": 28977,
  "dairesi": 28978,
  "yaptığını": 28979,
  "iğdır": 28980,
  "istenen": 28981,
  "ölçümü": 28982,
  "tığında": 28983,
  "logo": 28984,
  "adası": 28985,
  "yavru": 28986,
  "gelişimi": 28987,
  "tüketic": 28988,
  "di̇n": 28989,
  "uğraş": 28990,
  "ever": 28991,
  "],": 28992,
  "ağz": 28993,
  "atar": 28994,
  "bardak": 28995,
  "türüdür": 28996,
  "etkinliği": 28997,
  "sezonunda": 28998,
  "anlatı": 28999,
  "bulan": 29000,
  "belirtmek": 29001,
  "aza": 29002,
  "bulunabilir": 29003,
  "oynanan": 29004,
  "kuyruk": 29005,
  "ısın": 29006,
  "gibidir": 29007,
  "oluşturma": 29008,
  "sizlerin": 29009,
  "eği̇t": 29010,
  "geride": 29011,
  "doz": 29012,
  "arayın": 29013,
  "olmaları": 29014,
  "deneyimli": 29015,
  "ayrıc": 29016,
  "sigortası": 29017,
  "katman": 29018,
  "ilave": 29019,
  "!\"": 29020,
  "göreviniz": 29021,
  "avcılar": 29022,
  "geldiğinde": 29023,
  "üman": 29024,
  "rb": 29025,
  "vitamin": 29026,
  "inceleyebilirsiniz": 29027,
  "yaptığımız": 29028,
  "hukuka": 29029,
  "ril": 29030,
  "ceksiniz": 29031,
  "ülkes": 29032,
  "sağlama": 29033,
  "çevresel": 29034,
  "cell": 29035,
  "keşfet": 29036,
  "medyada": 29037,
  "unuza": 29038,
  "benimse": 29039,
  "konusundaki": 29040,
  "i̇leti̇şi̇m": 29041,
  "suy": 29042,
  "lap": 29043,
  "karş": 29044,
  "tüken": 29045,
  "incelemesi": 29046,
  "yardımıyla": 29047,
  "füz": 29048,
  "milletler": 29049,
  "markası": 29050,
  "derken": 29051,
  "geo": 29052,
  "saklı": 29053,
  "balkan": 29054,
  "nep": 29055,
  "aman": 29056,
  "kurulmuş": 29057,
  "ziyade": 29058,
  "yolunu": 29059,
  "alda": 29060,
  "likler": 29061,
  "muam": 29062,
  "live": 29063,
  "yararlı": 29064,
  "hastane": 29065,
  "verileriniz": 29066,
  "seviyorum": 29067,
  "bulunmuştur": 29068,
  "işbu": 29069,
  "tarayı": 29070,
  "ziraat": 29071,
  "muta": 29072,
  "most": 29073,
  "publis": 29074,
  "i̇stat": 29075,
  "mantıklı": 29076,
  "adayı": 29077,
  "sırasıyla": 29078,
  "olmaktan": 29079,
  "content": 29080,
  "kırıl": 29081,
  "gerçekleşen": 29082,
  "jose": 29083,
  "belçika": 29084,
  "categor": 29085,
  "lılar": 29086,
  "bölgenin": 29087,
  "sizlerle": 29088,
  "özeti": 29089,
  "lerken": 29090,
  "dolaş": 29091,
  "iso": 29092,
  "kaynaklı": 29093,
  "halen": 29094,
  "metik": 29095,
  "tıkla": 29096,
  "si̇z": 29097,
  "hâkim": 29098,
  "piz": 29099,
  "duru": 29100,
  "irim": 29101,
  "çikolata": 29102,
  "tema": 29103,
  "davası": 29104,
  "1969": 29105,
  "rahatlıkla": 29106,
  "katılımcı": 29107,
  "uefa": 29108,
  "dünyayı": 29109,
  "galibiyet": 29110,
  "gayrimenkul": 29111,
  "jean": 29112,
  "baştan": 29113,
  "şeffaf": 29114,
  "cup": 29115,
  "interna": 29116,
  "çekmece": 29117,
  "geçerek": 29118,
  "konulu": 29119,
  "adaları": 29120,
  "muhale": 29121,
  "dürüst": 29122,
  "edilerek": 29123,
  "royal": 29124,
  "ace": 29125,
  "isimleri": 29126,
  "jes": 29127,
  "tisi": 29128,
  "türkmen": 29129,
  "tayyip": 29130,
  "şüpheli": 29131,
  "ilişkilendir": 29132,
  "gla": 29133,
  "konuyla": 29134,
  "gerçekleşti": 29135,
  "bahçeli": 29136,
  "bayramı": 29137,
  "eği̇ti̇m": 29138,
  "lerdi": 29139,
  "pirinç": 29140,
  "üskü": 29141,
  "group": 29142,
  "dyum": 29143,
  "yapıyoruz": 29144,
  "lanmaz": 29145,
  "bölgeye": 29146,
  "mesajlar": 29147,
  "kuruc": 29148,
  "durumlar": 29149,
  "maddeler": 29150,
  "hayırlı": 29151,
  "yaralı": 29152,
  "demo": 29153,
  "çılar": 29154,
  "store": 29155,
  "şekliyle": 29156,
  "ziyaretçi": 29157,
  "denizi": 29158,
  "isin": 29159,
  "tmak": 29160,
  "hara": 29161,
  "sıradan": 29162,
  "lemeleri": 29163,
  "vi̇tra": 29164,
  "memeli": 29165,
  "kupon": 29166,
  "i̇kti": 29167,
  "büyükel": 29168,
  "çevirin": 29169,
  "parçacık": 29170,
  "familyasına": 29171,
  "last": 29172,
  "çalışmalarını": 29173,
  "inanılmaz": 29174,
  "tahta": 29175,
  "solun": 29176,
  "0535": 29177,
  "olasılığı": 29178,
  "i̇skoç": 29179,
  "strük": 29180,
  "fred": 29181,
  "sunun": 29182,
  "tılar": 29183,
  "she": 29184,
  "smith": 29185,
  "rich": 29186,
  "db": 29187,
  "geçiyor": 29188,
  "imzala": 29189,
  "haftada": 29190,
  "motoru": 29191,
  "pandemi": 29192,
  "alel": 29193,
  "mi̇": 29194,
  "networkdry": 29195,
  "şartlar": 29196,
  "norveç": 29197,
  "eu": 29198,
  "2x": 29199,
  "nihai": 29200,
  "kullanımını": 29201,
  "krizi": 29202,
  "recor": 29203,
  ".[": 29204,
  "gülüm": 29205,
  "zamana": 29206,
  "açıklandı": 29207,
  "liğinden": 29208,
  "enerjisi": 29209,
  "çözül": 29210,
  "liga": 29211,
  "kelimesi": 29212,
  "kaliforni": 29213,
  "endişe": 29214,
  "></": 29215,
  "olmakla": 29216,
  "vious": 29217,
  "britanya": 29218,
  "{\\": 29219,
  "telegram": 29220,
  "``": 29221,
  "light": 29222,
  "contin": 29223,
  "örnekleri": 29224,
  "atış": 29225,
  "dre": 29226,
  "balı": 29227,
  "laboratuvar": 29228,
  "doğur": 29229,
  "dönüm": 29230,
  "noktal": 29231,
  "kulu": 29232,
  "etkileyebilir": 29233,
  "i̇llegal": 29234,
  "dilim": 29235,
  "milyonlarca": 29236,
  "cular": 29237,
  "anten": 29238,
  "soruya": 29239,
  "nadir": 29240,
  "duğum": 29241,
  "karşılıklı": 29242,
  "will": 29243,
  "daroğlu": 29244,
  "depart": 29245,
  "von": 29246,
  "kaliforniya": 29247,
  "isyan": 29248,
  "bedeli": 29249,
  "istikrar": 29250,
  "javascript": 29251,
  "stro": 29252,
  ".’": 29253,
  "marmara": 29254,
  "formül": 29255,
  "ach": 29256,
  "uth": 29257,
  "başlamış": 29258,
  "burak": 29259,
  "pobet": 29260,
  "kampanyalar": 29261,
  "ettikleri": 29262,
  "oldum": 29263,
  "buluna": 29264,
  "akışı": 29265,
  "place": 29266,
  "açıklayın": 29267,
  "yükselen": 29268,
  "gebelik": 29269,
  "sebz": 29270,
  "düğüm": 29271,
  "arkasında": 29272,
  "rick": 29273,
  "satışa": 29274,
  "şefimiz": 29275,
  "bk": 29276,
  "toplumun": 29277,
  "gy": 29278,
  "element": 29279,
  "hikayeler": 29280,
  "başrol": 29281,
  "araz": 29282,
  "usa": 29283,
  "cess": 29284,
  "kısmında": 29285,
  "masız": 29286,
  "glik": 29287,
  "eline": 29288,
  "oton": 29289,
  "biyolojik": 29290,
  "konaklama": 29291,
  "depres": 29292,
  "kdv": 29293,
  "ugh": 29294,
  "küfür": 29295,
  "kadin": 29296,
  "puz": 29297,
  "görüntüle": 29298,
  "previous": 29299,
  "dizileri": 29300,
  "görevleri": 29301,
  "verilmektedir": 29302,
  "üsküdar": 29303,
  "1967": 29304,
  "sayım": 29305,
  "125": 29306,
  "danim": 29307,
  "yükseldi": 29308,
  "çalışırken": 29309,
  "yenile": 29310,
  "under": 29311,
  "eklenen": 29312,
  "i̇şletme": 29313,
  "hede": 29314,
  "suya": 29315,
  "oyuna": 29316,
  "yayımlanan": 29317,
  "geçersiz": 29318,
  "stein": 29319,
  "beklent": 29320,
  "filmde": 29321,
  "ölümü": 29322,
  "braz": 29323,
  "oh": 29324,
  "uzaklaştır": 29325,
  "sindir": 29326,
  "lg": 29327,
  "seçildi": 29328,
  "i̇mi̇z": 29329,
  "bru": 29330,
  "aşamasında": 29331,
  "başkent": 29332,
  "cenaz": 29333,
  "yasadışı": 29334,
  "afet": 29335,
  "seçmen": 29336,
  "hall": 29337,
  "tabanlı": 29338,
  "neti": 29339,
  "cümledeki": 29340,
  "onwin": 29341,
  "fabrik": 29342,
  "çıktığı": 29343,
  "düşünür": 29344,
  "cenin": 29345,
  "dök": 29346,
  "kendinize": 29347,
  ")^": 29348,
  "teori": 29349,
  "dedek": 29350,
  "bosna": 29351,
  "dönemin": 29352,
  "hafı": 29353,
  "yanıtı": 29354,
  "metab": 29355,
  "geçirdi": 29356,
  "hizmetlerimiz": 29357,
  "sanatçısı": 29358,
  "görüntülen": 29359,
  "olmasıdır": 29360,
  "doç": 29361,
  "gördüğü": 29362,
  "tarafında": 29363,
  "entegre": 29364,
  "hotel": 29365,
  "sayıları": 29366,
  "boyutlu": 29367,
  "eyim": 29368,
  "direnç": 29369,
  "bölgedeki": 29370,
  "sorumlusu": 29371,
  "das": 29372,
  "oluşturul": 29373,
  "bilimi": 29374,
  "muayene": 29375,
  "sağladığı": 29376,
  "geçin": 29377,
  "layabilirsiniz": 29378,
  "oynadığı": 29379,
  "körfez": 29380,
  "verildiğinde": 29381,
  "night": 29382,
  "muhasebe": 29383,
  "rapt": 29384,
  "günah": 29385,
  "isı": 29386,
  "beslen": 29387,
  "kimsenin": 29388,
  "daima": 29389,
  "senary": 29390,
  "dünyadaki": 29391,
  "________": 29392,
  "duman": 29393,
  "ero": 29394,
  "i̇nsanların": 29395,
  "azından": 29396,
  "aylarında": 29397,
  "yapıştır": 29398,
  "eç": 29399,
  "gürül": 29400,
  "olamaz": 29401,
  "amazon": 29402,
  "bizler": 29403,
  "ezya": 29404,
  "toplamda": 29405,
  "canı": 29406,
  "ğrafi": 29407,
  "danışmanı": 29408,
  "sms": 29409,
  "ira": 29410,
  "toplantısı": 29411,
  "ört": 29412,
  "tikçe": 29413,
  "lıyorum": 29414,
  "görüle": 29415,
  "merkezleri": 29416,
  "etmenin": 29417,
  "gurbetçi": 29418,
  "lava": 29419,
  "anlatım": 29420,
  "donan": 29421,
  "dolarlık": 29422,
  "kıv": 29423,
  "görevlendir": 29424,
  "sendi": 29425,
  "tics": 29426,
  "nie": 29427,
  "sistemine": 29428,
  "saint": 29429,
  "olmadı": 29430,
  "sepet": 29431,
  "liyorum": 29432,
  "chester": 29433,
  "sunuyoruz": 29434,
  "eceğim": 29435,
  "çocuğ": 29436,
  "brow": 29437,
  "ortada": 29438,
  "önerilen": 29439,
  "badem": 29440,
  "tags": 29441,
  "coğrafi": 29442,
  "ağrısı": 29443,
  "gelişme": 29444,
  "başladım": 29445,
  "akciğer": 29446,
  "mesajları": 29447,
  "sevin": 29448,
  "pantol": 29449,
  "club": 29450,
  "ettiğimiz": 29451,
  "raptiye": 29452,
  "edilmesini": 29453,
  "haric": 29454,
  "motosiklet": 29455,
  "kalıntı": 29456,
  "aket": 29457,
  "i̇ster": 29458,
  "çukur": 29459,
  "buyur": 29460,
  "kaldığı": 29461,
  "360": 29462,
  "önü": 29463,
  "rusça": 29464,
  "tecav": 29465,
  "denli": 29466,
  "oranda": 29467,
  "oğuz": 29468,
  "koronavirüs": 29469,
  "i̇klim": 29470,
  "si̇n": 29471,
  "üniversiteler": 29472,
  "sürecini": 29473,
  "benden": 29474,
  "üretic": 29475,
  "hürr": 29476,
  "aranan": 29477,
  "hangisi": 29478,
  "çocuklara": 29479,
  "search": 29480,
  "komik": 29481,
  "angeles": 29482,
  "yaptım": 29483,
  "ortamında": 29484,
  "sv": 29485,
  "tıklayarak": 29486,
  "gos": 29487,
  "uluğun": 29488,
  "zarf": 29489,
  "mazlık": 29490,
  "operatör": 29491,
  "kurumlar": 29492,
  "maçında": 29493,
  "yayla": 29494,
  "çıkarı": 29495,
  "zul": 29496,
  "akla": 29497,
  "ceviz": 29498,
  "kurtarı": 29499,
  "fantezi": 29500,
  "düğünde": 29501,
  "***": 29502,
  "sağlayabilir": 29503,
  "mektir": 29504,
  "faktörler": 29505,
  "kutlu": 29506,
  "haki": 29507,
  "i̇ngilizceye": 29508,
  "numaraları": 29509,
  "dio": 29510,
  "edebiyatı": 29511,
  "fanta": 29512,
  "noel": 29513,
  "çeliş": 29514,
  "brek": 29515,
  "vitamini": 29516,
  "tamamını": 29517,
  "yazarları": 29518,
  "raptiye_": 29519,
  "belirsiz": 29520,
  "xxx": 29521,
  "tabanı": 29522,
  "evleri": 29523,
  "edilemez": 29524,
  "kep": 29525,
  "etken": 29526,
  "takımın": 29527,
  "tte": 29528,
  "turnuva": 29529,
  "zihinsel": 29530,
  "mıdır": 29531,
  "tırnak": 29532,
  "biliyorsunuz": 29533,
  "aralığı": 29534,
  "ailesinin": 29535,
  "gi̇ri̇ş": 29536,
  "isterim": 29537,
  "sikis": 29538,
  "international": 29539,
  "unvan": 29540,
  "yargıtay": 29541,
  "sancak": 29542,
  "çocuğa": 29543,
  "item": 29544,
  "çıkmış": 29545,
  "ill": 29546,
  "raft": 29547,
  "varlığını": 29548,
  "yim": 29549,
  "adap": 29550,
  "otomotiv": 29551,
  "metrek": 29552,
  "halil": 29553,
  "okula": 29554,
  "tarihine": 29555,
  "hop": 29556,
  "abo": 29557,
  "mineral": 29558,
  "öğretmenler": 29559,
  "böbrek": 29560,
  "akademisi": 29561,
  "kader": 29562,
  "duran": 29563,
  "kurallar": 29564,
  "etkinlikleri": 29565,
  "eşleş": 29566,
  "tığınız": 29567,
  "korkut": 29568,
  "lord": 29569,
  "altını": 29570,
  "çeşme": 29571,
  "emen": 29572,
  "ск": 29573,
  "öm": 29574,
  "şartı": 29575,
  "aldığını": 29576,
  "uygulamayı": 29577,
  "sayısının": 29578,
  "gecesi": 29579,
  "şehirde": 29580,
  "gazeteci": 29581,
  "run": 29582,
  "hoc": 29583,
  "oral": 29584,
  "tavan": 29585,
  "gündeme": 29586,
  "media": 29587,
  "ato": 29588,
  "topluluğu": 29589,
  "tanınan": 29590,
  "dizin": 29591,
  "köpeğ": 29592,
  "card": 29593,
  "erkeklerin": 29594,
  "kurulumu": 29595,
  "dinin": 29596,
  "goz": 29597,
  "ball": 29598,
  "iba": 29599,
  "ofi": 29600,
  "adımlar": 29601,
  "olursunuz": 29602,
  "tuhaf": 29603,
  "derek": 29604,
  "moskova": 29605,
  "derecelen": 29606,
  "uğr": 29607,
  "sürdü": 29608,
  "cker": 29609,
  "holding": 29610,
  "fili": 29611,
  "çubuk": 29612,
  "kuma": 29613,
  "sigort": 29614,
  "asay": 29615,
  "çısı": 29616,
  "ath": 29617,
  "ark": 29618,
  "ilecektir": 29619,
  "buton": 29620,
  "130": 29621,
  "başlayın": 29622,
  "işareti": 29623,
  "sistemler": 29624,
  "bulunmak": 29625,
  "bulgaristan": 29626,
  "bireylerin": 29627,
  "ral": 29628,
  "şarap": 29629,
  "pasap": 29630,
  "hızlandır": 29631,
  "metri": 29632,
  "pedi": 29633,
  "olayın": 29634,
  "irler": 29635,
  "hidr": 29636,
  "yurtdışı": 29637,
  "cül": 29638,
  "gezin": 29639,
  "fur": 29640,
  "gelince": 29641,
  "dosyası": 29642,
  "etkileyen": 29643,
  "yayınlar": 29644,
  "maales": 29645,
  "emi": 29646,
  "araştırmaları": 29647,
  "gerekse": 29648,
  "konsep": 29649,
  "neş": 29650,
  "kaydetti": 29651,
  "öğrencileri": 29652,
  "getirilen": 29653,
  "gold": 29654,
  "maalesef": 29655,
  "wol": 29656,
  "page": 29657,
  "okumaya": 29658,
  "akra": 29659,
  "gelecekte": 29660,
  "olayları": 29661,
  "arttı": 29662,
  "kurtuluş": 29663,
  "bi̇lg": 29664,
  "önder": 29665,
  "göndermek": 29666,
  "ized": 29667,
  "bostan": 29668,
  "bilmiyor": 29669,
  "amaya": 29670,
  "sahabet": 29671,
  "bağlantısı": 29672,
  "kuruluşu": 29673,
  "direkt": 29674,
  "studi": 29675,
  "gerçeği": 29676,
  "vokal": 29677,
  "tasarlanmış": 29678,
  "yirmi": 29679,
  "planlama": 29680,
  "tekne": 29681,
  "ümit": 29682,
  "üt": 29683,
  "kitabın": 29684,
  "unk": 29685,
  "metropol": 29686,
  "times": 29687,
  "posu": 29688,
  "personeli": 29689,
  "hemşir": 29690,
  "ville": 29691,
  "haberlerin": 29692,
  "cümleler": 29693,
  "esenyurt": 29694,
  "tutun": 29695,
  "bulunmamaktadır": 29696,
  "bugünkü": 29697,
  "istediğini": 29698,
  "türkç": 29699,
  "noktasında": 29700,
  "törü": 29701,
  "hard": 29702,
  "ring": 29703,
  "teknikleri": 29704,
  "idare": 29705,
  "liğiyle": 29706,
  "6519": 29707,
  "kristal": 29708,
  "yürürlüğe": 29709,
  "luğa": 29710,
  "bilinmeyen": 29711,
  "musa": 29712,
  "bekleniyor": 29713,
  "kömür": 29714,
  "tikleri": 29715,
  "adeta": 29716,
  "mühendisi": 29717,
  "fren": 29718,
  "sci": 29719,
  "netic": 29720,
  "danı": 29721,
  "çıkarma": 29722,
  "cadde": 29723,
  "sac": 29724,
  "başkanlık": 29725,
  "ât": 29726,
  "6519107": 29727,
  "05356519107": 29728,
  "1966": 29729,
  "cına": 29730,
  "\">": 29731,
  "ayşe": 29732,
  "musunuz": 29733,
  "ücretleri": 29734,
  "somut": 29735,
  "anna": 29736,
  "termin": 29737,
  "gömlek": 29738,
  "çayı": 29739,
  "i̇li̇": 29740,
  "kullanımına": 29741,
  "stu": 29742,
  "izni": 29743,
  "zorunl": 29744,
  "severler": 29745,
  "muhafaza": 29746,
  "şimdiye": 29747,
  "fotoğrafları": 29748,
  "beşinci": 29749,
  "adınız": 29750,
  "karışım": 29751,
  "yapıp": 29752,
  "çankaya": 29753,
  "yayınladı": 29754,
  "beyler": 29755,
  "pss": 29756,
  "görülmektedir": 29757,
  "direc": 29758,
  "galaxy": 29759,
  "madrid": 29760,
  "portak": 29761,
  "taraftar": 29762,
  "i̇statistik": 29763,
  "cevabınızı": 29764,
  "700": 29765,
  "talimatlar": 29766,
  "camii": 29767,
  "beta": 29768,
  "kadına": 29769,
  "kolon": 29770,
  "kurulmuştur": 29771,
  "kullanıcıları": 29772,
  "dahilinde": 29773,
  "kurucusu": 29774,
  "bilinmektedir": 29775,
  "fox": 29776,
  "kilisesi": 29777,
  "protected": 29778,
  "toy": 29779,
  "riski": 29780,
  "domates": 29781,
  "seslendir": 29782,
  "macaristan": 29783,
  "isteyenler": 29784,
  "abonelik": 29785,
  "arın": 29786,
  "spek": 29787,
  "toto": 29788,
  "kraliyet": 29789,
  "pasaport": 29790,
  "profesör": 29791,
  "zorla": 29792,
  "alici": 29793,
  "kurma": 29794,
  "ikamet": 29795,
  "sünü": 29796,
  "kavga": 29797,
  "çıkacak": 29798,
  "sof": 29799,
  "soylu": 29800,
  "imizle": 29801,
  "tecavüz": 29802,
  "katar": 29803,
  "artması": 29804,
  "1964": 29805,
  "tabel": 29806,
  "bekleme": 29807,
  "gölü": 29808,
  "bulaşık": 29809,
  "şarkısı": 29810,
  "yitir": 29811,
  "vermesi": 29812,
  "price": 29813,
  "macera": 29814,
  "şeyh": 29815,
  "hükümeti": 29816,
  "i̇ptal": 29817,
  "ledi": 29818,
  "bio": 29819,
  "yaptığınız": 29820,
  "uzaklıktadır": 29821,
  "….": 29822,
  "çekiyor": 29823,
  "taşına": 29824,
  "yüklen": 29825,
  "dın": 29826,
  "tenis": 29827,
  "kab": 29828,
  "görünen": 29829,
  "ilmek": 29830,
  "çoktan": 29831,
  "okudum": 29832,
  "lib": 29833,
  "gayet": 29834,
  "yenilikçi": 29835,
  "kullanıcılara": 29836,
  "ras": 29837,
  "imalat": 29838,
  "на": 29839,
  "ра": 29840,
  "plana": 29841,
  "bardağı": 29842,
  "nihayet": 29843,
  "drama": 29844,
  "iyeli": 29845,
  "hayati": 29846,
  "içinden": 29847,
  "cema": 29848,
  "listesini": 29849,
  "dolap": 29850,
  "müsabak": 29851,
  "tasvir": 29852,
  "yönlü": 29853,
  "işletim": 29854,
  "projeleri": 29855,
  "usunu": 29856,
  "evrensel": 29857,
  "yatırımcı": 29858,
  "fot": 29859,
  "kalacak": 29860,
  "haklarına": 29861,
  "cın": 29862,
  "suçlu": 29863,
  "eksikliği": 29864,
  "arsa": 29865,
  "değilse": 29866,
  "sağlayarak": 29867,
  "yası": 29868,
  "izde": 29869,
  "cit": 29870,
  "ermeni": 29871,
  "adlandırılan": 29872,
  "county": 29873,
  "piercing": 29874,
  "vanı": 29875,
  "üzüm": 29876,
  "imle": 29877,
  "sayfaları": 29878,
  "kıyasla": 29879,
  "ware": 29880,
  "uygulanması": 29881,
  "görülüyor": 29882,
  "wei": 29883,
  "rat": 29884,
  "telek": 29885,
  "arjan": 29886,
  "eller": 29887,
  "sektörde": 29888,
  "emr": 29889,
  "anlayın": 29890,
  "fars": 29891,
  "filistin": 29892,
  "i̇yi̇": 29893,
  "trt": 29894,
  "önerme": 29895,
  "soğan": 29896,
  "kura": 29897,
  "başladığı": 29898,
  "malze": 29899,
  "söylem": 29900,
  "َا": 29901,
  "1961": 29902,
  "odaları": 29903,
  "hatt": 29904,
  "yapılıyor": 29905,
  "lami": 29906,
  "bahsediyor": 29907,
  "şarkıları": 29908,
  "kesintisiz": 29909,
  "reddedil": 29910,
  "yunus": 29911,
  "imden": 29912,
  "elbis": 29913,
  "yarışı": 29914,
  "francis": 29915,
  "nato": 29916,
  "ild": 29917,
  "dünyasında": 29918,
  "şeyden": 29919,
  "metinde": 29920,
  "darı": 29921,
  "vermeden": 29922,
  "listesinde": 29923,
  "miyim": 29924,
  "osunu": 29925,
  "yemekler": 29926,
  "inizle": 29927,
  "selçuklu": 29928,
  "suzluk": 29929,
  "suresi": 29930,
  "ee": 29931,
  "i̇şçi": 29932,
  "gösterilen": 29933,
  "lambası": 29934,
  "anlamını": 29935,
  "temsilciler": 29936,
  "plus": 29937,
  "sentez": 29938,
  "solunum": 29939,
  "ilgilidir": 29940,
  "vatanda": 29941,
  "i̇ha": 29942,
  "mensup": 29943,
  "gördüm": 29944,
  "siteyi": 29945,
  "haftanın": 29946,
  "saatte": 29947,
  "arjantin": 29948,
  "nasil": 29949,
  "ildiğinde": 29950,
  "sarışın": 29951,
  "block": 29952,
  "sergile": 29953,
  "erdem": 29954,
  "gösterdiği": 29955,
  "date": 29956,
  "analy": 29957,
  "çetin": 29958,
  "nedenleri": 29959,
  "kullanabiliriz": 29960,
  "çığ": 29961,
  "hazine": 29962,
  "head": 29963,
  "bezi": 29964,
  "ışığı": 29965,
  "i̇nan": 29966,
  "css": 29967,
  "ctor": 29968,
  "hakkına": 29969,
  "ayakta": 29970,
  "esnaf": 29971,
  "yüce": 29972,
  "kılıçdaroğlu": 29973,
  "tela": 29974,
  "hazırla": 29975,
  "hası": 29976,
  "tekin": 29977,
  "ane": 29978,
  "i̇fa": 29979,
  "x_": 29980,
  "buluştur": 29981,
  "belirgin": 29982,
  "bilimler": 29983,
  "ekleye": 29984,
  "dot": 29985,
  "etkileyici": 29986,
  "sanatı": 29987,
  "sömür": 29988,
  "müd": 29989,
  "fındık": 29990,
  "joe": 29991,
  "usunun": 29992,
  "manuel": 29993,
  "yardımı": 29994,
  "kaçı": 29995,
  "amir": 29996,
  "şehi̇r": 29997,
  "üvey": 29998,
  "malarının": 29999,
  "şof": 30000,
  "1963": 30001,
  "elemeleri": 30002,
  "taki̇p": 30003,
  "diyalog": 30004
}