{
  "!": 22569,
  "\"": 22570,
  "#": 22571,
  "$": 22572,
  "%": 22573,
  "&": 22574,
  "'": 22575,
  "(": 22576,
  ")": 22577,
  "*": 22578,
  "+": 22579,
  ",": 22580,
  "-": 22581,
  ".": 22582,
  "/": 22583,
  "0": 22584,
  "1": 22585,
  "2": 22586,
  "3": 22587,
  "4": 22588,
  "5": 22589,
  "6": 22590,
  "7": 22591,
  "8": 22592,
  "9": 22593,
  ":": 22594,
  ";": 22595,
  "<": 22596,
  "=": 22597,
  ">": 22598,
  "?": 22599,
  "@": 22600,
  "[": 22601,
  "\\": 22602,
  "]": 22603,
  "^": 22604,
  "_": 22605,
  "`": 22606,
  "a": 22607,
  "b": 22608,
  "c": 22609,
  "d": 22610,
  "e": 22611,
  "f": 22612,
  "g": 22613,
  "h": 22614,
  "i": 22615,
  "j": 22616,
  "k": 22617,
  "l": 22618,
  "m": 22619,
  "n": 22620,
  "o": 22621,
  "p": 22622,
  "q": 22623,
  "r": 22624,
  "s": 22625,
  "t": 22626,
  "u": 22627,
  "v": 22628,
  "w": 22629,
  "x": 22630,
  "y": 22631,
  "z": 22632,
  "{": 22633,
  "|": 22634,
  "}": 22635,
  "~": 22636,
  "": 22637,
  "": 22638,
  "": 22639,
  "": 22640,
  "": 22641,
  "": 22642,
  "": 22643,
  "": 22644,
  "¡": 22645,
  "¢": 22646,
  "£": 22647,
  "¤": 22648,
  "¥": 22649,
  "¦": 22650,
  "§": 22651,
  "¨": 22652,
  "©": 22653,
  "ª": 22654,
  "«": 22655,
  "¬": 22656,
  "­": 22657,
  "®": 22658,
  "¯": 22659,
  "°": 22660,
  "±": 22661,
  "²": 22662,
  "³": 22663,
  "´": 22664,
  "µ": 22665,
  "¶": 22666,
  "·": 22667,
  "¸": 22668,
  "¹": 22669,
  "º": 22670,
  "»": 22671,
  "¼": 22672,
  "½": 22673,
  "¾": 22674,
  "¿": 22675,
  "×": 22676,
  "ß": 22677,
  "à": 22678,
  "á": 22679,
  "â": 22680,
  "ã": 22681,
  "ä": 22682,
  "å": 22683,
  "æ": 22684,
  "ç": 22685,
  "è": 22686,
  "é": 22687,
  "ê": 22688,
  "ë": 22689,
  "ì": 22690,
  "í": 22691,
  "î": 22692,
  "ï": 22693,
  "ð": 22694,
  "ñ": 22695,
  "ò": 22696,
  "ó": 22697,
  "ô": 22698,
  "õ": 22699,
  "ö": 22700,
  "÷": 22701,
  "ø": 22702,
  "ù": 22703,
  "ú": 22704,
  "û": 22705,
  "ü": 22706,
  "ý": 22707,
  "þ": 22708,
  "ÿ": 22709,
  "ā": 22710,
  "ă": 22711,
  "ą": 22712,
  "ć": 22713,
  "č": 22714,
  "ď": 22715,
  "đ": 22716,
  "ē": 22717,
  "ė": 22718,
  "ę": 22719,
  "ě": 22720,
  "ĝ": 22721,
  "ğ": 22722,
  "ġ": 22723,
  "ģ": 22724,
  "ħ": 22725,
  "ī": 22726,
  "ı": 22727,
  "ķ": 22728,
  "ļ": 22729,
  "ł": 22730,
  "ń": 22731,
  "ņ": 22732,
  "ň": 22733,
  "ŋ": 22734,
  "ō": 22735,
  "ŏ": 22736,
  "ő": 22737,
  "œ": 22738,
  "ř": 22739,
  "ś": 22740,
  "ş": 22741,
  "š": 22742,
  "ţ": 22743,
  "ť": 22744,
  "ū": 22745,
  "ŭ": 22746,
  "ů": 22747,
  "ű": 22748,
  "ų": 22749,
  "ź": 22750,
  "ż": 22751,
  "ž": 22752,
  "ƅ": 22753,
  "ƒ": 22754,
  "ư": 22755,
  "ǎ": 22756,
  "ǐ": 22757,
  "ǔ": 22758,
  "ǧ": 22759,
  "ș": 22760,
  "ț": 22761,
  "ɑ": 22762,
  "ɔ": 22763,
  "ə": 22764,
  "ɛ": 22765,
  "ɡ": 22766,
  "ɪ": 22767,
  "ɾ": 22768,
  "ʁ": 22769,
  "ʃ": 22770,
  "ʒ": 22771,
  "ʔ": 22772,
  "ʰ": 22773,
  "ʲ": 22774,
  "ʷ": 22775,
  "ʻ": 22776,
  "ʼ": 22777,
  "ʾ": 22778,
  "ʿ": 22779,
  "ˆ": 22780,
  "ˈ": 22781,
  "ː": 22782,
  "̀": 22783,
  "́": 22784,
  "̂": 22785,
  "̄": 22786,
  "̆": 22787,
  "̇": 22788,
  "̈": 22789,
  "̣": 22790,
  "̧": 22791,
  "̳": 22792,
  "͡": 22793,
  "ά": 22794,
  "έ": 22795,
  "ή": 22796,
  "ί": 22797,
  "α": 22798,
  "β": 22799,
  "γ": 22800,
  "δ": 22801,
  "ε": 22802,
  "ζ": 22803,
  "η": 22804,
  "θ": 22805,
  "ι": 22806,
  "κ": 22807,
  "λ": 22808,
  "μ": 22809,
  "ν": 22810,
  "ξ": 22811,
  "ο": 22812,
  "π": 22813,
  "ρ": 22814,
  "ς": 22815,
  "σ": 22816,
  "τ": 22817,
  "υ": 22818,
  "φ": 22819,
  "χ": 22820,
  "ψ": 22821,
  "ω": 22822,
  "ό": 22823,
  "ύ": 22824,
  "ώ": 22825,
  "ϕ": 22826,
  "а": 22827,
  "б": 22828,
  "в": 22829,
  "г": 22830,
  "д": 22831,
  "е": 22832,
  "ж": 22833,
  "з": 22834,
  "и": 22835,
  "й": 22836,
  "к": 22837,
  "л": 22838,
  "м": 22839,
  "н": 22840,
  "о": 22841,
  "п": 22842,
  "р": 22843,
  "с": 22844,
  "т": 22845,
  "у": 22846,
  "ф": 22847,
  "х": 22848,
  "ц": 22849,
  "ч": 22850,
  "ш": 22851,
  "щ": 22852,
  "ъ": 22853,
  "ы": 22854,
  "ь": 22855,
  "э": 22856,
  "ю": 22857,
  "я": 22858,
  "ё": 22859,
  "є": 22860,
  "ѕ": 22861,
  "і": 22862,
  "ї": 22863,
  "ј": 22864,
  "ћ": 22865,
  "ў": 22866,
  "ѵ": 22867,
  "ғ": 22868,
  "қ": 22869,
  "ң": 22870,
  "ү": 22871,
  "ұ": 22872,
  "ӏ": 22873,
  "ә": 22874,
  "ө": 22875,
  "ԁ": 22876,
  "ա": 22877,
  "գ": 22878,
  "ե": 22879,
  "թ": 22880,
  "ի": 22881,
  "կ": 22882,
  "հ": 22883,
  "մ": 22884,
  "յ": 22885,
  "ն": 22886,
  "ո": 22887,
  "ս": 22888,
  "վ": 22889,
  "տ": 22890,
  "ր": 22891,
  "ւ": 22892,
  "ք": 22893,
  "ְ": 22894,
  "ִ": 22895,
  "ָ": 22896,
  "ּ": 22897,
  "א": 22898,
  "ב": 22899,
  "ג": 22900,
  "ד": 22901,
  "ה": 22902,
  "ו": 22903,
  "ז": 22904,
  "ח": 22905,
  "ט": 22906,
  "י": 22907,
  "ך": 22908,
  "כ": 22909,
  "ל": 22910,
  "ם": 22911,
  "מ": 22912,
  "ן": 22913,
  "נ": 22914,
  "ס": 22915,
  "ע": 22916,
  "פ": 22917,
  "צ": 22918,
  "ק": 22919,
  "ר": 22920,
  "ש": 22921,
  "ת": 22922,
  "،": 22923,
  "؟": 22924,
  "ء": 22925,
  "آ": 22926,
  "أ": 22927,
  "ؤ": 22928,
  "إ": 22929,
  "ئ": 22930,
  "ا": 22931,
  "ب": 22932,
  "ة": 22933,
  "ت": 22934,
  "ث": 22935,
  "ج": 22936,
  "ح": 22937,
  "خ": 22938,
  "د": 22939,
  "ذ": 22940,
  "ر": 22941,
  "ز": 22942,
  "س": 22943,
  "ش": 22944,
  "ص": 22945,
  "ض": 22946,
  "ط": 22947,
  "ظ": 22948,
  "ع": 22949,
  "غ": 22950,
  "ـ": 22951,
  "ف": 22952,
  "ق": 22953,
  "ك": 22954,
  "ل": 22955,
  "م": 22956,
  "ن": 22957,
  "ه": 22958,
  "و": 22959,
  "ى": 22960,
  "ي": 22961,
  "ً": 22962,
  "ٌ": 22963,
  "ٍ": 22964,
  "َ": 22965,
  "ُ": 22966,
  "ِ": 22967,
  "ّ": 22968,
  "ْ": 22969,
  "ٓ": 22970,
  "ٖ": 22971,
  "١": 22972,
  "ٰ": 22973,
  "ٱ": 22974,
  "پ": 22975,
  "چ": 22976,
  "ک": 22977,
  "گ": 22978,
  "ں": 22979,
  "ہ": 22980,
  "ی": 22981,
  "ے": 22982,
  "ە": 22983,
  "ۜ": 22984,
  "۞": 22985,
  "۩": 22986,
  "۪": 22987,
  "۱": 22988,
  "ं": 22989,
  "अ": 22990,
  "आ": 22991,
  "ए": 22992,
  "क": 22993,
  "ग": 22994,
  "च": 22995,
  "ज": 22996,
  "ट": 22997,
  "ड": 22998,
  "ण": 22999,
  "त": 23000,
  "थ": 23001,
  "द": 23002,
  "ध": 23003,
  "न": 23004,
  "प": 23005,
  "ब": 23006,
  "भ": 23007,
  "म": 23008,
  "य": 23009,
  "र": 23010,
  "ल": 23011,
  "व": 23012,
  "श": 23013,
  "ष": 23014,
  "स": 23015,
  "ह": 23016,
  "ा": 23017,
  "ि": 23018,
  "ी": 23019,
  "ु": 23020,
  "ू": 23021,
  "े": 23022,
  "ै": 23023,
  "ो": 23024,
  "्": 23025,
  "।": 23026,
  "ং": 23027,
  "আ": 23028,
  "ই": 23029,
  "এ": 23030,
  "ক": 23031,
  "গ": 23032,
  "চ": 23033,
  "জ": 23034,
  "ট": 23035,
  "ত": 23036,
  "দ": 23037,
  "ন": 23038,
  "প": 23039,
  "ব": 23040,
  "ভ": 23041,
  "ম": 23042,
  "য": 23043,
  "র": 23044,
  "ল": 23045,
  "শ": 23046,
  "স": 23047,
  "হ": 23048,
  "়": 23049,
  "া": 23050,
  "ি": 23051,
  "ী": 23052,
  "ু": 23053,
  "ে": 23054,
  "ো": 23055,
  "্": 23056,
  "ৰ": 23057,
  "ਂ": 23058,
  "ਅ": 23059,
  "ਆ": 23060,
  "ਇ": 23061,
  "ਕ": 23062,
  "ਗ": 23063,
  "ਚ": 23064,
  "ਜ": 23065,
  "ਟ": 23066,
  "ਣ": 23067,
  "ਤ": 23068,
  "ਦ": 23069,
  "ਨ": 23070,
  "ਪ": 23071,
  "ਬ": 23072,
  "ਮ": 23073,
  "ਰ": 23074,
  "ਲ": 23075,
  "ਵ": 23076,
  "ਸ": 23077,
  "ਹ": 23078,
  "਼": 23079,
  "ਾ": 23080,
  "ਿ": 23081,
  "ੀ": 23082,
  "ੁ": 23083,
  "ੂ": 23084,
  "ੇ": 23085,
  "ੈ": 23086,
  "ੋ": 23087,
  "੍": 23088,
  "ੰ": 23089,
  "ੱ": 23090,
  "ં": 23091,
  "આ": 23092,
  "ક": 23093,
  "ગ": 23094,
  "જ": 23095,
  "ટ": 23096,
  "ડ": 23097,
  "ત": 23098,
  "દ": 23099,
  "ન": 23100,
  "પ": 23101,
  "બ": 23102,
  "મ": 23103,
  "ય": 23104,
  "ર": 23105,
  "લ": 23106,
  "વ": 23107,
  "શ": 23108,
  "સ": 23109,
  "ા": 23110,
  "િ": 23111,
  "ી": 23112,
  "ુ": 23113,
  "ે": 23114,
  "ો": 23115,
  "્": 23116,
  "କ": 23117,
  "ତ": 23118,
  "ଦ": 23119,
  "ନ": 23120,
  "ପ": 23121,
  "ବ": 23122,
  "ମ": 23123,
  "ର": 23124,
  "ସ": 23125,
  "ହ": 23126,
  "ା": 23127,
  "ି": 23128,
  "ୀ": 23129,
  "ୁ": 23130,
  "େ": 23131,
  "୍": 23132,
  "ୟ": 23133,
  "அ": 23134,
  "இ": 23135,
  "உ": 23136,
  "எ": 23137,
  "க": 23138,
  "ங": 23139,
  "ச": 23140,
  "ட": 23141,
  "ண": 23142,
  "த": 23143,
  "ந": 23144,
  "ன": 23145,
  "ப": 23146,
  "ம": 23147,
  "ய": 23148,
  "ர": 23149,
  "ற": 23150,
  "ல": 23151,
  "ள": 23152,
  "ழ": 23153,
  "வ": 23154,
  "ா": 23155,
  "ி": 23156,
  "ு": 23157,
  "ூ": 23158,
  "ெ": 23159,
  "ே": 23160,
  "ை": 23161,
  "ொ": 23162,
  "ோ": 23163,
  "்": 23164,
  "ం": 23165,
  "అ": 23166,
  "క": 23167,
  "గ": 23168,
  "చ": 23169,
  "జ": 23170,
  "ట": 23171,
  "డ": 23172,
  "త": 23173,
  "ద": 23174,
  "ధ": 23175,
  "న": 23176,
  "ప": 23177,
  "బ": 23178,
  "భ": 23179,
  "మ": 23180,
  "య": 23181,
  "ర": 23182,
  "ల": 23183,
  "వ": 23184,
  "శ": 23185,
  "ష": 23186,
  "స": 23187,
  "ా": 23188,
  "ి": 23189,
  "ీ": 23190,
  "ు": 23191,
  "ూ": 23192,
  "ె": 23193,
  "ే": 23194,
  "ై": 23195,
  "ో": 23196,
  "్": 23197,
  "ಂ": 23198,
  "ಕ": 23199,
  "ಗ": 23200,
  "ಡ": 23201,
  "ತ": 23202,
  "ದ": 23203,
  "ನ": 23204,
  "ಮ": 23205,
  "ಯ": 23206,
  "ರ": 23207,
  "ಲ": 23208,
  "ವ": 23209,
  "ಸ": 23210,
  "ಾ": 23211,
  "ಿ": 23212,
  "ು": 23213,
  "ೆ": 23214,
  "್": 23215,
  "ം": 23216,
  "ക": 23217,
  "ട": 23218,
  "ത": 23219,
  "ന": 23220,
  "പ": 23221,
  "മ": 23222,
  "യ": 23223,
  "ര": 23224,
  "റ": 23225,
  "ല": 23226,
  "ള": 23227,
  "വ": 23228,
  "സ": 23229,
  "ാ": 23230,
  "ി": 23231,
  "ു": 23232,
  "െ": 23233,
  "്": 23234,
  "ก": 23235,
  "ข": 23236,
  "ค": 23237,
  "ง": 23238,
  "จ": 23239,
  "ช": 23240,
  "ด": 23241,
  "ต": 23242,
  "ท": 23243,
  "น": 23244,
  "บ": 23245,
  "ป": 23246,
  "พ": 23247,
  "ภ": 23248,
  "ม": 23249,
  "ย": 23250,
  "ร": 23251,
  "ล": 23252,
  "ว": 23253,
  "ษ": 23254,
  "ส": 23255,
  "ห": 23256,
  "อ": 23257,
  "ะ": 23258,
  "ั": 23259,
  "า": 23260,
  "ิ": 23261,
  "ี": 23262,
  "ื": 23263,
  "ุ": 23264,
  "ู": 23265,
  "เ": 23266,
  "แ": 23267,
  "โ": 23268,
  "ใ": 23269,
  "ไ": 23270,
  "่": 23271,
  "้": 23272,
  "์": 23273,
  "๑": 23274,
  "ກ": 23275,
  "ງ": 23276,
  "ດ": 23277,
  "ນ": 23278,
  "ມ": 23279,
  "ລ": 23280,
  "ວ": 23281,
  "ອ": 23282,
  "ະ": 23283,
  "ັ": 23284,
  "າ": 23285,
  "ີ": 23286,
  "ເ": 23287,
  "່": 23288,
  "້": 23289,
  "་": 23290,
  "မ": 23291,
  "ာ": 23292,
  "်": 23293,
  "ა": 23294,
  "ბ": 23295,
  "გ": 23296,
  "დ": 23297,
  "ე": 23298,
  "ვ": 23299,
  "ზ": 23300,
  "თ": 23301,
  "ი": 23302,
  "კ": 23303,
  "ლ": 23304,
  "მ": 23305,
  "ნ": 23306,
  "ო": 23307,
  "პ": 23308,
  "რ": 23309,
  "ს": 23310,
  "ტ": 23311,
  "უ": 23312,
  "ფ": 23313,
  "ქ": 23314,
  "შ": 23315,
  "ც": 23316,
  "ძ": 23317,
  "წ": 23318,
  "ხ": 23319,
  "រ": 23320,
  "ា": 23321,
  "្": 23322,
  "ḥ": 23323,
  "ḫ": 23324,
  "ḳ": 23325,
  "ṣ": 23326,
  "ṭ": 23327,
  "ạ": 23328,
  "ả": 23329,
  "ẹ": 23330,
  "ế": 23331,
  "ệ": 23332,
  "ị": 23333,
  "ọ": 23334,
  "ụ": 23335,
  "ἀ": 23336,
  "​": 23337,
  "‌": 23338,
  "‍": 23339,
  "‎": 23340,
  "‏": 23341,
  "‐": 23342,
  "–": 23343,
  "—": 23344,
  "―": 23345,
  "‘": 23346,
  "’": 23347,
  "‚": 23348,
  "“": 23349,
  "”": 23350,
  "„": 23351,
  "‟": 23352,
  "†": 23353,
  "‡": 23354,
  "•": 23355,
  "‣": 23356,
  "…": 23357,
  "‬": 23358,
  "‭": 23359,
  "′": 23360,
  "″": 23361,
  "‹": 23362,
  "›": 23363,
  "⁄": 23364,
  "⁺": 23365,
  "⁻": 23366,
  "₀": 23367,
  "₁": 23368,
  "₂": 23369,
  "₃": 23370,
  "₄": 23371,
  "ₙ": 23372,
  "€": 23373,
  "₺": 23374,
  "℃": 23375,
  "№": 23376,
  "™": 23377,
  "ℤ": 23378,
  "←": 23379,
  "↑": 23380,
  "→": 23381,
  "↓": 23382,
  "↔": 23383,
  "↘": 23384,
  "↙": 23385,
  "↳": 23386,
  "⇌": 23387,
  "⇒": 23388,
  "⇓": 23389,
  "∂": 23390,
  "∅": 23391,
  "∆": 23392,
  "∇": 23393,
  "∈": 23394,
  "∑": 23395,
  "−": 23396,
  "√": 23397,
  "∞": 23398,
  "∧": 23399,
  "∩": 23400,
  "∪": 23401,
  "∫": 23402,
  "≅": 23403,
  "≈": 23404,
  "≠": 23405,
  "≡": 23406,
  "≤": 23407,
  "≥": 23408,
  "⊆": 23409,
  "⊕": 23410,
  "⊗": 23411,
  "⋅": 23412,
  "⋊": 23413,
  "⋮": 23414,
  "─": 23415,
  "│": 23416,
  "█": 23417,
  "■": 23418,
  "▪": 23419,
  "▬": 23420,
  "▲": 23421,
  "△": 23422,
  "▶": 23423,
  "▷": 23424,
  "►": 23425,
  "▼": 23426,
  "◊": 23427,
  "●": 23428,
  "★": 23429,
  "☆": 23430,
  "☎": 23431,
  "☺": 23432,
  "♀": 23433,
  "♂": 23434,
  "♥": 23435,
  "♦": 23436,
  "♪": 23437,
  "♫": 23438,
  "⚡": 23439,
  "✂": 23440,
  "✅": 23441,
  "✌": 23442,
  "✓": 23443,
  "✔": 23444,
  "✕": 23445,
  "✨": 23446,
  "❌": 23447,
  "❤": 23448,
  "➡": 23449,
  "➤": 23450,
  "⟨": 23451,
  "⟩": 23452,
  "⠀": 23453,
  "⤓": 23454,
  "⦁": 23455,
  "⭐": 23456,
  "、": 23457,
  "。": 23458,
  "「": 23459,
  "」": 23460,
  "【": 23461,
  "】": 23462,
  "あ": 23463,
  "い": 23464,
  "う": 23465,
  "え": 23466,
  "お": 23467,
  "か": 23468,
  "が": 23469,
  "き": 23470,
  "く": 23471,
  "け": 23472,
  "こ": 23473,
  "さ": 23474,
  "し": 23475,
  "す": 23476,
  "せ": 23477,
  "そ": 23478,
  "た": 23479,
  "だ": 23480,
  "ち": 23481,
  "っ": 23482,
  "つ": 23483,
  "て": 23484,
  "で": 23485,
  "と": 23486,
  "ど": 23487,
  "な": 23488,
  "に": 23489,
  "の": 23490,
  "は": 23491,
  "ま": 23492,
  "み": 23493,
  "め": 23494,
  "も": 23495,
  "や": 23496,
  "よ": 23497,
  "ら": 23498,
  "り": 23499,
  "る": 23500,
  "れ": 23501,
  "わ": 23502,
  "を": 23503,
  "ん": 23504,
  "ア": 23505,
  "ィ": 23506,
  "イ": 23507,
  "ウ": 23508,
  "ェ": 23509,
  "エ": 23510,
  "オ": 23511,
  "カ": 23512,
  "キ": 23513,
  "ク": 23514,
  "グ": 23515,
  "コ": 23516,
  "サ": 23517,
  "シ": 23518,
  "ジ": 23519,
  "ス": 23520,
  "タ": 23521,
  "チ": 23522,
  "ッ": 23523,
  "テ": 23524,
  "デ": 23525,
  "ト": 23526,
  "ド": 23527,
  "ナ": 23528,
  "ニ": 23529,
  "ノ": 23530,
  "バ": 23531,
  "パ": 23532,
  "ビ": 23533,
  "フ": 23534,
  "ブ": 23535,
  "プ": 23536,
  "ポ": 23537,
  "マ": 23538,
  "ム": 23539,
  "メ": 23540,
  "ャ": 23541,
  "ュ": 23542,
  "ラ": 23543,
  "リ": 23544,
  "ル": 23545,
  "レ": 23546,
  "ロ": 23547,
  "ン": 23548,
  "・": 23549,
  "ー": 23550,
  "一": 23551,
  "三": 23552,
  "上": 23553,
  "不": 23554,
  "世": 23555,
  "中": 23556,
  "主": 23557,
  "事": 23558,
  "产": 23559,
  "人": 23560,
  "代": 23561,
  "会": 23562,
  "体": 23563,
  "免": 23564,
  "兒": 23565,
  "公": 23566,
  "出": 23567,
  "分": 23568,
  "北": 23569,
  "区": 23570,
  "南": 23571,
  "县": 23572,
  "可": 23573,
  "合": 23574,
  "名": 23575,
  "和": 23576,
  "国": 23577,
  "在": 23578,
  "地": 23579,
  "大": 23580,
  "天": 23581,
  "女": 23582,
  "子": 23583,
  "学": 23584,
  "安": 23585,
  "定": 23586,
  "家": 23587,
  "小": 23588,
  "山": 23589,
  "州": 23590,
  "市": 23591,
  "年": 23592,
  "彼": 23593,
  "後": 23594,
  "性": 23595,
  "情": 23596,
  "成": 23597,
  "我": 23598,
  "播": 23599,
  "放": 23600,
  "文": 23601,
  "新": 23602,
  "方": 23603,
  "族": 23604,
  "日": 23605,
  "明": 23606,
  "是": 23607,
  "時": 23608,
  "最": 23609,
  "月": 23610,
  "有": 23611,
  "本": 23612,
  "民": 23613,
  "水": 23614,
  "治": 23615,
  "法": 23616,
  "洞": 23617,
  "海": 23618,
  "物": 23619,
  "王": 23620,
  "理": 23621,
  "生": 23622,
  "用": 23623,
  "癟": 23624,
  "的": 23625,
  "社": 23626,
  "私": 23627,
  "童": 23628,
  "简": 23629,
  "繁": 23630,
  "线": 23631,
  "羹": 23632,
  "者": 23633,
  "脹": 23634,
  "自": 23635,
  "色": 23636,
  "行": 23637,
  "西": 23638,
  "要": 23639,
  "見": 23640,
  "覺": 23641,
  "视": 23642,
  "言": 23643,
  "語": 23644,
  "费": 23645,
  "通": 23646,
  "道": 23647,
  "部": 23648,
  "金": 23649,
  "間": 23650,
  "频": 23651,
  "體": 23652,
  "高": 23653,
  "가": 23654,
  "고": 23655,
  "국": 23656,
  "기": 23657,
  "나": 23658,
  "는": 23659,
  "다": 23660,
  "대": 23661,
  "동": 23662,
  "라": 23663,
  "로": 23664,
  "리": 23665,
  "마": 23666,
  "사": 23667,
  "수": 23668,
  "스": 23669,
  "시": 23670,
  "아": 23671,
  "어": 23672,
  "에": 23673,
  "의": 23674,
  "이": 23675,
  "인": 23676,
  "자": 23677,
  "정": 23678,
  "지": 23679,
  "하": 23680,
  "한": 23681,
  "": 23682,
  "": 23683,
  "": 23684,
  "": 23685,
  "": 23686,
  "": 23687,
  "": 23688,
  "": 23689,
  "": 23690,
  "": 23691,
  "": 23692,
  "": 23693,
  "": 23694,
  "": 23695,
  "": 23696,
  "": 23697,
  "": 23698,
  "": 23699,
  "": 23700,
  "": 23701,
  "": 23702,
  "": 23703,
  "": 23704,
  "": 23705,
  "﴾": 23706,
  "﴿": 23707,
  "️": 23708,
  "﻿": 23709,
  "！": 23710,
  "（": 23711,
  "）": 23712,
  "，": 23713,
  "：": 23714,
  "￦": 23715,
  "￼": 23716,
  "�": 23717,
  "🇷": 23718,
  "🇹": 23719,
  "🌈": 23720,
  "🌞": 23721,
  "🌟": 23722,
  "🌸": 23723,
  "🌹": 23724,
  "🌻": 23725,
  "🏻": 23726,
  "🏼": 23727,
  "👇": 23728,
  "👈": 23729,
  "👉": 23730,
  "👍": 23731,
  "👎": 23732,
  "👏": 23733,
  "👤": 23734,
  "💕": 23735,
  "💖": 23736,
  "💪": 23737,
  "💬": 23738,
  "📋": 23739,
  "📌": 23740,
  "📍": 23741,
  "📞": 23742,
  "🔥": 23743,
  "🖊": 23744,
  "😀": 23745,
  "😁": 23746,
  "😂": 23747,
  "😃": 23748,
  "😄": 23749,
  "😇": 23750,
  "😉": 23751,
  "😊": 23752,
  "😍": 23753,
  "😎": 23754,
  "😔": 23755,
  "😘": 23756,
  "😡": 23757,
  "😥": 23758,
  "😦": 23759,
  "😱": 23760,
  "🙁": 23761,
  "🙂": 23762,
  "🙏": 23763,
  "🚀": 23764,
  "🤍": 23765,
  "🤗": 23766,
  "🥰": 23767,
  "🥺": 23768,
  "ar": 23769,
  "er": 23770,
  "an": 23771,
  "in": 23772,
  "en": 23773,
  "ir": 23774,
  "il": 23775,
  "ın": 23776,
  "al": 23777,
  "ak": 23778,
  "de": 23779,
  "lar": 23780,
  "ya": 23781,
  "el": 23782,
  "da": 23783,
  "ek": 23784,
  "or": 23785,
  "ma": 23786,
  "et": 23787,
  "la": 23788,
  "si": 23789,
  "ve": 23790,
  "un": 23791,
  "on": 23792,
  "ler": 23793,
  "ol": 23794,
  "ka": 23795,
  "bir": 23796,
  "te": 23797,
  "ik": 23798,
  "le": 23799,
  "sa": 23800,
  "me": 23801,
  "ır": 23802,
  "ta": 23803,
  "iz": 23804,
  "ur": 23805,
  "im": 23806,
  "ba": 23807,
  "di": 23808,
  "ul": 23809,
  "lı": 23810,
  "iş": 23811,
  "ha": 23812,
  "ün": 23813,
  "is": 23814,
  "sı": 23815,
  "i̇": 23816,
  "iy": 23817,
  "ür": 23818,
  "bil": 23819,
  "dı": 23820,
  "es": 23821,
  "lan": 23822,
  "den": 23823,
  "ara": 23824,
  "li": 23825,
  "um": 23826,
  "iç": 23827,
  "20": 23828,
  "tı": 23829,
  "bu": 23830,
  "st": 23831,
  "ları": 23832,
  "ra": 23833,
  "yı": 23834,
  "dan": 23835,
  "ını": 23836,
  "ok": 23837,
  "ce": 23838,
  "ti": 23839,
  "ön": 23840,
  "mı": 23841,
  "re": 23842,
  "se": 23843,
  "du": 23844,
  "gö": 23845,
  "it": 23846,
  "ında": 23847,
  "ay": 23848,
  "dir": 23849,
  "alı": 23850,
  "mak": 23851,
  "man": 23852,
  "üz": 23853,
  "eri": 23854,
  "için": 23855,
  "ini": 23856,
  "em": 23857,
  "ey": 23858,
  "yor": 23859,
  "leri": 23860,
  "ca": 23861,
  "yap": 23862,
  "ine": 23863,
  "ğı": 23864,
  "ver": 23865,
  "üm": 23866,
  "inde": 23867,
  "at": 23868,
  "ük": 23869,
  "kar": 23870,
  "uz": 23871,
  "ile": 23872,
  "şt": 23873,
  "gi": 23874,
  "us": 23875,
  "baş": 23876,
  "va": 23877,
  "ne": 23878,
  "dır": 23879,
  "son": 23880,
  "ki": 23881,
  "do": 23882,
  "yan": 23883,
  "ye": 23884,
  "cı": 23885,
  "mek": 23886,
  "ro": 23887,
  "şı": 23888,
  "arı": 23889,
  "ına": 23890,
  "ut": 23891,
  "çı": 23892,
  "iler": 23893,
  "gel": 23894,
  "az": 23895,
  "to": 23896,
  "ge": 23897,
  "ül": 23898,
  "kı": 23899,
  "lik": 23900,
  "der": 23901,
  "bilir": 23902,
  "öz": 23903,
  "bul": 23904,
  "inin": 23905,
  "cak": 23906,
  "olar": 23907,
  "iniz": 23908,
  "kul": 23909,
  "ği": 23910,
  "19": 23911,
  "anı": 23912,
  "ci": 23913,
  "ken": 23914,
  "aki": 23915,
  "ger": 23916,
  "olarak": 23917,
  "kon": 23918,
  "uy": 23919,
  "oy": 23920,
  "gün": 23921,
  "lık": 23922,
  "tür": 23923,
  "za": 23924,
  "ter": 23925,
  "şa": 23926,
  "ların": 23927,
  "lu": 23928,
  "==": 23929,
  "len": 23930,
  "ev": 23931,
  "bi": 23932,
  "kullan": 23933,
  "zı": 23934,
  "eler": 23935,
  "os": 23936,
  "tem": 23937,
  "ko": 23938,
  "yon": 23939,
  "hi": 23940,
  "be": 23941,
  "as": 23942,
  "201": 23943,
  "alar": 23944,
  "tar": 23945,
  "oldu": 23946,
  "ması": 23947,
  "yen": 23948,
  "değ": 23949,
  "tir": 23950,
  "ad": 23951,
  "he": 23952,
  "fa": 23953,
  "iyor": 23954,
  "kur": 23955,
  "her": 23956,
  "san": 23957,
  "ından": 23958,
  "na": 23959,
  "bel": 23960,
  "yer": 23961,
  "met": 23962,
  "unu": 23963,
  "cu": 23964,
  "..": 23965,
  "tan": 23966,
  "ed": 23967,
  "ör": 23968,
  "kal": 23969,
  "yıl": 23970,
  "öl": 23971,
  "mi": 23972,
  "ğu": 23973,
  "mu": 23974,
  "çok": 23975,
  "daha": 23976,
  "ğr": 23977,
  "yük": 23978,
  "olan": 23979,
  "siz": 23980,
  "ola": 23981,
  "dur": 23982,
  "yapı": 23983,
  "ke": 23984,
  "olu": 23985,
  "daki": 23986,
  "sor": 23987,
  "miş": 23988,
  "00": 23989,
  "tek": 23990,
  "dü": 23991,
  "ber": 23992,
  "ili": 23993,
  "ça": 23994,
  "gen": 23995,
  "men": 23996,
  "mas": 23997,
  "par": 23998,
  "diğ": 23999,
  "hal": 24000,
  "iye": 24001,
  "gör": 24002,
  "kad": 24003,
  "gü": 24004,
  "bet": 24005,
  "yar": 24006,
  "ort": 24007,
  "bü": 24008,
  "kan": 24009,
  "var": 24010,
  "kay": 24011,
  "cek": 24012,
  "co": 24013,
  "yat": 24014,
  "öy": 24015,
  "ının": 24016,
  "sağ": 24017,
  "sür": 24018,
  "mo": 24019,
  "çek": 24020,
  "bah": 24021,
  "gor": 24022,
  "kullanı": 24023,
  "mer": 24024,
  "vi": 24025,
  "202": 24026,
  "yın": 24027,
  "pro": 24028,
  "veya": 24029,
  "eli": 24030,
  "türk": 24031,
  "fi": 24032,
  "alan": 24033,
  "tr": 24034,
  "mü": 24035,
  "mesi": 24036,
  "geç": 24037,
  "pa": 24038,
  "mal": 24039,
  "ilen": 24040,
  "gir": 24041,
  "ama": 24042,
  "site": 24043,
  "kate": 24044,
  "tara": 24045,
  "bo": 24046,
  "ana": 24047,
  "inden": 24048,
  "sp": 24049,
  "gerek": 24050,
  "hak": 24051,
  "lü": 24052,
  "göre": 24053,
  "ştır": 24054,
  "yön": 24055,
  "lama": 24056,
  "han": 24057,
  "açı": 24058,
  "kategor": 24059,
  "çe": 24060,
  "şek": 24061,
  "dım": 24062,
  "ih": 24063,
  "bak": 24064,
  "uk": 24065,
  "sel": 24066,
  "kiş": 24067,
  "i̇n": 24068,
  "lam": 24069,
  "ri": 24070,
  "yla": 24071,
  "gibi": 24072,
  "çalı": 24073,
  "üzer": 24074,
  "tır": 24075,
  "top": 24076,
  "ot": 24077,
  "ben": 24078,
  "am": 24079,
  "let": 24080,
  "ınız": 24081,
  "imiz": 24082,
  "sal": 24083,
  "zaman": 24084,
  "ten": 24085,
  "har": 24086,
  "taraf": 24087,
  "mar": 24088,
  "mes": 24089,
  "oyun": 24090,
  "böl": 24091,
  "cel": 24092,
  "yeni": 24093,
  "sonra": 24094,
  "su": 24095,
  "yaz": 24096,
  "bulun": 24097,
  "kategori": 24098,
  "mış": 24099,
  "kü": 24100,
  "yi": 24101,
  "ru": 24102,
  "özel": 24103,
  "sun": 24104,
  "for": 24105,
  "eğ": 24106,
  "ven": 24107,
  "ser": 24108,
  "uyg": 24109,
  "yorum": 24110,
  "önem": 24111,
  "şe": 24112,
  "po": 24113,
  "bile": 24114,
  "lerin": 24115,
  "eleri": 24116,
  "bağ": 24117,
  "unda": 24118,
  "sin": 24119,
  "10": 24120,
  "tal": 24121,
  "sek": 24122,
  "eti": 24123,
  "makta": 24124,
  "fil": 24125,
  "seç": 24126,
  "res": 24127,
  "lo": 24128,
  "bun": 24129,
  "çalış": 24130,
  "yal": 24131,
  "maya": 24132,
  "can": 24133,
  "belir": 24134,
  "ku": 24135,
  "200": 24136,
  "2022": 24137,
  "per": 24138,
  "bahis": 24139,
  "ada": 24140,
  "larını": 24141,
  "lem": 24142,
  "dığı": 24143,
  "dik": 24144,
  "kap": 24145,
  "esc": 24146,
  "bur": 24147,
  "karşı": 24148,
  "yak": 24149,
  "lara": 24150,
  "sen": 24151,
  "nin": 24152,
  "escort": 24153,
  "ceva": 24154,
  "edi": 24155,
  "stan": 24156,
  "mekte": 24157,
  "laş": 24158,
  "alt": 24159,
  "rı": 24160,
  "yet": 24161,
  "yayın": 24162,
  "imi": 24163,
  "siniz": 24164,
  "ist": 24165,
  "kadar": 24166,
  "büyük": 24167,
  "düş": 24168,
  "sim": 24169,
  "ch": 24170,
  "mız": 24171,
  "sında": 24172,
  "ço": 24173,
  "gra": 24174,
  "ım": 24175,
  "olduğ": 24176,
  "tarafından": 24177,
  "ız": 24178,
  "haz": 24179,
  "alık": 24180,
  "hiz": 24181,
  "düz": 24182,
  "iyi": 24183,
  "şu": 24184,
  "kor": 24185,
  "tak": 24186,
  "ede": 24187,
  "ileri": 24188,
  "ğını": 24189,
  "öyle": 24190,
  "dün": 24191,
  "şekil": 24192,
  "olma": 24193,
  "sır": 24194,
  "ban": 24195,
  "sahi": 24196,
  "hizmet": 24197,
  "ster": 24198,
  "tüm": 24199,
  "yüz": 24200,
  "neden": 24201,
  "ştur": 24202,
  "iyle": 24203,
  "yazı": 24204,
  "mil": 24205,
  "yol": 24206,
  "i̇l": 24207,
  "ran": 24208,
  "ürün": 24209,
  "ho": 24210,
  "av": 24211,
  "far": 24212,
  "nak": 24213,
  "kat": 24214,
  "maktadır": 24215,
  "say": 24216,
  "ele": 24217,
  "lerini": 24218,
  "açık": 24219,
  "haber": 24220,
  "hat": 24221,
  "sit": 24222,
  "sayı": 24223,
  "öğr": 24224,
  "kin": 24225,
  "doğ": 24226,
  "lığı": 24227,
  "ise": 24228,
  "güven": 24229,
  "orta": 24230,
  "sız": 24231,
  "doğr": 24232,
  "so": 24233,
  "edil": 24234,
  "tü": 24235,
  "iste": 24236,
  "if": 24237,
  "şekilde": 24238,
  "olo": 24239,
  "bilirsiniz": 24240,
  "iyet": 24241,
  "gerçek": 24242,
  "giriş": 24243,
  "...": 24244,
  "konu": 24245,
  "tur": 24246,
  "kara": 24247,
  "mektedir": 24248,
  "ştir": 24249,
  "ab": 24250,
  "değiş": 24251,
  "tık": 24252,
  "leş": 24253,
  "hem": 24254,
  "sın": 24255,
  "eş": 24256,
  "12": 24257,
  "ulu": 24258,
  "dür": 24259,
  "durum": 24260,
  "usu": 24261,
  "cevap": 24262,
  "ilg": 24263,
  "sis": 24264,
  "tik": 24265,
  "yaş": 24266,
  "18": 24267,
  "ıl": 24268,
  "arak": 24269,
  "faz": 24270,
  "com": 24271,
  "ayrı": 24272,
  "hir": 24273,
  "genel": 24274,
  "ip": 24275,
  "no": 24276,
  "sıl": 24277,
  "meye": 24278,
  "min": 24279,
  "yo": 24280,
  "ala": 24281,
  "diği": 24282,
  "kez": 24283,
  "dev": 24284,
  "tas": 24285,
  "bilg": 24286,
  "id": 24287,
  "deki": 24288,
  "lere": 24289,
  "sitesi": 24290,
  "ula": 24291,
  "esi": 24292,
  "fark": 24293,
  "ck": 24294,
  "we": 24295,
  "i̇ş": 24296,
  "15": 24297,
  "art": 24298,
  "tarih": 24299,
  "nın": 24300,
  "biz": 24301,
  "ing": 24302,
  "söz": 24303,
  "ilk": 24304,
  "sahip": 24305,
  "ali": 24306,
  "göster": 24307,
  "elik": 24308,
  "içer": 24309,
  "para": 24310,
  "anla": 24311,
  "dem": 24312,
  "bilgi": 24313,
  "iki": 24314,
  "sonu": 24315,
  "nı": 24316,
  "larda": 24317,
  "tor": 24318,
  "değil": 24319,
  "ans": 24320,
  "diğer": 24321,
  "önce": 24322,
  "şey": 24323,
  "türkiye": 24324,
  "kendi": 24325,
  "ceğ": 24326,
  "the": 24327,
  "liği": 24328,
  "por": 24329,
  "ji": 24330,
  "dünya": 24331,
  "ancak": 24332,
  "bek": 24333,
  "aret": 24334,
  "mayı": 24335,
  "sev": 24336,
  "insan": 24337,
  "tanı": 24338,
  "dön": 24339,
  "kası": 24340,
  "eder": 24341,
  "üc": 24342,
  "yanı": 24343,
  "hakk": 24344,
  "fazla": 24345,
  "etti": 24346,
  "pol": 24347,
  "doğru": 24348,
  "net": 24349,
  "göz": 24350,
  "--": 24351,
  "unun": 24352,
  "çocu": 24353,
  "kaz": 24354,
  "dil": 24355,
  "kes": 24356,
  "başla": 24357,
  "11": 24358,
  "deva": 24359,
  "kö": 24360,
  "olduğu": 24361,
  "nasıl": 24362,
  "oto": 24363,
  "tör": 24364,
  "go": 24365,
  "bar": 24366,
  "bölüm": 24367,
  "değer": 24368,
  "vur": 24369,
  "film": 24370,
  "üş": 24371,
  "çev": 24372,
  "bol": 24373,
  "yaşa": 24374,
  "tut": 24375,
  "geliş": 24376,
  "ren": 24377,
  "pi": 24378,
  "süre": 24379,
  "gaz": 24380,
  "fer": 24381,
  "sat": 24382,
  "mez": 24383,
  "kır": 24384,
  "aynı": 24385,
  "sü": 24386,
  "önemli": 24387,
  "okul": 24388,
  "yok": 24389,
  "get": 24390,
  "van": 24391,
  "din": 24392,
  "ilgili": 24393,
  "tekn": 24394,
  "leştir": 24395,
  "of": 24396,
  "sak": 24397,
  "ket": 24398,
  "larının": 24399,
  "sistem": 24400,
  "malar": 24401,
  "una": 24402,
  "etk": 24403,
  "bin": 24404,
  "dış": 24405,
  "gı": 24406,
  "ah": 24407,
  "maz": 24408,
  "aç": 24409,
  "öğren": 24410,
  "14": 24411,
  "ret": 24412,
  "sını": 24413,
  "yardım": 24414,
  "alın": 24415,
  "ünü": 24416,
  "kim": 24417,
  "mp": 24418,
  "devam": 24419,
  "ni": 24420,
  "kaynak": 24421,
  "larına": 24422,
  "liğ": 24423,
  "miştir": 24424,
  "kaç": 24425,
  "ilik": 24426,
  "ağ": 24427,
  "bit": 24428,
  "soru": 24429,
  "olduğunu": 24430,
  "16": 24431,
  "sağla": 24432,
  "fir": 24433,
  "dık": 24434,
  "mıştır": 24435,
  "13": 24436,
  "kita": 24437,
  "çi": 24438,
  "leme": 24439,
  "cüm": 24440,
  "ht": 24441,
  "oluştur": 24442,
  "gön": 24443,
  "eğit": 24444,
  "sil": 24445,
  "yapıl": 24446,
  "duy": 24447,
  "sta": 24448,
  "aşa": 24449,
  "birlik": 24450,
  "hay": 24451,
  "adım": 24452,
  "eye": 24453,
  "likle": 24454,
  "düzen": 24455,
  "lerinin": 24456,
  "),": 24457,
  "lay": 24458,
  "getir": 24459,
  "merkez": 24460,
  "spor": 24461,
  "tes": 24462,
  "yüksek": 24463,
  "tığı": 24464,
  "del": 24465,
  "çocuk": 24466,
  "hangi": 24467,
  "i̇stan": 24468,
  "arka": 24469,
  "iliş": 24470,
  "resi": 24471,
  "lendir": 24472,
  "iti": 24473,
  "17": 24474,
  "i̇stanbul": 24475,
  "web": 24476,
  "ga": 24477,
  "üst": 24478,
  "farklı": 24479,
  "fak": 24480,
  "ilir": 24481,
  "dar": 24482,
  "pay": 24483,
  "sik": 24484,
  "arasında": 24485,
  "gu": 24486,
  "hakkında": 24487,
  "30": 24488,
  "gru": 24489,
  "zor": 24490,
  "mut": 24491,
  "25": 24492,
  "şık": 24493,
  "bon": 24494,
  "uzun": 24495,
  "şir": 24496,
  "etim": 24497,
  "kadın": 24498,
  "tu": 24499,
  "mad": 24500,
  "masına": 24501,
  "tıl": 24502,
  "tama": 24503,
  "i̇z": 24504,
  "gil": 24505,
  "med": 24506,
  "bı": 24507,
  "fon": 24508,
  "199": 24509,
  "lerde": 24510,
  "raf": 24511,
  "kazan": 24512,
  "i̇s": 24513,
  "şehir": 24514,
  "aları": 24515,
  "hur": 24516,
  "ecek": 24517,
  "malı": 24518,
  "kanı": 24519,
  "sam": 24520,
  "hesa": 24521,
  "bey": 24522,
  "larında": 24523,
  "taki": 24524,
  "çıkar": 24525,
  "ilerin": 24526,
  "uyu": 24527,
  "pos": 24528,
  "üy": 24529,
  "dığ": 24530,
  "olmak": 24531,
  "tari": 24532,
  "şi": 24533,
  "rek": 24534,
  "lardan": 24535,
  "det": 24536,
  "esinde": 24537,
  "çık": 24538,
  "canlı": 24539,
  "gan": 24540,
  "lerine": 24541,
  "gelen": 24542,
  "tay": 24543,
  "izi": 24544,
  "siyon": 24545,
  "lin": 24546,
  "karar": 24547,
  "luk": 24548,
  "lantı": 24549,
  "maları": 24550,
  "hiç": 24551,
  "izle": 24552,
  "üç": 24553,
  "gram": 24554,
  "görev": 24555,
  "bat": 24556,
  "güz": 24557,
  "=\"": 24558,
  "tam": 24559,
  "lığ": 24560,
  "fiyat": 24561,
  "olur": 24562,
  "birlikte": 24563,
  "söyle": 24564,
  "dest": 24565,
  "eme": 24566,
  "pe": 24567,
  "24": 24568,
  "kend": 24569,
  "kr": 24570,
  "lak": 24571,
  "adı": 24572,
  "pla": 24573,
  "2021": 24574,
  "çer": 24575,
  "gönder": 24576,
  "fen": 24577,
  "om": 24578,
  "düşün": 24579,
  "küç": 24580,
  "güzel": 24581,
  "kol": 24582,
  "uygun": 24583,
  "onu": 24584,
  "tion": 24585,
  "eden": 24586,
  "eğitim": 24587,
  "biri": 24588,
  "güncel": 24589,
  "masını": 24590,
  "iver": 24591,
  "tış": 24592,
  "ulan": 24593,
  "bazı": 24594,
  "görün": 24595,
  "tl": 24596,
  "dığını": 24597,
  "ifa": 24598,
  "emek": 24599,
  "sına": 24600,
  "etmek": 24601,
  "kullanıl": 24602,
  "cümle": 24603,
  "inizi": 24604,
  "umlu": 24605,
  "daş": 24606,
  "sos": 24607,
  "his": 24608,
  "çeş": 24609,
  "ğun": 24610,
  "yılında": 24611,
  "işim": 24612,
  "aşağı": 24613,
  "kil": 24614,
  "destek": 24615,
  "ez": 24616,
  "erek": 24617,
  "arım": 24618,
  "olabilir": 24619,
  "hazır": 24620,
  "kasım": 24621,
  "ard": 24622,
  "and": 24623,
  "müşt": 24624,
  "mev": 24625,
  "adresi": 24626,
  "yle": 24627,
  "elek": 24628,
  "lis": 24629,
  "cü": 24630,
  "mem": 24631,
  "hil": 24632,
  "lük": 24633,
  "bas": 24634,
  "hız": 24635,
  "küçük": 24636,
  "tif": 24637,
  "aş": 24638,
  "zer": 24639,
  "üzere": 24640,
  "indeki": 24641,
  "taş": 24642,
  "devlet": 24643,
  "ekim": 24644,
  "ünde": 24645,
  "aralık": 24646,
  "ayrıca": 24647,
  "başvur": 24648,
  "===": 24649,
  "cağı": 24650,
  "kabul": 24651,
  "içinde": 24652,
  "ses": 24653,
  "seçen": 24654,
  "ifade": 24655,
  "kullanıcı": 24656,
  "temiz": 24657,
  "50": 24658,
  "yayınları": 24659,
  "oku": 24660,
  "saat": 24661,
  "ap": 24662,
  "larla": 24663,
  "asyon": 24664,
  "müz": 24665,
  "sağlık": 24666,
  "bes": 24667,
  "sade": 24668,
  "sonuç": 24669,
  "caktır": 24670,
  "kitap": 24671,
  "cin": 24672,
  "oğ": 24673,
  "bunun": 24674,
  "inci": 24675,
  "af": 24676,
  "bay": 24677,
  "kayı": 24678,
  "2020": 24679,
  "ış": 24680,
  "okulları": 24681,
  "dönem": 24682,
  "sino": 24683,
  "lül": 24684,
  "cum": 24685,
  "lanan": 24686,
  "çeşit": 24687,
  "fut": 24688,
  "sine": 24689,
  "layı": 24690,
  "kür": 24691,
  "üniver": 24692,
  "dav": 24693,
  "köy": 24694,
  "tra": 24695,
  "yoruz": 24696,
  "23": 24697,
  "çöz": 24698,
  "cen": 24699,
  "ası": 24700,
  "diye": 24701,
  "anaokulları": 24702,
  "deniz": 24703,
  "belirt": 24704,
  "tah": 24705,
  "ner": 24706,
  "haf": 24707,
  "posta": 24708,
  "fes": 24709,
  "üne": 24710,
  ").": 24711,
  "şim": 24712,
  "kül": 24713,
  "car": 24714,
  "yin": 24715,
  "sadece": 24716,
  "pu": 24717,
  "yanıt": 24718,
  "i̇ngil": 24719,
  "plan": 24720,
  "nun": 24721,
  "ındaki": 24722,
  "rak": 24723,
  "güç": 24724,
  "od": 24725,
  "yardımcı": 24726,
  "22": 24727,
  "mart": 24728,
  "yapılan": 24729,
  "dö": 24730,
  "kek": 24731,
  "pek": 24732,
  "manın": 24733,
  "lerinde": 24734,
  "umu": 24735,
  "oloji": 24736,
  "futbol": 24737,
  "val": 24738,
  "isel": 24739,
  "hayat": 24740,
  "git": 24741,
  "şar": 24742,
  "tesi": 24743,
  "ton": 24744,
  "şan": 24745,
  "istan": 24746,
  "blo": 24747,
  "taşı": 24748,
  "sosyal": 24749,
  "mah": 24750,
  "işlem": 24751,
  "fik": 24752,
  "gar": 24753,
  "şirket": 24754,
  "sorun": 24755,
  "nis": 24756,
  "suz": 24757,
  "lerden": 24758,
  "casino": 24759,
  "yarı": 24760,
  "lim": 24761,
  "ps": 24762,
  "tat": 24763,
  "muz": 24764,
  "harek": 24765,
  "sayfa": 24766,
  "tele": 24767,
  "usunda": 24768,
  "ğü": 24769,
  "fır": 24770,
  "bağlantı": 24771,
  "sanat": 24772,
  "tel": 24773,
  "ulus": 24774,
  "yür": 24775,
  "nok": 24776,
  "incel": 24777,
  "198": 24778,
  "olması": 24779,
  "arası": 24780,
  "resim": 24781,
  "ebilir": 24782,
  "yatır": 24783,
  "sava": 24784,
  "anlam": 24785,
  "mat": 24786,
  "siya": 24787,
  "pan": 24788,
  "muş": 24789,
  "hen": 24790,
  "dr": 24791,
  "2019": 24792,
  "yara": 24793,
  "cil": 24794,
  "fin": 24795,
  "paz": 24796,
  "bulunan": 24797,
  "syon": 24798,
  "araştır": 24799,
  "bor": 24800,
  "set": 24801,
  "temel": 24802,
  "başka": 24803,
  "madde": 24804,
  "geri": 24805,
  "teş": 24806,
  "kız": 24807,
  "parti": 24808,
  "ham": 24809,
  "karı": 24810,
  "eylül": 24811,
  "kısa": 24812,
  "yazar": 24813,
  "kişisel": 24814,
  "bilecek": 24815,
  "takip": 24816,
  "sanı": 24817,
  "000": 24818,
  "yu": 24819,
  "21": 24820,
  "boy": 24821,
  "ayd": 24822,
  "onun": 24823,
  "bır": 24824,
  "vide": 24825,
  "ankara": 24826,
  "def": 24827,
  "col": 24828,
  ".|": 24829,
  "kişi": 24830,
  "bağlı": 24831,
  "kolay": 24832,
  "dok": 24833,
  "cer": 24834,
  "2018": 24835,
  "gal": 24836,
  "mobil": 24837,
  "kom": 24838,
  "i̇ç": 24839,
  "mesine": 24840,
  "yapa": 24841,
  "elektr": 24842,
  "ocak": 24843,
  "fran": 24844,
  "veril": 24845,
  "bunu": 24846,
  "dedi": 24847,
  "size": 24848,
  "dere": 24849,
  "başkanı": 24850,
  "ülk": 24851,
  "zi": 24852,
  "hava": 24853,
  "siteleri": 24854,
  "mir": 24855,
  "ternet": 24856,
  "mesini": 24857,
  "başarı": 24858,
  "bal": 24859,
  "enin": 24860,
  "28": 24861,
  "op": 24862,
  "bilgiler": 24863,
  "kir": 24864,
  "dim": 24865,
  "ep": 24866,
  "deney": 24867,
  "seçenek": 24868,
  "bilim": 24869,
  "2017": 24870,
  "th": 24871,
  "mesa": 24872,
  "26": 24873,
  "hast": 24874,
  "proj": 24875,
  "verilen": 24876,
  "tün": 24877,
  "üzerinde": 24878,
  "etmen": 24879,
  "gın": 24880,
  "ete": 24881,
  "br": 24882,
  "tin": 24883,
  "mon": 24884,
  "isinde": 24885,
  "27": 24886,
  "nedir": 24887,
  "erkek": 24888,
  "bilin": 24889,
  "gn": 24890,
  "tım": 24891,
  "anal": 24892,
  "fe": 24893,
  "oloj": 24894,
  "kün": 24895,
  "larından": 24896,
  "genç": 24897,
  "mayıs": 24898,
  "iran": 24899,
  "satın": 24900,
  "tamam": 24901,
  ".\"": 24902,
  "cumhur": 24903,
  "telefon": 24904,
  "kayıt": 24905,
  "trol": 24906,
  "laşı": 24907,
  "yasa": 24908,
  "lıyor": 24909,
  "ciler": 24910,
  "üye": 24911,
  "veri": 24912,
  "ücret": 24913,
  "zon": 24914,
  "başkan": 24915,
  "edin": 24916,
  "uç": 24917,
  "manı": 24918,
  "ize": 24919,
  "i̇m": 24920,
  "con": 24921,
  "beledi": 24922,
  "ekon": 24923,
  "diğini": 24924,
  "ww": 24925,
  "sur": 24926,
  "nü": 24927,
  "don": 24928,
  "gin": 24929,
  "str": 24930,
  "ağu": 24931,
  "avru": 24932,
  "tiya": 24933,
  "kurulu": 24934,
  "mızı": 24935,
  "lerinden": 24936,
  "geliştir": 24937,
  "2016": 24938,
  "dül": 24939,
  "hük": 24940,
  "temmuz": 24941,
  "stos": 24942,
  "geçir": 24943,
  "ğini": 24944,
  "ğin": 24945,
  "unuz": 24946,
  "bayan": 24947,
  "nisan": 24948,
  "meler": 24949,
  "landır": 24950,
  "lah": 24951,
  "maş": 24952,
  "ade": 24953,
  "ker": 24954,
  "bırak": 24955,
  "iyorum": 24956,
  "rus": 24957,
  "lerle": 24958,
  "ağustos": 24959,
  "haziran": 24960,
  "sınız": 24961,
  "birçok": 24962,
  "olduk": 24963,
  "kut": 24964,
  "yü": 24965,
  "porno": 24966,
  "bileceğ": 24967,
  "etik": 24968,
  "güvenilir": 24969,
  "uluk": 24970,
  "kültür": 24971,
  "kontrol": 24972,
  "mey": 24973,
  "uygu": 24974,
  "2015": 24975,
  "29": 24976,
  "eski": 24977,
  "ediyor": 24978,
  "foto": 24979,
  "grup": 24980,
  "ilet": 24981,
  "herhangi": 24982,
  "rar": 24983,
  "mağ": 24984,
  "veren": 24985,
  "halk": 24986,
  "avrupa": 24987,
  "vak": 24988,
  "rol": 24989,
  "edilen": 24990,
  "cılık": 24991,
  "mik": 24992,
  "şubat": 24993,
  "lek": 24994,
  "zar": 24995,
  "topl": 24996,
  "ze": 24997,
  "wit": 24998,
  "model": 24999,
  "//": 25000,
  "etme": 25001,
  "sınır": 25002,
  "bakan": 25003,
  "ja": 25004,
  "başvuru": 25005,
  "asında": 25006,
  "tılı": 25007,
  "gelir": 25008,
  "urt": 25009,
  "sık": 25010,
  "çün": 25011,
  "ihtiya": 25012,
  "ortaya": 25013,
  "abd": 25014,
  "üs": 25015,
  "jo": 25016,
  "takım": 25017,
  "ziy": 25018,
  "197": 25019,
  "layın": 25020,
  "nes": 25021,
  "yum": 25022,
  "giz": 25023,
  "i̇ngiliz": 25024,
  "aşağıdaki": 25025,
  "gür": 25026,
  "zen": 25027,
  "oğlu": 25028,
  "indir": 25029,
  "ener": 25030,
  "lenen": 25031,
  "hareket": 25032,
  "gerçekleştir": 25033,
  "ata": 25034,
  "böyle": 25035,
  "2014": 25036,
  "tav": 25037,
  "adres": 25038,
  "zamanda": 25039,
  "yakın": 25040,
  "ft": 25041,
  "çeşitli": 25042,
  "kesin": 25043,
  "qu": 25044,
  "elim": 25045,
  "pat": 25046,
  "çünkü": 25047,
  "100": 25048,
  "i̇r": 25049,
  "beğ": 25050,
  "öde": 25051,
  "özellik": 25052,
  "pazar": 25053,
  "diz": 25054,
  "liste": 25055,
  "dal": 25056,
  "arkadaş": 25057,
  "biy": 25058,
  "num": 25059,
  "ori": 25060,
  "üzerine": 25061,
  "form": 25062,
  "ici": 25063,
  "şeh": 25064,
  "dolayı": 25065,
  "yaptığı": 25066,
  "değiştir": 25067,
  "maç": 25068,
  "duğu": 25069,
  "uygula": 25070,
  "tic": 25071,
  "huk": 25072,
  "yerine": 25073,
  "40": 25074,
  "tep": 25075,
  "dikkat": 25076,
  "yazılı": 25077,
  "yapan": 25078,
  "kre": 25079,
  "lerimiz": 25080,
  "araç": 25081,
  "yemek": 25082,
  "kah": 25083,
  "2013": 25084,
  "kurum": 25085,
  "rim": 25086,
  "ekle": 25087,
  "tanım": 25088,
  "i̇lk": 25089,
  "mel": 25090,
  "oyuncu": 25091,
  "paylaş": 25092,
  "sar": 25093,
  "dair": 25094,
  "mahal": 25095,
  "----": 25096,
  "ğraf": 25097,
  "htt": 25098,
  "günü": 25099,
  "uş": 25100,
  "terci": 25101,
  "nedeniyle": 25102,
  "hızlı": 25103,
  "nüf": 25104,
  "sebe": 25105,
  "madan": 25106,
  "sav": 25107,
  "konusunda": 25108,
  "nek": 25109,
  "yaşam": 25110,
  "etkin": 25111,
  "işle": 25112,
  "abilir": 25113,
  "hemen": 25114,
  "evet": 25115,
  "üret": 25116,
  "gerekli": 25117,
  "dos": 25118,
  "ted": 25119,
  "ris": 25120,
  "si̇": 25121,
  "ziyaret": 25122,
  "diğiniz": 25123,
  "adam": 25124,
  "olup": 25125,
  "ceği": 25126,
  "özellikle": 25127,
  "pen": 25128,
  "müm": 25129,
  "vardır": 25130,
  "hale": 25131,
  "düğ": 25132,
  "program": 25133,
  "i̇k": 25134,
  "ardından": 25135,
  "alman": 25136,
  "yım": 25137,
  "kurul": 25138,
  "ex": 25139,
  "yay": 25140,
  "şarkı": 25141,
  "hiçbir": 25142,
  "benim": 25143,
  "yani": 25144,
  "tarihi": 25145,
  "izin": 25146,
  "değerlendir": 25147,
  "ulaş": 25148,
  "sanız": 25149,
  "osman": 25150,
  "meden": 25151,
  "beğen": 25152,
  "rü": 25153,
  "tası": 25154,
  "değişik": 25155,
  "döv": 25156,
  "görüş": 25157,
  "elde": 25158,
  "üp": 25159,
  "ince": 25160,
  "fet": 25161,
  "60": 25162,
  "oyna": 25163,
  "2012": 25164,
  "bölge": 25165,
  "sındaki": 25166,
  "anda": 25167,
  "dahil": 25168,
  "ii": 25169,
  "bütün": 25170,
  "nde": 25171,
  "ildi": 25172,
  "kumaş": 25173,
  "çerez": 25174,
  "boz": 25175,
  "toplam": 25176,
  "meyi": 25177,
  "tercih": 25178,
  "adan": 25179,
  "eyi": 25180,
  "burada": 25181,
  "yöntem": 25182,
  "dak": 25183,
  "mis": 25184,
  "boyun": 25185,
  "belediye": 25186,
  "mümkün": 25187,
  "kıs": 25188,
  "büyü": 25189,
  "span": 25190,
  "ona": 25191,
  "sınıf": 25192,
  "üniversitesi": 25193,
  "alım": 25194,
  "dis": 25195,
  "sından": 25196,
  "medya": 25197,
  "yeniden": 25198,
  "yağ": 25199,
  "tim": 25200,
  "dırı": 25201,
  "teknik": 25202,
  "ait": 25203,
  "satı": 25204,
  "çar": 25205,
  "elerin": 25206,
  "organ": 25207,
  "vat": 25208,
  "evi": 25209,
  "bugün": 25210,
  "konuş": 25211,
  "nız": 25212,
  "align": 25213,
  "lüt": 25214,
  "kapsam": 25215,
  "dum": 25216,
  "bağı": 25217,
  "öner": 25218,
  "alet": 25219,
  "jan": 25220,
  "alama": 25221,
  "üzerinden": 25222,
  "yatırım": 25223,
  "des": 25224,
  "ödül": 25225,
  "lilik": 25226,
  "artık": 25227,
  "olacak": 25228,
  "bildir": 25229,
  "yalnız": 25230,
  "ts": 25231,
  "politi": 25232,
  "test": 25233,
  "laştır": 25234,
  "og": 25235,
  "rahat": 25236,
  "ümüz": 25237,
  "meli": 25238,
  "ic": 25239,
  "uzak": 25240,
  "kullanım": 25241,
  "yasal": 25242,
  "kav": 25243,
  "**": 25244,
  "amaç": 25245,
  "karak": 25246,
  "şimdi": 25247,
  "kaynakça": 25248,
  "cut": 25249,
  "video": 25250,
  "çan": 25251,
  "biliyor": 25252,
  "olay": 25253,
  "birleş": 25254,
  "kapı": 25255,
  "görül": 25256,
  "ilmesi": 25257,
  "mus": 25258,
  "://": 25259,
  "\",": 25260,
  "engel": 25261,
  "kem": 25262,
  "2011": 25263,
  "by": 25264,
  "one": 25265,
  "gül": 25266,
  "dava": 25267,
  "matik": 25268,
  "2010": 25269,
  "isim": 25270,
  "beş": 25271,
  "ğa": 25272,
  "eğer": 25273,
  "hüküm": 25274,
  "yatı": 25275,
  "uyla": 25276,
  "ac": 25277,
  "vis": 25278,
  "pop": 25279,
  "sının": 25280,
  "mesaj": 25281,
  "yönet": 25282,
  "reklam": 25283,
  "35": 25284,
  "merkezi": 25285,
  "ilişk": 25286,
  "renk": 25287,
  "dol": 25288,
  "futbolcu": 25289,
  "tük": 25290,
  "çevir": 25291,
  "lamak": 25292,
  "makal": 25293,
  "lütfen": 25294,
  "blog": 25295,
  "tv": 25296,
  "hafta": 25297,
  "ly": 25298,
  "emin": 25299,
  "vet": 25300,
  "talya": 25301,
  "mevcut": 25302,
  "suç": 25303,
  "koş": 25304,
  "ölç": 25305,
  "geniş": 25306,
  "haberler": 25307,
  "esine": 25308,
  "aya": 25309,
  "visi": 25310,
  "savaş": 25311,
  "up": 25312,
  "raki": 25313,
  "belirle": 25314,
  "dağı": 25315,
  "bonus": 25316,
  "tarihinde": 25317,
  "parça": 25318,
  "çif": 25319,
  "hedef": 25320,
  "erli": 25321,
  "derece": 25322,
  "sözleş": 25323,
  "tez": 25324,
  "manız": 25325,
  "kış": 25326,
  "line": 25327,
  "bl": 25328,
  "larımız": 25329,
  "ss": 25330,
  "muştur": 25331,
  "ortak": 25332,
  "seri": 25333,
  "malz": 25334,
  "undan": 25335,
  "olmayan": 25336,
  "alanlar": 25337,
  "landı": 25338,
  "book": 25339,
  "detay": 25340,
  "ülke": 25341,
  "labilir": 25342,
  "hayvan": 25343,
  "yurt": 25344,
  "ilişkin": 25345,
  "çözüm": 25346,
  "ameri": 25347,
  "dör": 25348,
  "seçim": 25349,
  "müzik": 25350,
  "kuz": 25351,
  "atı": 25352,
  "oda": 25353,
  "ünün": 25354,
  "kırı": 25355,
  "yordu": 25356,
  "siy": 25357,
  "hari": 25358,
  "196": 25359,
  "amacı": 25360,
  "yapmak": 25361,
  "gereken": 25362,
  "mahalle": 25363,
  "hu": 25364,
  "ladı": 25365,
  "new": 25366,
  "kali": 25367,
  "ağır": 25368,
  "altında": 25369,
  "di̇": 25370,
  "lat": 25371,
  "wor": 25372,
  "milyon": 25373,
  "ceza": 25374,
  "taj": 25375,
  "fotoğraf": 25376,
  "sey": 25377,
  "içerisinde": 25378,
  "sıcak": 25379,
  "siteler": 25380,
  "part": 25381,
  "konusu": 25382,
  "05": 25383,
  "hep": 25384,
  "ikinci": 25385,
  "uc": 25386,
  "oran": 25387,
  "tekrar": 25388,
  "dığında": 25389,
  "benzer": 25390,
  "link": 25391,
  "yaptı": 25392,
  "aliyet": 25393,
  "üler": 25394,
  "hesap": 25395,
  "i̇let": 25396,
  "gerekir": 25397,
  "nüfus": 25398,
  "red": 25399,
  "laşık": 25400,
  "isini": 25401,
  "işi": 25402,
  "geler": 25403,
  "katıl": 25404,
  "twit": 25405,
  "dakika": 25406,
  "sektör": 25407,
  "çalışma": 25408,
  "ram": 25409,
  "sıyla": 25410,
  "demir": 25411,
  "sunu": 25412,
  "neler": 25413,
  "aile": 25414,
  "boyunca": 25415,
  "örne": 25416,
  "cam": 25417,
  "sini": 25418,
  "çıktı": 25419,
  "sinde": 25420,
  "almak": 25421,
  "pak": 25422,
  "nda": 25423,
  "win": 25424,
  "söy": 25425,
  "muh": 25426,
  "geçen": 25427,
  "sah": 25428,
  "ec": 25429,
  "değildir": 25430,
  "dağ": 25431,
  "tarifi": 25432,
  "tasarım": 25433,
  "45": 25434,
  "ilmiş": 25435,
  "allah": 25436,
  "nor": 25437,
  "amer": 25438,
  "ent": 25439,
  "aldı": 25440,
  "kamp": 25441,
  "deneyim": 25442,
  "sol": 25443,
  "edile": 25444,
  "beri": 25445,
  "doğan": 25446,
  "güvenlik": 25447,
  "isyon": 25448,
  "profes": 25449,
  "ğrı": 25450,
  "2009": 25451,
  "çalışan": 25452,
  "hin": 25453,
  "koy": 25454,
  "satış": 25455,
  "giy": 25456,
  "ister": 25457,
  "uygulama": 25458,
  "ayan": 25459,
  "uluslar": 25460,
  "ıntı": 25461,
  "alış": 25462,
  "aların": 25463,
  "sıra": 25464,
  "31": 25465,
  "est": 25466,
  "pet": 25467,
  "amerik": 25468,
  "twitter": 25469,
  "nit": 25470,
  "lış": 25471,
  "umuz": 25472,
  "yürü": 25473,
  "sunuz": 25474,
  "bebek": 25475,
  "sırasında": 25476,
  "not": 25477,
  "genellikle": 25478,
  "yarak": 25479,
  "internet": 25480,
  "bası": 25481,
  "stra": 25482,
  "ces": 25483,
  "vil": 25484,
  "luğu": 25485,
  "uğ": 25486,
  "aydın": 25487,
  "çift": 25488,
  "aracı": 25489,
  "ğe": 25490,
  "doğu": 25491,
  "yüksel": 25492,
  "36": 25493,
  "yönetim": 25494,
  "doğal": 25495,
  "cağını": 25496,
  "sitemiz": 25497,
  "90": 25498,
  "acak": 25499,
  "oluş": 25500,
  "dek": 25501,
  "altın": 25502,
  "başladı": 25503,
  "mur": 25504,
  "mda": 25505,
  "yalı": 25506,
  "ımı": 25507,
  "laya": 25508,
  "altı": 25509,
  "malıdır": 25510,
  "key": 25511,
  "ders": 25512,
  "ina": 25513,
  "bakım": 25514,
  "veriler": 25515,
  "mail": 25516,
  "yönelik": 25517,
  "lacak": 25518,
  "dy": 25519,
  "teknoloji": 25520,
  "bölg": 25521,
  "poz": 25522,
  "masının": 25523,
  "alma": 25524,
  "müdür": 25525,
  "boş": 25526,
  "talep": 25527,
  "iyeti": 25528,
  "güney": 25529,
  "lenme": 25530,
  "diş": 25531,
  "şart": 25532,
  "dizi": 25533,
  "yine": 25534,
  "sizin": 25535,
  "bana": 25536,
  "arlan": 25537,
  "çiz": 25538,
  "ekonom": 25539,
  "fo": 25540,
  "müşter": 25541,
  "koru": 25542,
  "kent": 25543,
  "enerji": 25544,
  "i̇nsan": 25545,
  "birbir": 25546,
  "amerika": 25547,
  "açıklama": 25548,
  "oldukça": 25549,
  "çin": 25550,
  "rağ": 25551,
  "gol": 25552,
  "ayak": 25553,
  "millet": 25554,
  "duğ": 25555,
  "yaklaşık": 25556,
  "mağaz": 25557,
  "gider": 25558,
  "faaliyet": 25559,
  "türkçe": 25560,
  "örnek": 25561,
  "acı": 25562,
  "koşul": 25563,
  "fiyatları": 25564,
  "uluslararası": 25565,
  "hakkı": 25566,
  "i̇yi": 25567,
  "cep": 25568,
  "yıcı": 25569,
  "oyn": 25570,
  "iyoruz": 25571,
  "33": 25572,
  "uml": 25573,
  "ght": 25574,
  "bağlantılar": 25575,
  "inize": 25576,
  "keli": 25577,
  "i̇ngilizce": 25578,
  "lardır": 25579,
  "diler": 25580,
  "içi": 25581,
  "ekli": 25582,
  "ef": 25583,
  "sistemi": 25584,
  "yolu": 25585,
  "isinin": 25586,
  "layan": 25587,
  "dele": 25588,
  "beyaz": 25589,
  "fat": 25590,
  "toplum": 25591,
  "44": 25592,
  "görüntü": 25593,
  "alb": 25594,
  "arasındaki": 25595,
  "menin": 25596,
  "yanın": 25597,
  "sayar": 25598,
  "rip": 25599,
  "pre": 25600,
  "ölüm": 25601,
  "birkaç": 25602,
  "otur": 25603,
  "vir": 25604,
  "bra": 25605,
  "şif": 25606,
  "koca": 25607,
  "ödeme": 25608,
  "gun": 25609,
  "araştırma": 25610,
  "medi": 25611,
  "cağ": 25612,
  "kural": 25613,
  "ıyor": 25614,
  "firma": 25615,
  "2008": 25616,
  "mm": 25617,
  "lamalar": 25618,
  "müşteri": 25619,
  "dönüş": 25620,
  "teh": 25621,
  "ırken": 25622,
  "omi": 25623,
  "meydan": 25624,
  "dra": 25625,
  "uzman": 25626,
  "80": 25627,
  "mor": 25628,
  "lığını": 25629,
  "https": 25630,
  "plat": 25631,
  "temsil": 25632,
  "nedenle": 25633,
  "avu": 25634,
  "anne": 25635,
  "ettiği": 25636,
  "iddi": 25637,
  "yıldı": 25638,
  "hav": 25639,
  "sipar": 25640,
  "müca": 25641,
  "izm": 25642,
  "yaban": 25643,
  "kurt": 25644,
  "sul": 25645,
  "üyor": 25646,
  "geldi": 25647,
  "meyen": 25648,
  "bilgileri": 25649,
  "pr": 25650,
  "birliği": 25651,
  "kullanarak": 25652,
  "''": 25653,
  "kuzey": 25654,
  "resmi": 25655,
  "karakter": 25656,
  "elen": 25657,
  "analiz": 25658,
  "kullanılan": 25659,
  "servis": 25660,
  "zu": 25661,
  "zarar": 25662,
  "hukuk": 25663,
  "sinin": 25664,
  "eser": 25665,
  "olsun": 25666,
  "anın": 25667,
  "larıyla": 25668,
  "yüzde": 25669,
  "eceğ": 25670,
  "kötü": 25671,
  "günlük": 25672,
  "ticaret": 25673,
  "sap": 25674,
  "oper": 25675,
  "kişinin": 25676,
  "anti": 25677,
  "sayısı": 25678,
  "bizim": 25679,
  "gece": 25680,
  "artır": 25681,
  "dayan": 25682,
  "celik": 25683,
  "hol": 25684,
  "onik": 25685,
  "üncü": 25686,
  "sarı": 25687,
  "face": 25688,
  "fakat": 25689,
  "37": 25690,
  "cevabı": 25691,
  "kişiler": 25692,
  "işaret": 25693,
  "fı": 25694,
  "yarış": 25695,
  "eği": 25696,
  "bilgisayar": 25697,
  "bilmek": 25698,
  "yalnızca": 25699,
  "elektrik": 25700,
  "leriyle": 25701,
  "kaldır": 25702,
  "durumda": 25703,
  "34": 25704,
  "dört": 25705,
  "albüm": 25706,
  "ant": 25707,
  "gem": 25708,
  "dışı": 25709,
  "etki": 25710,
  "olun": 25711,
  "güçlü": 25712,
  "hastan": 25713,
  "soruml": 25714,
  "dosya": 25715,
  "balık": 25716,
  "hoş": 25717,
  "biraz": 25718,
  "ari": 25719,
  "ital": 25720,
  "saç": 25721,
  "utu": 25722,
  "larak": 25723,
  "tiğ": 25724,
  "i̇zmir": 25725,
  "hizmeti": 25726,
  "itibar": 25727,
  "izyon": 25728,
  "belirli": 25729,
  "ordu": 25730,
  "sas": 25731,
  "teda": 25732,
  "vek": 25733,
  "içeri": 25734,
  "perfor": 25735,
  "gazi": 25736,
  "hesab": 25737,
  "ayr": 25738,
  "ds": 25739,
  "batı": 25740,
  "cılar": 25741,
  "pas": 25742,
  "karde": 25743,
  "katkı": 25744,
  "unut": 25745,
  ".”": 25746,
  "esel": 25747,
  "online": 25748,
  "sex": 25749,
  "mec": 25750,
  "istik": 25751,
  "ph": 25752,
  "ihtiyaç": 25753,
  "olacaktır": 25754,
  "öğretmen": 25755,
  "rağmen": 25756,
  "kızı": 25757,
  "yukarı": 25758,
  "katı": 25759,
  "39": 25760,
  "performan": 25761,
  "bize": 25762,
  "gre": 25763,
  "buna": 25764,
  "01": 25765,
  "çağ": 25766,
  "danış": 25767,
  "rapor": 25768,
  "i̇letişim": 25769,
  "zin": 25770,
  "kanun": 25771,
  "onay": 25772,
  "sem": 25773,
  "sahibi": 25774,
  "osu": 25775,
  "sürdür": 25776,
  "ınızı": 25777,
  "birleşik": 25778,
  "ああ": 25779,
  "adet": 25780,
  "bursa": 25781,
  "sayılı": 25782,
  "şamp": 25783,
  "yoğun": 25784,
  "sonraki": 25785,
  "eki": 25786,
  "hastalık": 25787,
  "lanma": 25788,
  "birey": 25789,
  "hbet": 25790,
  "tesp": 25791,
  "09": 25792,
  "mızda": 25793,
  "hane": 25794,
  "masa": 25795,
  "center": 25796,
  "facebook": 25797,
  "içerik": 25798,
  "ünden": 25799,
  "bonusu": 25800,
  "doktor": 25801,
  "ücretsiz": 25802,
  "tip": 25803,
  "antalya": 25804,
  "olası": 25805,
  "teşek": 25806,
  "güneş": 25807,
  "fiz": 25808,
  "tekli": 25809,
  "durumu": 25810,
  "cevapla": 25811,
  "paylaşı": 25812,
  "yonel": 25813,
  "tül": 25814,
  "195": 25815,
  "meleri": 25816,
  "çiler": 25817,
  "örgü": 25818,
  "pra": 25819,
  "ucu": 25820,
  "',": 25821,
  "kapa": 25822,
  "hâ": 25823,
  "lon": 25824,
  "hmet": 25825,
  "kalı": 25826,
  "cm": 25827,
  "2007": 25828,
  "tiği": 25829,
  "ilecek": 25830,
  "olojik": 25831,
  "miyor": 25832,
  "38": 25833,
  "çalışmalar": 25834,
  "www": 25835,
  "08": 25836,
  "cihaz": 25837,
  "şekl": 25838,
  "geçmiş": 25839,
  "stik": 25840,
  "pres": 25841,
  "sh": 25842,
  "çıkan": 25843,
  "kalit": 25844,
  "sohbet": 25845,
  "esinin": 25846,
  "dük": 25847,
  "sefer": 25848,
  "nokta": 25849,
  "profesyonel": 25850,
  "dışında": 25851,
  "partisi": 25852,
  "aray": 25853,
  "diyor": 25854,
  "anan": 25855,
  "32": 25856,
  "kuruluş": 25857,
  "yetiş": 25858,
  "kredi": 25859,
  "ilan": 25860,
  "üretim": 25861,
  "lemek": 25862,
  "lerdir": 25863,
  "sayf": 25864,
  "hayır": 25865,
  "süreç": 25866,
  "fayd": 25867,
  "soruyu": 25868,
  "oyunları": 25869,
  "kum": 25870,
  "söyledi": 25871,
  "yüzyıl": 25872,
  "etiket": 25873,
  "umsuz": 25874,
  "dığınız": 25875,
  "üçüncü": 25876,
  "kamu": 25877,
  "teki": 25878,
  "arama": 25879,
  "halinde": 25880,
  "sipariş": 25881,
  "mos": 25882,
  "iyon": 25883,
  "mesinin": 25884,
  "tüp": 25885,
  "eve": 25886,
  "cisi": 25887,
  "kral": 25888,
  "deli": 25889,
  "bera": 25890,
  "motor": 25891,
  "başlan": 25892,
  "anad": 25893,
  "şah": 25894,
  "vatan": 25895,
  "kâ": 25896,
  "jin": 25897,
  "yayım": 25898,
  "düşük": 25899,
  "mahke": 25900,
  "dam": 25901,
  "yargı": 25902,
  "gro": 25903,
  "ydı": 25904,
  "roman": 25905,
  "iletişim": 25906,
  "kale": 25907,
  "insanlar": 25908,
  "puan": 25909,
  "anlamına": 25910,
  "02": 25911,
  "hayal": 25912,
  "osmanlı": 25913,
  "bağım": 25914,
  "unan": 25915,
  "ekip": 25916,
  "keş": 25917,
  "seniz": 25918,
  "ley": 25919,
  "liğini": 25920,
  "siye": 25921,
  "başlık": 25922,
  "tepe": 25923,
  "cor": 25924,
  "halı": 25925,
  "kelim": 25926,
  "hüc": 25927,
  "tamamen": 25928,
  "mücadele": 25929,
  "biç": 25930,
  "kın": 25931,
  "mekan": 25932,
  "sezon": 25933,
  "stagram": 25934,
  "teşekkür": 25935,
  "|-": 25936,
  "lüğü": 25937,
  "hizmetleri": 25938,
  "ry": 25939,
  "mıyor": 25940,
  "ia": 25941,
  "akıl": 25942,
  "lanması": 25943,
  "tarif": 25944,
  "şıl": 25945,
  "mıza": 25946,
  "saha": 25947,
  "dövme": 25948,
  "kaliteli": 25949,
  "und": 25950,
  "değişiklik": 25951,
  "lenmiş": 25952,
  "ilç": 25953,
  "alanı": 25954,
  "ederek": 25955,
  "hn": 25956,
  "seks": 25957,
  "ştu": 25958,
  "65": 25959,
  "kuv": 25960,
  "şım": 25961,
  "i̇lg": 25962,
  "cik": 25963,
  "malzem": 25964,
  "popüler": 25965,
  "isine": 25966,
  "zir": 25967,
  "oz": 25968,
  "beni": 25969,
  "öncelik": 25970,
  "öncek": 25971,
  "lili": 25972,
  "person": 25973,
  "48": 25974,
  "adlı": 25975,
  "yazın": 25976,
  "şöyle": 25977,
  "jen": 25978,
  "gelecek": 25979,
  "gisi": 25980,
  "yanıtla": 25981,
  "bilen": 25982,
  "tarı": 25983,
  "yanlış": 25984,
  "ty": 25985,
  "olumsuz": 25986,
  "lig": 25987,
  "soy": 25988,
  "türlü": 25989,
  "anadolu": 25990,
  "gerekiyor": 25991,
  "edilir": 25992,
  "iptal": 25993,
  "örneğin": 25994,
  "hipo": 25995,
  "i̇nternet": 25996,
  "itik": 25997,
  ");": 25998,
  "tok": 25999,
  "07": 26000,
  "tren": 26001,
  "etkinlik": 26002,
  "meniz": 26003,
  "ilerini": 26004,
  "kargo": 26005,
  "parç": 26006,
  "yabancı": 26007,
  "yacak": 26008,
  "haberleri": 26009,
  "diğinde": 26010,
  "sonuc": 26011,
  "ilendir": 26012,
  "03": 26013,
  "beraber": 26014,
  "inan": 26015,
  "||": 26016,
  "nerede": 26017,
  "yas": 26018,
  "aldığı": 26019,
  "istiyor": 26020,
  "imize": 26021,
  "lıkla": 26022,
  "göl": 26023,
  "lenmesi": 26024,
  "uyor": 26025,
  "barı": 26026,
  "lâ": 26027,
  "bri": 26028,
  "duk": 26029,
  "kaya": 26030,
  "uygulan": 26031,
  "olmadığını": 26032,
  "önceki": 26033,
  "zat": 26034,
  "önc": 26035,
  "km": 26036,
  "ws": 26037,
  "are": 26038,
  "işe": 26039,
  "olumlu": 26040,
  "yapılır": 26041,
  "ınıza": 26042,
  "kalan": 26043,
  "asl": 26044,
  "yıldız": 26045,
  "kuş": 26046,
  "i̇h": 26047,
  "ayrıl": 26048,
  "korun": 26049,
  "ple": 26050,
  "sonunda": 26051,
  "47": 26052,
  "sc": 26053,
  "ürünler": 26054,
  "nu": 26055,
  "geliyor": 26056,
  "açıl": 26057,
  "gazete": 26058,
  "06": 26059,
  "aday": 26060,
  "öldür": 26061,
  "yerek": 26062,
  "ova": 26063,
  "baskı": 26064,
  "masında": 26065,
  "inizin": 26066,
  "şen": 26067,
  "__": 26068,
  "99": 26069,
  "laması": 26070,
  "otel": 26071,
  "kas": 26072,
  "tabi": 26073,
  "şam": 26074,
  "sağlamak": 26075,
  "yeş": 26076,
  "sahiptir": 26077,
  "kla": 26078,
  "alır": 26079,
  "rusya": 26080,
  "kod": 26081,
  "cinsel": 26082,
  "sürekli": 26083,
  "taşıma": 26084,
  "paket": 26085,
  "goog": 26086,
  "anlaş": 26087,
  "yerel": 26088,
  "lari": 26089,
  "adresimi": 26090,
  "gök": 26091,
  "bakır": 26092,
  "kanal": 26093,
  "eksik": 26094,
  "doğrudan": 26095,
  "dünyanın": 26096,
  "google": 26097,
  "ettiğ": 26098,
  "oluşan": 26099,
  "yılı": 26100,
  "has": 26101,
  "ırı": 26102,
  "paşa": 26103,
  "ulusal": 26104,
  "hatır": 26105,
  "amacıyla": 26106,
  "tıcı": 26107,
  "sağlar": 26108,
  "açısından": 26109,
  "kart": 26110,
  "kırmızı": 26111,
  "mit": 26112,
  "ranı": 26113,
  "herkes": 26114,
  "erken": 26115,
  "dolar": 26116,
  "okra": 26117,
  "verdi": 26118,
  "tıp": 26119,
  "çiç": 26120,
  "gur": 26121,
  "tasyon": 26122,
  "verileri": 26123,
  "inşa": 26124,
  "yapar": 26125,
  "içeren": 26126,
  "bulunmaktadır": 26127,
  "futbolcuları": 26128,
  "eğlen": 26129,
  "tere": 26130,
  "lanır": 26131,
  "yaşayan": 26132,
  "saldırı": 26133,
  "katılı": 26134,
  "fel": 26135,
  "çevre": 26136,
  "imizin": 26137,
  "lor": 26138,
  "fikir": 26139,
  "kariy": 26140,
  "fan": 26141,
  "dost": 26142,
  "46": 26143,
  "ray": 26144,
  "yız": 26145,
  "kampan": 26146,
  "lisans": 26147,
  "veriş": 26148,
  "kuvvet": 26149,
  "tec": 26150,
  "leyen": 26151,
  "metin": 26152,
  "larınız": 26153,
  "gerçekten": 26154,
  "verir": 26155,
  "üyelik": 26156,
  "makine": 26157,
  "anım": 26158,
  "iri": 26159,
  "esini": 26160,
  "teslim": 26161,
  "cumhuriyet": 26162,
  "sok": 26163,
  "siyle": 26164,
  "konum": 26165,
  "kapsamında": 26166,
  "uğra": 26167,
  "çoğu": 26168,
  "wil": 26169,
  "ayet": 26170,
  "lot": 26171,
  "odak": 26172,
  "trans": 26173,
  "49": 26174,
  "port": 26175,
  "name": 26176,
  "olsa": 26177,
  "doğumlu": 26178,
  "sayesinde": 26179,
  "memnun": 26180,
  "hika": 26181,
  "elere": 26182,
  "baba": 26183,
  "bileceği": 26184,
  "çor": 26185,
  "hap": 26186,
  "ima": 26187,
  "fu": 26188,
  "güm": 26189,
  "diğimiz": 26190,
  "silah": 26191,
  "bağlam": 26192,
  "kaydet": 26193,
  "etkil": 26194,
  "toprak": 26195,
  "mayacak": 26196,
  "elektronik": 26197,
  "tanın": 26198,
  "üşt": 26199,
  "ortam": 26200,
  "lıdır": 26201,
  "eleştir": 26202,
  "onları": 26203,
  "savun": 26204,
  "cal": 26205,
  "04": 26206,
  "mıştı": 26207,
  "etkili": 26208,
  "john": 26209,
  "zek": 26210,
  "ail": 26211,
  "muha": 26212,
  "imde": 26213,
  "miktar": 26214,
  "yata": 26215,
  "araya": 26216,
  "doğum": 26217,
  "hakları": 26218,
  "gs": 26219,
  "instagram": 26220,
  "etic": 26221,
  "basın": 26222,
  "teknoloj": 26223,
  "bahse": 26224,
  "yapımı": 26225,
  "işlet": 26226,
  "günümüz": 26227,
  "birinci": 26228,
  "bahçe": 26229,
  "i̇t": 26230,
  "tespit": 26231,
  "dıktan": 26232,
  "ünlü": 26233,
  "başarılı": 26234,
  "55": 26235,
  "asi": 26236,
  "abilirsiniz": 26237,
  "dile": 26238,
  "basit": 26239,
  "eylem": 26240,
  "2000": 26241,
  "ity": 26242,
  "i̇çin": 26243,
  "jap": 26244,
  "başlangı": 26245,
  "derin": 26246,
  "şampiyon": 26247,
  "özgür": 26248,
  "ürünleri": 26249,
  "rin": 26250,
  "ilmiştir": 26251,
  "aktif": 26252,
  "left": 26253,
  "servisi": 26254,
  "aka": 26255,
  "araba": 26256,
  "leyi": 26257,
  "cının": 26258,
  "bb": 26259,
  "piyasa": 26260,
  "dolayısıyla": 26261,
  "ekonomi": 26262,
  "ayır": 26263,
  "sever": 26264,
  "sho": 26265,
  "isteyen": 26266,
  "yeri": 26267,
  "gerçekleş": 26268,
  "ney": 26269,
  "oluyor": 26270,
  "au": 26271,
  "ayar": 26272,
  "bro": 26273,
  "haline": 26274,
  "gerektir": 26275,
  "asker": 26276,
  "ayı": 26277,
  "pin": 26278,
  "nakli": 26279,
  "uro": 26280,
  "inç": 26281,
  "ste": 26282,
  "leye": 26283,
  "yeten": 26284,
  "üle": 26285,
  "başı": 26286,
  "kütüp": 26287,
  "tiğini": 26288,
  "mim": 26289,
  "almanya": 26290,
  "sk": 26291,
  "yorumlar": 26292,
  "elerini": 26293,
  "gazet": 26294,
  "yapma": 26295,
  "organiz": 26296,
  "moder": 26297,
  "hatta": 26298,
  "şun": 26299,
  "cid": 26300,
  "mill": 26301,
  "yeşil": 26302,
  "platform": 26303,
  "yalar": 26304,
  "toplantı": 26305,
  "hikay": 26306,
  "naz": 26307,
  "kısı": 26308,
  "hurda": 26309,
  "polis": 26310,
  "color": 26311,
  "prob": 26312,
  "formu": 26313,
  "sep": 26314,
  "biliriz": 26315,
  "park": 26316,
  "dij": 26317,
  "duyur": 26318,
  "makin": 26319,
  "fizik": 26320,
  "les": 26321,
  "mol": 26322,
  "ekonomik": 26323,
  "tun": 26324,
  "iyim": 26325,
  "edilmesi": 26326,
  "sidir": 26327,
  "sizlere": 26328,
  "tasar": 26329,
  "benz": 26330,
  "mic": 26331,
  "mür": 26332,
  "ebilirsiniz": 26333,
  "lider": 26334,
  "onlar": 26335,
  "ağrı": 26336,
  "telev": 26337,
  "eksiyon": 26338,
  "i̇şte": 26339,
  "jinal": 26340,
  "politika": 26341,
  "aslında": 26342,
  "ulaşa": 26343,
  "grubu": 26344,
  "meslek": 26345,
  "deri": 26346,
  "şıyor": 26347,
  "je": 26348,
  "ila": 26349,
  "wn": 26350,
  "çelik": 26351,
  "hd": 26352,
  "meydana": 26353,
  "sonucu": 26354,
  "dijital": 26355,
  "gündem": 26356,
  "boyut": 26357,
  "vardı": 26358,
  "spot": 26359,
  "dıkları": 26360,
  "ajan": 26361,
  "yeterli": 26362,
  "sorumlu": 26363,
  "e9": 26364,
  "bunlar": 26365,
  "gus": 26366,
  "seçenekler": 26367,
  "ınca": 26368,
  "may": 26369,
  "fransız": 26370,
  "imizi": 26371,
  "kıl": 26372,
  "stand": 26373,
  "che": 26374,
  "vel": 26375,
  "yapım": 26376,
  "vol": 26377,
  "mehmet": 26378,
  "progra": 26379,
  "siyel": 26380,
  "filmi": 26381,
  "70": 26382,
  "televizyon": 26383,
  "tartış": 26384,
  "çu": 26385,
  "abet": 26386,
  "tatlı": 26387,
  "edecek": 26388,
  "75": 26389,
  "normal": 26390,
  "char": 26391,
  "ment": 26392,
  "leniyor": 26393,
  "güvenli": 26394,
  "post": 26395,
  "bileceğiniz": 26396,
  "eb": 26397,
  "alışveriş": 26398,
  "yıllık": 26399,
  "ide": 26400,
  "ruh": 26401,
  "lez": 26402,
  "yapıyor": 26403,
  "my": 26404,
  "siyaset": 26405,
  "arap": 26406,
  "nakliyat": 26407,
  "seviy": 26408,
  "yangın": 26409,
  "kaybet": 26410,
  "iade": 26411,
  "üstü": 26412,
  "strate": 26413,
  "özet": 26414,
  "tiv": 26415,
  "şid": 26416,
  "isi": 26417,
  "elerde": 26418,
  "banka": 26419,
  "2006": 26420,
  "tavsiye": 26421,
  "i̇ncel": 26422,
  "mük": 26423,
  "list": 26424,
  "böylece": 26425,
  "isti": 26426,
  "mayan": 26427,
  "liyor": 26428,
  "davranı": 26429,
  "alığı": 26430,
  "sınav": 26431,
  "arkada": 26432,
  "olduğundan": 26433,
  "itibaren": 26434,
  "risk": 26435,
  "kilo": 26436,
  "potan": 26437,
  "türü": 26438,
  "ilaç": 26439,
  "alıyor": 26440,
  "int": 26441,
  "vik": 26442,
  "düşünü": 26443,
  "merha": 26444,
  "ölçü": 26445,
  "diy": 26446,
  "demokra": 26447,
  "müşteriler": 26448,
  "ateş": 26449,
  "bla": 26450,
  "cısı": 26451,
  "samsun": 26452,
  "onya": 26453,
  "çarp": 26454,
  "varsa": 26455,
  "terna": 26456,
  "cık": 26457,
  "ğın": 26458,
  "larınızı": 26459,
  "tahmin": 26460,
  "edildi": 26461,
  "kayna": 26462,
  "ıs": 26463,
  "py": 26464,
  "yana": 26465,
  "etkile": 26466,
  "mühen": 26467,
  "yaptır": 26468,
  "42": 26469,
  "uluğu": 26470,
  "emiz": 26471,
  "tma": 26472,
  "uyar": 26473,
  "best": 26474,
  "modelleri": 26475,
  "adana": 26476,
  "500": 26477,
  "sayıda": 26478,
  "land": 26479,
  "sanay": 26480,
  "yazılım": 26481,
  "dikleri": 26482,
  "marka": 26483,
  "etmiş": 26484,
  "politikası": 26485,
  "deneme": 26486,
  "psik": 26487,
  "adına": 26488,
  "elerinin": 26489,
  "vid": 26490,
  "imli": 26491,
  "musta": 26492,
  "htar": 26493,
  "lığıyla": 26494,
  "boya": 26495,
  "pey": 26496,
  "yaygın": 26497,
  "kullanılır": 26498,
  "i̇kin": 26499,
  "denk": 26500,
  "reh": 26501,
  "vaş": 26502,
  "düzey": 26503,
  "lanmış": 26504,
  "yanında": 26505,
  "px": 26506,
  "amerikalı": 26507,
  "back": 26508,
  "antep": 26509,
  "tarım": 26510,
  "bunların": 26511,
  "ani": 26512,
  "lendi": 26513,
  "hikaye": 26514,
  "duygu": 26515,
  "mutlu": 26516,
  "sanatçı": 26517,
  "ff": 26518,
  "lana": 26519,
  "wo": 26520,
  "prof": 26521,
  "i̇ki": 26522,
  "seçin": 26523,
  "vermek": 26524,
  "hü": 26525,
  "alarda": 26526,
  "vaz": 26527,
  "bağımsız": 26528,
  "bilmektedir": 26529,
  "öp": 26530,
  "colspan": 26531,
  "pil": 26532,
  "tarayıcı": 26533,
  "önüne": 26534,
  "ticar": 26535,
  "tutar": 26536,
  "gay": 26537,
  "metre": 26538,
  "gam": 26539,
  "bilinen": 26540,
  "merak": 26541,
  "sizi": 26542,
  "sonrasında": 26543,
  "ümü": 26544,
  "ılması": 26545,
  "kel": 26546,
  "üniversite": 26547,
  "tle": 26548,
  "sağlıklı": 26549,
  "bank": 26550,
  "onların": 26551,
  "öğ": 26552,
  "kus": 26553,
  "avan": 26554,
  "mini": 26555,
  "anahtar": 26556,
  "chi": 26557,
  "vatandaş": 26558,
  "aj": 26559,
  "fre": 26560,
  "yoksa": 26561,
  "zorunda": 26562,
  "ağı": 26563,
  "fra": 26564,
  "ov": 26565,
  "süper": 26566,
  "yağı": 26567,
  "i̇ngiltere": 26568,
  "tedavi": 26569,
  "listesi": 26570,
  "resimleri": 26571,
  "teklif": 26572,
  "mada": 26573,
  "sy": 26574,
  "rad": 26575,
  "nem": 26576,
  "dönüşt": 26577,
  "kupa": 26578,
  "....": 26579,
  "tab": 26580,
  "kaçak": 26581,
  "gesi": 26582,
  "karşılaş": 26583,
  "konya": 26584,
  "kategoriler": 26585,
  "i̇span": 26586,
  "müş": 26587,
  "savaşı": 26588,
  "cami": 26589,
  "alarını": 26590,
  "bre": 26591,
  "41": 26592,
  "şüp": 26593,
  "yetk": 26594,
  "öncelikle": 26595,
  "arşi": 26596,
  "eg": 26597,
  "final": 26598,
  "isten": 26599,
  "ml": 26600,
  "çiçek": 26601,
  "fırsat": 26602,
  "hisse": 26603,
  "yaşında": 26604,
  "sebep": 26605,
  "buz": 26606,
  "olmaya": 26607,
  "liye": 26608,
  "gez": 26609,
  "imleri": 26610,
  "masından": 26611,
  "şikay": 26612,
  "lenir": 26613,
  "belediyesi": 26614,
  "yunan": 26615,
  "henüz": 26616,
  "day": 26617,
  "azal": 26618,
  "kendini": 26619,
  "başına": 26620,
  "yavaş": 26621,
  ".)": 26622,
  "katılım": 26623,
  "günde": 26624,
  "belli": 26625,
  "çak": 26626,
  "altına": 26627,
  "yerleş": 26628,
  "ekran": 26629,
  "çevrim": 26630,
  "hel": 26631,
  "çay": 26632,
  "mustafa": 26633,
  "kütüphan": 26634,
  "li̇": 26635,
  "luğ": 26636,
  "huku": 26637,
  "modern": 26638,
  "demek": 26639,
  "ilgi": 26640,
  "lığın": 26641,
  "66": 26642,
  "xt": 26643,
  "kardeş": 26644,
  "i̇lçe": 26645,
  "kullanımı": 26646,
  "milli": 26647,
  "cilik": 26648,
  "doldur": 26649,
  "ilebilir": 26650,
  "filmleri": 26651,
  "lamaya": 26652,
  "lüğ": 26653,
  "bulunduğu": 26654,
  "edebi": 26655,
  "yayıncılık": 26656,
  "gizlilik": 26657,
  "zey": 26658,
  "sch": 26659,
  "admin": 26660,
  "asyonu": 26661,
  "programı": 26662,
  "insanların": 26663,
  "eriş": 26664,
  "harika": 26665,
  "zengin": 26666,
  "yüzden": 26667,
  "müs": 26668,
  "alarında": 26669,
  "lerce": 26670,
  "lığına": 26671,
  "şeklinde": 26672,
  "karşılaştır": 26673,
  "--------": 26674,
  "lamaz": 26675,
  "devletleri": 26676,
  "bakanlığı": 26677,
  "sig": 26678,
  "all": 26679,
  "numar": 26680,
  "blogspot": 26681,
  "direk": 26682,
  "vie": 26683,
  "yada": 26684,
  "aşk": 26685,
  "mayın": 26686,
  "sert": 26687,
  "yoktur": 26688,
  "siyasi": 26689,
  "deste": 26690,
  "gh": 26691,
  "erişim": 26692,
  "ast": 26693,
  "vin": 26694,
  "kısm": 26695,
  "vey": 26696,
  "bundan": 26697,
  "cağız": 26698,
  "ct": 26699,
  "taşın": 26700,
  "celi": 26701,
  "aksiyon": 26702,
  "önemlidir": 26703,
  "ısı": 26704,
  "bileceğini": 26705,
  "beden": 26706,
  "plak": 26707,
  "kasa": 26708,
  "hack": 26709,
  "bulunur": 26710,
  "you": 26711,
  "iyile": 26712,
  "vas": 26713,
  "kuru": 26714,
  "sultan": 26715,
  "43": 26716,
  "fransa": 26717,
  "düğü": 26718,
  "yapay": 26719,
  "yerde": 26720,
  "durumunda": 26721,
  "öğrenciler": 26722,
  "kararı": 26723,
  "rom": 26724,
  "parator": 26725,
  "verilerin": 26726,
  "ult": 26727,
  "sonrası": 26728,
  "standart": 26729,
  "eşit": 26730,
  "bö": 26731,
  "etmeye": 26732,
  "mara": 26733,
  "dah": 26734,
  "las": 26735,
  "şır": 26736,
  "değerli": 26737,
  "zaten": 26738,
  "lerinizi": 26739,
  "lenin": 26740,
  "şikayet": 26741,
  "tarihli": 26742,
  "enf": 26743,
  "problem": 26744,
  "erdoğan": 26745,
  "çap": 26746,
  "kiler": 26747,
  "bulundu": 26748,
  "alya": 26749,
  "detaylı": 26750,
  "parçası": 26751,
  "özellikleri": 26752,
  "seya": 26753,
  "metal": 26754,
  "öne": 26755,
  "him": 26756,
  "hor": 26757,
  "aşı": 26758,
  "yararlan": 26759,
  "faktör": 26760,
  "yeme": 26761,
  "lığa": 26762,
  "krip": 26763,
  "ucuz": 26764,
  "hasta": 26765,
  "restor": 26766,
  "i̇lan": 26767,
  "2005": 26768,
  "sağlaya": 26769,
  "duvar": 26770,
  "danışman": 26771,
  "sürec": 26772,
  "kit": 26773,
  "yansı": 26774,
  "yolc": 26775,
  "http": 26776,
  "sorunun": 26777,
  "olmadan": 26778,
  "bilmesi": 26779,
  "avantaj": 26780,
  "melidir": 26781,
  "diğim": 26782,
  "nik": 26783,
  "orijinal": 26784,
  "hayatı": 26785,
  "tre": 26786,
  "yse": 26787,
  "coin": 26788,
  "</": 26789,
  "heye": 26790,
  "ıntılı": 26791,
  "olanak": 26792,
  "i̇kinci": 26793,
  "kodu": 26794,
  "kesi": 26795,
  "niyet": 26796,
  "potansiyel": 26797,
  "nan": 26798,
  "kli": 26799,
  "bulunu": 26800,
  "gaziantep": 26801,
  "ınızda": 26802,
  "tuz": 26803,
  "başlangıç": 26804,
  "siten": 26805,
  "komut": 26806,
  "kesinlikle": 26807,
  "58": 26808,
  "hipotez": 26809,
  "mutlak": 26810,
  "hey": 26811,
  "öğrenc": 26812,
  "disi": 26813,
  "mükem": 26814,
  "78": 26815,
  "tiyat": 26816,
  "kariyer": 26817,
  "ücü": 26818,
  "olmadığı": 26819,
  "dayanı": 26820,
  "pratik": 26821,
  "ahmet": 26822,
  "yeter": 26823,
  "kamer": 26824,
  "taban": 26825,
  "çalışmaları": 26826,
  "bölgeler": 26827,
  "sevg": 26828,
  "filmin": 26829,
  "yarat": 26830,
  "takdir": 26831,
  "ışı": 26832,
  "bula": 26833,
  "masıyla": 26834,
  "konuda": 26835,
  "çıkı": 26836,
  "bizi": 26837,
  "zev": 26838,
  "bakanı": 26839,
  "feder": 26840,
  "style": 26841,
  "gerekmektedir": 26842,
  "mükemmel": 26843,
  "keti": 26844,
  "ciddi": 26845,
  "cilt": 26846,
  "aşırı": 26847,
  "uyun": 26848,
  "kk": 26849,
  "şiş": 26850,
  "ilim": 26851,
  "kitab": 26852,
  "\";": 26853,
  "elerine": 26854,
  "cy": 26855,
  "sene": 26856,
  "ction": 26857,
  "zet": 26858,
  "kadınlar": 26859,
  "alanında": 26860,
  "dip": 26861,
  "kahra": 26862,
  "sistemleri": 26863,
  "lal": 26864,
  "soğu": 26865,
  "üzerindeki": 26866,
  "itir": 26867,
  "oyunu": 26868,
  "alarının": 26869,
  "kalite": 26870,
  "2004": 26871,
  "alarına": 26872,
  "ju": 26873,
  "i̇sim": 26874,
  "istanbul": 26875,
  "cir": 26876,
  "yönetimi": 26877,
  "dolu": 26878,
  "şeyi": 26879,
  "öğrenci": 26880,
  "bulmak": 26881,
  "cağım": 26882,
  "görevi": 26883,
  "forum": 26884,
  "seyahat": 26885,
  "tehlik": 26886,
  "evden": 26887,
  "ms": 26888,
  "dikten": 26889,
  "diren": 26890,
  "madı": 26891,
  "olmuştur": 26892,
  "yere": 26893,
  "inizde": 26894,
  "şiddet": 26895,
  "çevr": 26896,
  "kağı": 26897,
  "lasyon": 26898,
  "terör": 26899,
  "sıkı": 26900,
  "ticari": 26901,
  "grafi": 26902,
  "hafi": 26903,
  "takımı": 26904,
  "tuk": 26905,
  "davranış": 26906,
  "57": 26907,
  "öncül": 26908,
  "i̇slam": 26909,
  "ebe": 26910,
  "i̇st": 26911,
  "performans": 26912,
  "kapat": 26913,
  "harf": 26914,
  "hır": 26915,
  "ışık": 26916,
  "geçerli": 26917,
  "gizli": 26918,
  "pir": 26919,
  "piş": 26920,
  "ğan": 26921,
  "ladığı": 26922,
  "59": 26923,
  "koruma": 26924,
  "mahallesi": 26925,
  "makale": 26926,
  "senin": 26927,
  "siyah": 26928,
  "kurumsal": 26929,
  "koç": 26930,
  "belirtilen": 26931,
  "verdiği": 26932,
  "kendisine": 26933,
  "istediğiniz": 26934,
  "veriyor": 26935,
  "haval": 26936,
  "):": 26937,
  "evde": 26938,
  "personel": 26939,
  "orman": 26940,
  "mersin": 26941,
  "zorun": 26942,
  "siklet": 26943,
  "gıda": 26944,
  "zeka": 26945,
  "endü": 26946,
  "sağlayan": 26947,
  "yönetmen": 26948,
  "fakül": 26949,
  "tiyatro": 26950,
  "dep": 26951,
  "kapalı": 26952,
  "firmalar": 26953,
  "nur": 26954,
  "yazıl": 26955,
  "gele": 26956,
  "sir": 26957,
  "aracılığıyla": 26958,
  "what": 26959,
  "sabah": 26960,
  "anlat": 26961,
  "umak": 26962,
  "kaldı": 26963,
  "işleri": 26964,
  "fonk": 26965,
  "alarak": 26966,
  "ue": 26967,
  "bazen": 26968,
  "üyesi": 26969,
  "düzenle": 26970,
  "read": 26971,
  "ura": 26972,
  "kalp": 26973,
  "ünüz": 26974,
  "yiye": 26975,
  "ask": 26976,
  "cook": 26977,
  "youtu": 26978,
  "mate": 26979,
  "yasak": 26980,
  "ödülü": 26981,
  "56": 26982,
  "i̇p": 26983,
  "cat": 26984,
  "fonksiyon": 26985,
  "}}": 26986,
  "çıkış": 26987,
  "kelime": 26988,
  "yiz": 26989,
  "çekme": 26990,
  "müda": 26991,
  "mesel": 26992,
  "köp": 26993,
  "iter": 26994,
  "otomatik": 26995,
  "i̇le": 26996,
  "oyunc": 26997,
  "görsel": 26998,
  "kılı": 26999,
  "hafif": 27000,
  "amerikan": 27001,
  "tıyor": 27002,
  "karşılık": 27003,
  "aktarı": 27004,
  "i̇lgili": 27005,
  "ayda": 27006,
  "adımı": 27007,
  "dit": 27008,
  "saray": 27009,
  "vb": 27010,
  "şef": 27011,
  "uçak": 27012,
  "köpek": 27013,
  "pozisyon": 27014,
  "gelenek": 27015,
  "pri": 27016,
  "doğumlular": 27017,
  "alterna": 27018,
  "isa": 27019,
  "euro": 27020,
  "alınan": 27021,
  "çal": 27022,
  "yıldır": 27023,
  "iğ": 27024,
  "arada": 27025,
  "süresi": 27026,
  "uyarı": 27027,
  "muhtemel": 27028,
  "tığ": 27029,
  "dönüştür": 27030,
  "devamını": 27031,
  "york": 27032,
  "ajansı": 27033,
  "vü": 27034,
  "gören": 27035,
  "home": 27036,
  "bilgilendir": 27037,
  "wer": 27038,
  "zan": 27039,
  "sigor": 27040,
  "halde": 27041,
  "iydi": 27042,
  "ortalama": 27043,
  "mühendis": 27044,
  "ron": 27045,
  "uydu": 27046,
  "oluşturun": 27047,
  "ilerek": 27048,
  "çoğ": 27049,
  "yerleştir": 27050,
  "dor": 27051,
  "gümüş": 27052,
  "ayrıntılı": 27053,
  "turk": 27054,
  "graf": 27055,
  "öğretim": 27056,
  "rik": 27057,
  "ılan": 27058,
  "i̇çer": 27059,
  "mark": 27060,
  "mişti": 27061,
  "gala": 27062,
  "proje": 27063,
  "ie": 27064,
  "mam": 27065,
  "sırada": 27066,
  "şeker": 27067,
  "(\"": 27068,
  "weet": 27069,
  "olog": 27070,
  "trab": 27071,
  "vücu": 27072,
  "ilişki": 27073,
  "arya": 27074,
  "iği": 27075,
  "diyar": 27076,
  "çeve": 27077,
  "çerçeve": 27078,
  "birim": 27079,
  "merhaba": 27080,
  "esas": 27081,
  "yarar": 27082,
  "kop": 27083,
  "okulu": 27084,
  "girişim": 27085,
  "atör": 27086,
  "cad": 27087,
  "adalet": 27088,
  "mamış": 27089,
  "biyo": 27090,
  "zayı": 27091,
  "şans": 27092,
  "eğitimi": 27093,
  "trabzon": 27094,
  "lemi": 27095,
  "süt": 27096,
  "wa": 27097,
  "tap": 27098,
  "lıklar": 27099,
  "verme": 27100,
  "meş": 27101,
  "saygı": 27102,
  "gul": 27103,
  "landa": 27104,
  "tiler": 27105,
  "youtube": 27106,
  "istem": 27107,
  "mali": 27108,
  "nitelik": 27109,
  "sanal": 27110,
  "vo": 27111,
  "ürünü": 27112,
  "serbest": 27113,
  "vüc": 27114,
  "etkisi": 27115,
  "yöneti": 27116,
  "tali": 27117,
  "kimse": 27118,
  "başlayan": 27119,
  "larım": 27120,
  "tom": 27121,
  "hala": 27122,
  "i̇d": 27123,
  "çanak": 27124,
  "mızın": 27125,
  "press": 27126,
  "yüzey": 27127,
  "karma": 27128,
  "sinema": 27129,
  "kaf": 27130,
  "anlar": 27131,
  "xx": 27132,
  "ağaç": 27133,
  "dışarı": 27134,
  "filmler": 27135,
  "arşiv": 27136,
  "ulması": 27137,
  "anlayı": 27138,
  "ğer": 27139,
  "belki": 27140,
  "asya": 27141,
  "maliyet": 27142,
  "hacklink": 27143,
  "akıllı": 27144,
  "düzenlenen": 27145,
  "eşya": 27146,
  "kupası": 27147,
  "kırık": 27148,
  "komisyon": 27149,
  "layarak": 27150,
  "şet": 27151,
  "kendisi": 27152,
  "vücut": 27153,
  "ell": 27154,
  "duğunu": 27155,
  "pal": 27156,
  "yapın": 27157,
  "bölümü": 27158,
  "ılır": 27159,
  "hükümet": 27160,
  "tıklayın": 27161,
  "keyif": 27162,
  "bedava": 27163,
  "98": 27164,
  "yel": 27165,
  "ıcı": 27166,
  "lir": 27167,
  "şiir": 27168,
  "right": 27169,
  "düzel": 27170,
  "birleştir": 27171,
  "davet": 27172,
  "görmek": 27173,
  "yaparak": 27174,
  "kulü": 27175,
  "kanunu": 27176,
  "kam": 27177,
  "kitapları": 27178,
  "leri̇": 27179,
  "desi": 27180,
  "tanrı": 27181,
  "kampanya": 27182,
  "istiyorum": 27183,
  "bunları": 27184,
  "başlar": 27185,
  "mevzu": 27186,
  "kıya": 27187,
  "teşvik": 27188,
  "uygulamalar": 27189,
  "ilçe": 27190,
  "önünde": 27191,
  "dro": 27192,
  "sürede": 27193,
  "mesinde": 27194,
  "pg": 27195,
  "kripto": 27196,
  "şirketi": 27197,
  "ああああ": 27198,
  "yapılacak": 27199,
  "garanti": 27200,
  "içerir": 27201,
  "kadro": 27202,
  "gon": 27203,
  "otik": 27204,
  "olmaz": 27205,
  "kahraman": 27206,
  "geçer": 27207,
  "alternatif": 27208,
  "uyum": 27209,
  "eyalet": 27210,
  "etmektedir": 27211,
  "çağrı": 27212,
  "keşf": 27213,
  "til": 27214,
  "kahve": 27215,
  "imin": 27216,
  "slot": 27217,
  "yanıtlar": 27218,
  "mavi": 27219,
  "yaptık": 27220,
  "sağlam": 27221,
  "seçenekleri": 27222,
  "coun": 27223,
  "oranı": 27224,
  "ettik": 27225,
  "ika": 27226,
  "derne": 27227,
  "siyet": 27228,
  "çoğun": 27229,
  "hediye": 27230,
  "şap": 27231,
  "edebilir": 27232,
  "sona": 27233,
  "uluğ": 27234,
  "inanı": 27235,
  "görünü": 27236,
  "mac": 27237,
  "oluşturmak": 27238,
  "başar": 27239,
  "ilerine": 27240,
  "kişilerin": 27241,
  "iliği": 27242,
  "cağınız": 27243,
  "use": 27244,
  "şeyler": 27245,
  "şer": 27246,
  "koltuk": 27247,
  "hum": 27248,
  "uni": 27249,
  "akşam": 27250,
  "sanayi": 27251,
  "milletvek": 27252,
  "milyar": 27253,
  "cümleyi": 27254,
  "gösteren": 27255,
  "askeri": 27256,
  "kemal": 27257,
  "porn": 27258,
  "sokak": 27259,
  "göç": 27260,
  "pazarlama": 27261,
  "cumhurbaşkanı": 27262,
  "urum": 27263,
  "gat": 27264,
  "tutuk": 27265,
  "yazılar": 27266,
  "eyen": 27267,
  "inceleme": 27268,
  "dönemde": 27269,
  "cez": 27270,
  "dili": 27271,
  "kütüphanesi": 27272,
  "68": 27273,
  "kg": 27274,
  "bür": 27275,
  "zayıf": 27276,
  "ofis": 27277,
  "bül": 27278,
  "\":": 27279,
  "şak": 27280,
  "org": 27281,
  "fiziksel": 27282,
  "bot": 27283,
  "ğunuz": 27284,
  "taz": 27285,
  "cumhuriyeti": 27286,
  "basket": 27287,
  "dergisi": 27288,
  "leyici": 27289,
  "rahatsız": 27290,
  "cevab": 27291,
  "77": 27292,
  "dekor": 27293,
  "anlaşıl": 27294,
  "galeri": 27295,
  "windo": 27296,
  "2023": 27297,
  "market": 27298,
  "büs": 27299,
  "ukray": 27300,
  "yoluyla": 27301,
  "sizlik": 27302,
  "politik": 27303,
  "fiyatı": 27304,
  "küresel": 27305,
  "ferans": 27306,
  "hus": 27307,
  "çatı": 27308,
  "stratej": 27309,
  "liğe": 27310,
  "dun": 27311,
  "sağlığı": 27312,
  "aça": 27313,
  "süz": 27314,
  "kullanılmak": 27315,
  "zım": 27316,
  "yayınevi": 27317,
  "gr": 27318,
  "götür": 27319,
  "moda": 27320,
  "almaktadır": 27321,
  "etraf": 27322,
  "ecektir": 27323,
  "malat": 27324,
  "baz": 27325,
  "edilmiş": 27326,
  "vurg": 27327,
  "yaklaşı": 27328,
  "hesabınız": 27329,
  "adını": 27330,
  "atatürk": 27331,
  "tatil": 27332,
  "mıyla": 27333,
  "sorunu": 27334,
  "imz": 27335,
  "bitki": 27336,
  "bala": 27337,
  "alındığında": 27338,
  "yaşan": 27339,
  "veç": 27340,
  "ayında": 27341,
  "nedeni": 27342,
  "soğuk": 27343,
  "work": 27344,
  "grafik": 27345,
  "afri": 27346,
  "çerezler": 27347,
  "2002": 27348,
  "bulunma": 27349,
  "ehir": 27350,
  "komp": 27351,
  "andro": 27352,
  "değişim": 27353,
  "nat": 27354,
  "asını": 27355,
  "çıka": 27356,
  "onlara": 27357,
  "edebilirsiniz": 27358,
  "2003": 27359,
  "birden": 27360,
  "beklen": 27361,
  "bölgesi": 27362,
  "azı": 27363,
  "arttır": 27364,
  "nelerdir": 27365,
  "diyet": 27366,
  "lıkları": 27367,
  "distan": 27368,
  "asıl": 27369,
  "iddia": 27370,
  "stil": 27371,
  "pik": 27372,
  "işime": 27373,
  "88": 27374,
  "edilebilir": 27375,
  "erz": 27376,
  "leriniz": 27377,
  "büt": 27378,
  "latma": 27379,
  "sus": 27380,
  "müslü": 27381,
  "dola": 27382,
  "hukuki": 27383,
  "alacak": 27384,
  "kayseri": 27385,
  "yapılması": 27386,
  "esir": 27387,
  "gerektiğini": 27388,
  "kişehir": 27389,
  "ıp": 27390,
  "sefere": 27391,
  "e9e9": 27392,
  "malzeme": 27393,
  "çuk": 27394,
  "{{": 27395,
  "iyan": 27396,
  "koz": 27397,
  "bulu": 27398,
  "ford": 27399,
  "mün": 27400,
  "sapp": 27401,
  "başında": 27402,
  "edilmiştir": 27403,
  "boğ": 27404,
  "etiketler": 27405,
  "kanıt": 27406,
  "53": 27407,
  "becer": 27408,
  "ati": 27409,
  "işlemi": 27410,
  "star": 27411,
  "mikro": 27412,
  "ilerle": 27413,
  "tığını": 27414,
  "bulunuyor": 27415,
  "mc": 27416,
  "yapmış": 27417,
  "akadem": 27418,
  "denizli": 27419,
  "olmasına": 27420,
  "gönül": 27421,
  "otomobil": 27422,
  "kun": 27423,
  "sabit": 27424,
  "irken": 27425,
  "pt": 27426,
  "esk": 27427,
  "67": 27428,
  "mantık": 27429,
  "amaz": 27430,
  "i̇ran": 27431,
  "esen": 27432,
  "lanıyor": 27433,
  "ştan": 27434,
  "mesinden": 27435,
  "belirleyin": 27436,
  "52": 27437,
  "mezun": 27438,
  "54": 27439,
  "ederim": 27440,
  "max": 27441,
  "asla": 27442,
  "yaşlı": 27443,
  "kitabı": 27444,
  "yiyecek": 27445,
  "kendine": 27446,
  "tezi": 27447,
  "aktar": 27448,
  "kenar": 27449,
  "hy": 27450,
  "mimar": 27451,
  "elif": 27452,
  "tri": 27453,
  "diyarbakır": 27454,
  "makinesi": 27455,
  "sakarya": 27456,
  "şem": 27457,
  "mutfak": 27458,
  "olduğuna": 27459,
  "yazarın": 27460,
  "dikkate": 27461,
  "tarz": 27462,
  "pren": 27463,
  "mutlaka": 27464,
  "bakış": 27465,
  "yerinde": 27466,
  "ground": 27467,
  "düzenli": 27468,
  "etmesi": 27469,
  "whatsapp": 27470,
  "ligi": 27471,
  "ilere": 27472,
  "büyükşehir": 27473,
  "liğine": 27474,
  "liğin": 27475,
  "bert": 27476,
  "kaza": 27477,
  "ediyorum": 27478,
  "bolu": 27479,
  "incele": 27480,
  "küçükresim": 27481,
  "eskişehir": 27482,
  "rast": 27483,
  "devre": 27484,
  "müslüman": 27485,
  "iliyor": 27486,
  "ding": 27487,
  "kocaeli": 27488,
  "elerinde": 27489,
  "ulur": 27490,
  "?\"": 27491,
  "olduğunuz": 27492,
  "kenin": 27493,
  "gelişim": 27494,
  "dahaki": 27495,
  "düşünce": 27496,
  "jack": 27497,
  "çik": 27498,
  "i̇mparator": 27499,
  "bün": 27500,
  "unsur": 27501,
  "lığında": 27502,
  "çocuklar": 27503,
  "kimlik": 27504,
  "tro": 27505,
  "this": 27506,
  "imkan": 27507,
  "bununla": 27508,
  "kısmı": 27509,
  "kesim": 27510,
  "söylemek": 27511,
  "i̇ndir": 27512,
  "eni": 27513,
  "güc": 27514,
  "ary": 27515,
  "ceğini": 27516,
  "traf": 27517,
  "ıldı": 27518,
  "bilgisi": 27519,
  "alanda": 27520,
  "97": 27521,
  "buraya": 27522,
  ".,": 27523,
  "fun": 27524,
  "kurulan": 27525,
  "isyen": 27526,
  "que": 27527,
  "memiş": 27528,
  "))": 27529,
  "ish": 27530,
  "gelin": 27531,
  "tweet": 27532,
  "ester": 27533,
  "süreci": 27534,
  "misiniz": 27535,
  "51": 27536,
  "defa": 27537,
  "seni": 27538,
  "üsü": 27539,
  "yatak": 27540,
  "zam": 27541,
  "orada": 27542,
  "td": 27543,
  "inc": 27544,
  "lisi": 27545,
  "tesis": 27546,
  "yem": 27547,
  "ny": 27548,
  "tasarı": 27549,
  "dat": 27550,
  "elem": 27551,
  "arda": 27552,
  "hut": 27553,
  "oksi": 27554,
  "kurtar": 27555,
  "kartı": 27556,
  "tamir": 27557,
  "karbon": 27558,
  "prote": 27559,
  "konuşma": 27560,
  "…]": 27561,
  "vasyon": 27562,
  "konak": 27563,
  "ihtiyacı": 27564,
  "cektir": 27565,
  "pub": 27566,
  "olmuş": 27567,
  "başvurucu": 27568,
  "asına": 27569,
  "lardı": 27570,
  "vakit": 27571,
  "kola": 27572,
  "kıb": 27573,
  "konus": 27574,
  "aykırı": 27575,
  "ân": 27576,
  "64": 27577,
  "1990": 27578,
  "tedav": 27579,
  "istek": 27580,
  "bekle": 27581,
  "ene": 27582,
  "gözlem": 27583,
  "işlev": 27584,
  "başta": 27585,
  "ves": 27586,
  "[…]": 27587,
  "sözleşme": 27588,
  "editör": 27589,
  "çevres": 27590,
  "buk": 27591,
  "hata": 27592,
  "ülebilir": 27593,
  "roma": 27594,
  "söylü": 27595,
  "ğla": 27596,
  "atıl": 27597,
  "vası": 27598,
  "cevaplayın": 27599,
  "tecrü": 27600,
  "lığının": 27601,
  "cınız": 27602,
  "acil": 27603,
  "kişilik": 27604,
  "ğine": 27605,
  "maktan": 27606,
  "kazandı": 27607,
  "nden": 27608,
  "maden": 27609,
  "lanmıştır": 27610,
  "sorumluluk": 27611,
  "firmaları": 27612,
  "uma": 27613,
  "takipçi": 27614,
  "yaman": 27615,
  "dini": 27616,
  "i̇zle": 27617,
  "kavram": 27618,
  "gücü": 27619,
  "kök": 27620,
  "seo": 27621,
  "afrika": 27622,
  "urfa": 27623,
  "2001": 27624,
  "saf": 27625,
  "bitir": 27626,
  "girdi": 27627,
  "başkanlığı": 27628,
  "cuma": 27629,
  "aylık": 27630,
  "mutl": 27631,
  "background": 27632,
  "varı": 27633,
  "bbi": 27634,
  "lezzet": 27635,
  "döneminde": 27636,
  "matematik": 27637,
  "artış": 27638,
  "hı": 27639,
  "ukrayna": 27640,
  "uldu": 27641,
  "denklem": 27642,
  "sana": 27643,
  "yumu": 27644,
  "300": 27645,
  "zil": 27646,
  "edebiyat": 27647,
  "lise": 27648,
  "imizde": 27649,
  "millî": 27650,
  "69": 27651,
  "yaları": 27652,
  "arkadaşı": 27653,
  "cümlenin": 27654,
  "zih": 27655,
  "huz": 27656,
  "manızı": 27657,
  "mısır": 27658,
  "tesli": 27659,
  "dünyada": 27660,
  "yip": 27661,
  "malara": 27662,
  "cla": 27663,
  "projesi": 27664,
  "sebeb": 27665,
  "yıllara": 27666,
  "hr": 27667,
  "sonuçları": 27668,
  "adlandır": 27669,
  "malısınız": 27670,
  "kayde": 27671,
  "cem": 27672,
  "cev": 27673,
  "düşür": 27674,
  "neredeyse": 27675,
  "eral": 27676,
  "layıcı": 27677,
  "sikiş": 27678,
  "duygus": 27679,
  "transfer": 27680,
  "topluluk": 27681,
  "barış": 27682,
  "turizm": 27683,
  "yıllar": 27684,
  "ölçüde": 27685,
  "tb": 27686,
  "hücr": 27687,
  "alara": 27688,
  "iyileştir": 27689,
  "suyu": 27690,
  "çekici": 27691,
  "kulüp": 27692,
  "katkıda": 27693,
  "nar": 27694,
  "klasik": 27695,
  "ilip": 27696,
  "yorumları": 27697,
  "ayrıntı": 27698,
  "çevrimiçi": 27699,
  "sti": 27700,
  "operasyon": 27701,
  "akti": 27702,
  "yaşındaki": 27703,
  "masyon": 27704,
  "nö": 27705,
  "tarayıcıya": 27706,
  "gibiy": 27707,
  "====": 27708,
  "soruştur": 27709,
  "anlık": 27710,
  "yazarlar": 27711,
  "liam": 27712,
  "kıbrı": 27713,
  "hac": 27714,
  "yerler": 27715,
  "yılın": 27716,
  "korunması": 27717,
  "bozuk": 27718,
  "oker": 27719,
  "ikti": 27720,
  "basketbol": 27721,
  "hepsi": 27722,
  "android": 27723,
  "bahç": 27724,
  "aklı": 27725,
  "oyuncak": 27726,
  "ölen": 27727,
  "kullanılabilir": 27728,
  "gösteriyor": 27729,
  "zorunlu": 27730,
  "gide": 27731,
  "yerli": 27732,
  "play": 27733,
  "klı": 27734,
  "ılmış": 27735,
  "içine": 27736,
  "çanakkale": 27737,
  "harita": 27738,
  "dayanarak": 27739,
  "ademi": 27740,
  "df": 27741,
  "daa": 27742,
  "yönlendir": 27743,
  "atan": 27744,
  "heyecan": 27745,
  "enerj": 27746,
  "uzay": 27747,
  "bilimsel": 27748,
  "liğinde": 27749,
  "diven": 27750,
  "ag": 27751,
  "yaptığımda": 27752,
  "müdürlüğü": 27753,
  "geleneksel": 27754,
  "i̇talya": 27755,
  "karmaşık": 27756,
  "wi": 27757,
  "etkilen": 27758,
  "kazanç": 27759,
  "yayını": 27760,
  "arayı": 27761,
  "savunma": 27762,
  "dığından": 27763,
  "giyim": 27764,
  "ble": 27765,
  "yandan": 27766,
  "bran": 27767,
  "odası": 27768,
  "stur": 27769,
  "ilerinin": 27770,
  "besin": 27771,
  "paylaşım": 27772,
  "yüküm": 27773,
  "lanmaktadır": 27774,
  "akademi": 27775,
  "lav": 27776,
  "zevk": 27777,
  "kimyasal": 27778,
  "ortadan": 27779,
  "kayıp": 27780,
  "uygulaması": 27781,
  "yapmaya": 27782,
  "borç": 27783,
  "gran": 27784,
  "undaki": 27785,
  "kıbrıs": 27786,
  "yayınlanan": 27787,
  "elbet": 27788,
  "nakliye": 27789,
  "günümüzde": 27790,
  "out": 27791,
  "memur": 27792,
  "gösterir": 27793,
  "kafa": 27794,
  "yav": 27795,
  "profil": 27796,
  "serg": 27797,
  "finans": 27798,
  "ildiği": 27799,
  "yatırma": 27800,
  "alına": 27801,
  "chp": 27802,
  "ülkenin": 27803,
  "sözleri": 27804,
  "kazandır": 27805,
  "klar": 27806,
  "organizasyon": 27807,
  "lit": 27808,
  "bilme": 27809,
  "sö": 27810,
  "cha": 27811,
  "işlemleri": 27812,
  "bölgesinde": 27813,
  "kızıl": 27814,
  "ndan": 27815,
  "kaynağı": 27816,
  "nev": 27817,
  "ettir": 27818,
  "çil": 27819,
  "bis": 27820,
  "köyü": 27821,
  "arıza": 27822,
  "toplu": 27823,
  "elerden": 27824,
  "kuralları": 27825,
  "beslenme": 27826,
  "sonucunda": 27827,
  "sınırlı": 27828,
  "vergi": 27829,
  "95": 27830,
  "huzur": 27831,
  "arz": 27832,
  "babası": 27833,
  "geçiş": 27834,
  "alanları": 27835,
  "sırala": 27836,
  "laşma": 27837,
  "finan": 27838,
  "tanıtım": 27839,
  "muhtemelen": 27840,
  "anında": 27841,
  "sıfır": 27842,
  "ful": 27843,
  "yur": 27844,
  "anlama": 27845,
  "artan": 27846,
  "fakültesi": 27847,
  "şehr": 27848,
  "pencer": 27849,
  "asist": 27850,
  "sinden": 27851,
  "hattı": 27852,
  "durumlarda": 27853,
  "uyucu": 27854,
  "hisset": 27855,
  "ülü": 27856,
  "yetiştir": 27857,
  "hit": 27858,
  "konut": 27859,
  "harca": 27860,
  "sunucu": 27861,
  "sıkıntı": 27862,
  "evren": 27863,
  "vu": 27864,
  "belgeler": 27865,
  "teşkil": 27866,
  "bahar": 27867,
  "zeytin": 27868,
  "log": 27869,
  "kişiye": 27870,
  "sitemizde": 27871,
  "sözleşmesi": 27872,
  "ela": 27873,
  "derneği": 27874,
  "bisiklet": 27875,
  "html": 27876,
  "olursa": 27877,
  "ündeki": 27878,
  "peş": 27879,
  "tarifleri": 27880,
  "reaksiyon": 27881,
  "sorular": 27882,
  "ulaşım": 27883,
  "more": 27884,
  "açma": 27885,
  "sitede": 27886,
  "verilir": 27887,
  "ameli": 27888,
  "tih": 27889,
  "bireysel": 27890,
  "magaz": 27891,
  "idi": 27892,
  "1999": 27893,
  "sunulan": 27894,
  "avukat": 27895,
  "felse": 27896,
  "yukarıdaki": 27897,
  "nef": 27898,
  "with": 27899,
  "şartları": 27900,
  "altyapı": 27901,
  "örgüt": 27902,
  "lerim": 27903,
  "kullana": 27904,
  "japon": 27905,
  "bara": 27906,
  "temizlik": 27907,
  "çö": 27908,
  "amik": 27909,
  "efen": 27910,
  "yayımlan": 27911,
  "wal": 27912,
  "seviye": 27913,
  "stit": 27914,
  "muğla": 27915,
  "bi̇r": 27916,
  "birini": 27917,
  "pati": 27918,
  "cd": 27919,
  "tey": 27920,
  "olmalıdır": 27921,
  "radyo": 27922,
  "kendisini": 27923,
  "tın": 27924,
  "açıkça": 27925,
  "kabı": 27926,
  "ettiğini": 27927,
  "numarası": 27928,
  "kiralama": 27929,
  "niş": 27930,
  "ırlar": 27931,
  "bulut": 27932,
  "sakin": 27933,
  "city": 27934,
  "malatya": 27935,
  "anasayfa": 27936,
  "i̇la": 27937,
  "peki": 27938,
  "windows": 27939,
  "erzurum": 27940,
  "96": 27941,
  "kup": 27942,
  "wid": 27943,
  "güvenliği": 27944,
  "düşünün": 27945,
  "hindistan": 27946,
  "sitesinde": 27947,
  "kör": 27948,
  "geleri": 27949,
  "kullanmak": 27950,
  "karıştır": 27951,
  "bük": 27952,
  "bos": 27953,
  "diya": 27954,
  "sez": 27955,
  "kore": 27956,
  "yapıla": 27957,
  "değeri": 27958,
  "ınar": 27959,
  "kalın": 27960,
  "time": 27961,
  "numara": 27962,
  "kalıcı": 27963,
  "makam": 27964,
  "i̇tal": 27965,
  "taları": 27966,
  "email": 27967,
  "malzemeleri": 27968,
  "war": 27969,
  "saklıdır": 27970,
  "beşik": 27971,
  "şanlı": 27972,
  "balar": 27973,
  "250": 27974,
  "your": 27975,
  "iletişime": 27976,
  "biridir": 27977,
  "yardımcısı": 27978,
  "devamı": 27979,
  "kanser": 27980,
  "king": 27981,
  "verilecek": 27982,
  "hesapla": 27983,
  "elbette": 27984,
  "io": 27985,
  "forma": 27986,
  "devr": 27987,
  "yöner": 27988,
  "i̇şlem": 27989,
  "sivas": 27990,
  "akar": 27991,
  "zorluk": 27992,
  "bart": 27993,
  "tipi": 27994,
  "kutu": 27995,
  "stok": 27996,
  "safir": 27997,
  "hatay": 27998,
  "hoca": 27999,
  "esinden": 28000,
  "trafik": 28001,
  "ciğer": 28002,
  "aca": 28003,
  "açıklaması": 28004,
  "liliği": 28005,
  "150": 28006,
  "yıllarda": 28007,
  "hip": 28008,
  "aşağıda": 28009,
  "yetkili": 28010,
  "özelliği": 28011,
  "bn": 28012,
  "yürüt": 28013,
  "way": 28014,
  "sivil": 28015,
  "stor": 28016,
  "i̇spanyol": 28017,
  "tehdit": 28018,
  "vazgeç": 28019,
  "murat": 28020,
  "ullah": 28021,
  "nas": 28022,
  "\\.": 28023,
  "yağmur": 28024,
  "görü": 28025,
  "ust": 28026,
  "rail": 28027,
  ":#": 28028,
  "kra": 28029,
  "panel": 28030,
  "ülkemiz": 28031,
  "=>": 28032,
  "malarını": 28033,
  "ld": 28034,
  "okuma": 28035,
  "öncesi": 28036,
  "mediği": 28037,
  "açıkla": 28038,
  "düm": 28039,
  "üyle": 28040,
  "gazetesi": 28041,
  "meclis": 28042,
  "metni": 28043,
  "hayatını": 28044,
  "korku": 28045,
  "molek": 28046,
  "sion": 28047,
  "dığımız": 28048,
  "benzeri": 28049,
  "fal": 28050,
  "söylüyor": 28051,
  "yakı": 28052,
  "ments": 28053,
  "wat": 28054,
  "olim": 28055,
  "word": 28056,
  "örü": 28057,
  "edici": 28058,
  "üreti": 28059,
  "fener": 28060,
  "mod": 28061,
  "endüstr": 28062,
  "hik": 28063,
  "ale": 28064,
  "rehber": 28065,
  "sizler": 28066,
  "koşulları": 28067,
  "ürünün": 28068,
  "saldır": 28069,
  "tane": 28070,
  "hür": 28071,
  "varlık": 28072,
  "was": 28073,
  "durdur": 28074,
  "tifi": 28075,
  "i̇çerik": 28076,
  "dv": 28077,
  "belirlemek": 28078,
  "kağıt": 28079,
  "anız": 28080,
  "edildiği": 28081,
  "alak": 28082,
  "63": 28083,
  "sahne": 28084,
  "tavuk": 28085,
  "yaşanan": 28086,
  "seb": 28087,
  "müştür": 28088,
  "yazarı": 28089,
  "​​": 28090,
  "şifre": 28091,
  "brit": 28092,
  "rum": 28093,
  "biçimde": 28094,
  "sün": 28095,
  "içindeki": 28096,
  "i̇liş": 28097,
  "kok": 28098,
  "birinin": 28099,
  "anayasa": 28100,
  "talimat": 28101,
  "edir": 28102,
  "pl": 28103,
  "ob": 28104,
  "ting": 28105,
  "düğün": 28106,
  "dayalı": 28107,
  "almış": 28108,
  "kapsa": 28109,
  "koltu": 28110,
  "eklen": 28111,
  "feri": 28112,
  "dönüşüm": 28113,
  "firmamız": 28114,
  "ilmektedir": 28115,
  "umut": 28116,
  "ward": 28117,
  "erkekler": 28118,
  "anket": 28119,
  "1000": 28120,
  "çalışıyor": 28121,
  "ies": 28122,
  "hizmetler": 28123,
  "liğinin": 28124,
  "takv": 28125,
  "bankası": 28126,
  "kolayla": 28127,
  "tad": 28128,
  "kıyı": 28129,
  "i̇talyan": 28130,
  "kullanma": 28131,
  "olmasını": 28132,
  "birik": 28133,
  "kültürel": 28134,
  "kabil": 28135,
  "yenilen": 28136,
  "vı": 28137,
  "kulak": 28138,
  "yedi": 28139,
  "hayata": 28140,
  "beyan": 28141,
  "buluş": 28142,
  "hasar": 28143,
  "ınızın": 28144,
  "mahkeme": 28145,
  "api": 28146,
  "depre": 28147,
  "azer": 28148,
  "1997": 28149,
  "kalem": 28150,
  "stri": 28151,
  "yorumunuz": 28152,
  "rock": 28153,
  "shar": 28154,
  "yardı": 28155,
  "eng": 28156,
  "fol": 28157,
  "zira": 28158,
  "çatış": 28159,
  "direktör": 28160,
  "afyon": 28161,
  "üyeleri": 28162,
  "maktayız": 28163,
  "()": 28164,
  "larındaki": 28165,
  "promos": 28166,
  "bitk": 28167,
  "uyan": 28168,
  "algı": 28169,
  "tarak": 28170,
  "geçti": 28171,
  "kalma": 28172,
  "aa": 28173,
  "paris": 28174,
  "promosyon": 28175,
  "alınır": 28176,
  "şın": 28177,
  "coğraf": 28178,
  "suriye": 28179,
  "şehri": 28180,
  "tedavisi": 28181,
  "bulundur": 28182,
  "yerini": 28183,
  "uar": 28184,
  "selçuk": 28185,
  "yılları": 28186,
  "fl": 28187,
  "rem": 28188,
  "sigorta": 28189,
  "hayatta": 28190,
  "rep": 28191,
  "bileşen": 28192,
  "uzmanı": 28193,
  "tıbbi": 28194,
  "iyiz": 28195,
  "barın": 28196,
  "özen": 28197,
  "yapabilirsiniz": 28198,
  "imler": 28199,
  "ilgilen": 28200,
  "kurumu": 28201,
  "yıka": 28202,
  "tablo": 28203,
  "ilçesine": 28204,
  "____": 28205,
  "leşme": 28206,
  "ges": 28207,
  "londra": 28208,
  "rekabet": 28209,
  "öden": 28210,
  "dılar": 28211,
  "ayakkabı": 28212,
  "ulmuş": 28213,
  "giden": 28214,
  "yılda": 28215,
  "yahu": 28216,
  "günün": 28217,
  "ihlal": 28218,
  "cunun": 28219,
  "sınıflandır": 28220,
  "jı": 28221,
  "görülen": 28222,
  "ceğim": 28223,
  "iyordu": 28224,
  "gibiyim": 28225,
  "mesiyle": 28226,
  "ğinde": 28227,
  "yıp": 28228,
  "dâ": 28229,
  "mül": 28230,
  "ihra": 28231,
  "sonuçlar": 28232,
  "eh": 28233,
  "denet": 28234,
  "uygulamaları": 28235,
  "ükle": 28236,
  "ajans": 28237,
  "çey": 28238,
  "1998": 28239,
  "laşa": 28240,
  "noktası": 28241,
  "mr": 28242,
  "bine": 28243,
  "kullanan": 28244,
  "low": 28245,
  "sinir": 28246,
  "borsa": 28247,
  "verecek": 28248,
  "misafir": 28249,
  "firması": 28250,
  "konular": 28251,
  "çat": 28252,
  "bulma": 28253,
  "85": 28254,
  "avustr": 28255,
  "ulaşabilirsiniz": 28256,
  "içeriği": 28257,
  "yapıldı": 28258,
  "aittir": 28259,
  "seçeneği": 28260,
  "tions": 28261,
  "yola": 28262,
  "okun": 28263,
  "sıcaklık": 28264,
  "olağan": 28265,
  "usul": 28266,
  "güzellik": 28267,
  "cur": 28268,
  "doğrult": 28269,
  "tüket": 28270,
  "sepete": 28271,
  "edip": 28272,
  "üyeler": 28273,
  "kısım": 28274,
  "plastik": 28275,
  "rit": 28276,
  "alıcı": 28277,
  "mülk": 28278,
  "taleb": 28279,
  "iv": 28280,
  "sunan": 28281,
  "müdürü": 28282,
  "width": 28283,
  "dans": 28284,
  "asistanı": 28285,
  "hasan": 28286,
  "fatih": 28287,
  "satır": 28288,
  "düşt": 28289,
  "binlerce": 28290,
  "fas": 28291,
  "hisar": 28292,
  "merdiven": 28293,
  "onur": 28294,
  "fayda": 28295,
  "ceğiz": 28296,
  "çağı": 28297,
  "dığım": 28298,
  "teri": 28299,
  "hazırlık": 28300,
  "ğında": 28301,
  "doğa": 28302,
  "metro": 28303,
  "ate": 28304,
  "duyar": 28305,
  "ediyoruz": 28306,
  "bayram": 28307,
  "tabl": 28308,
  "fabri": 28309,
  "mektu": 28310,
  "sorunları": 28311,
  "reti": 28312,
  "poziti": 28313,
  "yaklaş": 28314,
  "los": 28315,
  "kedi": 28316,
  "önceden": 28317,
  "bom": 28318,
  "jpg": 28319,
  "lea": 28320,
  "takdirde": 28321,
  "insanın": 28322,
  "yöntemi": 28323,
  "renkli": 28324,
  "vere": 28325,
  "nokt": 28326,
  "fit": 28327,
  "cüml": 28328,
  "ağırlık": 28329,
  "sov": 28330,
  "desteği": 28331,
  "depola": 28332,
  "black": 28333,
  "zamanı": 28334,
  "72": 28335,
  "konuştu": 28336,
  "deliyim": 28337,
  "ers": 28338,
  "besi": 28339,
  "bt": 28340,
  "röp": 28341,
  "balıkesir": 28342,
  "tedar": 28343,
  "data": 28344,
  "bayrak": 28345,
  "deliyimgibiyim": 28346,
  "kısıt": 28347,
  "şehrin": 28348,
  "görünüyor": 28349,
  "genin": 28350,
  "dırma": 28351,
  "versiyon": 28352,
  "taksi": 28353,
  "akses": 28354,
  "spa": 28355,
  "ğinin": 28356,
  "kullanıcılar": 28357,
  "peygam": 28358,
  "psi": 28359,
  "rüz": 28360,
  "emir": 28361,
  "röporta": 28362,
  "dayanıklı": 28363,
  "hakkımızda": 28364,
  "div": 28365,
  "bazıları": 28366,
  "hızla": 28367,
  "led": 28368,
  "adaki": 28369,
  "meyecek": 28370,
  "ire": 28371,
  "muham": 28372,
  "dığına": 28373,
  "amaçlı": 28374,
  "havuz": 28375,
  "!!": 28376,
  "elazı": 28377,
  "bakımı": 28378,
  "azalt": 28379,
  "hing": 28380,
  "etkileşim": 28381,
  "olgun": 28382,
  "yürütül": 28383,
  "super": 28384,
  "yenilik": 28385,
  "79": 28386,
  "oturum": 28387,
  "verin": 28388,
  "vs": 28389,
  "bi̇": 28390,
  "yüzü": 28391,
  "manıza": 28392,
  "aut": 28393,
  "yetenek": 28394,
  "ömer": 28395,
  "olmaktadır": 28396,
  "herkesin": 28397,
  "nefes": 28398,
  "toz": 28399,
  "i̇dar": 28400,
  "berg": 28401,
  "kelimeler": 28402,
  "ann": 28403,
  "astr": 28404,
  "doğrultusunda": 28405,
  "tasarlan": 28406,
  "sport": 28407,
  "hekim": 28408,
  "evlilik": 28409,
  "medyum": 28410,
  "kısaca": 28411,
  "çıkara": 28412,
  "kv": 28413,
  "belediy": 28414,
  "yakalan": 28415,
  "i̇nceleme": 28416,
  "karşısında": 28417,
  "dahi": 28418,
  "sing": 28419,
  "manisa": 28420,
  "”,": 28421,
  "nesil": 28422,
  "yedek": 28423,
  "lerimizi": 28424,
  "verimli": 28425,
  "yetkil": 28426,
  "alabilirsiniz": 28427,
  "cs": 28428,
  "sızlık": 28429,
  "iii": 28430,
  "layınız": 28431,
  "olimpi": 28432,
  "antik": 28433,
  "konser": 28434,
  "toplumsal": 28435,
  "tepki": 28436,
  "ks": 28437,
  "tanış": 28438,
  "çalışı": 28439,
  "çalışması": 28440,
  "köşe": 28441,
  "tional": 28442,
  "süs": 28443,
  "pozitif": 28444,
  "güçlendir": 28445,
  "geçici": 28446,
  "futbolcular": 28447,
  "kolaylaştır": 28448,
  "ermen": 28449,
  "otobüs": 28450,
  "bitcoin": 28451,
  "modeli": 28452,
  "geor": 28453,
  "hali": 28454,
  "işlen": 28455,
  "önlem": 28456,
  "mağaza": 28457,
  "imza": 28458,
  "deneyimi": 28459,
  "cerra": 28460,
  "ong": 28461,
  "76": 28462,
  "döndür": 28463,
  "verici": 28464,
  "kullanabilir": 28465,
  "görünüm": 28466,
  "verilmiştir": 28467,
  "lou": 28468,
  "insanları": 28469,
  "almaya": 28470,
  "400": 28471,
  "istiyorsanız": 28472,
  "korumak": 28473,
  "iyel": 28474,
  "kilit": 28475,
  "kurban": 28476,
  "kapsamlı": 28477,
  "birisi": 28478,
  "yumur": 28479,
  "yapacak": 28480,
  "alıp": 28481,
  "boyu": 28482,
  "geleceğ": 28483,
  "arken": 28484,
  "ism": 28485,
  "bilirler": 28486,
  "arna": 28487,
  "anlamda": 28488,
  "çekim": 28489,
  "verim": 28490,
  "stat": 28491,
  "bilirim": 28492,
  "pişir": 28493,
  "lanabilir": 28494,
  "kılıç": 28495,
  "dilek": 28496,
  "abone": 28497,
  "gue": 28498,
  "kıy": 28499,
  "protein": 28500,
  "videolar": 28501,
  "suna": 28502,
  "view": 28503,
  "famil": 28504,
  "kullanın": 28505,
  "düğünü": 28506,
  "cra": 28507,
  "comments": 28508,
  "landığı": 28509,
  "biçim": 28510,
  "kolayca": 28511,
  "kapısı": 28512,
  "meyve": 28513,
  "i̇y": 28514,
  "vali": 28515,
  "sigara": 28516,
  "vi̇": 28517,
  "ruk": 28518,
  "memiz": 28519,
  "kaçır": 28520,
  "usta": 28521,
  "gerekçe": 28522,
  "değerlendirme": 28523,
  "maruz": 28524,
  "i̇srail": 28525,
  "website": 28526,
  "sorus": 28527,
  "hayir": 28528,
  "asit": 28529,
  "çoğunluk": 28530,
  "okuyun": 28531,
  "kilis": 28532,
  "bg": 28533,
  "elazığ": 28534,
  "hz": 28535,
  "imal": 28536,
  "beyin": 28537,
  "maraş": 28538,
  "çalıştır": 28539,
  "havalim": 28540,
  "aydınlatma": 28541,
  "şik": 28542,
  "ansı": 28543,
  "krallık": 28544,
  "aksesuar": 28545,
  "etmiştir": 28546,
  "yürür": 28547,
  "kurab": 28548,
  "cia": 28549,
  "hikayeleri": 28550,
  "peygamber": 28551,
  "rakam": 28552,
  "üstün": 28553,
  "teşem": 28554,
  "yaralan": 28555,
  "benzersiz": 28556,
  "anlamak": 28557,
  "dönemi": 28558,
  "yaparken": 28559,
  "william": 28560,
  "aksi": 28561,
  "muhteşem": 28562,
  "tasarru": 28563,
  "çalışır": 28564,
  "belge": 28565,
  "oyuncular": 28566,
  "geldiği": 28567,
  "dıklarını": 28568,
  "jet": 28569,
  "burg": 28570,
  "virüs": 28571,
  "dey": 28572,
  "tedbir": 28573,
  "steri": 28574,
  "ederken": 28575,
  "i̇şlet": 28576,
  "öldürül": 28577,
  "sitenin": 28578,
  "yılmaz": 28579,
  "kürt": 28580,
  "yukarıda": 28581,
  "namaz": 28582,
  "izmir": 28583,
  "idari": 28584,
  "baycan": 28585,
  "fc": 28586,
  "rezer": 28587,
  "1996": 28588,
  "cıları": 28589,
  "katıldı": 28590,
  "pasa": 28591,
  "soft": 28592,
  "maması": 28593,
  "yanıtlasil": 28594,
  "yetişkin": 28595,
  "hapis": 28596,
  "hakim": 28597,
  "etkileye": 28598,
  "düşünüyor": 28599,
  "hri": 28600,
  "text": 28601,
  "temin": 28602,
  "sitesinin": 28603,
  "yayımlanmayacak": 28604,
  "denetim": 28605,
  "eğlence": 28606,
  "pur": 28607,
  "uyumlu": 28608,
  "\".": 28609,
  "yoz": 28610,
  "ente": 28611,
  "eleman": 28612,
  "ters": 28613,
  "izleme": 28614,
  "kartal": 28615,
  "61": 28616,
  "soya": 28617,
  "sovyet": 28618,
  "bilgilere": 28619,
  "ık": 28620,
  "yaklaşım": 28621,
  "yalan": 28622,
  "alıntı": 28623,
  "egzer": 28624,
  "yapısı": 28625,
  "dolaşı": 28626,
  "olimpiyat": 28627,
  "korsan": 28628,
  "katal": 28629,
  "akış": 28630,
  "world": 28631,
  "89": 28632,
  "yürüy": 28633,
  "incelem": 28634,
  "teşekkürler": 28635,
  "ano": 28636,
  "tedarik": 28637,
  "sıvı": 28638,
  "kullanılması": 28639,
  "shop": 28640,
  "zamanlar": 28641,
  "trend": 28642,
  "kusur": 28643,
  "(-": 28644,
  "bağır": 28645,
  "buradan": 28646,
  "unca": 28647,
  "isiniz": 28648,
  "air": 28649,
  "düşman": 28650,
  "ülkeler": 28651,
  "sevgili": 28652,
  "alınması": 28653,
  "endi": 28654,
  "from": 28655,
  "wood": 28656,
  "1995": 28657,
  "devrim": 28658,
  "diniz": 28659,
  "vic": 28660,
  "eğlenceli": 28661,
  "yabilirsiniz": 28662,
  "maddesi": 28663,
  "giren": 28664,
  "udi": 28665,
  "ence": 28666,
  "stır": 28667,
  "teslimat": 28668,
  "vermektedir": 28669,
  "selam": 28670,
  "oyunlar": 28671,
  "ekib": 28672,
  "tamiri": 28673,
  "hastalığı": 28674,
  "şanlıurfa": 28675,
  "gali": 28676,
  "i̇ade": 28677,
  "faydalan": 28678,
  "seksi": 28679,
  "çıkıyor": 28680,
  "edirne": 28681,
  "lamı": 28682,
  "cağına": 28683,
  "köprü": 28684,
  "yapılmış": 28685,
  "tasarımı": 28686,
  "network": 28687,
  "röportaj": 28688,
  "tum": 28689,
  "villa": 28690,
  "vizyon": 28691,
  "dilen": 28692,
  "rey": 28693,
  "kork": 28694,
  "beşiktaş": 28695,
  "isimli": 28696,
  "yükümlül": 28697,
  "uyku": 28698,
  "liler": 28699,
  "mesaf": 28700,
  "montaj": 28701,
  "ung": 28702,
  "faiz": 28703,
  "verildi": 28704,
  "angel": 28705,
  "büy": 28706,
  "yakala": 28707,
  "lev": 28708,
  "derg": 28709,
  "özetle": 28710,
  "işleme": 28711,
  "1994": 28712,
  "ahşap": 28713,
  "japonya": 28714,
  "hp": 28715,
  "coğrafya": 28716,
  "işaretlenmiş": 28717,
  "kullanıcıların": 28718,
  "1980": 28719,
  "tokat": 28720,
  "vermeye": 28721,
  "örneği": 28722,
  "kiralık": 28723,
  "62": 28724,
  "lum": 28725,
  "koor": 28726,
  "paul": 28727,
  "öğrenme": 28728,
  "ismi": 28729,
  "belirlen": 28730,
  "bilinç": 28731,
  "ilmesine": 28732,
  "başlat": 28733,
  "inter": 28734,
  "larımızın": 28735,
  "kanada": 28736,
  "apple": 28737,
  "oyu": 28738,
  "ang": 28739,
  "teb": 28740,
  "sayın": 28741,
  "batman": 28742,
  "evrim": 28743,
  "vurgula": 28744,
  "chris": 28745,
  "malarına": 28746,
  "jer": 28747,
  "yaratıcı": 28748,
  "haft": 28749,
  "teor": 28750,
  "rehberi": 28751,
  "diğinden": 28752,
  "peri": 28753,
  "giderek": 28754,
  "ürünlerin": 28755,
  "diklerini": 28756,
  "azerbaycan": 28757,
  "kıyafet": 28758,
  "köken": 28759,
  "muyor": 28760,
  "87": 28761,
  "ölü": 28762,
  "tercü": 28763,
  "düzce": 28764,
  "chan": 28765,
  "ödem": 28766,
  "cay": 28767,
  "çet": 28768,
  "gelişmiş": 28769,
  "kitaplar": 28770,
  "izleyi": 28771,
  "gezi": 28772,
  "petrol": 28773,
  "tacak": 28774,
  "oluşur": 28775,
  "arız": 28776,
  "eliği": 28777,
  "düzelt": 28778,
  "klima": 28779,
  "değişken": 28780,
  "canlandır": 28781,
  "lazer": 28782,
  "artı": 28783,
  "mun": 28784,
  "yede": 28785,
  "belg": 28786,
  "kumar": 28787,
  "oid": 28788,
  "şunu": 28789,
  "düzenlen": 28790,
  "stres": 28791,
  "kazanan": 28792,
  "brahim": 28793,
  "bakınız": 28794,
  "edilmektedir": 28795,
  "81": 28796,
  "niha": 28797,
  "yolcu": 28798,
  "kaydı": 28799,
  "sayısını": 28800,
  "uyarınca": 28801,
  "işaretlenmişlerdir": 28802,
  "cial": 28803,
  "milletvekili": 28804,
  "denin": 28805,
  "monu": 28806,
  "uluyor": 28807,
  "suret": 28808,
  "eyle": 28809,
  "içe": 28810,
  "sporcu": 28811,
  "maksim": 28812,
  "mero": 28813,
  "bina": 28814,
  "82": 28815,
  "ime": 28816,
  "şehit": 28817,
  "tho": 28818,
  "david": 28819,
  "anlamı": 28820,
  "1992": 28821,
  "yılından": 28822,
  "memnuniyet": 28823,
  "bölümde": 28824,
  "arab": 28825,
  "ilmesini": 28826,
  "gerçe": 28827,
  "lıkta": 28828,
  "alay": 28829,
  "miz": 28830,
  "çocuğun": 28831,
  "mag": 28832,
  "ekipman": 28833,
  "okur": 28834,
  "bende": 28835,
  "ilme": 28836,
  "larca": 28837,
  "parta": 28838,
  "çeviri": 28839,
  "kaynakları": 28840,
  "kombi": 28841,
  "dünyaya": 28842,
  "geliştirme": 28843,
  "indirim": 28844,
  "ederiz": 28845,
  "açıkladı": 28846,
  "türleri": 28847,
  "bayra": 28848,
  "mevcuttur": 28849,
  "tazmin": 28850,
  "mahkemesi": 28851,
  "cos": 28852,
  "hile": 28853,
  "olmalı": 28854,
  "beğenbeğen": 28855,
  "sic": 28856,
  "isinden": 28857,
  "zafer": 28858,
  "etmeyi": 28859,
  "dokun": 28860,
  "zincir": 28861,
  "macer": 28862,
  "işte": 28863,
  "kars": 28864,
  "di̇r": 28865,
  "gösteri": 28866,
  "sunul": 28867,
  "kulübü": 28868,
  "kenti": 28869,
  "yaşı": 28870,
  "alex": 28871,
  "referans": 28872,
  "ino": 28873,
  "gitti": 28874,
  "yunanistan": 28875,
  "sembol": 28876,
  "cre": 28877,
  "sebebiyle": 28878,
  "i̇spanya": 28879,
  "zirve": 28880,
  "vara": 28881,
  "salon": 28882,
  "gençlik": 28883,
  "yaprak": 28884,
  "sup": 28885,
  "yolları": 28886,
  "rul": 28887,
  "atık": 28888,
  "copy": 28889,
  "çerçevesinde": 28890,
  "ulaştır": 28891,
  "boyutu": 28892,
  "lok": 28893,
  "çıl": 28894,
  "görüntül": 28895,
  "pata": 28896,
  "takı": 28897,
  "jim": 28898,
  "kullanabilirsiniz": 28899,
  "finansal": 28900,
  "\"]": 28901,
  "büny": 28902,
  "maçı": 28903,
  "emniyet": 28904,
  "put": 28905,
  "tılan": 28906,
  "yakıt": 28907,
  "zamanlarda": 28908,
  "86": 28909,
  "kala": 28910,
  "yarım": 28911,
  "anlayış": 28912,
  "çekir": 28913,
  "sağlayıcı": 28914,
  "bölgede": 28915,
  "hael": 28916,
  "çocukların": 28917,
  "bilgilerin": 28918,
  "enstit": 28919,
  "sunuyor": 28920,
  "vakfı": 28921,
  "ese": 28922,
  "kayb": 28923,
  "yazılan": 28924,
  ":)": 28925,
  "tahya": 28926,
  "feth": 28927,
  "ebevey": 28928,
  "glo": 28929,
  "attı": 28930,
  "tiğimiz": 28931,
  "karşıya": 28932,
  "fiil": 28933,
  "1993": 28934,
  "avustralya": 28935,
  "bilet": 28936,
  "çisi": 28937,
  "enfeksiyon": 28938,
  "mezar": 28939,
  "elendir": 28940,
  "incelen": 28941,
  "şuyor": 28942,
  "120": 28943,
  "die": 28944,
  "genişlet": 28945,
  "çalışa": 28946,
  "ülkede": 28947,
  "karaman": 28948,
  "taksit": 28949,
  "platformu": 28950,
  "akdeniz": 28951,
  "kullanıcının": 28952,
  "rekor": 28953,
  "söyleye": 28954,
  "yör": 28955,
  "pınar": 28956,
  "muk": 28957,
  "gas": 28958,
  "fenerbahçe": 28959,
  "tbmm": 28960,
  "hastalıkları": 28961,
  "geze": 28962,
  "poker": 28963,
  "evler": 28964,
  "manşet": 28965,
  "ami": 28966,
  "akademik": 28967,
  "işler": 28968,
  "doğdu": 28969,
  "bonusları": 28970,
  "74": 28971,
  "parlak": 28972,
  "yüzyılda": 28973,
  "faydalı": 28974,
  "üretimi": 28975,
  "dae": 28976,
  "okyan": 28977,
  "kadınların": 28978,
  "sağlanan": 28979,
  "öte": 28980,
  "kele": 28981,
  "tarafı": 28982,
  "71": 28983,
  "düzenleme": 28984,
  "akl": 28985,
  "düştü": 28986,
  "adıyla": 28987,
  "box": 28988,
  "olabilirolabilir": 28989,
  "olabilirolabilirmero": 28990,
  "bölün": 28991,
  "turnu": 28992,
  "i̇nşa": 28993,
  "şehirler": 28994,
  "deprem": 28995,
  "mekteyiz": 28996,
  "lmaz": 28997,
  "soğ": 28998,
  "amas": 28999,
  "açtı": 29000,
  "vize": 29001,
  "yemekleri": 29002,
  "istih": 29003,
  "abon": 29004,
  "tol": 29005,
  "stü": 29006,
  "yenin": 29007,
  "cılığı": 29008,
  "kullanır": 29009,
  "ihtim": 29010,
  "kullanılarak": 29011,
  "taah": 29012,
  "ng": 29013,
  "çeken": 29014,
  "terapi": 29015,
  "çel": 29016,
  "bildirim": 29017,
  "duygusal": 29018,
  "haya": 29019,
  "telif": 29020,
  "asistanısınız": 29021,
  "olduğunda": 29022,
  "james": 29023,
  "oldukları": 29024,
  "dolay": 29025,
  "miktarda": 29026,
  "sky": 29027,
  "unutmayın": 29028,
  "pm": 29029,
  "merkezine": 29030,
  "belgesi": 29031,
  "michael": 29032,
  "itibarı": 29033,
  "açıdan": 29034,
  "tabii": 29035,
  "i̇ler": 29036,
  "asans": 29037,
  "ref": 29038,
  "adında": 29039,
  "legal": 29040,
  "toptan": 29041,
  "kadının": 29042,
  "salı": 29043,
  "rut": 29044,
  "birbirine": 29045,
  "mevzuat": 29046,
  "jul": 29047,
  "pazartesi": 29048,
  "alardan": 29049,
  "aran": 29050,
  "etkiler": 29051,
  "makla": 29052,
  "açıklamada": 29053,
  "herkese": 29054,
  "sül": 29055,
  "[\"": 29056,
  "şaşır": 29057,
  "hanım": 29058,
  "adil": 29059,
  "bgcolor": 29060,
  "hollanda": 29061,
  "kullanılmaktadır": 29062,
  "numaralı": 29063,
  "sızın": 29064,
  "gözden": 29065,
  "alfa": 29066,
  "öykü": 29067,
  "kalkın": 29068,
  "dede": 29069,
  "annesi": 29070,
  "cümlede": 29071,
  "nüfusu": 29072,
  "function": 29073,
  "ortamda": 29074,
  "şeyin": 29075,
  "areti": 29076,
  "ücreti": 29077,
  "vermiş": 29078,
  "künye": 29079,
  "84": 29080,
  "alımı": 29081,
  "elle": 29082,
  "pul": 29083,
  "muhammed": 29084,
  "drum": 29085,
  "yolculuk": 29086,
  "hastalı": 29087,
  "sha": 29088,
  "tale": 29089,
  "bez": 29090,
  "ilişkiler": 29091,
  "hücre": 29092,
  "lardaki": 29093,
  "boğaz": 29094,
  "hone": 29095,
  "taze": 29096,
  "gerektiği": 29097,
  "olduğumuz": 29098,
  "1991": 29099,
  "şeri": 29100,
  "satan": 29101,
  "galatas": 29102,
  "danışmanlık": 29103,
  "univer": 29104,
  "taşıyan": 29105,
  "salonu": 29106,
  "terk": 29107,
  "dikkatli": 29108,
  "davran": 29109,
  "dolan": 29110,
  "ayn": 29111,
  "here": 29112,
  "kullanıla": 29113,
  "itiraz": 29114,
  "down": 29115,
  "restoran": 29116,
  "galatasaray": 29117,
  "yahut": 29118,
  "eleme": 29119,
  "atom": 29120,
  "arac": 29121,
  "1985": 29122,
  "sorunsuz": 29123,
  "etkileri": 29124,
  "yumuşak": 29125,
  "maksimum": 29126,
  "xy": 29127,
  "hastanesi": 29128,
  "cok": 29129,
  "yöntemleri": 29130,
  "modül": 29131,
  "kâr": 29132,
  "ambala": 29133,
  "söyler": 29134,
  "ling": 29135,
  "tüketi": 29136,
  "almıştır": 29137,
  "anon": 29138,
  "show": 29139,
  "brik": 29140,
  "ağacı": 29141,
  "malzemeler": 29142,
  "arkadaşlar": 29143,
  "düşünc": 29144,
  "çorum": 29145,
  "tören": 29146,
  "\")": 29147,
  "çekmek": 29148,
  "tabak": 29149,
  "şirketin": 29150,
  "hayran": 29151,
  "zo": 29152,
  "bedel": 29153,
  "gri": 29154,
  "kari": 29155,
  "bizimle": 29156,
  "şunları": 29157,
  "senar": 29158,
  "73": 29159,
  "kimya": 29160,
  "endiş": 29161,
  "mobilya": 29162,
  "xbet": 29163,
  "kamera": 29164,
  "husus": 29165,
  "çizgi": 29166,
  "zemin": 29167,
  "dizisi": 29168,
  "ekibi": 29169,
  "burun": 29170,
  "derecede": 29171,
  "diğine": 29172,
  "menizi": 29173,
  "pür": 29174,
  "kasta": 29175,
  "bekliyor": 29176,
  "kova": 29177,
  "maddi": 29178,
  "şampiyonası": 29179,
  "sub": 29180,
  "bülten": 29181,
  "erotik": 29182,
  "taahhü": 29183,
  "çim": 29184,
  "siteye": 29185,
  "madığı": 29186,
  "::": 29187,
  "iklim": 29188,
  "iyo": 29189,
  "covid": 29190,
  "bebe": 29191,
  "özellikler": 29192,
  "trum": 29193,
  "tive": 29194,
  "müsa": 29195,
  "devleti": 29196,
  "kazanı": 29197,
  "gerekç": 29198,
  "gelişmeler": 29199,
  "kendilerini": 29200,
  "çikola": 29201,
  "sesi": 29202,
  "izleye": 29203,
  "sto": 29204,
  "yaşadığı": 29205,
  "uygul": 29206,
  "amı": 29207,
  "beylik": 29208,
  "iphone": 29209,
  "alarından": 29210,
  "mümkündür": 29211,
  "şüph": 29212,
  "sekiz": 29213,
  "i̇brahim": 29214,
  "çeşitleri": 29215,
  "hesabı": 29216,
  "şirketleri": 29217,
  "eskort": 29218,
  "oluşum": 29219,
  "kalites": 29220,
  "uzu": 29221,
  "tran": 29222,
  "işç": 29223,
  "ebeveyn": 29224,
  "başlıyor": 29225,
  "sonucuna": 29226,
  "ydi": 29227,
  "><": 29228,
  "duyg": 29229,
  "dd": 29230,
  "guldak": 29231,
  "kelimeleri": 29232,
  "çam": 29233,
  "ilmez": 29234,
  "url": 29235,
  "haberi": 29236,
  "esun": 29237,
  "pinter": 29238,
  "kendilerine": 29239,
  "ettiğiniz": 29240,
  "çoğunlukla": 29241,
  "başbakan": 29242,
  "olabil": 29243,
  "seven": 29244,
  "i̇lanları": 29245,
  "öf": 29246,
  "mide": 29247,
  "zonguldak": 29248,
  "pier": 29249,
  "birbirinden": 29250,
  "olacağını": 29251,
  "micro": 29252,
  "i̇sveç": 29253,
  "yumurta": 29254,
  "doma": 29255,
  "format": 29256,
  "lazım": 29257,
  "oluşturur": 29258,
  "ti̇": 29259,
  "adamı": 29260,
  "seçeneğ": 29261,
  "başlı": 29262,
  "uşak": 29263,
  "kasyon": 29264,
  "grubun": 29265,
  "uçuş": 29266,
  "görür": 29267,
  "izlemek": 29268,
  "ekmek": 29269,
  "yemeği": 29270,
  "indi": 29271,
  "terim": 29272,
  "but": 29273,
  "koordin": 29274,
  "ediliyor": 29275,
  "giresun": 29276,
  "kilise": 29277,
  "tis": 29278,
  "dördün": 29279,
  "blok": 29280,
  "bulabilirsiniz": 29281,
  "paragraf": 29282,
  "mardin": 29283,
  "ndeki": 29284,
  "alkol": 29285,
  "atmos": 29286,
  "psikolojik": 29287,
  "ars": 29288,
  "olanlar": 29289,
  "rakip": 29290,
  "next": 29291,
  "copyright": 29292,
  "java": 29293,
  "sco": 29294,
  "muhafaz": 29295,
  "sebebi": 29296,
  "mekaniz": 29297,
  "süren": 29298,
  "bs": 29299,
  "elektrikli": 29300,
  "çözün": 29301,
  "ingir": 29302,
  "kütahya": 29303,
  "ödülleri": 29304,
  "sorgu": 29305,
  "92": 29306,
  "terek": 29307,
  "cookies": 29308,
  "sandal": 29309,
  "tegor": 29310,
  "şöyledir": 29311,
  "sonsuz": 29312,
  "döngü": 29313,
  "ören": 29314,
  "seyin": 29315,
  "ous": 29316,
  "kurabiye": 29317,
  "melik": 29318,
  "çerezleri": 29319,
  "parmak": 29320,
  "kastamonu": 29321,
  "koleksiyon": 29322,
  "ilinin": 29323,
  "83": 29324,
  "blu": 29325,
  "âr": 29326,
  "ırım": 29327,
  "kuy": 29328,
  "milliyet": 29329,
  "süley": 29330,
  "adımları": 29331,
  "serisi": 29332,
  "ğına": 29333,
  "tekir": 29334,
  "küm": 29335,
  "ölenler": 29336,
  "çalıştı": 29337,
  "daire": 29338,
  "fatur": 29339,
  "ziya": 29340,
  "rüya": 29341,
  "pdf": 29342,
  "1970": 29343,
  "telefonu": 29344,
  "sinyal": 29345,
  "yabilir": 29346,
  "beli": 29347,
  "emre": 29348,
  "opt": 29349,
  "eşi": 29350,
  "dt": 29351,
  "hâl": 29352,
  "jon": 29353,
  "ikisi": 29354,
  "nükle": 29355,
  "sürdürülebilir": 29356,
  "sayede": 29357,
  "analizi": 29358,
  "iken": 29359,
  "komün": 29360,
  "bayanlar": 29361,
  "93": 29362,
  "cn": 29363,
  "yürüyüş": 29364,
  "pinterest": 29365,
  "sör": 29366,
  "bodrum": 29367,
  "burcu": 29368,
  "yıkama": 29369,
  "kabl": 29370,
  "depolama": 29371,
  "vanın": 29372,
  "sunar": 29373,
  "forex": 29374,
  "ailesi": 29375,
  "cle": 29376,
  "bağımlı": 29377,
  "altyazılı": 29378,
  "??": 29379,
  "aslan": 29380,
  "peyn": 29381,
  "getiren": 29382,
  "uğur": 29383,
  "cinsiyet": 29384,
  "kişilere": 29385,
  "inanç": 29386,
  "düzeyde": 29387,
  "fri": 29388,
  "cap": 29389,
  "şüphe": 29390,
  "ülkemizde": 29391,
  "inşaat": 29392,
  "duyuru": 29393,
  "düzü": 29394,
  "planı": 29395,
  "aley": 29396,
  "göm": 29397,
  "testi": 29398,
  "cro": 29399,
  "parla": 29400,
  "ğlu": 29401,
  "ea": 29402,
  "aktiv": 29403,
  "hakkındaki": 29404,
  "yayıl": 29405,
  "şıklık": 29406,
  "istasyon": 29407,
  "anka": 29408,
  "cast": 29409,
  "tılması": 29410,
  "94": 29411,
  "frac": 29412,
  "meme": 29413,
  "iştir": 29414,
  "bulgar": 29415,
  "kriter": 29416,
  "mater": 29417,
  "süleyman": 29418,
  "ameliyat": 29419,
  "belirten": 29420,
  "başa": 29421,
  "biber": 29422,
  "yken": 29423,
  "açılış": 29424,
  "asıyla": 29425,
  "emlak": 29426,
  "fav": 29427,
  "ağız": 29428,
  "bm": 29429,
  "memesi": 29430,
  "ege": 29431,
  "açılan": 29432,
  "cumar": 29433,
  "seçimi": 29434,
  "cileri": 29435,
  "kaları": 29436,
  "rize": 29437,
  "beton": 29438,
  "tt": 29439,
  "kuvvetleri": 29440,
  "güncelleme": 29441,
  "fah": 29442,
  "müdahal": 29443,
  "avustur": 29444,
  "egzersiz": 29445,
  "şamba": 29446,
  "ls": 29447,
  "tesisat": 29448,
  "mediğini": 29449,
  "tit": 29450,
  "artvin": 29451,
  "kalır": 29452,
  "olik": 29453,
  "buldu": 29454,
  "kos": 29455,
  "familya": 29456,
  "ال": 29457,
  "i̇mparatorluğu": 29458,
  "kararlı": 29459,
  "kriz": 29460,
  "mantar": 29461,
  "alındı": 29462,
  "cumartesi": 29463,
  "onunla": 29464,
  "ekleyin": 29465,
  "kov": 29466,
  "i̇laç": 29467,
  "dördüncü": 29468,
  "real": 29469,
  "general": 29470,
  "gördü": 29471,
  "asının": 29472,
  "hint": 29473,
  "aktivi": 29474,
  "sevgi": 29475,
  "esn": 29476,
  "kurs": 29477,
  "kalab": 29478,
  "gecik": 29479,
  "nel": 29480,
  "özgürlük": 29481,
  "cus": 29482,
  "araştırmalar": 29483,
  "aler": 29484,
  "tutu": 29485,
  "cuk": 29486,
  "cr": 29487,
  "bunlardan": 29488,
  "randev": 29489,
  "algor": 29490,
  "yakası": 29491,
  "gb": 29492,
  "getirmek": 29493,
  "demokratik": 29494,
  "organik": 29495,
  "pel": 29496,
  "arch": 29497,
  "yorumu": 29498,
  "?”": 29499,
  "ああああああああ": 29500,
  "perşem": 29501,
  "iner": 29502,
  "diplo": 29503,
  "----------------": 29504,
  "ümran": 29505,
  "ramaz": 29506,
  "1989": 29507,
  "vah": 29508,
  "dıköy": 29509,
  "kaba": 29510,
  "oyuncuları": 29511,
  "dondur": 29512,
  "veriliyor": 29513,
  "hamil": 29514,
  "dünyası": 29515,
  "tıldı": 29516,
  "muştu": 29517,
  "mî": 29518,
  "olaylar": 29519,
  "kardeşi": 29520,
  "bitkiler": 29521,
  "kadıköy": 29522,
  "sonuna": 29523,
  "yerleşim": 29524,
  "oksijen": 29525,
  "hoşgel": 29526,
  "getirdi": 29527,
  "full": 29528,
  "algorit": 29529,
  "redde": 29530,
  "mızdan": 29531,
  "çarşamba": 29532,
  "sağlıyor": 29533,
  "kimdir": 29534,
  "ustası": 29535,
  "eşyalar": 29536,
  "yıkı": 29537,
  "öğrenim": 29538,
  "koltuğu": 29539,
  "damar": 29540,
  "göstermektedir": 29541,
  "amasya": 29542,
  "ulaşmak": 29543,
  "hiss": 29544,
  "ciz": 29545,
  "dostu": 29546,
  "anlamlı": 29547,
  "sürücü": 29548,
  "tekirdağ": 29549,
  "örtü": 29550,
  "perşembe": 29551,
  "satışı": 29552,
  "fla": 29553,
  "ig": 29554,
  "irak": 29555,
  "cını": 29556,
  "zim": 29557,
  "buğ": 29558,
  "leyin": 29559,
  "yil": 29560,
  "ğde": 29561,
  "isparta": 29562,
  "yazıları": 29563,
  "göğü": 29564,
  "keyifli": 29565,
  "string": 29566,
  "91": 29567,
  "bilgilendirme": 29568,
  "ebilecek": 29569,
  "efsan": 29570,
  "hatırla": 29571,
  "güne": 29572,
  "sitesine": 29573,
  "günler": 29574,
  "diğince": 29575,
  "festiv": 29576,
  "perde": 29577,
  "sürüm": 29578,
  "tanımlayın": 29579,
  "lerimizin": 29580,
  "silahlı": 29581,
  "konuk": 29582,
  "ice": 29583,
  "ales": 29584,
  "tartı": 29585,
  "bakımından": 29586,
  "kalk": 29587,
  "cıların": 29588,
  "festivali": 29589,
  "molekül": 29590,
  "biliyoruz": 29591,
  "büyüme": 29592,
  "enter": 29593,
  "boşluk": 29594,
  "görevde": 29595,
  "i̇nşaat": 29596,
  "başk": 29597,
  "fırın": 29598,
  "noktada": 29599,
  "rüzgar": 29600,
  "sara": 29601,
  "bölümünde": 29602,
  "tekiz": 29603,
  "önde": 29604,
  "müzesi": 29605,
  "lideri": 29606,
  "dalg": 29607,
  "ure": 29608,
  "raporu": 29609,
  "alp": 29610,
  "inti": 29611,
  "labor": 29612,
  "lendirme": 29613,
  "geliştirmek": 29614,
  "çocukları": 29615,
  "mana": 29616,
  "file": 29617,
  "lamış": 29618,
  "verebilir": 29619,
  "sorumluluğu": 29620,
  "antren": 29621,
  "shi": 29622,
  "lamalı": 29623,
  "çilingir": 29624,
  "dukları": 29625,
  "hang": 29626,
  "olabilirsiniz": 29627,
  "lamayı": 29628,
  "……": 29629,
  "donanım": 29630,
  "kurtul": 29631,
  "dekorasyon": 29632,
  "bilgiye": 29633,
  "asansör": 29634,
  "news": 29635,
  "sıklıkla": 29636,
  "adıyaman": 29637,
  "aksaray": 29638,
  "gelmiş": 29639,
  "ataşehir": 29640,
  "slo": 29641,
  "tablet": 29642,
  "şunlardır": 29643,
  "enflasyon": 29644,
  "öldü": 29645,
  "ite": 29646,
  "scrip": 29647,
  "=\"#": 29648,
  "dolaylı": 29649,
  "duruş": 29650,
  "sahipleri": 29651,
  "oranları": 29652,
  "hüseyin": 29653,
  "sitem": 29654,
  "olabilecek": 29655,
  "brezil": 29656,
  "klin": 29657,
  "ece": 29658,
  "adamın": 29659,
  "mamak": 29660,
  "göt": 29661,
  "örek": 29662,
  "tohum": 29663,
  "üretilen": 29664,
  "vit": 29665,
  "dalga": 29666,
  "esa": 29667,
  "civar": 29668,
  "melerini": 29669,
  "sisteminin": 29670,
  "havalimanı": 29671,
  "düzgün": 29672,
  "uygulana": 29673,
  "yorlar": 29674,
  "ald": 29675,
  "işgal": 29676,
  "imkanı": 29677,
  "ation": 29678,
  "rah": 29679,
  "evin": 29680,
  "alakalı": 29681,
  "kimi": 29682,
  "yaza": 29683,
  "ns": 29684,
  "atif": 29685,
  "latin": 29686,
  "emekli": 29687,
  "belirlenen": 29688,
  "üstüne": 29689,
  "madalya": 29690,
  "tedir": 29691,
  "tımı": 29692,
  "gizem": 29693,
  "maaş": 29694,
  ".'": 29695,
  "albümü": 29696,
  "festi": 29697,
  "arayan": 29698,
  "karanlık": 29699,
  "aldım": 29700,
  "kalitesi": 29701,
  "burdur": 29702,
  "that": 29703,
  "kasaba": 29704,
  "materyal": 29705,
  "seyir": 29706,
  "celeri": 29707,
  "zincan": 29708,
  "sınırsız": 29709,
  "gördüğ": 29710,
  "eld": 29711,
  "kanat": 29712,
  "banlı": 29713,
  "eczan": 29714,
  "şekli": 29715,
  "elan": 29716,
  "hediy": 29717,
  "üstelik": 29718,
  "].": 29719,
  "mağazası": 29720,
  "sadık": 29721,
  "miyorum": 29722,
  "elinde": 29723,
  "dinamik": 29724,
  "ordusu": 29725,
  "şarj": 29726,
  "portekiz": 29727,
  "halkı": 29728,
  "mutfa": 29729,
  "imkâ": 29730,
  "festival": 29731,
  "aktör": 29732,
  "muay": 29733,
  "dedim": 29734,
  "hire": 29735,
  "ciha": 29736,
  "now": 29737,
  "ideal": 29738,
  "sayıl": 29739,
  "istiyan": 29740,
  "cerrahi": 29741,
  "george": 29742,
  "1960": 29743,
  "aktarıl": 29744,
  "stre": 29745,
  "ilçesinde": 29746,
  "bacak": 29747,
  "köş": 29748,
  "bünyesinde": 29749,
  "oyuncusu": 29750,
  "basının": 29751,
  "makya": 29752,
  "detaylar": 29753,
  "medim": 29754,
  "kvkk": 29755,
  "ülen": 29756,
  "çapında": 29757,
  "yerden": 29758,
  "nişan": 29759,
  "hızı": 29760,
  "müdahale": 29761,
  "kaş": 29762,
  "fli": 29763,
  "duğumuz": 29764,
  "varsayı": 29765,
  "ondan": 29766,
  "esnasında": 29767,
  "cing": 29768,
  "\"]=>": 29769,
  "try": 29770,
  "denge": 29771,
  "fransızca": 29772,
  "yerleri": 29773,
  "uf": 29774,
  "betçi": 29775,
  "taahhüt": 29776,
  "ase": 29777,
  "müte": 29778,
  "bi̇l": 29779,
  "kariyeri": 29780,
  "e9e9e9": 29781,
  "spesi": 29782,
  "sorunlar": 29783,
  "insanı": 29784,
  "sw": 29785,
  "hazırlanan": 29786,
  "kayıtlı": 29787,
  "biyografi": 29788,
  "karadeniz": 29789,
  "çıkarmak": 29790,
  "melerine": 29791,
  "ago": 29792,
  "****": 29793,
  "heps": 29794,
  "ilişkili": 29795,
  "vefat": 29796,
  "ilginç": 29797,
  "hiper": 29798,
  "sessiz": 29799,
  "600": 29800,
  "istat": 29801,
  "hun": 29802,
  "meclisi": 29803,
  "yozgat": 29804,
  "rastgele": 29805,
  "süreli": 29806,
  "tc": 29807,
  "robert": 29808,
  "gezegen": 29809,
  "atlan": 29810,
  "icra": 29811,
  "yapmanız": 29812,
  "yaşar": 29813,
  "tech": 29814,
  "unuzu": 29815,
  "genetik": 29816,
  "bilmeniz": 29817,
  "çamaş": 29818,
  "mevsim": 29819,
  "107": 29820,
  "fos": 29821,
  "gereği": 29822,
  "lemeler": 29823,
  "göğüs": 29824,
  "sum": 29825,
  "tiğinde": 29826,
  "odaklan": 29827,
  "!”": 29828,
  "katılan": 29829,
  "öğrenmek": 29830,
  "sunmaktadır": 29831,
  "kemik": 29832,
  "kendinizi": 29833,
  "banyo": 29834,
  "tavsiy": 29835,
  "öneri": 29836,
  "bilinir": 29837,
  "halka": 29838,
  "bağlan": 29839,
  "lastik": 29840,
  "inceleye": 29841,
  "yolo": 29842,
  "li̇k": 29843,
  "konuyu": 29844,
  "doku": 29845,
  "sırt": 29846,
  "tutul": 29847,
  "masaj": 29848,
  "psikoloji": 29849,
  "izler": 29850,
  "yalova": 29851,
  "cezası": 29852,
  "çizg": 29853,
  "verilmesi": 29854,
  "tetik": 29855,
  "değişikliği": 29856,
  "araçları": 29857,
  "öğrencilerin": 29858,
  "lıp": 29859,
  "ettim": 29860,
  "}{": 29861,
  "sinop": 29862,
  "gari": 29863,
  "işin": 29864,
  "öv": 29865,
  "ektif": 29866,
  "saniye": 29867,
  "macar": 29868,
  "hot": 29869,
  "esna": 29870,
  "pasta": 29871,
  "kong": 29872,
  "süredir": 29873,
  "yetki": 29874,
  "verg": 29875,
  "değildi": 29876,
  "istin": 29877,
  "olmayı": 29878,
  "1988": 29879,
  "pendik": 29880,
  "isterseniz": 29881,
  "nez": 29882,
  "adak": 29883,
  "sertifi": 29884,
  "master": 29885,
  "layacak": 29886,
  "tarzı": 29887,
  "makul": 29888,
  "elb": 29889,
  "soruşturma": 29890,
  "alması": 29891,
  "ramazan": 29892,
  "varlığı": 29893,
  "yazan": 29894,
  "gah": 29895,
  "işbirliği": 29896,
  "yazdır": 29897,
  "bence": 29898,
  "sahib": 29899,
  "örgütü": 29900,
  "hon": 29901,
  "i̇ste": 29902,
  "sektöründe": 29903,
  "layıp": 29904,
  "free": 29905,
  "cho": 29906,
  "nün": 29907,
  "oluşturulan": 29908,
  "lens": 29909,
  "atma": 29910,
  "zorlu": 29911,
  "açıklamalar": 29912,
  "başlıklı": 29913,
  "cük": 29914,
  "adi": 29915,
  "itibarıyla": 29916,
  "ğının": 29917,
  "beylikdüzü": 29918,
  "atmosfer": 29919,
  "insanlara": 29920,
  "yayınlandı": 29921,
  "sekret": 29922,
  "maktır": 29923,
  "demektir": 29924,
  "açabilir": 29925,
  "tasarruf": 29926,
  "uyuştur": 29927,
  "ömür": 29928,
  "çeyrek": 29929,
  "değişimi": 29930,
  "viç": 29931,
  "ümin": 29932,
  "imum": 29933,
  "kahval": 29934,
  "erke": 29935,
  "düşünüyorum": 29936,
  "3d": 29937,
  "yönel": 29938,
  "hamur": 29939,
  "1987": 29940,
  "mutluluk": 29941,
  "değerini": 29942,
  "atu": 29943,
  "tarihleri": 29944,
  "ux": 29945,
  "günlerde": 29946,
  "gelmektedir": 29947,
  "ahlak": 29948,
  "yönünde": 29949,
  "ümraniye": 29950,
  "liy": 29951,
  "tehlikeli": 29952,
  "karın": 29953,
  "yaşamı": 29954,
  "sevgil": 29955,
  "dâhil": 29956,
  "erzincan": 29957,
  "sağlayacak": 29958,
  "yakından": 29959,
  "gini": 29960,
  "farkı": 29961,
  "ambalaj": 29962,
  "evinde": 29963,
  "tamamı": 29964,
  "kavra": 29965,
  "magazin": 29966,
  "nevşehir": 29967,
  "kitle": 29968,
  "digit": 29969,
  "hakem": 29970,
  "döndü": 29971,
  "nükleer": 29972,
  "olağanüstü": 29973,
  "evli": 29974,
  "ilerden": 29975,
  "genelinde": 29976,
  "tüz": 29977,
  "kesinti": 29978,
  "elli": 29979,
  "yapabilir": 29980,
  "ai": 29981,
  "muhar": 29982,
  "arzu": 29983,
  "kanunun": 29984,
  "nam": 29985,
  "konfor": 29986,
  "şahin": 29987,
  "mars": 29988,
  "oluşturan": 29989,
  "girişi": 29990,
  "gerilim": 29991,
  "rıza": 29992,
  "sahn": 29993,
  "programları": 29994,
  "reddet": 29995,
  "yapılmıştır": 29996,
  "ıldığında": 29997,
  "fabrika": 29998,
  "i̇ncele": 29999,
  "masın": 30000,
  "taşımacılık": 30001,
  "silin": 30002,
  "alana": 30003,
  "faydaları": 30004,
  "sürece": 30005,
  "class": 30006,
  "kahramanmaraş": 30007,
  "ess": 30008,
  "off": 30009,
  "sorg": 30010,
  "melisiniz": 30011,
  "i̇spanyolca": 30012,
  "pamuk": 30013,
  "kaybe": 30014,
  "''''": 30015,
  "ýn": 30016,
  "end": 30017,
  "cusu": 30018,
  "atöl": 30019,
  "yükselt": 30020,
  "yun": 30021,
  "yazma": 30022,
  "arasından": 30023,
  "sayfası": 30024,
  "vererek": 30025,
  "zihin": 30026,
  "i̇nsanlar": 30027,
  "birimi": 30028,
  "yıldırım": 30029,
  "maye": 30030,
  "bağış": 30031,
  "maların": 30032,
  "kızlar": 30033,
  "desen": 30034,
  "fikri": 30035,
  "jik": 30036,
  "wordpress": 30037,
  "komedi": 30038,
  "âyet": 30039,
  "gitar": 30040,
  "kurulum": 30041,
  "anonim": 30042,
  "projeler": 30043,
  "cis": 30044,
  "cc": 30045,
  "bozul": 30046,
  "ect": 30047,
  "forni": 30048,
  "utma": 30049,
  "çileri": 30050,
  "larınıza": 30051,
  "1986": 30052,
  "kapak": 30053,
  "şair": 30054,
  "yolda": 30055,
  "engelli": 30056,
  "kullanmaya": 30057,
  "diyal": 30058,
  "yuvar": 30059,
  "ğinden": 30060,
  "für": 30061,
  "nehir": 30062,
  "isteye": 30063,
  "pır": 30064,
  "oyunun": 30065,
  "dri": 30066,
  "belirtti": 30067,
  "spon": 30068,
  "piyasaya": 30069,
  "fıkra": 30070,
  "tutan": 30071,
  "çalıştığı": 30072,
  "sn": 30073,
  "kamyon": 30074,
  "kahvaltı": 30075,
  "ardahan": 30076,
  "kullanıyor": 30077,
  "masıdır": 30078,
  "patates": 30079,
  "sanki": 30080,
  "altındaki": 30081,
  "şeye": 30082,
  "olduğum": 30083,
  "kullandı": 30084,
  "bulur": 30085,
  "mektup": 30086,
  "evlen": 30087,
  "çın": 30088,
  "dua": 30089,
  "soruları": 30090,
  "pon": 30091,
  "yürek": 30092,
  "dernek": 30093,
  "mağdur": 30094,
  "bilgiyi": 30095,
  "kazana": 30096,
  "temizliği": 30097,
  "yapmayı": 30098,
  "mıyorum": 30099,
  "döner": 30100,
  "cli": 30101,
  "yaşamak": 30102,
  "ston": 30103,
  "ib": 30104,
  "komutan": 30105,
  "peter": 30106,
  "hariç": 30107,
  "tekstil": 30108,
  "i̇ddaa": 30109,
  "etrafında": 30110,
  "tıklayınız": 30111,
  "değişiklikler": 30112,
  "oli": 30113,
  "koruyucu": 30114,
  "dalı": 30115,
  "fek": 30116,
  "solu": 30117,
  "girer": 30118,
  "imizden": 30119,
  "yusu": 30120,
  "well": 30121,
  "niğde": 30122,
  "şahıs": 30123,
  "kalıp": 30124,
  "aşık": 30125,
  "karabük": 30126,
  "hocam": 30127,
  "denir": 30128,
  "i̇şi̇m": 30129,
  "destekle": 30130,
  "('": 30131,
  "görme": 30132,
  "hikâ": 30133,
  "kadını": 30134,
  "isindeki": 30135,
  "aralarında": 30136,
  "burç": 30137,
  "row": 30138,
  "halısı": 30139,
  "hassa": 30140,
  "pc": 30141,
  "gurur": 30142,
  "atın": 30143,
  "mahall": 30144,
  "1984": 30145,
  "kürtaj": 30146,
  "fuar": 30147,
  "gemi": 30148,
  "bilgilerini": 30149,
  "iyer": 30150,
  "enstitüsü": 30151,
  "lacaktır": 30152,
  "diyerek": 30153,
  "kritik": 30154,
  "lanacak": 30155,
  "inceley": 30156,
  "amatör": 30157,
  "type": 30158,
  "ej": 30159,
  "views": 30160,
  "kalori": 30161,
  "hâlâ": 30162,
  "sq": 30163,
  "kaybı": 30164,
  "çaba": 30165,
  "fırsatı": 30166,
  "got": 30167,
  "demokrat": 30168,
  "ağa": 30169,
  "dk": 30170,
  "mekten": 30171,
  "birine": 30172,
  "bill": 30173,
  "parlamen": 30174,
  "comment": 30175,
  "temas": 30176,
  "bakın": 30177,
  "yapılmaktadır": 30178,
  "imer": 30179,
  "delil": 30180,
  "etmeniz": 30181,
  "akp": 30182,
  "alabilir": 30183,
  "i̇ka": 30184,
  "çocuğu": 30185,
  "eniz": 30186,
  "puanı": 30187,
  "oksit": 30188,
  "polonya": 30189,
  "konumu": 30190,
  "global": 30191,
  "genelde": 30192,
  "dge": 30193,
  "tescil": 30194,
  "share": 30195,
  "kullandığı": 30196,
  "üminyum": 30197,
  "çalışmaya": 30198,
  "tev": 30199,
  "almanca": 30200,
  "i̇çi̇n": 30201,
  "tümü": 30202,
  "paylaşmak": 30203,
  "irt": 30204,
  "komi": 30205,
  "kişiyi": 30206,
  "ore": 30207,
  "diyen": 30208,
  "ende": 30209,
  "gerçekleştirilen": 30210,
  "lüğe": 30211,
  "ölçek": 30212,
  "tarihçe": 30213,
  "esnek": 30214,
  "dağıtım": 30215,
  "strateji": 30216,
  "bugüne": 30217,
  "lira": 30218,
  "saati": 30219,
  "böcek": 30220,
  "cher": 30221,
  "ulaşı": 30222,
  "peynir": 30223,
  "duyu": 30224,
  "ki̇": 30225,
  "zamanlı": 30226,
  "apa": 30227,
  "suyun": 30228,
  "karış": 30229,
  "kalkınma": 30230,
  "ena": 30231,
  "gümüşhane": 30232,
  "sitesini": 30233,
  "elma": 30234,
  "bütçe": 30235,
  "larımızı": 30236,
  "dalık": 30237,
  "kıymet": 30238,
  "beğeni": 30239,
  "pho": 30240,
  "meyin": 30241,
  "bingöl": 30242,
  "bakı": 30243,
  "semin": 30244,
  "sözler": 30245,
  "limi": 30246,
  "yaşıyor": 30247,
  "misin": 30248,
  "zamanında": 30249,
  "makyaj": 30250,
  "produ": 30251,
  "bölgesel": 30252,
  "bitlis": 30253,
  "resimler": 30254,
  "mın": 30255,
  "estetik": 30256,
  "biyet": 30257,
  "kuran": 30258,
  "trump": 30259,
  "gereksin": 30260,
  "yusuf": 30261,
  "gg": 30262,
  "baybur": 30263,
  "gut": 30264,
  "bilecik": 30265,
  "geçtiğimiz": 30266,
  "tabilir": 30267,
  "satılık": 30268,
  "mede": 30269,
  "luğun": 30270,
  "arnav": 30271,
  "hükû": 30272,
  "gidiyor": 30273,
  "şirketler": 30274,
  "biliyorum": 30275,
  "kuşa": 30276,
  "moto": 30277,
  "aleti": 30278,
  "mega": 30279,
  "sizleri": 30280,
  "eko": 30281,
  "enler": 30282,
  "clu": 30283,
  "çıkma": 30284,
  "open": 30285,
  "dakik": 30286,
  "linkedin": 30287,
  "phi": 30288,
  "nesne": 30289,
  "liyoruz": 30290,
  "öre": 30291,
  "ons": 30292,
  "bahsedil": 30293,
  "avusturya": 30294,
  "halkın": 30295,
  "sön": 30296,
  "ülkem": 30297,
  "atıf": 30298,
  "seyi": 30299,
  "animasyon": 30300,
  "önümüz": 30301,
  "akım": 30302,
  "partner": 30303,
  "tercüme": 30304,
  "suretiyle": 30305,
  "whi": 30306,
  "uzan": 30307,
  "alanlarda": 30308,
  "kapan": 30309,
  "protok": 30310,
  "dinle": 30311,
  "öğle": 30312,
  "şişli": 30313,
  "kazanmak": 30314,
  "ian": 30315,
  "krem": 30316,
  "bunlara": 30317,
  "vadeli": 30318,
  "menize": 30319,
  "kurdu": 30320,
  "spesifik": 30321,
  "sili": 30322,
  "britan": 30323,
  "pahalı": 30324,
  "istediği": 30325,
  "arnavut": 30326,
  "~~": 30327,
  "önemi": 30328,
  "edik": 30329,
  "belde": 30330,
  "bartın": 30331,
  "dınız": 30332,
  "leh": 30333,
  "darbe": 30334,
  "idar": 30335,
  "başarısız": 30336,
  "oğl": 30337,
  "\"|": 30338,
  "çağır": 30339,
  "delik": 30340,
  "müziği": 30341,
  "yönetic": 30342,
  "tılmış": 30343,
  "protokol": 30344,
  "demi": 30345,
  "bini": 30346,
  "hakaret": 30347,
  "vakı": 30348,
  "alem": 30349,
  "mö": 30350,
  "bron": 30351,
  "çankırı": 30352,
  "annes": 30353,
  "kurucu": 30354,
  "zamanla": 30355,
  "başvurucunun": 30356,
  "laboratu": 30357,
  "sed": 30358,
  "alüminyum": 30359,
  "istedi": 30360,
  "endüstriyel": 30361,
  "ergen": 30362,
  "host": 30363,
  "gec": 30364,
  "script": 30365,
  "sergil": 30366,
  "field": 30367,
  "zel": 30368,
  "duruma": 30369,
  "izlen": 30370,
  "kutsal": 30371,
  "bağlama": 30372,
  "servi": 30373,
  "samsung": 30374,
  "ilanları": 30375,
  "sahte": 30376,
  "doğrula": 30377,
  "merkezli": 30378,
  "çalışmak": 30379,
  "eleştirmen": 30380,
  "seti": 30381,
  "seçe": 30382,
  "dıran": 30383,
  "getirir": 30384,
  "farklılık": 30385,
  "i̇ye": 30386,
  "aziz": 30387,
  "limit": 30388,
  "sahipliği": 30389,
  "ae": 30390,
  "koron": 30391,
  "istatistik": 30392,
  "ox": 30393,
  "menü": 30394,
  "1983": 30395,
  "önlemek": 30396,
  "gereklidir": 30397,
  "bilişim": 30398,
  "yılına": 30399,
  "stem": 30400,
  "sözcü": 30401,
  "videoları": 30402,
  "farkın": 30403,
  "kurgu": 30404,
  "nakit": 30405,
  "bâ": 30406,
  "rengi": 30407,
  "ilham": 30408,
  "load": 30409,
  "spe": 30410,
  "alanya": 30411,
  "hukuku": 30412,
  "tüketim": 30413,
  "yağlı": 30414,
  "lerdeki": 30415,
  "tuğ": 30416,
  "rüyada": 30417,
  "kontrolü": 30418,
  "cennet": 30419,
  "dom": 30420,
  "fın": 30421,
  "kaçın": 30422,
  "urn": 30423,
  "101": 30424,
  "tuval": 30425,
  "rük": 30426,
  "tici": 30427,
  "tanesi": 30428,
  "iktidar": 30429,
  "atak": 30430,
  "sürüyor": 30431,
  "pp": 30432,
  "tifak": 30433,
  "kaplama": 30434,
  "aşkın": 30435,
  "yazdı": 30436,
  "iyorlar": 30437,
  "hidro": 30438,
  "kaygı": 30439,
  "uyuşturucu": 30440,
  "tral": 30441,
  "bahs": 30442,
  "pasaj": 30443,
  "cana": 30444,
  "cüz": 30445,
  "yüzyılın": 30446,
  "microsoft": 30447,
  "maltepe": 30448,
  "işçi": 30449,
  "hareketi": 30450,
  "uzaktan": 30451,
  "power": 30452,
  "chel": 30453,
  "ked": 30454,
  "luğunu": 30455,
  "üğ": 30456,
  "teker": 30457,
  "sitemize": 30458,
  "bik": 30459,
  "açılır": 30460,
  "kıyas": 30461,
  "öğret": 30462,
  "araçlar": 30463,
  "urken": 30464,
  "mesajı": 30465,
  "cinayet": 30466,
  "opat": 30467,
  "elerle": 30468,
  "yarışması": 30469,
  "rezervasyon": 30470,
  "avir": 30471,
  "hassas": 30472,
  "çanta": 30473,
  "türbanlı": 30474,
  "belirterek": 30475,
  "cephe": 30476,
  "kırım": 30477,
  "nehri": 30478,
  "göçmen": 30479,
  "gatif": 30480,
  "çılık": 30481,
  "mimari": 30482,
  "nesn": 30483,
  "salata": 30484,
  "cim": 30485,
  ")'": 30486,
  "pazarı": 30487,
  "konsan": 30488,
  "uzaklıkta": 30489,
  "ihracat": 30490,
  "şırnak": 30491,
  "kaşı": 30492,
  "tadını": 30493,
  "fethiye": 30494,
  "noktas": 30495,
  "hareketli": 30496,
  "adli": 30497,
  "mağazaları": 30498,
  "maddesinin": 30499,
  "hadi": 30500,
  "yapmaktadır": 30501,
  "söylen": 30502,
  "edilecek": 30503,
  "ailen": 30504,
  "recep": 30505,
  "makaleler": 30506,
  "bayburt": 30507,
  "kemer": 30508,
  "sonuçta": 30509,
  "başak": 30510,
  "une": 30511,
  "parçaları": 30512,
  "meh": 30513,
  "ky": 30514,
  "ilerde": 30515,
  "alev": 30516,
  "sper": 30517,
  "komşu": 30518,
  "haftalık": 30519,
  "kazak": 30520,
  "ning": 30521,
  "istler": 30522,
  "siirt": 30523,
  "aksine": 30524,
  "karışık": 30525,
  "banın": 30526,
  "özgü": 30527,
  "duyarlı": 30528,
  "1982": 30529,
  "şifr": 30530,
  "ilişkileri": 30531,
  "ski": 30532,
  "adresleri": 30533,
  "grand": 30534,
  "lie": 30535,
  "tos": 30536,
  "coş": 30537,
  "ırk": 30538,
  "tazminat": 30539,
  "ndaki": 30540,
  "değişen": 30541,
  "talebi": 30542,
  "geli": 30543,
  "keyf": 30544,
  "yazılımı": 30545,
  "bildiği": 30546,
  "minimum": 30547,
  "açan": 30548,
  "başlığı": 30549,
  "kana": 30550,
  "randevu": 30551,
  "beklenen": 30552,
  "yaka": 30553,
  "kaydedil": 30554,
  "sika": 30555,
  "single": 30556,
  "konuları": 30557,
  "tıktan": 30558,
  "ök": 30559,
  "şük": 30560,
  "çözümü": 30561,
  "çamaşır": 30562,
  "sesli": 30563,
  "boru": 30564,
  "gitmek": 30565,
  "yükümlülük": 30566,
  "garant": 30567,
  "miktarı": 30568,
  "vip": 30569,
  "plin": 30570,
  "çiğ": 30571,
  "count": 30572,
  "prensi": 30573,
  "sports": 30574,
  "lır": 30575,
  "},": 30576,
  "yöneticisi": 30577,
  "şma": 30578,
  "devletin": 30579,
  "eserleri": 30580,
  "saatleri": 30581,
  "kazı": 30582,
  "sabır": 30583,
  "i̇şleri": 30584,
  "duktan": 30585,
  "anık": 30586,
  "lee": 30587,
  "vita": 30588,
  "unutul": 30589,
  "app": 30590,
  "dikal": 30591,
  "tutarlı": 30592,
  "ios": 30593,
  "omuz": 30594,
  "ekstra": 30595,
  "şarkıcı": 30596,
  "kombin": 30597,
  "doları": 30598,
  "sebeple": 30599,
  "west": 30600,
  "sorulan": 30601,
  "kongre": 30602,
  "eur": 30603,
  "uluğunu": 30604,
  "vision": 30605,
  "andre": 30606,
  "larınızın": 30607,
  "klinik": 30608,
  "hington": 30609,
  "görüyor": 30610,
  "anlaşı": 30611,
  "haberdar": 30612,
  "anızı": 30613,
  "öncesinde": 30614,
  "eseri": 30615,
  "premi": 30616,
  "mul": 30617,
  "benimle": 30618,
  "vakıf": 30619,
  "ölçüm": 30620,
  "osmaniye": 30621,
  "bonuslar": 30622,
  "tespiti": 30623,
  "olayı": 30624,
  "değerleri": 30625,
  "oynan": 30626,
  "ud": 30627,
  "yıla": 30628,
  "metr": 30629,
  "info": 30630,
  "özelliklerini": 30631,
  "hayvanlar": 30632,
  "leşe": 30633,
  "yıllardır": 30634,
  "sermaye": 30635,
  "fr": 30636,
  "kutusu": 30637,
  "ayın": 30638,
  "ifadesi": 30639,
  "nil": 30640,
  "united": 30641,
  "lish": 30642,
  "fifa": 30643,
  "istiyoruz": 30644,
  "bakırköy": 30645,
  "lanacaktır": 30646,
  "endüstri": 30647,
  "arke": 30648,
  "leştirme": 30649,
  "i̇smail": 30650,
  "sürecinde": 30651,
  "alandır": 30652,
  "harekete": 30653,
  "okumak": 30654,
  "bulunması": 30655,
  "evine": 30656,
  "gelip": 30657,
  "kaynaklar": 30658,
  "yüzünden": 30659,
  "olabildiğince": 30660,
  "dikçe": 30661,
  "elerinden": 30662,
  "ülasyon": 30663,
  "melek": 30664,
  "lemesi": 30665,
  "server": 30666,
  "işlemler": 30667,
  "hükûmet": 30668,
  "çözmek": 30669,
  "masi": 30670,
  "kaybetti": 30671,
  "i̇sviç": 30672,
  "cookie": 30673,
  "başkenti": 30674,
  "washington": 30675,
  "poli": 30676,
  "işık": 30677,
  "başlangıçta": 30678,
  "uri": 30679,
  "hayatın": 30680,
  "yapması": 30681,
  "kalabalık": 30682,
  "küp": 30683,
  "kere": 30684,
  "olmaması": 30685,
  "madığını": 30686,
  "yoktu": 30687,
  "i̇f": 30688,
  "loj": 30689,
  "lil": 30690,
  "gara": 30691,
  "egem": 30692,
  "negatif": 30693,
  "haklı": 30694,
  "tlar": 30695,
  "baları": 30696,
  "manu": 30697,
  "fazlası": 30698,
  "lamanın": 30699,
  "zehir": 30700,
  "kurmak": 30701,
  "yeteneğ": 30702,
  "0000": 30703,
  "siste": 30704,
  "pis": 30705,
  "elbise": 30706,
  "lım": 30707,
  "temizleme": 30708,
  "hakkari": 30709,
  "house": 30710,
  "dia": 30711,
  "niteli": 30712,
  "yaptıkları": 30713,
  "kendisinin": 30714,
  "elit": 30715,
  "zararlı": 30716,
  "leştirilmiş": 30717,
  "boşan": 30718,
  "hazırlan": 30719,
  "mekanik": 30720,
  "dou": 30721,
  "milletvekil": 30722,
  "uygulanan": 30723,
  "ertesi": 30724,
  "iddaa": 30725,
  "aktivit": 30726,
  "tanık": 30727,
  "kanalı": 30728,
  "açar": 30729,
  "bağışıklık": 30730,
  "conten": 30731,
  "ander": 30732,
  "alarla": 30733,
  "gereğ": 30734,
  "tına": 30735,
  "mann": 30736,
  "kimin": 30737,
  "gümrük": 30738,
  "tatmin": 30739,
  "alışkan": 30740,
  "memektedir": 30741,
  "gösterdi": 30742,
  "bütç": 30743,
  "notlar": 30744,
  "tılır": 30745,
  "tıkları": 30746,
  "derun": 30747,
  "hakkını": 30748,
  "lisesi": 30749,
  "komisyonu": 30750,
  "disiplin": 30751,
  "düşüş": 30752,
  "tüy": 30753,
  "arıyor": 30754,
  "mahkem": 30755,
  "parkı": 30756,
  "inda": 30757,
  "üme": 30758,
  "sunum": 30759,
  "ayrım": 30760,
  "yerlerde": 30761,
  "noktaları": 30762,
  "bahisleri": 30763,
  "konferans": 30764,
  "bire": 30765,
  "lüks": 30766,
  "dî": 30767,
  "manevi": 30768,
  "oc": 30769,
  "yanına": 30770,
  "arkadaşları": 30771,
  "düşünül": 30772,
  "civarında": 30773,
  "lerindeki": 30774,
  "tıpkı": 30775,
  "ehl": 30776,
  "via": 30777,
  "ayla": 30778,
  "league": 30779,
  "reply": 30780,
  "olduklarını": 30781,
  "aldığınız": 30782,
  "1974": 30783,
  "adresine": 30784,
  "özer": 30785,
  "xi": 30786,
  "sity": 30787,
  "meb": 30788,
  "php": 30789,
  "pit": 30790,
  "nereden": 30791,
  "richar": 30792,
  "kaynaklanan": 30793,
  "maddeleri": 30794,
  "kütle": 30795,
  "ekimi": 30796,
  "odaklı": 30797,
  "mid": 30798,
  "apart": 30799,
  "trasyon": 30800,
  "dosyalar": 30801,
  "yazdığı": 30802,
  "efendi": 30803,
  "veli": 30804,
  "anıyor": 30805,
  "kılav": 30806,
  "cilere": 30807,
  "etli": 30808,
  "anlaşma": 30809,
  "galer": 30810,
  "kucak": 30811,
  "görüşmeler": 30812,
  "kavu": 30813,
  "ihtimal": 30814,
  "tuş": 30815,
  "maliyeti": 30816,
  "bili": 30817,
  "paketi": 30818,
  "döviz": 30819,
  "love": 30820,
  "arapça": 30821,
  "board": 30822,
  "kurtulu": 30823,
  "mary": 30824,
  "1979": 30825,
  "toplan": 30826,
  "sanırım": 30827,
  "lıyoruz": 30828,
  "basınç": 30829,
  "getiriyor": 30830,
  "kırıkkale": 30831,
  "sıkça": 30832,
  "viz": 30833,
  "gönüllü": 30834,
  "tansiyon": 30835,
  "pod": 30836,
  "800": 30837,
  "mühendislik": 30838,
  "üzeri": 30839,
  "thon": 30840,
  "protest": 30841,
  "yolunda": 30842,
  "egemen": 30843,
  "etmez": 30844,
  "bıçak": 30845,
  "aralı": 30846,
  "atlet": 30847,
  "voley": 30848,
  "kendimi": 30849,
  "buzdola": 30850,
  "vakti": 30851,
  "astron": 30852,
  "bulunduğunu": 30853,
  "hipotezi": 30854,
  "istis": 30855,
  "inizden": 30856,
  "çağdaş": 30857,
  "ultra": 30858,
  "ory": 30859,
  "berlin": 30860,
  "illa": 30861,
  "1981": 30862,
  "cey": 30863,
  "almayı": 30864,
  "mesleki": 30865,
  "yaptığ": 30866,
  "lerimize": 30867,
  "yir": 30868,
  "mete": 30869,
  "olacağı": 30870,
  "robot": 30871,
  "lamadan": 30872,
  "süreçte": 30873,
  "ikna": 30874,
  "eceğiz": 30875,
  "kırşehir": 30876,
  "duyurdu": 30877,
  "yazık": 30878,
  "özgün": 30879,
  "eren": 30880,
  "güvence": 30881,
  "gönderilen": 30882,
  "yüzlerce": 30883,
  "miras": 30884,
  "tarihinden": 30885,
  "yarışma": 30886,
  "ği̇": 30887,
  "yetersiz": 30888,
  "anlatan": 30889,
  "orhan": 30890,
  "chat": 30891,
  "oynadı": 30892,
  "dergi": 30893,
  "yönetici": 30894,
  "sunduğu": 30895,
  "asgari": 30896,
  "konuşan": 30897,
  "lâm": 30898,
  "başvurusu": 30899,
  "yaşama": 30900,
  "göv": 30901,
  "yapılmasına": 30902,
  "add": 30903,
  "oğul": 30904,
  "bakanlık": 30905,
  "eğr": 30906,
  "değiştirme": 30907,
  "pic": 30908,
  "yapıldığı": 30909,
  "ziyaretçiler": 30910,
  "brezilya": 30911,
  "kare": 30912,
  "zem": 30913,
  "obj": 30914,
  "ressam": 30915,
  "statü": 30916,
  "onarım": 30917,
  "heykel": 30918,
  "$$": 30919,
  "laşması": 30920,
  "teknolojik": 30921,
  "merdiveni": 30922,
  "sahil": 30923,
  "tamamlan": 30924,
  "lerinize": 30925,
  "cevabını": 30926,
  "sec": 30927,
  "keşif": 30928,
  "fiyata": 30929,
  "ihtiyacınız": 30930,
  "dry": 30931,
  "dışına": 30932,
  "kuruldu": 30933,
  "lamaları": 30934,
  "turkey": 30935,
  "dakikada": 30936,
  "sürecin": 30937,
  "sû": 30938,
  "manz": 30939,
  "gençler": 30940,
  "yönetmelik": 30941,
  "açmak": 30942,
  "cilerin": 30943,
  "yazarak": 30944,
  "mg": 30945,
  "dolaşımı": 30946,
  "hatalı": 30947,
  "long": 30948,
  "eşsiz": 30949,
  "hikayesi": 30950,
  "dışındaki": 30951,
  "yang": 30952,
  "yılının": 30953,
  "gündüz": 30954,
  "fazlasını": 30955,
  "ci̇": 30956,
  "güreş": 30957,
  "i̇sa": 30958,
  "mesle": 30959,
  "priz": 30960,
  "sman": 30961,
  "i̇rlanda": 30962,
  "anılan": 30963,
  "yarın": 30964,
  "âh": 30965,
  "düşen": 30966,
  "gi̇r": 30967,
  "depo": 30968,
  "1950": 30969,
  "sizden": 30970,
  "eğil": 30971,
  "olabileceğini": 30972,
  "dışişleri": 30973,
  "senaryo": 30974,
  "ysa": 30975,
  "grupları": 30976,
  "sektörü": 30977,
  "meta": 30978,
  "güler": 30979,
  "otomo": 30980,
  "felsefe": 30981,
  "caz": 30982,
  "sınavı": 30983,
  "i̇lç": 30984,
  "tamamlamak": 30985,
  "sınırları": 30986,
  "mine": 30987,
  "skor": 30988,
  "koyu": 30989,
  "stal": 30990,
  "yıldızı": 30991,
  "caddesi": 30992,
  "sözcük": 30993,
  "meksika": 30994,
  "bizlere": 30995,
  "kl": 30996,
  "endek": 30997,
  "sıralama": 30998,
  "cation": 30999,
  "farkında": 31000,
  "mesela": 31001,
  "damla": 31002,
  "our": 31003,
  "lezzetli": 31004,
  "tanır": 31005,
  "tanımı": 31006,
  "jor": 31007,
  "figür": 31008,
  "diyorum": 31009,
  "federasyonu": 31010,
  "yılan": 31011,
  "irti": 31012,
  "dine": 31013,
  "tipik": 31014,
  "çekirdek": 31015,
  "f2": 31016,
  "duğunuz": 31017,
  "büyüsü": 31018,
  "sten": 31019,
  "yoğ": 31020,
  "merkezinde": 31021,
  "çilerin": 31022,
  "alanına": 31023,
  "birer": 31024,
  "konsol": 31025,
  "haritası": 31026,
  "hakan": 31027,
  "sayfalar": 31028,
  "kot": 31029,
  "1975": 31030,
  "kadir": 31031,
  "göstermek": 31032,
  "zik": 31033,
  "kaşığı": 31034,
  "isteme": 31035,
  "110": 31036,
  "clo": 31037,
  "demokrasi": 31038,
  "piyan": 31039,
  "english": 31040,
  "romantik": 31041,
  "miyiz": 31042,
  "üğü": 31043,
  "geldiğini": 31044,
  "cent": 31045,
  "söyleyen": 31046,
  "gayrim": 31047,
  "ture": 31048,
  "paylaşıl": 31049,
  "kısmen": 31050,
  "taç": 31051,
  "ardı": 31052,
  "oynamak": 31053,
  "ltd": 31054,
  "kısmını": 31055,
  "dolandırı": 31056,
  "mb": 31057,
  "terap": 31058,
  "rid": 31059,
  "arazi": 31060,
  "oynayan": 31061,
  "koyun": 31062,
  "uzunluğu": 31063,
  "anlatıyor": 31064,
  "rolü": 31065,
  "ithal": 31066,
  "çıplak": 31067,
  "organize": 31068,
  "şiddetli": 31069,
  "gelebilir": 31070,
  "kırklar": 31071,
  "okuyucu": 31072,
  "ğiyle": 31073,
  "tain": 31074,
  "oks": 31075,
  "tamamla": 31076,
  "cl": 31077,
  "masraf": 31078,
  "turu": 31079,
  "rt": 31080,
  "çorbası": 31081,
  "konseyi": 31082,
  "cket": 31083,
  "tüketici": 31084,
  "sebze": 31085,
  "kazanma": 31086,
  "dyo": 31087,
  "açıldı": 31088,
  "isbn": 31089,
  "buhar": 31090,
  "tunceli": 31091,
  "rap": 31092,
  "vermiştir": 31093,
  "1978": 31094,
  "müzisyen": 31095,
  "->": 31096,
  "sistemini": 31097,
  "yüzük": 31098,
  "aro": 31099,
  "kanın": 31100,
  "durumun": 31101,
  "bets": 31102,
  "phil": 31103,
  "gelişen": 31104,
  "üstünde": 31105,
  "yapmıştır": 31106,
  "pilot": 31107,
  "sezonu": 31108,
  "over": 31109,
  "günden": 31110,
  "dokuz": 31111,
  "çekti": 31112,
  "puro": 31113,
  "1973": 31114,
  "lisanslı": 31115,
  "kısal": 31116,
  "sağlayın": 31117,
  "evrak": 31118,
  "ateşli": 31119,
  "sponsor": 31120,
  "rica": 31121,
  "çıkarın": 31122,
  "bec": 31123,
  "kesme": 31124,
  "geçirmek": 31125,
  "aktivite": 31126,
  "ulaştı": 31127,
  "vitam": 31128,
  "ther": 31129,
  "çöp": 31130,
  "ceğiniz": 31131,
  "şok": 31132,
  "devir": 31133,
  "bozukluk": 31134,
  "eceğini": 31135,
  "anlaya": 31136,
  "oba": 31137,
  "sunmak": 31138,
  "resmî": 31139,
  "seçilen": 31140,
  "kaldırı": 31141,
  "fikr": 31142,
  "değin": 31143,
  "konularda": 31144,
  "fiyatlar": 31145,
  "charles": 31146,
  "kris": 31147,
  "amaçla": 31148,
  "önümüzdeki": 31149,
  "old": 31150,
  "havale": 31151,
  "i̇çeri": 31152,
  "thomas": 31153,
  "life": 31154,
  "gelmiştir": 31155,
  "keskin": 31156,
  "üyeli": 31157,
  "bakter": 31158,
  "memlek": 31159,
  "sitemizi": 31160,
  "kilometre": 31161,
  "ica": 31162,
  "köf": 31163,
  "görülür": 31164,
  "dudak": 31165,
  "federal": 31166,
  "balkon": 31167,
  "lup": 31168,
  "ılmıştır": 31169,
  "çılgın": 31170,
  "sözü": 31171,
  "tikten": 31172,
  "doktora": 31173,
  "çır": 31174,
  "sağladı": 31175,
  "title": 31176,
  "yesi": 31177,
  "stratejik": 31178,
  "meşru": 31179,
  "mum": 31180,
  "liliğini": 31181,
  "gerekirse": 31182,
  "ettiler": 31183,
  "yn": 31184,
  "makineleri": 31185,
  "arat": 31186,
  "babasının": 31187,
  "edi̇": 31188,
  "diğerleri": 31189,
  "cüzdan": 31190,
  "richard": 31191,
  "yıllarında": 31192,
  "ufak": 31193,
  "tutmak": 31194,
  "teknolojileri": 31195,
  "okal": 31196,
  "duğunda": 31197,
  "1972": 31198,
  "vent": 31199,
  "fez": 31200,
  "bağlamda": 31201,
  "sıdır": 31202,
  "si̇te": 31203,
  "dökül": 31204,
  "kalb": 31205,
  "imparator": 31206,
  "yapılabilir": 31207,
  "diğin": 31208,
  "arasına": 31209,
  "hakkının": 31210,
  "padi": 31211,
  "frank": 31212,
  "yavuz": 31213,
  "yanlı": 31214,
  "kiz": 31215,
  "non": 31216,
  "işini": 31217,
  "limon": 31218,
  "teşhis": 31219,
  "dani": 31220,
  "iyileş": 31221,
  "larımıza": 31222,
  "kültürü": 31223,
  "emez": 31224,
  "kablo": 31225,
  "kule": 31226,
  "aker": 31227,
  "çekin": 31228,
  "bus": 31229,
  "oranında": 31230,
  "patent": 31231,
  "yeni̇": 31232,
  "seviş": 31233,
  "sizinle": 31234,
  "bizans": 31235,
  "martin": 31236,
  "sınıfı": 31237,
  "yeterince": 31238,
  "age": 31239,
  "bant": 31240,
  "basa": 31241,
  "1977": 31242,
  "mith": 31243,
  "hitap": 31244,
  "satıcı": 31245,
  "ötes": 31246,
  "larken": 31247,
  "tex": 31248,
  "ortasında": 31249,
  "kırklareli": 31250,
  "green": 31251,
  "layabilir": 31252,
  "işletme": 31253,
  "kalmış": 31254,
  "iyice": 31255,
  "istihdam": 31256,
  "gelmesi": 31257,
  "sinan": 31258,
  "buradaki": 31259,
  "şansı": 31260,
  "sea": 31261,
  "pot": 31262,
  "prim": 31263,
  "şö": 31264,
  "performansı": 31265,
  "aşağıdak": 31266,
  "maçta": 31267,
  "tag": 31268,
  "alınarak": 31269,
  "game": 31270,
  "frek": 31271,
  "mühendisliği": 31272,
  "cili": 31273,
  "itibariyle": 31274,
  "koku": 31275,
  "adsız": 31276,
  "akın": 31277,
  "bileti": 31278,
  "cas": 31279,
  "pilav": 31280,
  "koronavir": 31281,
  "bırakın": 31282,
  "luğunda": 31283,
  "eğilim": 31284,
  "metrik": 31285,
  "disk": 31286,
  "bağlantılı": 31287,
  "mülkiyet": 31288,
  "ahmed": 31289,
  "tarihsel": 31290,
  "bob": 31291,
  "kapsamda": 31292,
  "homeopat": 31293,
  "gidip": 31294,
  "etkinlikler": 31295,
  "tuzla": 31296,
  "gev": 31297,
  "yayınlan": 31298,
  "savcı": 31299,
  "chen": 31300,
  "mhp": 31301,
  "pasi": 31302,
  "i̇si̇": 31303,
  "dna": 31304,
  "sağlanması": 31305,
  "öncü": 31306,
  "sağlamaktadır": 31307,
  "1976": 31308,
  "imkansız": 31309,
  "nereye": 31310,
  "fatura": 31311,
  "1965": 31312,
  "cevaplar": 31313,
  "gene": 31314,
  "paylaşa": 31315,
  "hist": 31316,
  "gerektirir": 31317,
  "perak": 31318,
  "emedi": 31319,
  "abdullah": 31320,
  "okyanus": 31321,
  "defter": 31322,
  "özlem": 31323,
  "işletmeler": 31324,
  "hij": 31325,
  "offi": 31326,
  "evcil": 31327,
  "acaba": 31328,
  "icin": 31329,
  "posted": 31330,
  "bulabilir": 31331,
  "hesaplan": 31332,
  "vasıtası": 31333,
  "eksiksiz": 31334,
  "queen": 31335,
  "espor": 31336,
  "prose": 31337,
  "lığından": 31338,
  "konsantrasyon": 31339,
  "tarihte": 31340,
  "cinin": 31341,
  "hacı": 31342,
  "nefret": 31343,
  "kralı": 31344,
  "hesaplama": 31345,
  "ness": 31346,
  "kitabevi": 31347,
  "hormon": 31348,
  "180": 31349,
  "pem": 31350,
  "atmak": 31351,
  "anlayışı": 31352,
  "toplama": 31353,
  "yoksul": 31354,
  "yahudi": 31355,
  "reg": 31356,
  "eşlik": 31357,
  "bellek": 31358,
  "stüdyo": 31359,
  "imzalan": 31360,
  "yaşaya": 31361,
  "annem": 31362,
  "i̇sviçre": 31363,
  "dig": 31364,
  "günleri": 31365,
  "big": 31366,
  "sağlan": 31367,
  "bulama": 31368,
  "rulet": 31369,
  "afgan": 31370,
  "stel": 31371,
  "\");": 31372,
  "voleybol": 31373,
  "yorgun": 31374,
  "had": 31375,
  "sözlük": 31376,
  "yazılmış": 31377,
  "şube": 31378,
  "i̇ne": 31379,
  "hatun": 31380,
  "gerektiren": 31381,
  "belgesel": 31382,
  "........": 31383,
  "çıkardı": 31384,
  "olmanın": 31385,
  "1971": 31386,
  "tank": 31387,
  "ikili": 31388,
  "danışmanlığı": 31389,
  "ayarlan": 31390,
  "alırken": 31391,
  "eyici": 31392,
  "likleri": 31393,
  "koşullar": 31394,
  "halif": 31395,
  "bilimleri": 31396,
  "publi": 31397,
  "karan": 31398,
  "vücudun": 31399,
  "ulaşın": 31400,
  "colle": 31401,
  "faaliyetleri": 31402,
  "faf": 31403,
  "sanın": 31404,
  "sistemin": 31405,
  "bağlıdır": 31406,
  "koşu": 31407,
  "belirtir": 31408,
  "olmasa": 31409,
  "misyon": 31410,
  "ст": 31411,
  "filtr": 31412,
  "buy": 31413,
  "university": 31414,
  "üstlen": 31415,
  "tutulamaz": 31416,
  "nb": 31417,
  "topu": 31418,
  "ederler": 31419,
  "fed": 31420,
  "semp": 31421,
  "sürül": 31422,
  "şlı": 31423,
  "saydı": 31424,
  "cav": 31425,
  "kursu": 31426,
  "alim": 31427,
  "sayısal": 31428,
  "dıkça": 31429,
  "steroid": 31430,
  "geriye": 31431,
  "1968": 31432,
  "yapılandır": 31433,
  "hurdacı": 31434,
  "phy": 31435,
  "cihazı": 31436,
  "yetik": 31437,
  "parlamento": 31438,
  "step": 31439,
  "yükle": 31440,
  "protec": 31441,
  "teknolojisi": 31442,
  "how": 31443,
  "pkk": 31444,
  "oluşa": 31445,
  "çika": 31446,
  "çilik": 31447,
  "etkisini": 31448,
  "apache": 31449,
  "bahset": 31450,
  "arkadaşım": 31451,
  "ğra": 31452,
  "ll": 31453,
  "görünür": 31454,
  "incil": 31455,
  "dul": 31456,
  "like": 31457,
  "gördük": 31458,
  "kiyat": 31459,
  "diyabet": 31460,
  "okunan": 31461,
  "ved": 31462,
  "stin": 31463,
  "ole": 31464,
  "rok": 31465,
  "vücud": 31466,
  "teklifi": 31467,
  "istifa": 31468,
  "eceği": 31469,
  "şeyleri": 31470,
  "gücünü": 31471,
  "yır": 31472,
  "börek": 31473,
  "abi": 31474,
  "tartışma": 31475,
  "uzunluk": 31476,
  "karşılığında": 31477,
  "yarda": 31478,
  "geb": 31479,
  "cesaret": 31480,
  "liman": 31481,
  "tebliğ": 31482,
  "hadis": 31483,
  "olanı": 31484,
  "görüşme": 31485,
  "user": 31486,
  "imkân": 31487,
  "liber": 31488,
  "çav": 31489,
  "yapımcı": 31490,
  "uncu": 31491,
  "kolaylıkla": 31492,
  "boyama": 31493,
  "dirme": 31494,
  "tiş": 31495,
  "orth": 31496,
  "yönetmeli": 31497,
  "olmanız": 31498,
  "belik": 31499,
  "dışarıda": 31500,
  "hayatına": 31501,
  "perakende": 31502,
  "sığ": 31503,
  "mekle": 31504,
  "mesafe": 31505,
  "selim": 31506,
  "lüğünü": 31507,
  "kalmak": 31508,
  "detayları": 31509,
  "yönde": 31510,
  "malt": 31511,
  "nitelikli": 31512,
  "ilişkisi": 31513,
  "içecek": 31514,
  "i̇slâm": 31515,
  "gayrimen": 31516,
  "izasyon": 31517,
  "prosedür": 31518,
  "ortamı": 31519,
  "pes": 31520,
  "çözümler": 31521,
  "sr": 31522,
  "flor": 31523,
  "celen": 31524,
  "görüntüleme": 31525,
  "kula": 31526,
  "artırmak": 31527,
  "başlamıştır": 31528,
  "betsat": 31529,
  "yazısı": 31530,
  "sürük": 31531,
  "kurallarına": 31532,
  "önemini": 31533,
  "temsilcisi": 31534,
  "lojistik": 31535,
  "dairesi": 31536,
  "yaptığını": 31537,
  "iğdır": 31538,
  "istenen": 31539,
  "ölçümü": 31540,
  "tığında": 31541,
  "logo": 31542,
  "adası": 31543,
  "yavru": 31544,
  "gelişimi": 31545,
  "tüketic": 31546,
  "di̇n": 31547,
  "uğraş": 31548,
  "ever": 31549,
  "],": 31550,
  "ağz": 31551,
  "atar": 31552,
  "bardak": 31553,
  "türüdür": 31554,
  "etkinliği": 31555,
  "sezonunda": 31556,
  "anlatı": 31557,
  "bulan": 31558,
  "belirtmek": 31559,
  "aza": 31560,
  "bulunabilir": 31561,
  "oynanan": 31562,
  "kuyruk": 31563,
  "ısın": 31564,
  "gibidir": 31565,
  "oluşturma": 31566,
  "sizlerin": 31567,
  "eği̇t": 31568,
  "geride": 31569,
  "doz": 31570,
  "arayın": 31571,
  "olmaları": 31572,
  "deneyimli": 31573,
  "ayrıc": 31574,
  "sigortası": 31575,
  "katman": 31576,
  "ilave": 31577,
  "!\"": 31578,
  "göreviniz": 31579,
  "avcılar": 31580,
  "geldiğinde": 31581,
  "üman": 31582,
  "rb": 31583,
  "vitamin": 31584,
  "inceleyebilirsiniz": 31585,
  "yaptığımız": 31586,
  "hukuka": 31587,
  "ril": 31588,
  "ceksiniz": 31589,
  "ülkes": 31590,
  "sağlama": 31591,
  "çevresel": 31592,
  "cell": 31593,
  "keşfet": 31594,
  "medyada": 31595,
  "unuza": 31596,
  "benimse": 31597,
  "konusundaki": 31598,
  "i̇leti̇şi̇m": 31599,
  "suy": 31600,
  "lap": 31601,
  "karş": 31602,
  "tüken": 31603,
  "incelemesi": 31604,
  "yardımıyla": 31605,
  "füz": 31606,
  "milletler": 31607,
  "markası": 31608,
  "derken": 31609,
  "geo": 31610,
  "saklı": 31611,
  "balkan": 31612,
  "nep": 31613,
  "aman": 31614,
  "kurulmuş": 31615,
  "ziyade": 31616,
  "yolunu": 31617,
  "alda": 31618,
  "likler": 31619,
  "muam": 31620,
  "live": 31621,
  "yararlı": 31622,
  "hastane": 31623,
  "verileriniz": 31624,
  "seviyorum": 31625,
  "bulunmuştur": 31626,
  "işbu": 31627,
  "tarayı": 31628,
  "ziraat": 31629,
  "muta": 31630,
  "most": 31631,
  "publis": 31632,
  "i̇stat": 31633,
  "mantıklı": 31634,
  "adayı": 31635,
  "sırasıyla": 31636,
  "olmaktan": 31637,
  "content": 31638,
  "kırıl": 31639,
  "gerçekleşen": 31640,
  "jose": 31641,
  "belçika": 31642,
  "categor": 31643,
  "lılar": 31644,
  "bölgenin": 31645,
  "sizlerle": 31646,
  "özeti": 31647,
  "lerken": 31648,
  "dolaş": 31649,
  "iso": 31650,
  "kaynaklı": 31651,
  "halen": 31652,
  "metik": 31653,
  "tıkla": 31654,
  "si̇z": 31655,
  "hâkim": 31656,
  "piz": 31657,
  "duru": 31658,
  "irim": 31659,
  "çikolata": 31660,
  "tema": 31661,
  "davası": 31662,
  "1969": 31663,
  "rahatlıkla": 31664,
  "katılımcı": 31665,
  "uefa": 31666,
  "dünyayı": 31667,
  "galibiyet": 31668,
  "gayrimenkul": 31669,
  "jean": 31670,
  "baştan": 31671,
  "şeffaf": 31672,
  "cup": 31673,
  "interna": 31674,
  "çekmece": 31675,
  "geçerek": 31676,
  "konulu": 31677,
  "adaları": 31678,
  "muhale": 31679,
  "dürüst": 31680,
  "edilerek": 31681,
  "royal": 31682,
  "ace": 31683,
  "isimleri": 31684,
  "jes": 31685,
  "tisi": 31686,
  "türkmen": 31687,
  "tayyip": 31688,
  "şüpheli": 31689,
  "ilişkilendir": 31690,
  "gla": 31691,
  "konuyla": 31692,
  "gerçekleşti": 31693,
  "bahçeli": 31694,
  "bayramı": 31695,
  "eği̇ti̇m": 31696,
  "lerdi": 31697,
  "pirinç": 31698,
  "üskü": 31699,
  "group": 31700,
  "dyum": 31701,
  "yapıyoruz": 31702,
  "lanmaz": 31703,
  "bölgeye": 31704,
  "mesajlar": 31705,
  "kuruc": 31706,
  "durumlar": 31707,
  "maddeler": 31708,
  "hayırlı": 31709,
  "yaralı": 31710,
  "demo": 31711,
  "çılar": 31712,
  "store": 31713,
  "şekliyle": 31714,
  "ziyaretçi": 31715,
  "denizi": 31716,
  "isin": 31717,
  "tmak": 31718,
  "hara": 31719,
  "sıradan": 31720,
  "lemeleri": 31721,
  "vi̇tra": 31722,
  "memeli": 31723,
  "kupon": 31724,
  "i̇kti": 31725,
  "büyükel": 31726,
  "çevirin": 31727,
  "parçacık": 31728,
  "familyasına": 31729,
  "last": 31730,
  "çalışmalarını": 31731,
  "inanılmaz": 31732,
  "tahta": 31733,
  "solun": 31734,
  "0535": 31735,
  "olasılığı": 31736,
  "i̇skoç": 31737,
  "strük": 31738,
  "fred": 31739,
  "sunun": 31740,
  "tılar": 31741,
  "she": 31742,
  "smith": 31743,
  "rich": 31744,
  "db": 31745,
  "geçiyor": 31746,
  "imzala": 31747,
  "haftada": 31748,
  "motoru": 31749,
  "pandemi": 31750,
  "alel": 31751,
  "mi̇": 31752,
  "networkdry": 31753,
  "şartlar": 31754,
  "norveç": 31755,
  "eu": 31756,
  "2x": 31757,
  "nihai": 31758,
  "kullanımını": 31759,
  "krizi": 31760,
  "recor": 31761,
  ".[": 31762,
  "gülüm": 31763,
  "zamana": 31764,
  "açıklandı": 31765,
  "liğinden": 31766,
  "enerjisi": 31767,
  "çözül": 31768,
  "liga": 31769,
  "kelimesi": 31770,
  "kaliforni": 31771,
  "endişe": 31772,
  "></": 31773,
  "olmakla": 31774,
  "vious": 31775,
  "britanya": 31776,
  "{\\": 31777,
  "telegram": 31778,
  "``": 31779,
  "light": 31780,
  "contin": 31781,
  "örnekleri": 31782,
  "atış": 31783,
  "dre": 31784,
  "balı": 31785,
  "laboratuvar": 31786,
  "doğur": 31787,
  "dönüm": 31788,
  "noktal": 31789,
  "kulu": 31790,
  "etkileyebilir": 31791,
  "i̇llegal": 31792,
  "dilim": 31793,
  "milyonlarca": 31794,
  "cular": 31795,
  "anten": 31796,
  "soruya": 31797,
  "nadir": 31798,
  "duğum": 31799,
  "karşılıklı": 31800,
  "will": 31801,
  "daroğlu": 31802,
  "depart": 31803,
  "von": 31804,
  "kaliforniya": 31805,
  "isyan": 31806,
  "bedeli": 31807,
  "istikrar": 31808,
  "javascript": 31809,
  "stro": 31810,
  ".’": 31811,
  "marmara": 31812,
  "formül": 31813,
  "ach": 31814,
  "uth": 31815,
  "başlamış": 31816,
  "burak": 31817,
  "pobet": 31818,
  "kampanyalar": 31819,
  "ettikleri": 31820,
  "oldum": 31821,
  "buluna": 31822,
  "akışı": 31823,
  "place": 31824,
  "açıklayın": 31825,
  "yükselen": 31826,
  "gebelik": 31827,
  "sebz": 31828,
  "düğüm": 31829,
  "arkasında": 31830,
  "rick": 31831,
  "satışa": 31832,
  "şefimiz": 31833,
  "bk": 31834,
  "toplumun": 31835,
  "gy": 31836,
  "element": 31837,
  "hikayeler": 31838,
  "başrol": 31839,
  "araz": 31840,
  "usa": 31841,
  "cess": 31842,
  "kısmında": 31843,
  "masız": 31844,
  "glik": 31845,
  "eline": 31846,
  "oton": 31847,
  "biyolojik": 31848,
  "konaklama": 31849,
  "depres": 31850,
  "kdv": 31851,
  "ugh": 31852,
  "küfür": 31853,
  "kadin": 31854,
  "puz": 31855,
  "görüntüle": 31856,
  "previous": 31857,
  "dizileri": 31858,
  "görevleri": 31859,
  "verilmektedir": 31860,
  "üsküdar": 31861,
  "1967": 31862,
  "sayım": 31863,
  "125": 31864,
  "danim": 31865,
  "yükseldi": 31866,
  "çalışırken": 31867,
  "yenile": 31868,
  "under": 31869,
  "eklenen": 31870,
  "i̇şletme": 31871,
  "hede": 31872,
  "suya": 31873,
  "oyuna": 31874,
  "yayımlanan": 31875,
  "geçersiz": 31876,
  "stein": 31877,
  "beklent": 31878,
  "filmde": 31879,
  "ölümü": 31880,
  "braz": 31881,
  "oh": 31882,
  "uzaklaştır": 31883,
  "sindir": 31884,
  "lg": 31885,
  "seçildi": 31886,
  "i̇mi̇z": 31887,
  "bru": 31888,
  "aşamasında": 31889,
  "başkent": 31890,
  "cenaz": 31891,
  "yasadışı": 31892,
  "afet": 31893,
  "seçmen": 31894,
  "hall": 31895,
  "tabanlı": 31896,
  "neti": 31897,
  "cümledeki": 31898,
  "onwin": 31899,
  "fabrik": 31900,
  "çıktığı": 31901,
  "düşünür": 31902,
  "cenin": 31903,
  "dök": 31904,
  "kendinize": 31905,
  ")^": 31906,
  "teori": 31907,
  "dedek": 31908,
  "bosna": 31909,
  "dönemin": 31910,
  "hafı": 31911,
  "yanıtı": 31912,
  "metab": 31913,
  "geçirdi": 31914,
  "hizmetlerimiz": 31915,
  "sanatçısı": 31916,
  "görüntülen": 31917,
  "olmasıdır": 31918,
  "doç": 31919,
  "gördüğü": 31920,
  "tarafında": 31921,
  "entegre": 31922,
  "hotel": 31923,
  "sayıları": 31924,
  "boyutlu": 31925,
  "eyim": 31926,
  "direnç": 31927,
  "bölgedeki": 31928,
  "sorumlusu": 31929,
  "das": 31930,
  "oluşturul": 31931,
  "bilimi": 31932,
  "muayene": 31933,
  "sağladığı": 31934,
  "geçin": 31935,
  "layabilirsiniz": 31936,
  "oynadığı": 31937,
  "körfez": 31938,
  "verildiğinde": 31939,
  "night": 31940,
  "muhasebe": 31941,
  "rapt": 31942,
  "günah": 31943,
  "isı": 31944,
  "beslen": 31945,
  "kimsenin": 31946,
  "daima": 31947,
  "senary": 31948,
  "dünyadaki": 31949,
  "________": 31950,
  "duman": 31951,
  "ero": 31952,
  "i̇nsanların": 31953,
  "azından": 31954,
  "aylarında": 31955,
  "yapıştır": 31956,
  "eç": 31957,
  "gürül": 31958,
  "olamaz": 31959,
  "amazon": 31960,
  "bizler": 31961,
  "ezya": 31962,
  "toplamda": 31963,
  "canı": 31964,
  "ğrafi": 31965,
  "danışmanı": 31966,
  "sms": 31967,
  "ira": 31968,
  "toplantısı": 31969,
  "ört": 31970,
  "tikçe": 31971,
  "lıyorum": 31972,
  "görüle": 31973,
  "merkezleri": 31974,
  "etmenin": 31975,
  "gurbetçi": 31976,
  "lava": 31977,
  "anlatım": 31978,
  "donan": 31979,
  "dolarlık": 31980,
  "kıv": 31981,
  "görevlendir": 31982,
  "sendi": 31983,
  "tics": 31984,
  "nie": 31985,
  "sistemine": 31986,
  "saint": 31987,
  "olmadı": 31988,
  "sepet": 31989,
  "liyorum": 31990,
  "chester": 31991,
  "sunuyoruz": 31992,
  "eceğim": 31993,
  "çocuğ": 31994,
  "brow": 31995,
  "ortada": 31996,
  "önerilen": 31997,
  "badem": 31998,
  "tags": 31999,
  "coğrafi": 32000,
  "ağrısı": 32001,
  "gelişme": 32002,
  "başladım": 32003,
  "akciğer": 32004,
  "mesajları": 32005,
  "sevin": 32006,
  "pantol": 32007,
  "club": 32008,
  "ettiğimiz": 32009,
  "raptiye": 32010,
  "edilmesini": 32011,
  "haric": 32012,
  "motosiklet": 32013,
  "kalıntı": 32014,
  "aket": 32015,
  "i̇ster": 32016,
  "çukur": 32017,
  "buyur": 32018,
  "kaldığı": 32019,
  "360": 32020,
  "önü": 32021,
  "rusça": 32022,
  "tecav": 32023,
  "denli": 32024,
  "oranda": 32025,
  "oğuz": 32026,
  "koronavirüs": 32027,
  "i̇klim": 32028,
  "si̇n": 32029,
  "üniversiteler": 32030,
  "sürecini": 32031,
  "benden": 32032,
  "üretic": 32033,
  "hürr": 32034,
  "aranan": 32035,
  "hangisi": 32036,
  "çocuklara": 32037,
  "search": 32038,
  "komik": 32039,
  "angeles": 32040,
  "yaptım": 32041,
  "ortamında": 32042,
  "sv": 32043,
  "tıklayarak": 32044,
  "gos": 32045,
  "uluğun": 32046,
  "zarf": 32047,
  "mazlık": 32048,
  "operatör": 32049,
  "kurumlar": 32050,
  "maçında": 32051,
  "yayla": 32052,
  "çıkarı": 32053,
  "zul": 32054,
  "akla": 32055,
  "ceviz": 32056,
  "kurtarı": 32057,
  "fantezi": 32058,
  "düğünde": 32059,
  "***": 32060,
  "sağlayabilir": 32061,
  "mektir": 32062,
  "faktörler": 32063,
  "kutlu": 32064,
  "haki": 32065,
  "i̇ngilizceye": 32066,
  "numaraları": 32067,
  "dio": 32068,
  "edebiyatı": 32069,
  "fanta": 32070,
  "noel": 32071,
  "çeliş": 32072,
  "brek": 32073,
  "vitamini": 32074,
  "tamamını": 32075,
  "yazarları": 32076,
  "raptiye_": 32077,
  "belirsiz": 32078,
  "xxx": 32079,
  "tabanı": 32080,
  "evleri": 32081,
  "edilemez": 32082,
  "kep": 32083,
  "etken": 32084,
  "takımın": 32085,
  "tte": 32086,
  "turnuva": 32087,
  "zihinsel": 32088,
  "mıdır": 32089,
  "tırnak": 32090,
  "biliyorsunuz": 32091,
  "aralığı": 32092,
  "ailesinin": 32093,
  "gi̇ri̇ş": 32094,
  "isterim": 32095,
  "sikis": 32096,
  "international": 32097,
  "unvan": 32098,
  "yargıtay": 32099,
  "sancak": 32100,
  "çocuğa": 32101,
  "item": 32102,
  "çıkmış": 32103,
  "ill": 32104,
  "raft": 32105,
  "varlığını": 32106,
  "yim": 32107,
  "adap": 32108,
  "otomotiv": 32109,
  "metrek": 32110,
  "halil": 32111,
  "okula": 32112,
  "tarihine": 32113,
  "hop": 32114,
  "abo": 32115,
  "mineral": 32116,
  "öğretmenler": 32117,
  "böbrek": 32118,
  "akademisi": 32119,
  "kader": 32120,
  "duran": 32121,
  "kurallar": 32122,
  "etkinlikleri": 32123,
  "eşleş": 32124,
  "tığınız": 32125,
  "korkut": 32126,
  "lord": 32127,
  "altını": 32128,
  "çeşme": 32129,
  "emen": 32130,
  "ск": 32131,
  "öm": 32132,
  "şartı": 32133,
  "aldığını": 32134,
  "uygulamayı": 32135,
  "sayısının": 32136,
  "gecesi": 32137,
  "şehirde": 32138,
  "gazeteci": 32139,
  "run": 32140,
  "hoc": 32141,
  "oral": 32142,
  "tavan": 32143,
  "gündeme": 32144,
  "media": 32145,
  "ato": 32146,
  "topluluğu": 32147,
  "tanınan": 32148,
  "dizin": 32149,
  "köpeğ": 32150,
  "card": 32151,
  "erkeklerin": 32152,
  "kurulumu": 32153,
  "dinin": 32154,
  "goz": 32155,
  "ball": 32156,
  "iba": 32157,
  "ofi": 32158,
  "adımlar": 32159,
  "olursunuz": 32160,
  "tuhaf": 32161,
  "derek": 32162,
  "moskova": 32163,
  "derecelen": 32164,
  "uğr": 32165,
  "sürdü": 32166,
  "cker": 32167,
  "holding": 32168,
  "fili": 32169,
  "çubuk": 32170,
  "kuma": 32171,
  "sigort": 32172,
  "asay": 32173,
  "çısı": 32174,
  "ath": 32175,
  "ark": 32176,
  "ilecektir": 32177,
  "buton": 32178,
  "130": 32179,
  "başlayın": 32180,
  "işareti": 32181,
  "sistemler": 32182,
  "bulunmak": 32183,
  "bulgaristan": 32184,
  "bireylerin": 32185,
  "ral": 32186,
  "şarap": 32187,
  "pasap": 32188,
  "hızlandır": 32189,
  "metri": 32190,
  "pedi": 32191,
  "olayın": 32192,
  "irler": 32193,
  "hidr": 32194,
  "yurtdışı": 32195,
  "cül": 32196,
  "gezin": 32197,
  "fur": 32198,
  "gelince": 32199,
  "dosyası": 32200,
  "etkileyen": 32201,
  "yayınlar": 32202,
  "maales": 32203,
  "emi": 32204,
  "araştırmaları": 32205,
  "gerekse": 32206,
  "konsep": 32207,
  "neş": 32208,
  "kaydetti": 32209,
  "öğrencileri": 32210,
  "getirilen": 32211,
  "gold": 32212,
  "maalesef": 32213,
  "wol": 32214,
  "page": 32215,
  "okumaya": 32216,
  "akra": 32217,
  "gelecekte": 32218,
  "olayları": 32219,
  "arttı": 32220,
  "kurtuluş": 32221,
  "bi̇lg": 32222,
  "önder": 32223,
  "göndermek": 32224,
  "ized": 32225,
  "bostan": 32226,
  "bilmiyor": 32227,
  "amaya": 32228,
  "sahabet": 32229,
  "bağlantısı": 32230,
  "kuruluşu": 32231,
  "direkt": 32232,
  "studi": 32233,
  "gerçeği": 32234,
  "vokal": 32235,
  "tasarlanmış": 32236,
  "yirmi": 32237,
  "planlama": 32238,
  "tekne": 32239,
  "ümit": 32240,
  "üt": 32241,
  "kitabın": 32242,
  "unk": 32243,
  "metropol": 32244,
  "times": 32245,
  "posu": 32246,
  "personeli": 32247,
  "hemşir": 32248,
  "ville": 32249,
  "haberlerin": 32250,
  "cümleler": 32251,
  "esenyurt": 32252,
  "tutun": 32253,
  "bulunmamaktadır": 32254,
  "bugünkü": 32255,
  "istediğini": 32256,
  "türkç": 32257,
  "noktasında": 32258,
  "törü": 32259,
  "hard": 32260,
  "ring": 32261,
  "teknikleri": 32262,
  "idare": 32263,
  "liğiyle": 32264,
  "6519": 32265,
  "kristal": 32266,
  "yürürlüğe": 32267,
  "luğa": 32268,
  "bilinmeyen": 32269,
  "musa": 32270,
  "bekleniyor": 32271,
  "kömür": 32272,
  "tikleri": 32273,
  "adeta": 32274,
  "mühendisi": 32275,
  "fren": 32276,
  "sci": 32277,
  "netic": 32278,
  "danı": 32279,
  "çıkarma": 32280,
  "cadde": 32281,
  "sac": 32282,
  "başkanlık": 32283,
  "ât": 32284,
  "6519107": 32285,
  "05356519107": 32286,
  "1966": 32287,
  "cına": 32288,
  "\">": 32289,
  "ayşe": 32290,
  "musunuz": 32291,
  "ücretleri": 32292,
  "somut": 32293,
  "anna": 32294,
  "termin": 32295,
  "gömlek": 32296,
  "çayı": 32297,
  "i̇li̇": 32298,
  "kullanımına": 32299,
  "stu": 32300,
  "izni": 32301,
  "zorunl": 32302,
  "severler": 32303,
  "muhafaza": 32304,
  "şimdiye": 32305,
  "fotoğrafları": 32306,
  "beşinci": 32307,
  "adınız": 32308,
  "karışım": 32309,
  "yapıp": 32310,
  "çankaya": 32311,
  "yayınladı": 32312,
  "beyler": 32313,
  "pss": 32314,
  "görülmektedir": 32315,
  "direc": 32316,
  "galaxy": 32317,
  "madrid": 32318,
  "portak": 32319,
  "taraftar": 32320,
  "i̇statistik": 32321,
  "cevabınızı": 32322,
  "700": 32323,
  "talimatlar": 32324,
  "camii": 32325,
  "beta": 32326,
  "kadına": 32327,
  "kolon": 32328,
  "kurulmuştur": 32329,
  "kullanıcıları": 32330,
  "dahilinde": 32331,
  "kurucusu": 32332,
  "bilinmektedir": 32333,
  "fox": 32334,
  "kilisesi": 32335,
  "protected": 32336,
  "toy": 32337,
  "riski": 32338,
  "domates": 32339,
  "seslendir": 32340,
  "macaristan": 32341,
  "isteyenler": 32342,
  "abonelik": 32343,
  "arın": 32344,
  "spek": 32345,
  "toto": 32346,
  "kraliyet": 32347,
  "pasaport": 32348,
  "profesör": 32349,
  "zorla": 32350,
  "alici": 32351,
  "kurma": 32352,
  "ikamet": 32353,
  "sünü": 32354,
  "kavga": 32355,
  "çıkacak": 32356,
  "sof": 32357,
  "soylu": 32358,
  "imizle": 32359,
  "tecavüz": 32360,
  "katar": 32361,
  "artması": 32362,
  "1964": 32363,
  "tabel": 32364,
  "bekleme": 32365,
  "gölü": 32366,
  "bulaşık": 32367,
  "şarkısı": 32368,
  "yitir": 32369,
  "vermesi": 32370,
  "price": 32371,
  "macera": 32372,
  "şeyh": 32373,
  "hükümeti": 32374,
  "i̇ptal": 32375,
  "ledi": 32376,
  "bio": 32377,
  "yaptığınız": 32378,
  "uzaklıktadır": 32379,
  "….": 32380,
  "çekiyor": 32381,
  "taşına": 32382,
  "yüklen": 32383,
  "dın": 32384,
  "tenis": 32385,
  "kab": 32386,
  "görünen": 32387,
  "ilmek": 32388,
  "çoktan": 32389,
  "okudum": 32390,
  "lib": 32391,
  "gayet": 32392,
  "yenilikçi": 32393,
  "kullanıcılara": 32394,
  "ras": 32395,
  "imalat": 32396,
  "на": 32397,
  "ра": 32398,
  "plana": 32399,
  "bardağı": 32400,
  "nihayet": 32401,
  "drama": 32402,
  "iyeli": 32403,
  "hayati": 32404,
  "içinden": 32405,
  "cema": 32406,
  "listesini": 32407,
  "dolap": 32408,
  "müsabak": 32409,
  "tasvir": 32410,
  "yönlü": 32411,
  "işletim": 32412,
  "projeleri": 32413,
  "usunu": 32414,
  "evrensel": 32415,
  "yatırımcı": 32416,
  "fot": 32417,
  "kalacak": 32418,
  "haklarına": 32419,
  "cın": 32420,
  "suçlu": 32421,
  "eksikliği": 32422,
  "arsa": 32423,
  "değilse": 32424,
  "sağlayarak": 32425,
  "yası": 32426,
  "izde": 32427,
  "cit": 32428,
  "ermeni": 32429,
  "adlandırılan": 32430,
  "county": 32431,
  "piercing": 32432,
  "vanı": 32433,
  "üzüm": 32434,
  "imle": 32435,
  "sayfaları": 32436,
  "kıyasla": 32437,
  "ware": 32438,
  "uygulanması": 32439,
  "görülüyor": 32440,
  "wei": 32441,
  "rat": 32442,
  "telek": 32443,
  "arjan": 32444,
  "eller": 32445,
  "sektörde": 32446,
  "emr": 32447,
  "anlayın": 32448,
  "fars": 32449,
  "filistin": 32450,
  "i̇yi̇": 32451,
  "trt": 32452,
  "önerme": 32453,
  "soğan": 32454,
  "kura": 32455,
  "başladığı": 32456,
  "malze": 32457,
  "söylem": 32458,
  "َا": 32459,
  "1961": 32460,
  "odaları": 32461,
  "hatt": 32462,
  "yapılıyor": 32463,
  "lami": 32464,
  "bahsediyor": 32465,
  "şarkıları": 32466,
  "kesintisiz": 32467,
  "reddedil": 32468,
  "yunus": 32469,
  "imden": 32470,
  "elbis": 32471,
  "yarışı": 32472,
  "francis": 32473,
  "nato": 32474,
  "ild": 32475,
  "dünyasında": 32476,
  "şeyden": 32477,
  "metinde": 32478,
  "darı": 32479,
  "vermeden": 32480,
  "listesinde": 32481,
  "miyim": 32482,
  "osunu": 32483,
  "yemekler": 32484,
  "inizle": 32485,
  "selçuklu": 32486,
  "suzluk": 32487,
  "suresi": 32488,
  "ee": 32489,
  "i̇şçi": 32490,
  "gösterilen": 32491,
  "lambası": 32492,
  "anlamını": 32493,
  "temsilciler": 32494,
  "plus": 32495,
  "sentez": 32496,
  "solunum": 32497,
  "ilgilidir": 32498,
  "vatanda": 32499,
  "i̇ha": 32500,
  "mensup": 32501,
  "gördüm": 32502,
  "siteyi": 32503,
  "haftanın": 32504,
  "saatte": 32505,
  "arjantin": 32506,
  "nasil": 32507,
  "ildiğinde": 32508,
  "sarışın": 32509,
  "block": 32510,
  "sergile": 32511,
  "erdem": 32512,
  "gösterdiği": 32513,
  "date": 32514,
  "analy": 32515,
  "çetin": 32516,
  "nedenleri": 32517,
  "kullanabiliriz": 32518,
  "çığ": 32519,
  "hazine": 32520,
  "head": 32521,
  "bezi": 32522,
  "ışığı": 32523,
  "i̇nan": 32524,
  "css": 32525,
  "ctor": 32526,
  "hakkına": 32527,
  "ayakta": 32528,
  "esnaf": 32529,
  "yüce": 32530,
  "kılıçdaroğlu": 32531,
  "tela": 32532,
  "hazırla": 32533,
  "hası": 32534,
  "tekin": 32535,
  "ane": 32536,
  "i̇fa": 32537,
  "x_": 32538,
  "buluştur": 32539,
  "belirgin": 32540,
  "bilimler": 32541,
  "ekleye": 32542,
  "dot": 32543,
  "etkileyici": 32544,
  "sanatı": 32545,
  "sömür": 32546,
  "müd": 32547,
  "fındık": 32548,
  "joe": 32549,
  "usunun": 32550,
  "manuel": 32551,
  "yardımı": 32552,
  "kaçı": 32553,
  "amir": 32554,
  "şehi̇r": 32555,
  "üvey": 32556,
  "malarının": 32557,
  "şof": 32558,
  "1963": 32559,
  "elemeleri": 32560,
  "taki̇p": 32561,
  "diyalog": 32562,
  "bpe_32563": 32563,
  "bpe_32564": 32564,
  "bpe_32565": 32565,
  "bpe_32566": 32566,
  "bpe_32567": 32567,
  "bpe_32568": 32568,
  "bpe_32569": 32569,
  "bpe_32570": 32570,
  "bpe_32571": 32571,
  "bpe_32572": 32572,
  "bpe_32573": 32573,
  "bpe_32574": 32574,
  "bpe_32575": 32575,
  "bpe_32576": 32576,
  "bpe_32577": 32577,
  "bpe_32578": 32578,
  "bpe_32579": 32579,
  "bpe_32580": 32580,
  "bpe_32581": 32581,
  "bpe_32582": 32582,
  "bpe_32583": 32583,
  "bpe_32584": 32584,
  "bpe_32585": 32585,
  "bpe_32586": 32586,
  "bpe_32587": 32587,
  "bpe_32588": 32588,
  "bpe_32589": 32589,
  "bpe_32590": 32590,
  "bpe_32591": 32591,
  "bpe_32592": 32592,
  "bpe_32593": 32593,
  "bpe_32594": 32594,
  "bpe_32595": 32595,
  "bpe_32596": 32596,
  "bpe_32597": 32597,
  "bpe_32598": 32598,
  "bpe_32599": 32599,
  "bpe_32600": 32600,
  "bpe_32601": 32601,
  "bpe_32602": 32602,
  "bpe_32603": 32603,
  "bpe_32604": 32604,
  "bpe_32605": 32605,
  "bpe_32606": 32606,
  "bpe_32607": 32607,
  "bpe_32608": 32608,
  "bpe_32609": 32609,
  "bpe_32610": 32610,
  "bpe_32611": 32611,
  "bpe_32612": 32612,
  "bpe_32613": 32613,
  "bpe_32614": 32614,
  "bpe_32615": 32615,
  "bpe_32616": 32616,
  "bpe_32617": 32617,
  "bpe_32618": 32618,
  "bpe_32619": 32619,
  "bpe_32620": 32620,
  "bpe_32621": 32621,
  "bpe_32622": 32622,
  "bpe_32623": 32623,
  "bpe_32624": 32624,
  "bpe_32625": 32625,
  "bpe_32626": 32626,
  "bpe_32627": 32627,
  "bpe_32628": 32628,
  "bpe_32629": 32629,
  "bpe_32630": 32630,
  "bpe_32631": 32631,
  "bpe_32632": 32632,
  "bpe_32633": 32633,
  "bpe_32634": 32634,
  "bpe_32635": 32635,
  "bpe_32636": 32636,
  "bpe_32637": 32637,
  "bpe_32638": 32638,
  "bpe_32639": 32639,
  "bpe_32640": 32640,
  "bpe_32641": 32641,
  "bpe_32642": 32642,
  "bpe_32643": 32643,
  "bpe_32644": 32644,
  "bpe_32645": 32645,
  "bpe_32646": 32646,
  "bpe_32647": 32647,
  "bpe_32648": 32648,
  "bpe_32649": 32649,
  "bpe_32650": 32650,
  "bpe_32651": 32651,
  "bpe_32652": 32652,
  "bpe_32653": 32653,
  "bpe_32654": 32654,
  "bpe_32655": 32655,
  "bpe_32656": 32656,
  "bpe_32657": 32657,
  "bpe_32658": 32658,
  "bpe_32659": 32659,
  "bpe_32660": 32660,
  "bpe_32661": 32661,
  "bpe_32662": 32662,
  "bpe_32663": 32663,
  "bpe_32664": 32664,
  "bpe_32665": 32665,
  "bpe_32666": 32666,
  "bpe_32667": 32667,
  "bpe_32668": 32668,
  "bpe_32669": 32669,
  "bpe_32670": 32670,
  "bpe_32671": 32671,
  "bpe_32672": 32672,
  "bpe_32673": 32673,
  "bpe_32674": 32674,
  "bpe_32675": 32675,
  "bpe_32676": 32676,
  "bpe_32677": 32677,
  "bpe_32678": 32678,
  "bpe_32679": 32679,
  "bpe_32680": 32680,
  "bpe_32681": 32681,
  "bpe_32682": 32682,
  "bpe_32683": 32683,
  "bpe_32684": 32684,
  "bpe_32685": 32685,
  "bpe_32686": 32686,
  "bpe_32687": 32687,
  "bpe_32688": 32688,
  "bpe_32689": 32689,
  "bpe_32690": 32690,
  "bpe_32691": 32691,
  "bpe_32692": 32692,
  "bpe_32693": 32693,
  "bpe_32694": 32694,
  "bpe_32695": 32695,
  "bpe_32696": 32696,
  "bpe_32697": 32697,
  "bpe_32698": 32698,
  "bpe_32699": 32699,
  "bpe_32700": 32700,
  "bpe_32701": 32701,
  "bpe_32702": 32702,
  "bpe_32703": 32703,
  "bpe_32704": 32704,
  "bpe_32705": 32705,
  "bpe_32706": 32706,
  "bpe_32707": 32707,
  "bpe_32708": 32708,
  "bpe_32709": 32709,
  "bpe_32710": 32710,
  "bpe_32711": 32711,
  "bpe_32712": 32712,
  "bpe_32713": 32713,
  "bpe_32714": 32714,
  "bpe_32715": 32715,
  "bpe_32716": 32716,
  "bpe_32717": 32717,
  "bpe_32718": 32718,
  "bpe_32719": 32719,
  "bpe_32720": 32720,
  "bpe_32721": 32721,
  "bpe_32722": 32722,
  "bpe_32723": 32723,
  "bpe_32724": 32724,
  "bpe_32725": 32725,
  "bpe_32726": 32726,
  "bpe_32727": 32727,
  "bpe_32728": 32728,
  "bpe_32729": 32729,
  "bpe_32730": 32730,
  "bpe_32731": 32731,
  "bpe_32732": 32732,
  "bpe_32733": 32733,
  "bpe_32734": 32734,
  "bpe_32735": 32735,
  "bpe_32736": 32736,
  "bpe_32737": 32737,
  "bpe_32738": 32738,
  "bpe_32739": 32739,
  "bpe_32740": 32740,
  "bpe_32741": 32741,
  "bpe_32742": 32742,
  "bpe_32743": 32743,
  "bpe_32744": 32744,
  "bpe_32745": 32745,
  "bpe_32746": 32746,
  "bpe_32747": 32747,
  "bpe_32748": 32748,
  "bpe_32749": 32749,
  "bpe_32750": 32750,
  "bpe_32751": 32751,
  "bpe_32752": 32752,
  "bpe_32753": 32753,
  "bpe_32754": 32754,
  "bpe_32755": 32755,
  "bpe_32756": 32756,
  "bpe_32757": 32757,
  "bpe_32758": 32758,
  "bpe_32759": 32759,
  "bpe_32760": 32760,
  "bpe_32761": 32761,
  "bpe_32762": 32762,
  "bpe_32763": 32763,
  "bpe_32764": 32764,
  "bpe_32765": 32765,
  "bpe_32766": 32766,
  "bpe_32767": 32767
}