{
  "version": "1.0",
  "truncation": null,
  "padding": null,
  "added_tokens": [
    {
      "id": 0,
      "content": "<UNK>",
      "single_word": false,
      "lstrip": false,
      "rstrip": false,
      "normalized": false,
      "special": true
    },
    {
      "id": 1,
      "content": "<SEP>",
      "single_word": false,
      "lstrip": false,
      "rstrip": false,
      "normalized": false,
      "special": true
    },
    {
      "id": 2,
      "content": "<MASK>",
      "single_word": false,
      "lstrip": false,
      "rstrip": false,
      "normalized": false,
      "special": true
    },
    {
      "id": 3,
      "content": "<CLS>",
      "single_word": false,
      "lstrip": false,
      "rstrip": false,
      "normalized": false,
      "special": true
    }
  ],
  "normalizer": null,
  "pre_tokenizer": {
    "type": "Whitespace"
  },
  "post_processor": null,
  "decoder": null,
  "model": {
    "type": "WordPiece",
    "unk_token": "<UNK>",
    "continuing_subword_prefix": "##",
    "max_input_chars_per_word": 100,
    "vocab": {
      "<UNK>": 0,
      "<SEP>": 1,
      "<MASK>": 2,
      "<CLS>": 3,
      "!": 4,
      "\"": 5,
      "'": 6,
      "(": 7,
      ")": 8,
      "*": 9,
      ",": 10,
      "-": 11,
      ".": 12,
      "0": 13,
      "1": 14,
      "2": 15,
      "3": 16,
      "4": 17,
      "5": 18,
      "6": 19,
      "8": 20,
      ":": 21,
      ";": 22,
      "?": 23,
      "A": 24,
      "B": 25,
      "C": 26,
      "D": 27,
      "E": 28,
      "F": 29,
      "G": 30,
      "H": 31,
      "I": 32,
      "J": 33,
      "K": 34,
      "L": 35,
      "M": 36,
      "N": 37,
      "O": 38,
      "P": 39,
      "R": 40,
      "S": 41,
      "T": 42,
      "U": 43,
      "V": 44,
      "W": 45,
      "X": 46,
      "Y": 47,
      "Z": 48,
      "[": 49,
      "]": 50,
      "a": 51,
      "b": 52,
      "c": 53,
      "d": 54,
      "e": 55,
      "f": 56,
      "g": 57,
      "h": 58,
      "i": 59,
      "j": 60,
      "k": 61,
      "l": 62,
      "m": 63,
      "n": 64,
      "o": 65,
      "p": 66,
      "r": 67,
      "s": 68,
      "t": 69,
      "u": 70,
      "v": 71,
      "w": 72,
      "y": 73,
      "z": 74,
      "Ç": 75,
      "Ö": 76,
      "Ü": 77,
      "â": 78,
      "ç": 79,
      "ö": 80,
      "û": 81,
      "ü": 82,
      "Ğ": 83,
      "ğ": 84,
      "İ": 85,
      "ı": 86,
      "Ş": 87,
      "ş": 88,
      "–": 89,
      "##o": 90,
      "##ş": 91,
      "##l": 92,
      "##a": 93,
      "##n": 94,
      "##m": 95,
      "##z": 96,
      "##d": 97,
      "##ı": 98,
      "##u": 99,
      "##g": 100,
      "##ü": 101,
      "##p": 102,
      "##e": 103,
      "##k": 104,
      "##r": 105,
      "##i": 106,
      "##b": 107,
      "##h": 108,
      "##t": 109,
      "##v": 110,
      "##ğ": 111,
      "##c": 112,
      "##ç": 113,
      "##Y": 114,
      "##R": 115,
      "##I": 116,
      "##L": 117,
      "##M": 118,
      "##A": 119,
      "##K": 120,
      "##s": 121,
      "##y": 122,
      "##f": 123,
      "##İ": 124,
      "##O": 125,
      "##N": 126,
      "##ö": 127,
      "##E": 128,
      "##-": 129,
      "##\"": 130,
      "##.": 131,
      "##'": 132,
      "##Ğ": 133,
      "##!": 134,
      "##D": 135,
      "##V": 136,
      "##â": 137,
      "##U": 138,
      "##)": 139,
      "##5": 140,
      "##û": 141,
      "##Ş": 142,
      "##S": 143,
      "##j": 144,
      "##Ö": 145,
      "##0": 146,
      "##,": 147,
      "##Ç": 148,
      "##H": 149,
      "##Z": 150,
      "##T": 151,
      "##2": 152,
      "##C": 153,
      "##Ü": 154,
      "##;": 155,
      "##F": 156,
      "##X": 157,
      "##P": 158,
      "##B": 159,
      "##*": 160,
      "##G": 161,
      "##w": 162,
      "##1": 163,
      "##3": 164,
      "##J": 165,
      "##:": 166,
      "##4": 167,
      "##la": 168,
      "##er": 169,
      "##in": 170,
      "##ir": 171,
      "##en": 172,
      "##di": 173,
      "##an": 174,
      "##ar": 175,
      "##ın": 176,
      "bir": 177,
      "##li": 178,
      "##ak": 179,
      "de": 180,
      "##ce": 181,
      "##un": 182,
      "##le": 183,
      "##ek": 184,
      "##ma": 185,
      "##or": 186,
      "##lar": 187,
      "##dı": 188,
      "##ra": 189,
      "ka": 190,
      "##ey": 191,
      "##du": 192,
      "##iy": 193,
      "##ler": 194,
      "##lı": 195,
      "ve": 196,
      "dedi": 197,
      "##es": 198,
      "##da": 199,
      "##tı": 200,
      "##lice": 201,
      "Alice": 202,
      "##ün": 203,
      "##de": 204,
      "##il": 205,
      "##ır": 206,
      "ba": 207,
      "ol": 208,
      "##yor": 209,
      "##on": 210,
      "##im": 211,
      "bu": 212,
      "##ya": 213,
      "##ini": 214,
      "da": 215,
      "##iye": 216,
      "##ur": 217,
      "##ap": 218,
      "gö": 219,
      "##lan": 220,
      "##at": 221,
      "##el": 222,
      "##az": 223,
      "diye": 224,
      "##den": 225,
      "##em": 226,
      "##dan": 227,
      "!\"": 228,
      "##ını": 229,
      "##üş": 230,
      "##ür": 231,
      "##am": 232,
      "##yle": 233,
      "##uş": 234,
      "##ti": 235,
      ",\"": 236,
      "##ine": 237,
      "##um": 238,
      "baş": 239,
      "##ağ": 240,
      "##et": 241,
      ".\"": 242,
      "##ok": 243,
      "on": 244,
      "gi": 245,
      "##sı": 246,
      "##av": 247,
      "##ış": 248,
      "iç": 249,
      "##ka": 250,
      "##st": 251,
      "##dü": 252,
      "##ık": 253,
      "##ük": 254,
      "##ay": 255,
      "kad": 256,
      "kadar": 257,
      "##ım": 258,
      "ken": 259,
      "##unu": 260,
      "gör": 261,
      "##ladı": 262,
      "şey": 263,
      "##edi": 264,
      "##iz": 265,
      "##iç": 266,
      "ne": 267,
      "sö": 268,
      "?\"": 269,
      "Kra": 270,
      "düş": 271,
      "##al": 272,
      "##iş": 273,
      "an": 274,
      "oldu": 275,
      "##ah": 276,
      "##üz": 277,
      "Bu": 278,
      "için": 279,
      "son": 280,
      "##cı": 281,
      "##ları": 282,
      "##anı": 283,
      "##ına": 284,
      "ki": 285,
      "##ında": 286,
      "##ki": 287,
      "##yordu": 288,
      "ses": 289,
      "bi": 290,
      "##bi": 291,
      "##maya": 292,
      "do": 293,
      "düşün": 294,
      "kon": 295,
      "##eye": 296,
      "##ta": 297,
      "##tu": 298,
      "bak": 299,
      "gel": 300,
      "hiç": 301,
      "##sa": 302,
      "##ha": 303,
      "##te": 304,
      "##mış": 305,
      "değ": 306,
      "##leri": 307,
      "##me": 308,
      "##ken": 309,
      "##ru": 310,
      "##erek": 311,
      "##aş": 312,
      "daha": 313,
      "yap": 314,
      "et": 315,
      "##bil": 316,
      "##iyor": 317,
      "kendi": 318,
      "##mak": 319,
      "##uy": 320,
      "gibi": 321,
      "ben": 322,
      "##ca": 323,
      "çok": 324,
      "yer": 325,
      "##mek": 326,
      "al": 327,
      "##avş": 328,
      "konuş": 329,
      "##cak": 330,
      "--": 331,
      "sor": 332,
      "##rada": 333,
      "şek": 334,
      "Bir": 335,
      "##anın": 336,
      "sonra": 337,
      "##ğı": 338,
      "##arak": 339,
      "başladı": 340,
      "olduğ": 341,
      "ko": 342,
      "ön": 343,
      "##üç": 344,
      "Tavş": 345,
      "bo": 346,
      "##ğer": 347,
      "##öyle": 348,
      "##inde": 349,
      "ge": 350,
      "kı": 351,
      "##üy": 352,
      "##çe": 353,
      "##sın": 354,
      "olma": 355,
      "Krali": 356,
      "##si": 357,
      "##diğ": 358,
      "bun": 359,
      "##se": 360,
      "her": 361,
      "##ğru": 362,
      "##laş": 363,
      "##ların": 364,
      "kal": 365,
      "##lik": 366,
      "küç": 367,
      "##esi": 368,
      "##üm": 369,
      "göz": 370,
      "##aman": 371,
      "sa": 372,
      "yan": 373,
      "##alı": 374,
      "anla": 375,
      "As": 376,
      "di": 377,
      "kar": 378,
      "##yi": 379,
      "##ön": 380,
      "doğru": 381,
      "ola": 382,
      "##bağ": 383,
      "##akat": 384,
      "##ilde": 385,
      "düşündü": 386,
      "in": 387,
      "uz": 388,
      "##ev": 389,
      "##arla": 390,
      "şekilde": 391,
      "dur": 392,
      "tek": 393,
      "üz": 394,
      "Kap": 395,
      "ist": 396,
      "yok": 397,
      "##aki": 398,
      "iş": 399,
      "##ara": 400,
      "Far": 401,
      "Ya": 402,
      "sür": 403,
      "çık": 404,
      "##lum": 405,
      "##uk": 406,
      "##yı": 407,
      "bile": 408,
      "far": 409,
      "ha": 410,
      "##miş": 411,
      "##ep": 412,
      "##sun": 413,
      "kend": 414,
      "iyi": 415,
      "yüz": 416,
      "##it": 417,
      "##ardı": 418,
      "##cek": 419,
      "##lumbağ": 420,
      "en": 421,
      "##ası": 422,
      "##inin": 423,
      "##inden": 424,
      "söyle": 425,
      "Kral": 426,
      "ama": 427,
      "yaz": 428,
      "##ers": 429,
      "kap": 430,
      "değil": 431,
      "Kraliçe": 432,
      "Kaplumbağ": 433,
      "##ıl": 434,
      "##enin": 435,
      "##arı": 436,
      "##lık": 437,
      "##apka": 438,
      "küçük": 439,
      "el": 440,
      "görün": 441,
      "Kan": 442,
      "ar": 443,
      "büy": 444,
      "Şapka": 445,
      "##ere": 446,
      "biraz": 447,
      "##atlı": 448,
      "Ben": 449,
      "san": 450,
      "##ıyor": 451,
      "##ut": 452,
      "##ül": 453,
      "##imdi": 454,
      "##lancı": 455,
      "Aslan": 456,
      "Yalancı": 457,
      "##muş": 458,
      "##uz": 459,
      "##cağ": 460,
      "##unda": 461,
      "##bilir": 462,
      "boy": 463,
      "Kanatlı": 464,
      "Şapkacı": 465,
      "sı": 466,
      "##meye": 467,
      "##ez": 468,
      "##rar": 469,
      "##ten": 470,
      "dön": 471,
      "zaman": 472,
      "##gi": 473,
      "##tır": 474,
      "olduğunu": 475,
      "aç": 476,
      "ay": 477,
      "##ba": 478,
      "##lerini": 479,
      "mi": 480,
      "öyle": 481,
      "##len": 482,
      "##ğını": 483,
      "##eki": 484,
      "geç": 485,
      "Kaplumbağa": 486,
      "##tur": 487,
      "dev": 488,
      "##madı": 489,
      "##mıştı": 490,
      "Tavşan": 491,
      "##lu": 492,
      "##eş": 493,
      "##kü": 494,
      "##emen": 495,
      "Bun": 496,
      "uy": 497,
      "##dir": 498,
      "##üt": 499,
      "##tü": 500,
      "##sını": 501,
      "sesle": 502,
      "tekrar": 503,
      "kendine": 504,
      "il": 505,
      "##tık": 506,
      "##ırdı": 507,
      "##iniz": 508,
      "onun": 509,
      "git": 510,
      "üzer": 511,
      "Düş": 512,
      "ağ": 513,
      "bil": 514,
      "##bet": 515,
      "##..": 516,
      "devam": 517,
      "iki": 518,
      "##ari": 519,
      "##mam": 520,
      "bul": 521,
      "onu": 522,
      "söz": 523,
      "sordu": 524,
      "pek": 525,
      "ver": 526,
      "##ıp": 527,
      "##ye": 528,
      "##ledi": 529,
      "baktı": 530,
      "ho": 531,
      "##ku": 532,
      "önce": 533,
      "ara": 534,
      "yak": 535,
      "yanı": 536,
      "##tan": 537,
      "##yan": 538,
      "##larını": 539,
      "Düşes": 540,
      "Tarla": 541,
      "hemen": 542,
      "##der": 543,
      "##ça": 544,
      "##sin": 545,
      "##ından": 546,
      "söy": 547,
      "etti": 548,
      "##asıl": 549,
      "On": 550,
      "hep": 551,
      "##medi": 552,
      "##eğ": 553,
      "##ünkü": 554,
      "##ırtı": 555,
      "##bette": 556,
      "Ne": 557,
      "kö": 558,
      "yaş": 559,
      "##ol": 560,
      "##dır": 561,
      "ona": 562,
      "##üzel": 563,
      "##mez": 564,
      "El": 565,
      "böyle": 566,
      "duy": 567,
      "nasıl": 568,
      "##ğini": 569,
      "##art": 570,
      "fakat": 571,
      "ger": 572,
      "çek": 573,
      "##ik": 574,
      "##tir": 575,
      "##eni": 576,
      "##eyi": 577,
      "##eyaz": 578,
      "kız": 579,
      "...": 580,
      "kim": 581,
      "te": 582,
      "tara": 583,
      "##üyor": 584,
      "##fa": 585,
      "##una": 586,
      "bağ": 587,
      "Eğer": 588,
      "Mart": 589,
      "hay": 590,
      "oy": 591,
      "ta": 592,
      "##ul": 593,
      "##eb": 594,
      "büyük": 595,
      "Fakat": 596,
      "Son": 597,
      "den": 598,
      "gün": 599,
      "gerek": 600,
      "vardı": 601,
      "şimdi": 602,
      "##ız": 603,
      "##dim": 604,
      "##ana": 605,
      "içinde": 606,
      "--\"": 607,
      "fır": 608,
      "kez": 609,
      "otur": 610,
      "sal": 611,
      "##op": 612,
      "##yla": 613,
      "##ince": 614,
      "##liyor": 615,
      "bah": 616,
      "##azla": 617,
      "gördü": 618,
      "fark": 619,
      "ak": 620,
      "ek": 621,
      "fazla": 622,
      "hal": 623,
      "çalı": 624,
      "##üyordu": 625,
      "##sız": 626,
      "yüzden": 627,
      "Kedi": 628,
      "Tırtı": 629,
      "aş": 630,
      "ma": 631,
      "yine": 632,
      "##ği": 633,
      "##sına": 634,
      "##iyle": 635,
      "##dece": 636,
      "olur": 637,
      "başka": 638,
      "diğer": 639,
      "kapı": 640,
      "hoş": 641,
      "Elbette": 642,
      "taraf": 643,
      "çalış": 644,
      "Tırtıl": 645,
      "der": 646,
      "ço": 647,
      "##min": 648,
      "##miyor": 649,
      "##ci": 650,
      "##çek": 651,
      "##ının": 652,
      "başla": 653,
      "##ağı": 654,
      "##ste": 655,
      "durum": 656,
      "Faresi": 657,
      "yanıt": 658,
      "gir": 659,
      "jür": 660,
      "kor": 661,
      "su": 662,
      "şaş": 663,
      "##mem": 664,
      "##ıyordu": 665,
      "##ydı": 666,
      "##lim": 667,
      "##maz": 668,
      "değiş": 669,
      "yere": 670,
      "yazı": 671,
      "edi": 672,
      "ya": 673,
      "##deki": 674,
      "##lardı": 675,
      "##ünü": 676,
      "##elki": 677,
      "##mişti": 678,
      "gari": 679,
      "hav": 680,
      "sev": 681,
      "var": 682,
      "##muz": 683,
      "##aval": 684,
      "şeyler": 685,
      "Tavşanı": 686,
      "iyice": 687,
      "arka": 688,
      "garip": 689,
      "Beyaz": 690,
      "Ve": 691,
      "daki": 692,
      "ders": 693,
      "mer": 694,
      "olan": 695,
      "yük": 696,
      "##up": 697,
      "##ğim": 698,
      "##EN": 699,
      "##ması": 700,
      "##larına": 701,
      "##eyle": 702,
      "alt": 703,
      "##cağını": 704,
      "köp": 705,
      "##stelik": 706,
      "dakika": 707,
      "Ev": 708,
      "kes": 709,
      "tam": 710,
      "yar": 711,
      "zor": 712,
      "üç": 713,
      "##şı": 714,
      "##id": 715,
      "##bir": 716,
      "##ver": 717,
      "##sini": 718,
      "##siz": 719,
      "##lardan": 720,
      "kay": 721,
      "burada": 722,
      "önem": 723,
      "kalk": 724,
      "yandan": 725,
      "süre": 726,
      "ayak": 727,
      "bağırdı": 728,
      "aşağı": 729,
      "##avallı": 730,
      ".)": 731,
      "Do": 732,
      "güzel": 733,
      "nere": 734,
      "par": 735,
      "sık": 736,
      "##lında": 737,
      "##manın": 738,
      "##dey": 739,
      "##daki": 740,
      "##çı": 741,
      "##AN": 742,
      "##lara": 743,
      "##ırım": 744,
      "##aten": 745,
      "konuşma": 746,
      "koş": 747,
      "sadece": 748,
      "anlat": 749,
      "uzak": 750,
      "uzun": 751,
      "##ütün": 752,
      "gitti": 753,
      "jüri": 754,
      "Hay": 755,
      "as": 756,
      "hak": 757,
      "mı": 758,
      "yara": 759,
      "çay": 760,
      "çünkü": 761,
      "##oz": 762,
      "##dın": 763,
      "##ılan": 764,
      "##gün": 765,
      "##--": 766,
      "##eri": 767,
      "kafa": 768,
      "##duğ": 769,
      "olduk": 770,
      "##aha": 771,
      "##diği": 772,
      "##muştu": 773,
      "yüks": 774,
      "Bil": 775,
      "Daha": 776,
      "Ma": 777,
      "at": 778,
      "bek": 779,
      "ku": 780,
      "kuy": 781,
      "oku": 782,
      "sen": 783,
      "top": 784,
      "öğ": 785,
      "şöyle": 786,
      "##mıyor": 787,
      "##gın": 788,
      "##ke": 789,
      "##van": 790,
      "##ğa": 791,
      "##cuk": 792,
      "##sunu": 793,
      "##fen": 794,
      "##lay": 795,
      "##dığını": 796,
      "kaç": 797,
      "geldi": 798,
      "##diğini": 799,
      "bunun": 800,
      "Fare": 801,
      "sıra": 802,
      "üzerine": 803,
      "çocuk": 804,
      "oldukça": 805,
      "ev": 806,
      "ile": 807,
      "kur": 808,
      "kedi": 809,
      "mu": 810,
      "çö": 811,
      "İş": 812,
      "##aya": 813,
      "##zı": 814,
      "##dür": 815,
      "##uyor": 816,
      "##tim": 817,
      "##unun": 818,
      "##lerin": 819,
      "##esini": 820,
      "##ahk": 821,
      "sonunda": 822,
      "##meden": 823,
      "benz": 824,
      "##sından": 825,
      "olacak": 826,
      "fare": 827,
      "açık": 828,
      "ilk": 829,
      "ağa": 830,
      "söylen": 831,
      "İşte": 832,
      "Ah": 833,
      "alı": 834,
      "bunu": 835,
      "kuş": 836,
      "yür": 837,
      "çor": 838,
      "##müş": 839,
      "##ecek": 840,
      "##kı": 841,
      "##kes": 842,
      "##ven": 843,
      "##sine": 844,
      "##lama": 845,
      "##diş": 846,
      "deli": 847,
      "##larak": 848,
      "##larım": 849,
      "##raf": 850,
      "##etti": 851,
      "##ahat": 852,
      "##caba": 853,
      "kol": 854,
      "artık": 855,
      "sırada": 856,
      "Bunun": 857,
      "ekledi": 858,
      "merak": 859,
      "önemli": 860,
      "öğr": 861,
      "Her": 862,
      "kır": 863,
      "mahk": 864,
      "##rta": 865,
      "##vr": 866,
      "##su": 867,
      "##İN": 868,
      "##inle": 869,
      "##arp": 870,
      "birden": 871,
      "##cele": 872,
      "##etir": 873,
      "##sıl": 874,
      "##ize": 875,
      "##için": 876,
      "##bile": 877,
      "yapa": 878,
      "benim": 879,
      "olmalı": 880,
      "istedi": 881,
      "yoktu": 882,
      "##yıp": 883,
      "endiş": 884,
      "##gili": 885,
      "##eğin": 886,
      "gerçek": 887,
      "tamam": 888,
      "kayb": 889,
      "San": 890,
      "az": 891,
      "acele": 892,
      "can": 893,
      "dö": 894,
      "gül": 895,
      "pen": 896,
      "rahat": 897,
      "tu": 898,
      "tut": 899,
      "uç": 900,
      "yet": 901,
      "Çünkü": 902,
      "Şimdi": 903,
      "##ala": 904,
      "##uyordu": 905,
      "##caman": 906,
      "##sır": 907,
      "##yım": 908,
      "##inci": 909,
      "##dik": 910,
      "##angi": 911,
      "##malı": 912,
      "##larla": 913,
      "##ünde": 914,
      "onları": 915,
      "anda": 916,
      "Burada": 917,
      "biliyor": 918,
      "etraf": 919,
      "olduğu": 920,
      "Kraliç": 921,
      "buna": 922,
      "##alım": 923,
      "karış": 924,
      "işit": 925,
      "ilg": 926,
      "yaklaş": 927,
      "hepsi": 928,
      "telaş": 929,
      "yanıtladı": 930,
      "hakk": 931,
      "An": 932,
      "Belki": 933,
      "Gü": 934,
      "Tam": 935,
      "beb": 936,
      "dan": 937,
      "diy": 938,
      "getir": 939,
      "olarak": 940,
      "orta": 941,
      "ser": 942,
      "tak": 943,
      "tah": 944,
      "yön": 945,
      "çev": 946,
      "şar": 947,
      "##meyi": 948,
      "##is": 949,
      "##say": 950,
      "##sında": 951,
      "##sanın": 952,
      "##ydi": 953,
      "##liyordu": 954,
      "##unca": 955,
      "##dığ": 956,
      "##lerden": 957,
      "##üne": 958,
      "başını": 959,
      "neden": 960,
      "##iyordu": 961,
      "konuştu": 962,
      "soru": 963,
      "kocaman": 964,
      "##likle": 965,
      "saat": 966,
      "dik": 967,
      "karar": 968,
      "##lıkla": 969,
      "bulun": 970,
      "hoşlan": 971,
      "Evet": 972,
      "kaybol": 973,
      "Ama": 974,
      "Böyle": 975,
      "Peki": 976,
      "Sen": 977,
      "aya": 978,
      "bana": 979,
      "eder": 980,
      "emin": 981,
      "hız": 982,
      "ik": 983,
      "sır": 984,
      "zavallı": 985,
      "öy": 986,
      "##rn": 987,
      "##tar": 988,
      "##san": 989,
      "##siniz": 990,
      "##inç": 991,
      "demek": 992,
      "##madan": 993,
      "##mayı": 994,
      "##mamıştı": 995,
      "##larında": 996,
      "##dur": 997,
      "##lerim": 998,
      "##ırda": 999,
      "gider": 1000,
      "##ayı": 1001,
      "sessiz": 1002,
      "bit": 1003,
      "gelen": 1004,
      "aldı": 1005,
      "kısa": 1006,
      "##larının": 1007,
      "kaldı": 1008,
      "##cağım": 1009,
      "ayn": 1010,
      "##ütfen": 1011,
      "söyler": 1012,
      "oyun": 1013,
      "Sonra": 1014,
      "halde": 1015,
      "kork": 1016,
      "köpek": 1017,
      "##deyse": 1018,
      "Bill": 1019,
      "!'": 1020,
      "Din": 1021,
      "Ken": 1022,
      "bütün": 1023,
      "dış": 1024,
      "diz": 1025,
      "es": 1026,
      "gü": 1027,
      "gen": 1028,
      "ise": 1029,
      "un": 1030,
      "yav": 1031,
      "üstelik": 1032,
      "##şak": 1033,
      "##mesi": 1034,
      "##gu": 1035,
      "##ip": 1036,
      "##cer": 1037,
      "##laya": 1038,
      "##diven": 1039,
      "olsay": 1040,
      "göst": 1041,
      "nef": 1042,
      "sesi": 1043,
      "konu": 1044,
      "yaptı": 1045,
      "beni": 1046,
      "saç": 1047,
      "karşı": 1048,
      "sürdür": 1049,
      "hatır": 1050,
      "Benim": 1051,
      "döndü": 1052,
      "üzerinde": 1053,
      "kızgın": 1054,
      "hayk": 1055,
      "bahç": 1056,
      "gördüğ": 1057,
      "çalıştı": 1058,
      "Hayır": 1059,
      "yüksek": 1060,
      "##mıyorum": 1061,
      "diyerek": 1062,
      "Dinah": 1063,
      "\"--": 1064,
      "Ak": 1065,
      "BÖ": 1066,
      "Bunu": 1067,
      "cid": 1068,
      "iz": 1069,
      "mut": 1070,
      "niçin": 1071,
      "orada": 1072,
      "taş": 1073,
      "tüm": 1074,
      "tit": 1075,
      "vey": 1076,
      "ye": 1077,
      "##do": 1078,
      "##din": 1079,
      "##uv": 1080,
      "##üp": 1081,
      "##paz": 1082,
      "##ber": 1083,
      "##tür": 1084,
      "##İM": 1085,
      "##ER": 1086,
      "##lamaya": 1087,
      "##erken": 1088,
      "##indeki": 1089,
      "##aret": 1090,
      "biri": 1091,
      "##akoz": 1092,
      "kaz": 1093,
      "kaf": 1094,
      "##lerine": 1095,
      "bura": 1096,
      "##urta": 1097,
      "##landı": 1098,
      "##elpaz": 1099,
      "##eme": 1100,
      "##uştur": 1101,
      "##stakoz": 1102,
      "göre": 1103,
      "##izin": 1104,
      "domuz": 1105,
      "düşünce": 1106,
      "herkes": 1107,
      "gözlerini": 1108,
      "sab": 1109,
      "yanında": 1110,
      "ister": 1111,
      "işe": 1112,
      "sanki": 1113,
      "##bilirim": 1114,
      "misin": 1115,
      "uyku": 1116,
      "bilmiyor": 1117,
      "geri": 1118,
      "...\"": 1119,
      "##verc": 1120,
      "Dodo": 1121,
      "bekledi": 1122,
      "aceleyle": 1123,
      "yeter": 1124,
      "şarkı": 1125,
      "göster": 1126,
      "sürdürdü": 1127,
      "ciddi": 1128,
      "titr": 1129,
      "veya": 1130,
      "Ka": 1131,
      "Zaten": 1132,
      "har": 1133,
      "hangi": 1134,
      "kr": 1135,
      "nin": 1136,
      "sak": 1137,
      "uc": 1138,
      "yeni": 1139,
      "yılan": 1140,
      "yelpaz": 1141,
      "şu": 1142,
      "şiş": 1143,
      "##men": 1144,
      "##man": 1145,
      "##mes": 1146,
      "##ıç": 1147,
      "##ılı": 1148,
      "##uma": 1149,
      "##kın": 1150,
      "##if": 1151,
      "##ğında": 1152,
      "##cük": 1153,
      "##LÜ": 1154,
      "##AR": 1155,
      "##sem": 1156,
      "##İR": 1157,
      "##lacak": 1158,
      "##irdi": 1159,
      "##arım": 1160,
      "##dum": 1161,
      "##iydi": 1162,
      "##lerinin": 1163,
      "##lerinden": 1164,
      "##lığı": 1165,
      "##yorum": 1166,
      "davr": 1167,
      "##urun": 1168,
      "##urken": 1169,
      "##emek": 1170,
      "onlar": 1171,
      "sesini": 1172,
      "bakalım": 1173,
      "olmaz": 1174,
      "##arlak": 1175,
      "çıktı": 1176,
      "haya": 1177,
      "##ersen": 1178,
      "değildi": 1179,
      "buldu": 1180,
      "Sonunda": 1181,
      "masanın": 1182,
      "durumda": 1183,
      "girdi": 1184,
      "##memiş": 1185,
      "neredeyse": 1186,
      "kafasını": 1187,
      "öğren": 1188,
      "Sanırım": 1189,
      "telaşla": 1190,
      "sert": 1191,
      "tahta": 1192,
      "aynı": 1193,
      "unut": 1194,
      "BÖLÜ": 1195,
      "##vercin": 1196,
      "BÖLÜM": 1197,
      ".'": 1198,
      "?'": 1199,
      "BU": 1200,
      "Bak": 1201,
      "En": 1202,
      "Ger": 1203,
      "Hiç": 1204,
      "Lütfen": 1205,
      "NE": 1206,
      "Sa": 1207,
      "Uşak": 1208,
      "arada": 1209,
      "biz": 1210,
      "belki": 1211,
      "dinle": 1212,
      "kir": 1213,
      "say": 1214,
      "um": 1215,
      "zaten": 1216,
      "Üstelik": 1217,
      "üst": 1218,
      "İn": 1219,
      "ın": 1220,
      "##luk": 1221,
      "##ıt": 1222,
      "##gun": 1223,
      "##üğ": 1224,
      "##eç": 1225,
      "##ker": 1226,
      "##rı": 1227,
      "##ri": 1228,
      "##raki": 1229,
      "##jes": 1230,
      "##arken": 1231,
      "kav": 1232,
      "##lerinde": 1233,
      "##esine": 1234,
      "##ilen": 1235,
      "##ırak": 1236,
      "dal": 1237,
      "##elir": 1238,
      "##tiğini": 1239,
      "anah": 1240,
      "alç": 1241,
      "koy": 1242,
      "boş": 1243,
      "##sının": 1244,
      "yanına": 1245,
      "anlam": 1246,
      "Aslında": 1247,
      "olabilir": 1248,
      "üzgün": 1249,
      "istem": 1250,
      "sana": 1251,
      "sanırım": 1252,
      "boyunca": 1253,
      "dönerek": 1254,
      "salon": 1255,
      "derin": 1256,
      "##çekten": 1257,
      "yazılı": 1258,
      "arkasından": 1259,
      "##duğu": 1260,
      "Majes": 1261,
      "kuyru": 1262,
      "##layarak": 1263,
      "çorba": 1264,
      "endişeyle": 1265,
      "tamamen": 1266,
      "hakkında": 1267,
      "söylerken": 1268,
      "dışarı": 1269,
      "haykırdı": 1270,
      "Gerçekten": 1271,
      "Majeste": 1272,
      "Hep": 1273,
      "Keş": 1274,
      "atı": 1275,
      "acaba": 1276,
      "beyaz": 1277,
      "bırak": 1278,
      "man": 1279,
      "sah": 1280,
      "ter": 1281,
      "tav": 1282,
      "tanı": 1283,
      "tep": 1284,
      "vur": 1285,
      "yum": 1286,
      "Çok": 1287,
      "Ön": 1288,
      "Öyle": 1289,
      "çarp": 1290,
      "üye": 1291,
      "##oy": 1292,
      "##derek": 1293,
      "##diniz": 1294,
      "##balı": 1295,
      "##hir": 1296,
      "##tal": 1297,
      "##ğunu": 1298,
      "##cık": 1299,
      "##cere": 1300,
      "##yın": 1301,
      "##lam": 1302,
      "##lak": 1303,
      "##ıntı": 1304,
      "##iyim": 1305,
      "##lerle": 1306,
      "##illi": 1307,
      "##ırken": 1308,
      "##emeye": 1309,
      "içeri": 1310,
      "##makta": 1311,
      "yerine": 1312,
      "Biraz": 1313,
      "bunlar": 1314,
      "##larından": 1315,
      "##likte": 1316,
      "küçül": 1317,
      "gözden": 1318,
      "istiyor": 1319,
      "işte": 1320,
      "sürü": 1321,
      "çıkardı": 1322,
      "çıkarı": 1323,
      "##bilirsin": 1324,
      "açtı": 1325,
      "##lendi": 1326,
      "geçti": 1327,
      "##madım": 1328,
      "verdi": 1329,
      "hayvan": 1330,
      "##uldu": 1331,
      "farketti": 1332,
      "tarafından": 1333,
      "şaşkın": 1334,
      "değiştir": 1335,
      "ediyor": 1336,
      "parça": 1337,
      "uzaklaş": 1338,
      "##sunuz": 1339,
      "ağaç": 1340,
      "merakla": 1341,
      "##bilece": 1342,
      "Güvercin": 1343,
      "dansa": 1344,
      "nefes": 1345,
      "davran": 1346,
      "kirp": 1347,
      "Majesteleri": 1348,
      "Keşke": 1349,
      ",'": 1350,
      "Acaba": 1351,
      "Bay": 1352,
      "Bütün": 1353,
      "Yine": 1354,
      "Zavallı": 1355,
      "be": 1356,
      "eğer": 1357,
      "fı": 1358,
      "his": 1359,
      "kiş": 1360,
      "omuz": 1361,
      "senin": 1362,
      "seni": 1363,
      "ters": 1364,
      "ulaş": 1365,
      "yol": 1366,
      "yuv": 1367,
      "ça": 1368,
      "öl": 1369,
      "öf": 1370,
      "İki": 1371,
      "##lk": 1372,
      "##mur": 1373,
      "##uya": 1374,
      "##pey": 1375,
      "##ptal": 1376,
      "##ed": 1377,
      "##kle": 1378,
      "##kır": 1379,
      "##kat": 1380,
      "##hes": 1381,
      "##tap": 1382,
      "##ğan": 1383,
      "##can": 1384,
      "##AL": 1385,
      "##sey": 1386,
      "##sat": 1387,
      "##yarak": 1388,
      "##İL": 1389,
      "##ındaki": 1390,
      "birlikte": 1391,
      "##dım": 1392,
      "kala": 1393,
      "##esinde": 1394,
      "##ünden": 1395,
      "##det": 1396,
      "##ildi": 1397,
      "balık": 1398,
      "olsun": 1399,
      "bula": 1400,
      "götür": 1401,
      "##azı": 1402,
      "##uşma": 1403,
      "görev": 1404,
      "neler": 1405,
      "sonraki": 1406,
      "kitap": 1407,
      "bitir": 1408,
      "dolaş": 1409,
      "bakıyordu": 1410,
      "gelmez": 1411,
      "yapıl": 1412,
      "kendisine": 1413,
      "konuşmaya": 1414,
      "##diğim": 1415,
      "kaldır": 1416,
      "dib": 1417,
      "olacağını": 1418,
      "##ukarı": 1419,
      "haf": 1420,
      "kendini": 1421,
      "elbette": 1422,
      "eldiven": 1423,
      "görünm": 1424,
      "görünce": 1425,
      "Beni": 1426,
      "santim": 1427,
      "dönüş": 1428,
      "##sınız": 1429,
      "sözcük": 1430,
      "yakın": 1431,
      "Onu": 1432,
      "Onun": 1433,
      "yaşlı": 1434,
      "duydu": 1435,
      "çekti": 1436,
      "fırladı": 1437,
      "bahçı": 1438,
      "farklı": 1439,
      "aksır": 1440,
      "masa": 1441,
      "durumu": 1442,
      "yararı": 1443,
      "zorunda": 1444,
      "aslında": 1445,
      "asker": 1446,
      "yaratık": 1447,
      "rahatsız": 1448,
      "ilginç": 1449,
      "dikkat": 1450,
      "öykü": 1451,
      "eski": 1452,
      "bahçeye": 1453,
      "Önce": 1454,
      "fısıl": 1455,
      "Baş": 1456,
      "Büy": 1457,
      "BEN": 1458,
      "BİR": 1459,
      "Hemen": 1460,
      "Kon": 1461,
      "Oğ": 1462,
      "Pek": 1463,
      "SEN": 1464,
      "Willi": 1465,
      "ağı": 1466,
      "ces": 1467,
      "cam": 1468,
      "em": 1469,
      "epey": 1470,
      "fla": 1471,
      "gür": 1472,
      "haz": 1473,
      "ida": 1474,
      "peş": 1475,
      "se": 1476,
      "tan": 1477,
      "tem": 1478,
      "tür": 1479,
      "tık": 1480,
      "tavş": 1481,
      "yağ": 1482,
      "çı": 1483,
      "çen": 1484,
      "öt": 1485,
      "İlk": 1486,
      "ıstakoz": 1487,
      "##af": 1488,
      "##ga": 1489,
      "##üst": 1490,
      "##ktü": 1491,
      "##rt": 1492,
      "##rım": 1493,
      "##bür": 1494,
      "##bası": 1495,
      "##ğın": 1496,
      "##sk": 1497,
      "##sam": 1498,
      "##yen": 1499,
      "##lat": 1500,
      "##layıp": 1501,
      "##enüz": 1502,
      "birine": 1503,
      "birbir": 1504,
      "##leş": 1505,
      "##lem": 1506,
      "##lemek": 1507,
      "##ekli": 1508,
      "##dığı": 1509,
      "##ral": 1510,
      "##lıyor": 1511,
      "##lıyordu": 1512,
      "bazı": 1513,
      "olmak": 1514,
      "##elen": 1515,
      "##umu": 1516,
      "gide": 1517,
      "içini": 1518,
      "##ımı": 1519,
      "##anız": 1520,
      "seslendi": 1521,
      "dolu": 1522,
      "##haf": 1523,
      "değer": 1524,
      "##bildiğ": 1525,
      "kendisini": 1526,
      "##uyla": 1527,
      "boğ": 1528,
      "bundan": 1529,
      "bunları": 1530,
      "yoksa": 1531,
      "çıkar": 1532,
      "hadi": 1533,
      "büyüm": 1534,
      "##ezg": 1535,
      "Bunların": 1536,
      "ilgili": 1537,
      "ağz": 1538,
      "sözleri": 1539,
      "araya": 1540,
      "yakala": 1541,
      "oyn": 1542,
      "deniz": 1543,
      "fırsat": 1544,
      "##inceye": 1545,
      "ekmek": 1546,
      "kapıyı": 1547,
      "##ming": 1548,
      "başlamıştı": 1549,
      "sust": 1550,
      "havaya": 1551,
      "sevin": 1552,
      "altına": 1553,
      "##bire": 1554,
      "attı": 1555,
      "kuru": 1556,
      "birdenbire": 1557,
      "##bilecek": 1558,
      "tuhaf": 1559,
      "karıştır": 1560,
      "ilgilen": 1561,
      "bebeğ": 1562,
      "hızlı": 1563,
      "ikinci": 1564,
      "alçak": 1565,
      "hiss": 1566,
      "kişi": 1567,
      "fısılda": 1568,
      "Oğlan": 1569,
      "William": 1570,
      "ağız": 1571,
      "flaming": 1572,
      "gürül": 1573,
      "!..": 1574,
      "),": 1575,
      ":--": 1576,
      "Ar": 1577,
      "AL": 1578,
      "Ay": 1579,
      "Beş": 1580,
      "Ches": 1581,
      "Gö": 1582,
      "Ha": 1583,
      "Kup": 1584,
      "Oy": 1585,
      "Sana": 1586,
      "Ta": 1587,
      "Vay": 1588,
      "ait": 1589,
      "dün": 1590,
      "eğ": 1591,
      "ede": 1592,
      "fik": 1593,
      "hıç": 1594,
      "henüz": 1595,
      "niye": 1596,
      "ok": 1597,
      "oğ": 1598,
      "sar": 1599,
      "sok": 1600,
      "sav": 1601,
      "siz": 1602,
      "seb": 1603,
      "tiz": 1604,
      "yanın": 1605,
      "ÇO": 1606,
      "çar": 1607,
      "çağ": 1608,
      "öz": 1609,
      "ür": 1610,
      "ıs": 1611,
      "##şam": 1612,
      "##lü": 1613,
      "##menin": 1614,
      "##mız": 1615,
      "##ıyla": 1616,
      "##re": 1617,
      "##iir": 1618,
      "##bla": 1619,
      "##ter": 1620,
      "##taki": 1621,
      "##tarı": 1622,
      "##ğına": 1623,
      "##LE": 1624,
      "##yet": 1625,
      "##yse": 1626,
      "##İÇ": 1627,
      "birinin": 1628,
      "##undan": 1629,
      "##lecek": 1630,
      "kab": 1631,
      "##lış": 1632,
      "##lır": 1633,
      "##lığa": 1634,
      "##esim": 1635,
      "##tım": 1636,
      "##ırıl": 1637,
      "olmuş": 1638,
      "burn": 1639,
      "##ağan": 1640,
      "ondan": 1641,
      "onlara": 1642,
      "gidi": 1643,
      "##düğ": 1644,
      "şeyin": 1645,
      "ancak": 1646,
      "gelir": 1647,
      "gelmişti": 1648,
      "hiçbir": 1649,
      "##bilmek": 1650,
      "##uyu": 1651,
      "##uydu": 1652,
      "yerinden": 1653,
      "şeker": 1654,
      "##ğıt": 1655,
      "kıp": 1656,
      "olmadığ": 1657,
      "bunların": 1658,
      "gözleri": 1659,
      "anlaya": 1660,
      "olağan": 1661,
      "uzat": 1662,
      "işi": 1663,
      "sürekli": 1664,
      "söylemek": 1665,
      "söyleye": 1666,
      "Kaplumbağanın": 1667,
      "görünür": 1668,
      "boyn": 1669,
      "sıç": 1670,
      "geçerken": 1671,
      "sözünü": 1672,
      "pekmez": 1673,
      "homur": 1674,
      "çekin": 1675,
      "kimse": 1676,
      "##üyorum": 1677,
      "oturdu": 1678,
      "akl": 1679,
      "diğerleri": 1680,
      "yarar": 1681,
      "nerede": 1682,
      "##ANI": 1683,
      "çöz": 1684,
      "benzer": 1685,
      "alış": 1686,
      "dört": 1687,
      "uçurun": 1688,
      "biliyorsun": 1689,
      "etrafında": 1690,
      "işitti": 1691,
      "çevir": 1692,
      "kayboldu": 1693,
      "eminim": 1694,
      "sırıt": 1695,
      "##rneğin": 1696,
      "##tarın": 1697,
      "güc": 1698,
      "genç": 1699,
      "yavru": 1700,
      "yavaş": 1701,
      "saçma": 1702,
      "kazan": 1703,
      "kafası": 1704,
      "sabır": 1705,
      "##rıca": 1706,
      "##balık": 1707,
      "##hire": 1708,
      "çıkarılacak": 1709,
      "bahçıvan": 1710,
      "cesaret": 1711,
      "hazır": 1712,
      "##bildiğince": 1713,
      "##ezgit": 1714,
      "flamingo": 1715,
      "gürültü": 1716,
      "Beşli": 1717,
      "Cheshire": 1718,
      "Kupa": 1719,
      "ÇOK": 1720,
      "(\"": 1721,
      "Aş": 1722,
      "Ey": 1723,
      "Güzel": 1724,
      "Gelir": 1725,
      "HİÇ": 1726,
      "Kı": 1727,
      "Ku": 1728,
      "Ker": 1729,
      "Küç": 1730,
      "Nere": 1731,
      "OL": 1732,
      "Pat": 1733,
      "Senin": 1734,
      "Tek": 1735,
      "Yedi": 1736,
      "ah": 1737,
      "av": 1738,
      "asıl": 1739,
      "bö": 1740,
      "efen": 1741,
      "ederek": 1742,
      "fin": 1743,
      "ke": 1744,
      "mırıl": 1745,
      "mezgit": 1746,
      "ner": 1747,
      "ora": 1748,
      "parlak": 1749,
      "so": 1750,
      "sağ": 1751,
      "sol": 1752,
      "tar": 1753,
      "tır": 1754,
      "turta": 1755,
      "yor": 1756,
      "yarı": 1757,
      "yukarı": 1758,
      "Örneğin": 1759,
      "çal": 1760,
      "çeş": 1761,
      "öbür": 1762,
      "üy": 1763,
      "İç": 1764,
      "ısır": 1765,
      "şid": 1766,
      "şiir": 1767,
      "##ldı": 1768,
      "##ada": 1769,
      "##abilir": 1770,
      "##dek": 1771,
      "##gı": 1772,
      "##geç": 1773,
      "##üme": 1774,
      "##kin": 1775,
      "##kları": 1776,
      "##ran": 1777,
      "##ret": 1778,
      "##rarla": 1779,
      "##ilim": 1780,
      "##bel": 1781,
      "##biydi": 1782,
      "##tem": 1783,
      "##vır": 1784,
      "##vet": 1785,
      "##ğının": 1786,
      "##cu": 1787,
      "##çık": 1788,
      "##suz": 1789,
      "##sanız": 1790,
      "##fak": 1791,
      "##OR": 1792,
      "##ND": 1793,
      "##DE": 1794,
      "##Sİ": 1795,
      "##**": 1796,
      "##laka": 1797,
      "##layan": 1798,
      "##arar": 1799,
      "##lip": 1800,
      "##ekk": 1801,
      "##mamış": 1802,
      "##larda": 1803,
      "##lerek": 1804,
      "##leriyle": 1805,
      "bas": 1806,
      "olmuştu": 1807,
      "##apağan": 1808,
      "##atta": 1809,
      "##ellikle": 1810,
      "##emez": 1811,
      "##dandı": 1812,
      "##ürken": 1813,
      "##amanı": 1814,
      "##tiş": 1815,
      "başta": 1816,
      "gibiydi": 1817,
      "görür": 1818,
      "şeyi": 1819,
      "anladı": 1820,
      "##anıt": 1821,
      "biber": 1822,
      "düşünmeye": 1823,
      "bakarak": 1824,
      "geldiğini": 1825,
      "değilim": 1826,
      "yapıyor": 1827,
      "##bildiği": 1828,
      "##maktan": 1829,
      "##mekten": 1830,
      "aldır": 1831,
      "##ğıyla": 1832,
      "olmadı": 1833,
      "olması": 1834,
      "olmayan": 1835,
      "##diğin": 1836,
      "yanlış": 1837,
      "anlata": 1838,
      "anlamak": 1839,
      "insan": 1840,
      "duruşma": 1841,
      "tekrarla": 1842,
      "hala": 1843,
      "hale": 1844,
      "##sunda": 1845,
      "##ardım": 1846,
      "söylemedi": 1847,
      "söyledik": 1848,
      "yazıl": 1849,
      "kapa": 1850,
      "kapının": 1851,
      "##ıldı": 1852,
      "ellerini": 1853,
      "##cağı": 1854,
      "boyu": 1855,
      "##lendir": 1856,
      "Bundan": 1857,
      "Bunları": 1858,
      "uygun": 1859,
      "tekrarladı": 1860,
      "ikisi": 1861,
      "arasında": 1862,
      "Onlar": 1863,
      "kötü": 1864,
      "böylece": 1865,
      "##iklik": 1866,
      "denedi": 1867,
      "gereken": 1868,
      "vardır": 1869,
      "aksi": 1870,
      "halinde": 1871,
      "olurdu": 1872,
      "olursa": 1873,
      "kapıya": 1874,
      "hoşuma": 1875,
      "tarafına": 1876,
      "şaşır": 1877,
      "değişiklik": 1878,
      "edil": 1879,
      "havuz": 1880,
      "arkada": 1881,
      "altın": 1882,
      "kesil": 1883,
      "kalktı": 1884,
      "kalkış": 1885,
      "kalkıp": 1886,
      "Haydi": 1887,
      "mısın": 1888,
      "yarasa": 1889,
      "##duğunu": 1890,
      "kula": 1891,
      "çöktü": 1892,
      "yürüm": 1893,
      "mahkeme": 1894,
      "yapacak": 1895,
      "##giliz": 1896,
      "gerçekten": 1897,
      "Kraliçenin": 1898,
      "çevr": 1899,
      "nedenle": 1900,
      "Böylece": 1901,
      "ayağa": 1902,
      "ederim": 1903,
      "öyk": 1904,
      "Kend": 1905,
      "##cera": 1906,
      "yetiş": 1907,
      "buraya": 1908,
      "sakin": 1909,
      "şişe": 1910,
      "##memişti": 1911,
      "tahtalarına": 1912,
      "üstünde": 1913,
      "İngiliz": 1914,
      "terey": 1915,
      "tanığı": 1916,
      "üyeleri": 1917,
      "kirpi": 1918,
      "öfk": 1919,
      "görevli": 1920,
      "dibinde": 1921,
      "görünmüyordu": 1922,
      "Konuş": 1923,
      "epeyce": 1924,
      "selam": 1925,
      "tavşan": 1926,
      "birbirine": 1927,
      "bazıları": 1928,
      "fısıldadı": 1929,
      "hıçkır": 1930,
      "##mızı": 1931,
      "sıçra": 1932,
      "Kerten": 1933,
      "Küçük": 1934,
      "efendim": 1935,
      "şiddet": 1936,
      "\".": 1937,
      "Aman": 1938,
      "Bi": 1939,
      "Cel": 1940,
      "Demek": 1941,
      "Eh": 1942,
      "Fran": 1943,
      "Hey": 1944,
      "Istakoz": 1945,
      "Jür": 1946,
      "Ko": 1947,
      "Kor": 1948,
      "Nor": 1949,
      "Niçin": 1950,
      "Papağan": 1951,
      "Söyle": 1952,
      "Yan": 1953,
      "Yar": 1954,
      "Yok": 1955,
      "aptal": 1956,
      "abla": 1957,
      "bey": 1958,
      "belir": 1959,
      "düz": 1960,
      "diyor": 1961,
      "düzel": 1962,
      "duya": 1963,
      "eş": 1964,
      "giy": 1965,
      "hır": 1966,
      "hem": 1967,
      "ih": 1968,
      "ileri": 1969,
      "kesi": 1970,
      "kul": 1971,
      "laz": 1972,
      "mü": 1973,
      "mem": 1974,
      "nar": 1975,
      "ot": 1976,
      "oda": 1977,
      "per": 1978,
      "plan": 1979,
      "utan": 1980,
      "vere": 1981,
      "zamanı": 1982,
      "Çen": 1983,
      "çiç": 1984,
      "çif": 1985,
      "##os": 1986,
      "##lük": 1987,
      "##ali": 1988,
      "##ast": 1989,
      "##acak": 1990,
      "##nun": 1991,
      "##dını": 1992,
      "##ele": 1993,
      "##ebilirim": 1994,
      "##kar": 1995,
      "##kış": 1996,
      "##ktan": 1997,
      "##rü": 1998,
      "##rak": 1999,
      "##bar": 2000,
      "##buk": 2001,
      "##tını": 2002,
      "##ğine": 2003,
      "##ğal": 2004,
      "##ğinde": 2005,
      "##II": 2006,
      "##AM": 2007,
      "##sinin": 2008,
      "##EK": 2009,
      "##lamak": 2010,
      "##lamanın": 2011,
      "##irim": 2012,
      "##irmeye": 2013,
      "##anım": 2014,
      "##ınca": 2015,
      "birini": 2016,
      "##ceğim": 2017,
      "##orba": 2018,
      "##dılar": 2019,
      "katı": 2020,
      "kalem": 2021,
      "##lere": 2022,
      "##lım": 2023,
      "##esinin": 2024,
      "##esinden": 2025,
      "##tıp": 2026,
      "##ünüz": 2027,
      "##üntü": 2028,
      "##ırsa": 2029,
      "baca": 2030,
      "bayan": 2031,
      "oluş": 2032,
      "olmaya": 2033,
      "olup": 2034,
      "başına": 2035,
      "başının": 2036,
      "##ağa": 2037,
      "##etre": 2038,
      "onların": 2039,
      "içine": 2040,
      "##kab": 2041,
      "##dül": 2042,
      "##ayet": 2043,
      "##ımda": 2044,
      "anım": 2045,
      "Bura": 2046,
      "kibar": 2047,
      "biten": 2048,
      "biliyordu": 2049,
      "düşünüyordu": 2050,
      "##tul": 2051,
      "##tuğ": 2052,
      "yapan": 2053,
      "yaprak": 2054,
      "etki": 2055,
      "##iyorum": 2056,
      "##makla": 2057,
      "yerde": 2058,
      "alkış": 2059,
      "konuşan": 2060,
      "konuşmak": 2061,
      "konuşmanın": 2062,
      "konuşuyor": 2063,
      "şekl": 2064,
      "başladılar": 2065,
      "önüne": 2066,
      "Tavşanın": 2067,
      "geliyordu": 2068,
      "##çelerini": 2069,
      "##diğinde": 2070,
      "##ümü": 2071,
      "diken": 2072,
      "dilerim": 2073,
      "olabildiğince": 2074,
      "##bağa": 2075,
      "Kapı": 2076,
      "istersen": 2077,
      "işaret": 2078,
      "Faresini": 2079,
      "yüzüne": 2080,
      "Kralın": 2081,
      "yazık": 2082,
      "elini": 2083,
      "elindeki": 2084,
      "görünüyordu": 2085,
      "Aslana": 2086,
      "Aslanın": 2087,
      "boyunda": 2088,
      "ayrıca": 2089,
      "öylesine": 2090,
      "öyleydi": 2091,
      "##madığını": 2092,
      "##eşekk": 2093,
      "uygu": 2094,
      "bilgi": 2095,
      "##arif": 2096,
      "baktılar": 2097,
      "söyl": 2098,
      "Onları": 2099,
      "##medim": 2100,
      "köş": 2101,
      "yaşıyor": 2102,
      "çekerek": 2103,
      "##iket": 2104,
      "tarafa": 2105,
      "##üyorlardı": 2106,
      "hayv": 2107,
      "gerekir": 2108,
      "gerektiğini": 2109,
      "oturan": 2110,
      "oturup": 2111,
      "salladı": 2112,
      "sallayarak": 2113,
      "aşçı": 2114,
      "başlaya": 2115,
      "başlayan": 2116,
      "jüriye": 2117,
      "korku": 2118,
      "şaşırdı": 2119,
      "##mazdı": 2120,
      "havada": 2121,
      "sevinç": 2122,
      "merdiven": 2123,
      "##ğimde": 2124,
      "zorluk": 2125,
      "##verdi": 2126,
      "ayaklarına": 2127,
      "Doğru": 2128,
      "parma": 2129,
      "##deydi": 2130,
      "koştu": 2131,
      "koşarak": 2132,
      "kural": 2133,
      "kuyunun": 2134,
      "##kele": 2135,
      "açıklama": 2136,
      "ağac": 2137,
      "söylenen": 2138,
      "söylendi": 2139,
      "çorbası": 2140,
      "##müştü": 2141,
      "Herkes": 2142,
      "kırıntı": 2143,
      "##inleş": 2144,
      "azından": 2145,
      "canlı": 2146,
      "gülüm": 2147,
      "Kraliçeye": 2148,
      "Ann": 2149,
      "Ancak": 2150,
      "dans": 2151,
      "yöne": 2152,
      "yöntem": 2153,
      "nedeni": 2154,
      "esn": 2155,
      "güven": 2156,
      "olsaydı": 2157,
      "konuda": 2158,
      "yaptığı": 2159,
      "döndüğ": 2160,
      "kızgınlıkla": 2161,
      "mutlaka": 2162,
      "isterdim": 2163,
      "yeterince": 2164,
      "ciddiyet": 2165,
      "yeniden": 2166,
      "yelpaze": 2167,
      "Bakalım": 2168,
      "anahtarı": 2169,
      "Hepsi": 2170,
      "yumurta": 2171,
      "##oyun": 2172,
      "becere": 2173,
      "yuvarlak": 2174,
      "hafif": 2175,
      "Büyük": 2176,
      "emir": 2177,
      "idam": 2178,
      "peşinden": 2179,
      "çığ": 2180,
      "öteki": 2181,
      "değerlendir": 2182,
      "yakalayıp": 2183,
      "bebeği": 2184,
      "Artık": 2185,
      "Oysa": 2186,
      "Tamam": 2187,
      "çağır": 2188,
      "ürk": 2189,
      "gidip": 2190,
      "pekmezi": 2191,
      "aklına": 2192,
      "sabırsız": 2193,
      "Tekrar": 2194,
      "Yedili": 2195,
      "fincan": 2196,
      "üyesi": 2197,
      "şiirini": 2198,
      "yürümeye": 2199,
      "Kendini": 2200,
      "hıçkırık": 2201,
      "Kertenkele": 2202,
      "şiddetle": 2203,
      "Jüri": 2204,
      "Kork": 2205,
      "lazım": 2206,
      "memnun": 2207,
      "çift": 2208,
      "##eşekkür": 2209,
      ",)": 2210,
      "..": 2211,
      "Az": 2212,
      "Aptal": 2213,
      "Açık": 2214,
      "Biz": 2215,
      "Den": 2216,
      "Dur": 2217,
      "Gen": 2218,
      "Gali": 2219,
      "Hem": 2220,
      "Hangi": 2221,
      "Hatta": 2222,
      "Kim": 2223,
      "Mer": 2224,
      "Ney": 2225,
      "Um": 2226,
      "acı": 2227,
      "alay": 2228,
      "acık": 2229,
      "beğ": 2230,
      "canı": 2231,
      "ceb": 2232,
      "din": 2233,
      "dir": 2234,
      "dok": 2235,
      "diyordu": 2236,
      "düğ": 2237,
      "eği": 2238,
      "hi": 2239,
      "hari": 2240,
      "is": 2241,
      "kan": 2242,
      "kür": 2243,
      "kere": 2244,
      "kanıt": 2245,
      "li": 2246,
      "lütfen": 2247,
      "mil": 2248,
      "marp": 2249,
      "miyim": 2250,
      "no": 2251,
      "naz": 2252,
      "pap": 2253,
      "rağ": 2254,
      "resim": 2255,
      "süz": 2256,
      "sanı": 2257,
      "sers": 2258,
      "ton": 2259,
      "tat": 2260,
      "uğ": 2261,
      "us": 2262,
      "ufak": 2263,
      "yo": 2264,
      "yı": 2265,
      "yiy": 2266,
      "yedi": 2267,
      "yal": 2268,
      "yut": 2269,
      "yeş": 2270,
      "yardım": 2271,
      "zayı": 2272,
      "Çarp": 2273,
      "İÇ": 2274,
      "İst": 2275,
      "İyi": 2276,
      "Şu": 2277,
      "Şek": 2278,
      "şun": 2279,
      "şıp": 2280,
      "##oorba": 2281,
      "##aa": 2282,
      "##alar": 2283,
      "##amaya": 2284,
      "##nız": 2285,
      "##mr": 2286,
      "##mel": 2287,
      "##met": 2288,
      "##dr": 2289,
      "##dun": 2290,
      "##dunu": 2291,
      "##utu": 2292,
      "##gen": 2293,
      "##gil": 2294,
      "##üyle": 2295,
      "##ebi": 2296,
      "##kleri": 2297,
      "##klerini": 2298,
      "##bak": 2299,
      "##hal": 2300,
      "##tin": 2301,
      "##tum": 2302,
      "##tarak": 2303,
      "##vah": 2304,
      "##ğinden": 2305,
      "##RI": 2306,
      "##LA": 2307,
      "##LAR": 2308,
      "##AĞ": 2309,
      "##AH": 2310,
      "##sek": 2311,
      "##sünü": 2312,
      "##yin": 2313,
      "##yim": 2314,
      "##yanın": 2315,
      "##ff": 2316,
      "##İY": 2317,
      "##NU": 2318,
      "##EM": 2319,
      "##DEN": 2320,
      "##CE": 2321,
      "##lamaz": 2322,
      "##lacağını": 2323,
      "##inir": 2324,
      "##anlık": 2325,
      "birer": 2326,
      "birik": 2327,
      "##liği": 2328,
      "##liydi": 2329,
      "dest": 2330,
      "##ceğini": 2331,
      "##leme": 2332,
      "##lesini": 2333,
      "##lesk": 2334,
      "##masını": 2335,
      "##mayın": 2336,
      "##larmış": 2337,
      "##larken": 2338,
      "kah": 2339,
      "kas": 2340,
      "kağıt": 2341,
      "##eyen": 2342,
      "##lerde": 2343,
      "dediğini": 2344,
      "##esiz": 2345,
      "##tış": 2346,
      "##tıyor": 2347,
      "##tığını": 2348,
      "##deş": 2349,
      "##değer": 2350,
      "##ırsın": 2351,
      "bacak": 2352,
      "balığı": 2353,
      "olm": 2354,
      "oluyor": 2355,
      "##yorsun": 2356,
      "bugün": 2357,
      "daya": 2358,
      "davet": 2359,
      "##uruldu": 2360,
      "##lanmış": 2361,
      "##lanıp": 2362,
      "##landır": 2363,
      "##eldi": 2364,
      "##tiği": 2365,
      "##umda": 2366,
      "başım": 2367,
      "##ağlı": 2368,
      "##oke": 2369,
      "giderek": 2370,
      "##sılıkla": 2371,
      "##ükoyun": 2372,
      "##ayla": 2373,
      "##ayım": 2374,
      "görüyordu": 2375,
      "görmüş": 2376,
      "şeyleri": 2377,
      "nedir": 2378,
      "düşür": 2379,
      "##işer": 2380,
      "anlaş": 2381,
      "Bugün": 2382,
      "##larıyla": 2383,
      "##anıp": 2384,
      "kili": 2385,
      "kita": 2386,
      "sesler": 2387,
      "sesleri": 2388,
      "doğal": 2389,
      "##tabil": 2390,
      "bakarken": 2391,
      "##meli": 2392,
      "yapar": 2393,
      "yapılı": 2394,
      "etmek": 2395,
      "##iyorlardı": 2396,
      "##iyorlarmış": 2397,
      "kendim": 2398,
      "yerinde": 2399,
      "yerleş": 2400,
      "konuşurken": 2401,
      "--'": 2402,
      "olduğumu": 2403,
      "gece": 2404,
      "geliyor": 2405,
      "gelip": 2406,
      "kıvır": 2407,
      "olmadığını": 2408,
      "##diğiniz": 2409,
      "kalmıştı": 2410,
      "küçü": 2411,
      "yani": 2412,
      "olasılıkla": 2413,
      "ince": 2414,
      "uzağa": 2415,
      "duruyordu": 2416,
      "bilemiyor": 2417,
      "farenin": 2418,
      "yüzünden": 2419,
      "yüzükoyun": 2420,
      "söylemeye": 2421,
      "söylediği": 2422,
      "söylediğini": 2423,
      "##ersin": 2424,
      "kaplı": 2425,
      "kapalı": 2426,
      "değildir": 2427,
      "##ıllı": 2428,
      "elinde": 2429,
      "görünmedi": 2430,
      "görünmez": 2431,
      "birazcık": 2432,
      "##ıyorum": 2433,
      "boyda": 2434,
      "boyunu": 2435,
      "boyuna": 2436,
      "##meyecek": 2437,
      "dönüp": 2438,
      "##tırıp": 2439,
      "açıp": 2440,
      "##leriniz": 2441,
      "öyleyse": 2442,
      "geçirdi": 2443,
      "##madığı": 2444,
      "##lup": 2445,
      "Buna": 2446,
      "uyan": 2447,
      "uyardı": 2448,
      "üzerinden": 2449,
      "ağır": 2450,
      "ağzı": 2451,
      "bildiğim": 2452,
      "bulmak": 2453,
      "söze": 2454,
      "sözler": 2455,
      "vermeye": 2456,
      "hop": 2457,
      "aramaya": 2458,
      "##eğe": 2459,
      "##eyif": 2460,
      "telesk": 2461,
      "##üyorsun": 2462,
      "bağır": 2463,
      "tabak": 2464,
      "##ulca": 2465,
      "denize": 2466,
      "günü": 2467,
      "gerekecek": 2468,
      "şimdiye": 2469,
      "bahs": 2470,
      "gördüm": 2471,
      "halle": 2472,
      "macera": 2473,
      "başkası": 2474,
      "taraftan": 2475,
      "çalışarak": 2476,
      "çooorba": 2477,
      "suç": 2478,
      "sus": 2479,
      "sura": 2480,
      "##mazlar": 2481,
      "yas": 2482,
      "varmış": 2483,
      "altında": 2484,
      "altından": 2485,
      "köpeğin": 2486,
      "köprü": 2487,
      "üçü": 2488,
      "önemi": 2489,
      "sürede": 2490,
      "Domuz": 2491,
      "nereden": 2492,
      "sıkış": 2493,
      "##ANA": 2494,
      "konuşmayı": 2495,
      "konuşmasını": 2496,
      "koşmaya": 2497,
      "anlatmaya": 2498,
      "uzaktan": 2499,
      "yüksüğ": 2500,
      "Mabel": 2501,
      "bekle": 2502,
      "kulak": 2503,
      "kuyu": 2504,
      "okula": 2505,
      "eve": 2506,
      "evin": 2507,
      "kedilerden": 2508,
      "çör": 2509,
      "benzedi": 2510,
      "alırım": 2511,
      "kuşlar": 2512,
      "yürüy": 2513,
      "kırmızı": 2514,
      "olmalıyım": 2515,
      "istediğim": 2516,
      "endişe": 2517,
      "Sanki": 2518,
      "canım": 2519,
      "dök": 2520,
      "pencer": 2521,
      "pencere": 2522,
      "##malısın": 2523,
      "yaklaşık": 2524,
      "Güüzel": 2525,
      "bebek": 2526,
      "bebeğin": 2527,
      "kararlı": 2528,
      "ikişer": 2529,
      "sessizlik": 2530,
      "Kendi": 2531,
      "genellikle": 2532,
      "olsaydın": 2533,
      "olsaydım": 2534,
      "konusunda": 2535,
      "hatırladı": 2536,
      "hatırlaya": 2537,
      "gördüğüm": 2538,
      "gördüğünü": 2539,
      "mutlu": 2540,
      "taşı": 2541,
      "##ERİ": 2542,
      "buradan": 2543,
      "sabah": 2544,
      "bilmiyordum": 2545,
      "Kaf": 2546,
      "Kafa": 2547,
      "harf": 2548,
      "harek": 2549,
      "kroke": 2550,
      "ucuna": 2551,
      "yelpazeyi": 2552,
      "çıktığı": 2553,
      "unutmuştu": 2554,
      "Saç": 2555,
      "Sadece": 2556,
      "saygı": 2557,
      "kavga": 2558,
      "anahtar": 2559,
      "salonun": 2560,
      "kuyruğ": 2561,
      "Hepiniz": 2562,
      "mantarın": 2563,
      "vurgu": 2564,
      "çarptı": 2565,
      "şaşkınlık": 2566,
      "becer": 2567,
      "çabuk": 2568,
      "İkili": 2569,
      "kalabalık": 2570,
      "balıkları": 2571,
      "hafta": 2572,
      "dönüştü": 2573,
      "öyküsünü": 2574,
      "temiz": 2575,
      "tıkırda": 2576,
      "yağlı": 2577,
      "gidelim": 2578,
      "sustu": 2579,
      "hissetti": 2580,
      "Gör": 2581,
      "Hadi": 2582,
      "fikr": 2583,
      "yanından": 2584,
      "kıpırda": 2585,
      "söyleyecek": 2586,
      "boynu": 2587,
      "çekinerek": 2588,
      "oturdular": 2589,
      "gücen": 2590,
      "flamingosunu": 2591,
      "Eyvah": 2592,
      "ahçı": 2593,
      "böl": 2594,
      "nereye": 2595,
      "çeşit": 2596,
      "##NDA": 2597,
      "kapadı": 2598,
      "arkadaş": 2599,
      "İngilizce": 2600,
      "öfkeyle": 2601,
      "Konuşurken": 2602,
      "Fransız": 2603,
      "Yoksa": 2604,
      "çiçek": 2605,
      "##kabı": 2606,
      "gülüms": 2607,
      "ciddiyetle": 2608,
      "ürkek": 2609,
      "sabırsızlıkla": 2610,
      "Korkarım": 2611,
      "Galiba": 2612,
      "Umarım": 2613,
      "beğen": 2614,
      "marpu": 2615,
      "nazik": 2616,
      "rağmen": 2617,
      "uğra": 2618,
      "usulca": 2619,
      "yolu": 2620,
      "zayıf": 2621,
      "İstersen": 2622,
      "Şeker": 2623,
      "##dunuz": 2624,
      "##halde": 2625,
      "teleskop": 2626,
      "çooorbaaa": 2627,
      "yüksüğü": 2628,
      "saygıdeğer": 2629,
      "\",": 2630,
      ").": 2631,
      "Al": 2632,
      "Aya": 2633,
      "Bo": 2634,
      "Ba": 2635,
      "Balı": 2636,
      "Bit": 2637,
      "Bana": 2638,
      "Bize": 2639,
      "Boy": 2640,
      "Bazı": 2641,
      "Di": 2642,
      "Dedi": 2643,
      "DAH": 2644,
      "Ed": 2645,
      "Es": 2646,
      "Geri": 2647,
      "Hav": 2648,
      "KU": 2649,
      "Kes": 2650,
      "Kır": 2651,
      "Kol": 2652,
      "Kesim": 2653,
      "Karar": 2654,
      "Nasıl": 2655,
      "Ora": 2656,
      "Pan": 2657,
      "PEK": 2658,
      "Su": 2659,
      "Siz": 2660,
      "Sal": 2661,
      "Seni": 2662,
      "SANI": 2663,
      "Tan": 2664,
      "Tos": 2665,
      "Teşekkür": 2666,
      "Uç": 2667,
      "YE": 2668,
      "Yer": 2669,
      "Yap": 2670,
      "Yav": 2671,
      "Yaş": 2672,
      "Yukarı": 2673,
      "Zaman": 2674,
      "ata": 2675,
      "bor": 2676,
      "bel": 2677,
      "biç": 2678,
      "beye": 2679,
      "beş": 2680,
      "bıç": 2681,
      "ciy": 2682,
      "cev": 2683,
      "dı": 2684,
      "dür": 2685,
      "ez": 2686,
      "er": 2687,
      "ele": 2688,
      "eti": 2689,
      "edin": 2690,
      "hedi": 2691,
      "heye": 2692,
      "huy": 2693,
      "im": 2694,
      "iler": 2695,
      "ifa": 2696,
      "iri": 2697,
      "ilerle": 2698,
      "isk": 2699,
      "kâ": 2700,
      "kem": 2701,
      "keyif": 2702,
      "lo": 2703,
      "me": 2704,
      "miy": 2705,
      "mes": 2706,
      "mini": 2707,
      "mük": 2708,
      "müz": 2709,
      "müm": 2710,
      "meş": 2711,
      "nın": 2712,
      "nun": 2713,
      "neye": 2714,
      "otu": 2715,
      "ocağ": 2716,
      "past": 2717,
      "rü": 2718,
      "raf": 2719,
      "si": 2720,
      "sap": 2721,
      "sayı": 2722,
      "sizin": 2723,
      "tüy": 2724,
      "tarla": 2725,
      "tuz": 2726,
      "uşak": 2727,
      "vah": 2728,
      "yi": 2729,
      "yir": 2730,
      "yat": 2731,
      "yem": 2732,
      "ze": 2733,
      "zev": 2734,
      "zarar": 2735,
      "Öz": 2736,
      "Ör": 2737,
      "Ömr": 2738,
      "Üz": 2739,
      "Üç": 2740,
      "çir": 2741,
      "çak": 2742,
      "çap": 2743,
      "çat": 2744,
      "çem": 2745,
      "çiz": 2746,
      "çimdi": 2747,
      "ödül": 2748,
      "İk": 2749,
      "Şş": 2750,
      "Şiş": 2751,
      "##şi": 2752,
      "##şlarını": 2753,
      "##acağım": 2754,
      "##nak": 2755,
      "##mm": 2756,
      "##mi": 2757,
      "##mıyordu": 2758,
      "##za": 2759,
      "##zu": 2760,
      "##zen": 2761,
      "##ıy": 2762,
      "##uverdi": 2763,
      "##gan": 2764,
      "##gul": 2765,
      "##goz": 2766,
      "##eti": 2767,
      "##ebil": 2768,
      "##ebilece": 2769,
      "##kk": 2770,
      "##kli": 2771,
      "##kün": 2772,
      "##kuş": 2773,
      "##ket": 2774,
      "##kten": 2775,
      "##klarını": 2776,
      "##ice": 2777,
      "##bur": 2778,
      "##th": 2779,
      "##tiy": 2780,
      "##tti": 2781,
      "##tları": 2782,
      "##ğe": 2783,
      "##ğin": 2784,
      "##ğun": 2785,
      "##ğından": 2786,
      "##cını": 2787,
      "##cik": 2788,
      "##çi": 2789,
      "##çli": 2790,
      "##çesi": 2791,
      "##IN": 2792,
      "##ICE": 2793,
      "##MA": 2794,
      "##MİN": 2795,
      "##AY": 2796,
      "##sar": 2797,
      "##sün": 2798,
      "##siyle": 2799,
      "##ymış": 2800,
      "##ydın": 2801,
      "##fer": 2802,
      "##fter": 2803,
      "##EL": 2804,
      "##DI": 2805,
      "##DİM": 2806,
      "##ûm": 2807,
      "##TA": 2808,
      "##lamadı": 2809,
      "##lamıyorum": 2810,
      "##inlikle": 2811,
      "##irken": 2812,
      "##enle": 2813,
      "##engeç": 2814,
      "##anlı": 2815,
      "##arlar": 2816,
      "##arında": 2817,
      "birka": 2818,
      "biriyim": 2819,
      "##aksız": 2820,
      "demedim": 2821,
      "defter": 2822,
      "##unmaya": 2823,
      "##maş": 2824,
      "##mal": 2825,
      "##maları": 2826,
      "##masın": 2827,
      "##dışı": 2828,
      "##raz": 2829,
      "kat": 2830,
      "kavan": 2831,
      "kaşlarını": 2832,
      "##eydi": 2833,
      "##eyim": 2834,
      "##eyken": 2835,
      "##lerdi": 2836,
      "##lığını": 2837,
      "##esiyle": 2838,
      "##esindeki": 2839,
      "##dal": 2840,
      "##dama": 2841,
      "##tığı": 2842,
      "##tığında": 2843,
      "##ünerek": 2844,
      "##dem": 2845,
      "##ilir": 2846,
      "##ırla": 2847,
      "baba": 2848,
      "bayım": 2849,
      "bazen": 2850,
      "olsa": 2851,
      "oluştur": 2852,
      "##yorlar": 2853,
      "##ime": 2854,
      "##imiz": 2855,
      "##imizin": 2856,
      "bur": 2857,
      "bulama": 2858,
      "bukle": 2859,
      "##yaşı": 2860,
      "dayan": 2861,
      "##urdu": 2862,
      "gön": 2863,
      "##lana": 2864,
      "##landığını": 2865,
      "##atya": 2866,
      "##emmel": 2867,
      "!\".": 2868,
      "##amıyorum": 2869,
      "##uşak": 2870,
      "##tip": 2871,
      "##umuş": 2872,
      "başı": 2873,
      "giz": 2874,
      "gid": 2875,
      "##sık": 2876,
      "##sıyla": 2877,
      "##ışı": 2878,
      "içten": 2879,
      "##kas": 2880,
      "##düz": 2881,
      "##düler": 2882,
      "görmek": 2883,
      "görmedi": 2884,
      "düşt": 2885,
      "##altarak": 2886,
      "ani": 2887,
      "sonuna": 2888,
      "##yordum": 2889,
      "sesin": 2890,
      "sesiyle": 2891,
      "##biliyor": 2892,
      "##biliyordu": 2893,
      "##mayacağını": 2894,
      "dol": 2895,
      "düşünün": 2896,
      "düşünerek": 2897,
      "düşünecek": 2898,
      "konuk": 2899,
      "konuyu": 2900,
      "##eyecek": 2901,
      "##tup": 2902,
      "bakar": 2903,
      "bakın": 2904,
      "bakını": 2905,
      "bakmaya": 2906,
      "bakıyor": 2907,
      "bakabilir": 2908,
      "gelmedi": 2909,
      "gelmiyor": 2910,
      "gelinceye": 2911,
      "değn": 2912,
      "##meleri": 2913,
      "##ruk": 2914,
      "yapmak": 2915,
      "yapmam": 2916,
      "kendisi": 2917,
      "##casına": 2918,
      "yerim": 2919,
      "yerden": 2920,
      "altı": 2921,
      "konuşa": 2922,
      "sorun": 2923,
      "sorunu": 2924,
      "soruyu": 2925,
      "şekli": 2926,
      "Birinci": 2927,
      "başladığını": 2928,
      "olduğundan": 2929,
      "kop": 2930,
      "kola": 2931,
      "kolay": 2932,
      "önünde": 2933,
      "boya": 2934,
      "gele": 2935,
      "gelecek": 2936,
      "kıt": 2937,
      "kıs": 2938,
      "kıvr": 2939,
      "olmam": 2940,
      "olmamıştı": 2941,
      "##sidir": 2942,
      "kalmamıştı": 2943,
      "gözet": 2944,
      "gözlü": 2945,
      "gözlük": 2946,
      "kart": 2947,
      "karanlık": 2948,
      "karmaş": 2949,
      "inan": 2950,
      "indir": 2951,
      "durma": 2952,
      "durdu": 2953,
      "duruş": 2954,
      "durup": 2955,
      "duruyor": 2956,
      "üzere": 2957,
      "üzüntü": 2958,
      "işim": 2959,
      "Faresinin": 2960,
      "sürünerek": 2961,
      "çıkmadı": 2962,
      "çıkıyordu": 2963,
      "bilemedi": 2964,
      "fareye": 2965,
      "yüzünü": 2966,
      "yazmaya": 2967,
      "##ılgın": 2968,
      "##enince": 2969,
      "##lıkta": 2970,
      "eline": 2971,
      "görünen": 2972,
      "göründüğ": 2973,
      "büyüy": 2974,
      "##ülen": 2975,
      "##cağına": 2976,
      "sıcak": 2977,
      "zamanlar": 2978,
      "##tırdı": 2979,
      "##tırarak": 2980,
      "misiniz": 2981,
      "deve": 2982,
      "Tavşana": 2983,
      "##luğa": 2984,
      "##luğunu": 2985,
      "Bunlar": 2986,
      "uyu": 2987,
      "##tıklarında": 2988,
      "gitmek": 2989,
      "gitmedi": 2990,
      "gitmez": 2991,
      "gitmişti": 2992,
      "üzereyken": 2993,
      "ağlamaya": 2994,
      "bildik": 2995,
      "sözlerini": 2996,
      "veri": 2997,
      "vermeden": 2998,
      "##ıpkı": 2999,
      "##yecek": 3000,
      "araba": 3001,
      "yanıtı": 3002,
      "##yangoz": 3003,
      "ettiler": 3004,
      "Ona": 3005,
      "hepsini": 3006,
      "hepsinin": 3007,
      "##ırtıları": 3008,
      "yaşam": 3009,
      "duyunca": 3010,
      "duygu": 3011,
      "duydum": 3012,
      "geriye": 3013,
      "hayır": 3014,
      "oyunu": 3015,
      "oyuna": 3016,
      "büyüktü": 3017,
      "günler": 3018,
      "gerekçesi": 3019,
      "fırla": 3020,
      "fırsa": 3021,
      "fırlat": 3022,
      "oturmuş": 3023,
      "saldır": 3024,
      "farkında": 3025,
      "farked": 3026,
      "akıllı": 3027,
      "##sızın": 3028,
      "yineledi": 3029,
      "##deceğim": 3030,
      "diğerinde": 3031,
      "kapıdan": 3032,
      "tarafında": 3033,
      "dert": 3034,
      "derinden": 3035,
      "başlamış": 3036,
      "girmemiş": 3037,
      "koro": 3038,
      "edilen": 3039,
      "edici": 3040,
      "sevgili": 3041,
      "arkasına": 3042,
      "arkasında": 3043,
      "dersleri": 3044,
      "olanca": 3045,
      "olanaksız": 3046,
      "kesildi": 3047,
      "zorlandı": 3048,
      "ayakları": 3049,
      "ayakkabı": 3050,
      "aşağıya": 3051,
      "parmak": 3052,
      "sıkıl": 3053,
      "sıkıntı": 3054,
      "anlatsın": 3055,
      "uzunca": 3056,
      "gittiler": 3057,
      "çaydan": 3058,
      "atar": 3059,
      "kutu": 3060,
      "okuduğu": 3061,
      "toplu": 3062,
      "toplandı": 3063,
      "##keli": 3064,
      "çocukları": 3065,
      "evi": 3066,
      "evde": 3067,
      "kurtul": 3068,
      "musun": 3069,
      "benziyor": 3070,
      "ağacı": 3071,
      "söylendiğini": 3072,
      "alır": 3073,
      "kollarını": 3074,
      "koluna": 3075,
      "Bununla": 3076,
      "meraklı": 3077,
      "öğret": 3078,
      "kırgın": 3079,
      "mahkem": 3080,
      "mahkum": 3081,
      "mahkûm": 3082,
      "##vri": 3083,
      "istediğini": 3084,
      "tamamiyle": 3085,
      "canlandır": 3086,
      "penç": 3087,
      "pençelerini": 3088,
      "##malısınız": 3089,
      "biliyorum": 3090,
      "etrafına": 3091,
      "etrafta": 3092,
      "Kraliçeyle": 3093,
      "ortadan": 3094,
      "ortasına": 3095,
      "takıldı": 3096,
      "saati": 3097,
      "bulunan": 3098,
      "bulundu": 3099,
      "bulunduğu": 3100,
      "kaybolmuştu": 3101,
      "ayağını": 3102,
      "ederken": 3103,
      "hızla": 3104,
      "sırı": 3105,
      "##mamıştım": 3106,
      "giderdik": 3107,
      "sessizliği": 3108,
      "bitti": 3109,
      "korkarak": 3110,
      "korkuyla": 3111,
      "köpeklerden": 3112,
      "dizi": 3113,
      "karşısına": 3114,
      "haykır": 3115,
      "Akkk": 3116,
      "izle": 3117,
      "izledi": 3118,
      "kafan": 3119,
      "görebilmek": 3120,
      "domuza": 3121,
      "düşünceli": 3122,
      "herkesin": 3123,
      "isterse": 3124,
      "uykuya": 3125,
      "uykusu": 3126,
      "yeterli": 3127,
      "şarkıyı": 3128,
      "göstermek": 3129,
      "titremeye": 3130,
      "titreyen": 3131,
      "hardal": 3132,
      "hangisi": 3133,
      "krize": 3134,
      "kriket": 3135,
      "sakinleş": 3136,
      "##mesinin": 3137,
      "##mesinden": 3138,
      "##ARI": 3139,
      "hayal": 3140,
      "hayat": 3141,
      "hayatım": 3142,
      "##erseniz": 3143,
      "bizim": 3144,
      "umut": 3145,
      "kavuştur": 3146,
      "daldı": 3147,
      "alçaltarak": 3148,
      "koyuldu": 3149,
      "boşuna": 3150,
      "istemedi": 3151,
      "istemiyorum": 3152,
      "yazılıydı": 3153,
      "kuyruğunu": 3154,
      "atış": 3155,
      "bırakarak": 3156,
      "mantar": 3157,
      "sahanın": 3158,
      "tavırla": 3159,
      "tepesinde": 3160,
      "yumuşak": 3161,
      "Öyleyse": 3162,
      "istiyorum": 3163,
      "verdiler": 3164,
      "Baykuş": 3165,
      "omuzuna": 3166,
      "yolunu": 3167,
      "ölüm": 3168,
      "öldür": 3169,
      "##seydi": 3170,
      "##seydim": 3171,
      "yapılmış": 3172,
      "yapıldığını": 3173,
      "kaldırıp": 3174,
      "santimetre": 3175,
      "sözcükleri": 3176,
      "sözcüklerin": 3177,
      "yakınında": 3178,
      "yaşlısın": 3179,
      "askerler": 3180,
      "yaratıklar": 3181,
      "dikkatle": 3182,
      "eskisi": 3183,
      "Başını": 3184,
      "BENİ": 3185,
      "BENİM": 3186,
      "SENİN": 3187,
      "idama": 3188,
      "tanık": 3189,
      "çıka": 3190,
      "çenesini": 3191,
      "##üstü": 3192,
      "##lemekte": 3193,
      "##lıyorsun": 3194,
      "büyümüş": 3195,
      "ağzını": 3196,
      "ağzından": 3197,
      "oyna": 3198,
      "hissedi": 3199,
      "ağızdan": 3200,
      "!..\"": 3201,
      "ALice": 3202,
      "ALICE": 3203,
      "Göz": 3204,
      "dünyanın": 3205,
      "niyeti": 3206,
      "oğl": 3207,
      "oğuştur": 3208,
      "soktu": 3209,
      "savurdu": 3210,
      "sebebi": 3211,
      "çaresiz": 3212,
      "ıslık": 3213,
      "##şammm": 3214,
      "kabul": 3215,
      "olmadığına": 3216,
      "olmadığından": 3217,
      "olağandışı": 3218,
      "olağanüstü": 3219,
      "uzattı": 3220,
      "boynunu": 3221,
      "homurtu": 3222,
      "homurdandı": 3223,
      "çekingen": 3224,
      "sırıtma": 3225,
      "cesaretini": 3226,
      "hazırlan": 3227,
      "Aşağı": 3228,
      "Aşçı": 3229,
      "Kısa": 3230,
      "Neredeyse": 3231,
      "avazı": 3232,
      "mırıldan": 3233,
      "tarh": 3234,
      "tartış": 3235,
      "tırman": 3236,
      "yorul": 3237,
      "yarısını": 3238,
      "görürüm": 3239,
      "söyledikleri": 3240,
      "yazılmış": 3241,
      "kulağına": 3242,
      "çevresine": 3243,
      "tereyağlı": 3244,
      "sıçrayarak": 3245,
      "Biliyor": 3246,
      "Cellat": 3247,
      "Yani": 3248,
      "ablası": 3249,
      "düzgün": 3250,
      "ihtiy": 3251,
      "nargi": 3252,
      "odadan": 3253,
      "##ıncaya": 3254,
      "bacadan": 3255,
      "oluştu": 3256,
      "olmayacak": 3257,
      "kibarca": 3258,
      "biteni": 3259,
      "##tuğu": 3260,
      "alkışladı": 3261,
      "dikeninin": 3262,
      "uygulan": 3263,
      "hayvanın": 3264,
      "sevinçle": 3265,
      "Doğrusu": 3266,
      "parmağıyla": 3267,
      "ağacın": 3268,
      "söylenenleri": 3269,
      "yöntemi": 3270,
      "becerebildiği": 3271,
      "hafifçe": 3272,
      "çığlık": 3273,
      "Denizin": 3274,
      "Gençli": 3275,
      "Neyse": 3276,
      "dirse": 3277,
      "eğilerek": 3278,
      "hika": 3279,
      "isim": 3280,
      "list": 3281,
      "papatya": 3282,
      "yiyip": 3283,
      "yalnız": 3284,
      "yeşil": 3285,
      "Çarpıt": 3286,
      "##RIM": 3287,
      "kitab": 3288,
      "yapılır": 3289,
      "yerleştir": 3290,
      "küçücük": 3291,
      "bilemiyorum": 3292,
      "bahset": 3293,
      "pencereden": 3294,
      "Kafkas": 3295,
      "hareket": 3296,
      "Fransızca": 3297,
      "uğraş": 3298,
      "Diğer": 3299,
      "DAHA": 3300,
      "Eski": 3301,
      "Panter": 3302,
      "SANIRIM": 3303,
      "Tanrım": 3304,
      "Tosbağa": 3305,
      "Uçurun": 3306,
      "Yavru": 3307,
      "boraz": 3308,
      "ciyak": 3309,
      "cevap": 3310,
      "dürüst": 3311,
      "hediye": 3312,
      "heyecan": 3313,
      "locasına": 3314,
      "mükemmel": 3315,
      "müzik": 3316,
      "mümkün": 3317,
      "meşgul": 3318,
      "pasta": 3319,
      "rüya": 3320,
      "vahşi": 3321,
      "zehir": 3322,
      "Ördek": 3323,
      "Ömrüm": 3324,
      "çirkin": 3325,
      "çapraz": 3326,
      "Şşş": 3327,
      "##ıyık": 3328,
      "birkaç": 3329,
      "kavanoz": 3330,
      "içtenlikle": 3331,
      "gözlüklerini": 3332,
      "farkedince": 3333,
      "canlandırmaya": 3334,
      "Akkkşammm": 3335,
      "Gençliğimde": 3336,
      "meşguldü": 3337,
      "'.": 3338,
      "):": 3339,
      "***": 3340,
      "10": 3341,
      "13": 3342,
      "30": 3343,
      "60": 3344,
      ":'": 3345,
      "?!": 3346,
      "Ağ": 3347,
      "AY": 3348,
      "AS": 3349,
      "Ara": 3350,
      "Ağa": 3351,
      "Asıl": 3352,
      "Abla": 3353,
      "Bah": 3354,
      "Bunda": 3355,
      "Beb": 3356,
      "BANA": 3357,
      "Car": 3358,
      "Ceb": 3359,
      "Canım": 3360,
      "De": 3361,
      "Der": 3362,
      "Dil": 3363,
      "Dev": 3364,
      "DİY": 3365,
      "EN": 3366,
      "Emin": 3367,
      "Gel": 3368,
      "Git": 3369,
      "Geç": 3370,
      "Ho": 3371,
      "HE": 3372,
      "Hak": 3373,
      "Hım": 3374,
      "Hari": 3375,
      "Haya": 3376,
      "Hala": 3377,
      "Hanım": 3378,
      "Kr": 3379,
      "KR": 3380,
      "KA": 3381,
      "Kuş": 3382,
      "Kav": 3383,
      "Kal": 3384,
      "Kuy": 3385,
      "Kart": 3386,
      "Kız": 3387,
      "KİM": 3388,
      "KOR": 3389,
      "Le": 3390,
      "Man": 3391,
      "Mar": 3392,
      "Mor": 3393,
      "Mut": 3394,
      "Mari": 3395,
      "Mahk": 3396,
      "Ni": 3397,
      "Ner": 3398,
      "Or": 3399,
      "ON": 3400,
      "Ola": 3401,
      "Orta": 3402,
      "Olup": 3403,
      "Par": 3404,
      "Pari": 3405,
      "Ro": 3406,
      "Rahat": 3407,
      "Red": 3408,
      "Sö": 3409,
      "SE": 3410,
      "Ses": 3411,
      "Sev": 3412,
      "Sizin": 3413,
      "Sinir": 3414,
      "TU": 3415,
      "Tarif": 3416,
      "Tıpkı": 3417,
      "Uz": 3418,
      "Uyan": 3419,
      "VE": 3420,
      "Ver": 3421,
      "VER": 3422,
      "VII": 3423,
      "Yaz": 3424,
      "Yara": 3425,
      "Yeni": 3426,
      "Yılan": 3427,
      "Yanıt": 3428,
      "Yengeç": 3429,
      "ZOR": 3430,
      "ada": 3431,
      "adını": 3432,
      "aff": 3433,
      "alamadı": 3434,
      "ber": 3435,
      "bin": 3436,
      "bük": 3437,
      "beri": 3438,
      "bize": 3439,
      "bıyık": 3440,
      "cin": 3441,
      "cız": 3442,
      "dize": 3443,
      "duv": 3444,
      "elim": 3445,
      "fa": 3446,
      "fi": 3447,
      "fok": 3448,
      "güz": 3449,
      "gru": 3450,
      "güç": 3451,
      "gayet": 3452,
      "hış": 3453,
      "hatta": 3454,
      "ir": 3455,
      "iy": 3456,
      "itir": 3457,
      "kel": 3458,
      "kık": 3459,
      "kük": 3460,
      "küst": 3461,
      "la": 3462,
      "lı": 3463,
      "lez": 3464,
      "min": 3465,
      "mek": 3466,
      "mür": 3467,
      "metre": 3468,
      "nö": 3469,
      "nor": 3470,
      "ocak": 3471,
      "parla": 3472,
      "peni": 3473,
      "pul": 3474,
      "ri": 3475,
      "ren": 3476,
      "res": 3477,
      "rüz": 3478,
      "rast": 3479,
      "sü": 3480,
      "sek": 3481,
      "sey": 3482,
      "sat": 3483,
      "sarı": 3484,
      "süt": 3485,
      "seç": 3486,
      "tr": 3487,
      "tir": 3488,
      "tok": 3489,
      "tük": 3490,
      "tatlı": 3491,
      "tari": 3492,
      "teşekkür": 3493,
      "vak": 3494,
      "yık": 3495,
      "yeme": 3496,
      "zar": 3497,
      "ziy": 3498,
      "zaval": 3499,
      "zaf": 3500,
      "zarif": 3501,
      "Çor": 3502,
      "Çay": 3503,
      "Çev": 3504,
      "Öğ": 3505,
      "Ödül": 3506,
      "çuk": 3507,
      "çaya": 3508,
      "çuv": 3509,
      "çılgın": 3510,
      "öp": 3511,
      "öte": 3512,
      "ün": 3513,
      "İY": 3514,
      "İK": 3515,
      "İN": 3516,
      "İdama": 3517,
      "ŞÖ": 3518,
      "Şöyle": 3519,
      "Şüp": 3520,
      "şan": 3521,
      "şil": 3522,
      "şunu": 3523,
      "şev": 3524,
      "şapka": 3525,
      "şuydu": 3526,
      "##og": 3527,
      "##ot": 3528,
      "##şek": 3529,
      "##şağ": 3530,
      "##lının": 3531,
      "##lenince": 3532,
      "##atır": 3533,
      "##amadı": 3534,
      "##amam": 3535,
      "##aber": 3536,
      "##abilirim": 3537,
      "##nut": 3538,
      "##mir": 3539,
      "##mey": 3540,
      "##mik": 3541,
      "##meni": 3542,
      "##mesini": 3543,
      "##müyorum": 3544,
      "##dak": 3545,
      "##dra": 3546,
      "##dün": 3547,
      "##desi": 3548,
      "##dından": 3549,
      "##dri": 3550,
      "##ddet": 3551,
      "##ıla": 3552,
      "##uç": 3553,
      "##uda": 3554,
      "##ulan": 3555,
      "##gah": 3556,
      "##gıç": 3557,
      "##ginleş": 3558,
      "##üdü": 3559,
      "##po": 3560,
      "##pa": 3561,
      "##pi": 3562,
      "##pis": 3563,
      "##ece": 3564,
      "##ede": 3565,
      "##ebilir": 3566,
      "##eder": 3567,
      "##elim": 3568,
      "##kan": 3569,
      "##kçe": 3570,
      "##kop": 3571,
      "##klarında": 3572,
      "##klerinde": 3573,
      "##rış": 3574,
      "##rol": 3575,
      "##ide": 3576,
      "##bu": 3577,
      "##banın": 3578,
      "##beri": 3579,
      "##bri": 3580,
      "##hat": 3581,
      "##hayet": 3582,
      "##tın": 3583,
      "##tlı": 3584,
      "##tmaya": 3585,
      "##tmek": 3586,
      "##tüy": 3587,
      "##tara": 3588,
      "##tere": 3589,
      "##veni": 3590,
      "##ğır": 3591,
      "##ğuk": 3592,
      "##ğinin": 3593,
      "##car": 3594,
      "##cunu": 3595,
      "##cüğ": 3596,
      "##cbur": 3597,
      "##YİN": 3598,
      "##YLE": 3599,
      "##IK": 3600,
      "##AV": 3601,
      "##AZ": 3602,
      "##KAL": 3603,
      "##sü": 3604,
      "##ser": 3605,
      "##sen": 3606,
      "##siy": 3607,
      "##süz": 3608,
      "##seye": 3609,
      "##soy": 3610,
      "##suydu": 3611,
      "##ydu": 3612,
      "##ysa": 3613,
      "##yken": 3614,
      "##yenin": 3615,
      "##İĞ": 3616,
      "##İZ": 3617,
      "##ör": 3618,
      "##ES": 3619,
      "##ĞER": 3620,
      "##DİR": 3621,
      "##UNDA": 3622,
      "##PA": 3623,
      "##PSİ": 3624,
      "##win": 3625,
      "##wis": 3626,
      "##lah": 3627,
      "##lata": 3628,
      "##lamış": 3629,
      "##layı": 3630,
      "##lamıştı": 3631,
      "##ladın": 3632,
      "##ergah": 3633,
      "##inti": 3634,
      "##iniyor": 3635,
      "##indeydi": 3636,
      "##irdiği": 3637,
      "##diler": 3638,
      "##diveni": 3639,
      "##anları": 3640,
      "##anoz": 3641,
      "##are": 3642,
      "##arış": 3643,
      "##armış": 3644,
      "##arlandı": 3645,
      "biriy": 3646,
      "biriyle": 3647,
      "birinci": 3648,
      "##lif": 3649,
      "##liyle": 3650,
      "##liğinde": 3651,
      "##akla": 3652,
      "delik": 3653,
      "demiş": 3654,
      "deste": 3655,
      "demişti": 3656,
      "demesi": 3657,
      "dediniz": 3658,
      "demir": 3659,
      "##ceği": 3660,
      "##ceğinden": 3661,
      "##unarak": 3662,
      "##undaki": 3663,
      "##lek": 3664,
      "##leyi": 3665,
      "##lemez": 3666,
      "##eklen": 3667,
      "##malarını": 3668,
      "##madın": 3669,
      "##mamalı": 3670,
      "##dıklarını": 3671,
      "##racak": 3672,
      "##racağım": 3673,
      "kağı": 3674,
      "kaydı": 3675,
      "kaşı": 3676,
      "kalır": 3677,
      "kabalık": 3678,
      "##eyerek": 3679,
      "##eydim": 3680,
      "##lersiniz": 3681,
      "##lısın": 3682,
      "##lığın": 3683,
      "##lığına": 3684,
      "##lığının": 3685,
      "##esem": 3686,
      "##tılar": 3687,
      "##tıyordu": 3688,
      "##ünün": 3689,
      "##dedi": 3690,
      "##ilmesi": 3691,
      "bası": 3692,
      "basa": 3693,
      "basi": 3694,
      "batırarak": 3695,
      "oluyordu": 3696,
      "##onun": 3697,
      "##onlar": 3698,
      "##imi": 3699,
      "##imli": 3700,
      "##imini": 3701,
      "budur": 3702,
      "##yacak": 3703,
      "##yacağını": 3704,
      "dam": 3705,
      "dalında": 3706,
      "##urda": 3707,
      "##urum": 3708,
      "##ursun": 3709,
      "göv": 3710,
      "##lanan": 3711,
      "##lanarak": 3712,
      "##landın": 3713,
      "##lanırken": 3714,
      "##ates": 3715,
      "##atince": 3716,
      "##elt": 3717,
      "diyecek": 3718,
      "diyebilirsin": 3719,
      "##emb": 3720,
      "##emli": 3721,
      "##emedi": 3722,
      "##emiyor": 3723,
      "##emiyordu": 3724,
      "##emiyorum": 3725,
      "##üşten": 3726,
      "##amı": 3727,
      "##amak": 3728,
      "##ambil": 3729,
      "##uşmuştu": 3730,
      "##tima": 3731,
      "##tidir": 3732,
      "##umbri": 3733,
      "başlar": 3734,
      "başken": 3735,
      "başardı": 3736,
      "başlıyor": 3737,
      "başlıyordu": 3738,
      "başpis": 3739,
      "##ete": 3740,
      "##etmeye": 3741,
      "##etmedi": 3742,
      "##sıyordu": 3743,
      "##sıydı": 3744,
      "##sılır": 3745,
      "##ışın": 3746,
      "içlerinden": 3747,
      "##kalar": 3748,
      "##kaya": 3749,
      "##stum": 3750,
      "##ayıncaya": 3751,
      "kadın": 3752,
      "kadarıyla": 3753,
      "##ımdan": 3754,
      "##ımız": 3755,
      "kenarında": 3756,
      "##unuyordu": 3757,
      "görerek": 3758,
      "görmeye": 3759,
      "görmez": 3760,
      "göremez": 3761,
      "görsün": 3762,
      "göremiyorum": 3763,
      "##ladığı": 3764,
      "##ladığında": 3765,
      "şeydi": 3766,
      "şeyden": 3767,
      "şeydir": 3768,
      "##izi": 3769,
      "neş": 3770,
      "?\".": 3771,
      "Kralı": 3772,
      "düşen": 3773,
      "düştü": 3774,
      "düşüyor": 3775,
      "düşmüş": 3776,
      "ana": 3777,
      "oldum": 3778,
      "içindeki": 3779,
      "sona": 3780,
      "##cıların": 3781,
      "##larıydı": 3782,
      "##ınacak": 3783,
      "##mayacak": 3784,
      "dostum": 3785,
      "düşünürken": 3786,
      "düşünüyorsun": 3787,
      "kontları": 3788,
      "konser": 3789,
      "##eyelim": 3790,
      "##tabilirsin": 3791,
      "bakan": 3792,
      "bakma": 3793,
      "bakış": 3794,
      "gelin": 3795,
      "geldiği": 3796,
      "gelmeden": 3797,
      "gelirdi": 3798,
      "geldiğinde": 3799,
      "##teş": 3800,
      "##mece": 3801,
      "yapmaya": 3802,
      "yaparak": 3803,
      "yaptık": 3804,
      "yaparım": 3805,
      "etme": 3806,
      "etmedi": 3807,
      "ettir": 3808,
      "etmen": 3809,
      "##bildi": 3810,
      "##bilmeyi": 3811,
      "kendisiyle": 3812,
      "##makarış": 3813,
      "##uyun": 3814,
      "yerini": 3815,
      "yerlere": 3816,
      "alını": 3817,
      "almadım": 3818,
      "konuşur": 3819,
      "konuşsun": 3820,
      "sormak": 3821,
      "sormuş": 3822,
      "sormam": 3823,
      "sorgu": 3824,
      "başladığında": 3825,
      "olduğum": 3826,
      "olduğuna": 3827,
      "gev": 3828,
      "gecik": 3829,
      "kıl": 3830,
      "olmadan": 3831,
      "olmasını": 3832,
      "olmasına": 3833,
      "Kraliyet": 3834,
      "bunda": 3835,
      "bunlara": 3836,
      "##sede": 3837,
      "herhalde": 3838,
      "##laşır": 3839,
      "kalp": 3840,
      "kalın": 3841,
      "kalmaya": 3842,
      "kalmak": 3843,
      "kalmadı": 3844,
      "kalması": 3845,
      "kalmalı": 3846,
      "kalmadığını": 3847,
      "##ümle": 3848,
      "##ümde": 3849,
      "##ümsey": 3850,
      "gözü": 3851,
      "gözlerine": 3852,
      "gözlerinin": 3853,
      "gözlerinden": 3854,
      "gözleriyle": 3855,
      "gözüyle": 3856,
      "gözyaşı": 3857,
      "salata": 3858,
      "yana": 3859,
      "yanar": 3860,
      "anlama": 3861,
      "anlamaya": 3862,
      "anlatır": 3863,
      "anlamıştı": 3864,
      "anlayın": 3865,
      "Asla": 3866,
      "Asker": 3867,
      "karam": 3868,
      "kardeş": 3869,
      "karmakarış": 3870,
      "doğrusu": 3871,
      "olamaz": 3872,
      "olabilecek": 3873,
      "inanı": 3874,
      "insanın": 3875,
      "inkar": 3876,
      "uzan": 3877,
      "uzanıp": 3878,
      "duran": 3879,
      "tekme": 3880,
      "teklif": 3881,
      "yoktur": 3882,
      "işiyle": 3883,
      "Farenin": 3884,
      "Faresine": 3885,
      "çıkmaya": 3886,
      "çıkmam": 3887,
      "##lumu": 3888,
      "hast": 3889,
      "halim": 3890,
      "##mişler": 3891,
      "##sundan": 3892,
      "kendin": 3893,
      "kendiniz": 3894,
      "yüzmeye": 3895,
      "yüzgeç": 3896,
      "##lumbağalar": 3897,
      "enlem": 3898,
      "söyley": 3899,
      "söylemişti": 3900,
      "söylemeyi": 3901,
      "söyleyen": 3902,
      "yazmayı": 3903,
      "yazdılar": 3904,
      "##ersiniz": 3905,
      "kaplıyor": 3906,
      "kaplumbağalar": 3907,
      "değilmiş": 3908,
      "değilsiniz": 3909,
      "Kraliçeden": 3910,
      "##ılda": 3911,
      "##ıldığı": 3912,
      "##ılmasın": 3913,
      "##arıyla": 3914,
      "##lıktan": 3915,
      "elinden": 3916,
      "ellerine": 3917,
      "ellerinde": 3918,
      "eldiveni": 3919,
      "göründü": 3920,
      "görünmeye": 3921,
      "görünüyorlardı": 3922,
      "art": 3923,
      "arıyor": 3924,
      "büyü": 3925,
      "büyüt": 3926,
      "büyüyordu": 3927,
      "büyüme": 3928,
      "Bence": 3929,
      "sandın": 3930,
      "sanmıyorum": 3931,
      "sansar": 3932,
      "##ıyorlardı": 3933,
      "##ülü": 3934,
      "##ülür": 3935,
      "##ülük": 3936,
      "##ülürken": 3937,
      "##muşum": 3938,
      "##uzu": 3939,
      "##uzgun": 3940,
      "##cağında": 3941,
      "##bilirdi": 3942,
      "boyum": 3943,
      "boyunun": 3944,
      "boyuma": 3945,
      "boyumda": 3946,
      "Şapkacıya": 3947,
      "##ezdim": 3948,
      "dönüyor": 3949,
      "dönmem": 3950,
      "döndür": 3951,
      "dönmüştü": 3952,
      "zamana": 3953,
      "zamanla": 3954,
      "zamanki": 3955,
      "zamanlarda": 3956,
      "##gidir": 3957,
      "##tırmaya": 3958,
      "açmaya": 3959,
      "açılan": 3960,
      "açmadan": 3961,
      "aydın": 3962,
      "geçin": 3963,
      "geçen": 3964,
      "geçmeden": 3965,
      "geçip": 3966,
      "geçirmeye": 3967,
      "##madılar": 3968,
      "Tavşanına": 3969,
      "uydur": 3970,
      "##tıktan": 3971,
      "##ırdım": 3972,
      "##inizin": 3973,
      "onunla": 3974,
      "bilg": 3975,
      "bilir": 3976,
      "bildiğin": 3977,
      "bilirim": 3978,
      "bildiğiniz": 3979,
      "bilmece": 3980,
      "bulmaya": 3981,
      "bulduğ": 3982,
      "bulunuyordu": 3983,
      "sözcüğ": 3984,
      "pekala": 3985,
      "verin": 3986,
      "vermiyor": 3987,
      "verdiği": 3988,
      "baktığında": 3989,
      "arasına": 3990,
      "arasından": 3991,
      "aralarında": 3992,
      "yaka": 3993,
      "Düşesin": 3994,
      "ettiğini": 3995,
      "Onların": 3996,
      "##eği": 3997,
      "##ırtıcı": 3998,
      "Neler": 3999,
      "yaşa": 4000,
      "yaşlar": 4001,
      "yaşlarla": 4002,
      "##mezsin": 4003,
      "Elinden": 4004,
      "duyan": 4005,
      "nasılsa": 4006,
      "çeke": 4007,
      "çekiş": 4008,
      "çekiyorlarmış": 4009,
      "##tirmeye": 4010,
      "kızım": 4011,
      "kızkar": 4012,
      "kızarmış": 4013,
      "...,": 4014,
      "kimin": 4015,
      "kimim": 4016,
      "kimsin": 4017,
      "kimseye": 4018,
      "bağlı": 4019,
      "bağrış": 4020,
      "oysa": 4021,
      "oyunun": 4022,
      "tabağ": 4023,
      "tadını": 4024,
      "tacını": 4025,
      "Sonraki": 4026,
      "denemek": 4027,
      "deneyelim": 4028,
      "güneş": 4029,
      "gündüz": 4030,
      "gerekti": 4031,
      "gerektiği": 4032,
      "oturur": 4033,
      "salyangoz": 4034,
      "bahçe": 4035,
      "farketmedi": 4036,
      "akşam": 4037,
      "fazlalık": 4038,
      "halinden": 4039,
      "##sızlık": 4040,
      "Kediler": 4041,
      "Kedisi": 4042,
      "başkalarına": 4043,
      "kapılardan": 4044,
      "hoşuna": 4045,
      "hoşnut": 4046,
      "tarafta": 4047,
      "taraftaki": 4048,
      "çalışıyordu": 4049,
      "çalışırken": 4050,
      "dersi": 4051,
      "derdim": 4052,
      "derdik": 4053,
      "##miyordu": 4054,
      "##cia": 4055,
      "##ağıydı": 4056,
      "yanıtlamak": 4057,
      "giriş": 4058,
      "girebilirim": 4059,
      "girebilece": 4060,
      "korid": 4061,
      "şaşı": 4062,
      "şaşırtıcı": 4063,
      "##ydılar": 4064,
      "##limeyi": 4065,
      "##mazsa": 4066,
      "##mazsın": 4067,
      "##mazsanız": 4068,
      "değişir": 4069,
      "değişim": 4070,
      "değişmiş": 4071,
      "değiştim": 4072,
      "ediyordu": 4073,
      "ediyorum": 4074,
      "yatıyor": 4075,
      "sevimli": 4076,
      "varsa": 4077,
      "olanların": 4078,
      "olanlara": 4079,
      "yükse": 4080,
      "##ğimi": 4081,
      "##masıydı": 4082,
      "altındaki": 4083,
      "dakikalarda": 4084,
      "Evin": 4085,
      "kesilen": 4086,
      "kesinlikle": 4087,
      "yarım": 4088,
      "yarışın": 4089,
      "##verir": 4090,
      "##sizce": 4091,
      "kaybet": 4092,
      "kaynak": 4093,
      "ayaklı": 4094,
      "ayaklarım": 4095,
      "parç": 4096,
      "##deyim": 4097,
      "koşuştur": 4098,
      "koşarken": 4099,
      "anlatmasını": 4100,
      "anlatamıyorum": 4101,
      "uzakta": 4102,
      "uzaklardan": 4103,
      "uzaktaki": 4104,
      "asla": 4105,
      "yaramadı": 4106,
      "kafasına": 4107,
      "kafasında": 4108,
      "yükseldi": 4109,
      "Bildiğiniz": 4110,
      "Macera": 4111,
      "Madem": 4112,
      "atmak": 4113,
      "kucağında": 4114,
      "okul": 4115,
      "okudu": 4116,
      "okumaya": 4117,
      "topladı": 4118,
      "toplayarak": 4119,
      "toplayıp": 4120,
      "toplamanın": 4121,
      "şöyleydi": 4122,
      "##mıyorsun": 4123,
      "##layın": 4124,
      "kaçtı": 4125,
      "kaçmış": 4126,
      "kaçmak": 4127,
      "sıralarını": 4128,
      "sırayla": 4129,
      "çocuklarına": 4130,
      "çocuklardan": 4131,
      "evet": 4132,
      "kedim": 4133,
      "kediler": 4134,
      "kedisidir": 4135,
      "musunuz": 4136,
      "##uyorsun": 4137,
      "##uyorlardı": 4138,
      "##lerindeki": 4139,
      "benzeri": 4140,
      "benziyordu": 4141,
      "olacaktı": 4142,
      "olacaksa": 4143,
      "olacaktır": 4144,
      "farelerden": 4145,
      "açıkla": 4146,
      "açıkladı": 4147,
      "açıkça": 4148,
      "açıklamaya": 4149,
      "söyleniyordu": 4150,
      "Ahmet": 4151,
      "alıp": 4152,
      "kuşu": 4153,
      "kuşun": 4154,
      "kuşam": 4155,
      "yürüyor": 4156,
      "##lamayı": 4157,
      "deliği": 4158,
      "deliğine": 4159,
      "deliyim": 4160,
      "##larımı": 4161,
      "##rafya": 4162,
      "kolunu": 4163,
      "koltuğ": 4164,
      "öğretti": 4165,
      "Herhalde": 4166,
      "kırılan": 4167,
      "mahkemeye": 4168,
      "##İNDE": 4169,
      "##İNDEN": 4170,
      "yapabilir": 4171,
      "yapamam": 4172,
      "yapabilece": 4173,
      "benimle": 4174,
      "istedikleri": 4175,
      "endişelen": 4176,
      "gerçekleş": 4177,
      "döv": 4178,
      "döktü": 4179,
      "güldü": 4180,
      "gülleri": 4181,
      "pençe": 4182,
      "tutu": 4183,
      "tutul": 4184,
      "tutabil": 4185,
      "tutabilirsin": 4186,
      "tutmanın": 4187,
      "tuttuğu": 4188,
      "uçur": 4189,
      "uçuruldu": 4190,
      "Şimdiye": 4191,
      "##sırırsa": 4192,
      "##malıyım": 4193,
      "biliyorsunuz": 4194,
      "etrafını": 4195,
      "Kraliçesi": 4196,
      "karışacak": 4197,
      "işitildi": 4198,
      "yaklaştı": 4199,
      "hakkındaki": 4200,
      "hakkımda": 4201,
      "diyen": 4202,
      "getirmiş": 4203,
      "getirmeye": 4204,
      "ortada": 4205,
      "ortaya": 4206,
      "ortalığa": 4207,
      "serin": 4208,
      "takma": 4209,
      "taktı": 4210,
      "takmış": 4211,
      "takılı": 4212,
      "tahmin": 4213,
      "yöneldi": 4214,
      "çevirdi": 4215,
      "şarap": 4216,
      "##uncaya": 4217,
      "##dığım": 4218,
      "##dığında": 4219,
      "##dığımı": 4220,
      "##dığımda": 4221,
      "sorulara": 4222,
      "sorusunu": 4223,
      "hoşlanır": 4224,
      "hoşlanmıyor": 4225,
      "hoşlanmamıştı": 4226,
      "kaybolursun": 4227,
      "ayağı": 4228,
      "hızıyla": 4229,
      "##lerimi": 4230,
      "##lerimin": 4231,
      "##ırdadı": 4232,
      "##ırdayan": 4233,
      "giderken": 4234,
      "sessizce": 4235,
      "bitmeden": 4236,
      "bittiğini": 4237,
      "kısalı": 4238,
      "kısaca": 4239,
      "kaldılar": 4240,
      "aynen": 4241,
      "oyuncu": 4242,
      "korktu": 4243,
      "Kendiniz": 4244,
      "güvercin": 4245,
      "gene": 4246,
      "unutu": 4247,
      "##layacak": 4248,
      "nefesi": 4249,
      "nefret": 4250,
      "konusunu": 4251,
      "yaptığını": 4252,
      "hatırlamıyorum": 4253,
      "döndüler": 4254,
      "bahçesinden": 4255,
      "çalıştığını": 4256,
      "Akşam": 4257,
      "Aksoy": 4258,
      "Aksırırsa": 4259,
      "izin": 4260,
      "mutf": 4261,
      "tümü": 4262,
      "tümsek": 4263,
      "yelek": 4264,
      "##türdü": 4265,
      "##ERE": 4266,
      "burası": 4267,
      "düşüncesi": 4268,
      "düşünceydi": 4269,
      "uykulu": 4270,
      "uykusunda": 4271,
      "bilmiyordu": 4272,
      "şarkıcıların": 4273,
      "gösteren": 4274,
      "gösteriyor": 4275,
      "göstermiyor": 4276,
      "titredi": 4277,
      "titremek": 4278,
      "Kadr": 4279,
      "Kadri": 4280,
      "ucu": 4281,
      "ucunda": 4282,
      "ucundaki": 4283,
      "yılanlar": 4284,
      "yelpazelen": 4285,
      "şişeye": 4286,
      "şişenin": 4287,
      "##meseydim": 4288,
      "##ılıyordu": 4289,
      "##ifor": 4290,
      "olmazdı": 4291,
      "olmazsa": 4292,
      "çıktığını": 4293,
      "hayali": 4294,
      "##memiştim": 4295,
      "öğrenmiş": 4296,
      "öğrenmişti": 4297,
      "sertçe": 4298,
      "tahtaları": 4299,
      "NEYİN": 4300,
      "Saat": 4301,
      "bizi": 4302,
      "dinleye": 4303,
      "dinleyen": 4304,
      "sayg": 4305,
      "sayesinde": 4306,
      "umarak": 4307,
      "İngil": 4308,
      "##lukla": 4309,
      "dalmıştı": 4310,
      "koyun": 4311,
      "koydu": 4312,
      "boşa": 4313,
      "olabilirdi": 4314,
      "olabilirsiniz": 4315,
      "istemiyor": 4316,
      "istemezdim": 4317,
      "kuyruk": 4318,
      "dışarıda": 4319,
      "atıyordu": 4320,
      "atıldı": 4321,
      "mantarı": 4322,
      "sahi": 4323,
      "sahil": 4324,
      "tava": 4325,
      "tavan": 4326,
      "tepesine": 4327,
      "vuruyordu": 4328,
      "yumruk": 4329,
      "çarparak": 4330,
      "üyelerinin": 4331,
      "##balığın": 4332,
      "##lamıyordu": 4333,
      "##emeyeceği": 4334,
      "küçülüyor": 4335,
      "küçülüyordu": 4336,
      "istiyorsun": 4337,
      "çıkardığı": 4338,
      "hayvanlar": 4339,
      "şaşkınlıkla": 4340,
      "değiştirmeye": 4341,
      "değiştirip": 4342,
      "değiştirelim": 4343,
      "ediyorlar": 4344,
      "ediyorsun": 4345,
      "ediyorlardı": 4346,
      "uzaklaştı": 4347,
      "uzaklaşmaya": 4348,
      "ağaçlardan": 4349,
      "ağaçlığa": 4350,
      "ağaçlıktan": 4351,
      "##bileceğini": 4352,
      "nefese": 4353,
      "davranış": 4354,
      "davranmak": 4355,
      "Bayan": 4356,
      "Bayanın": 4357,
      "omuzlarım": 4358,
      "tersine": 4359,
      "ulaşmak": 4360,
      "ulaşabilirim": 4361,
      "yolun": 4362,
      "çatı": 4363,
      "ölç": 4364,
      "öfkeli": 4365,
      "##edinin": 4366,
      "##kırmızı": 4367,
      "##hesiz": 4368,
      "##ALI": 4369,
      "##İLİM": 4370,
      "##İLER": 4371,
      "##İLİR": 4372,
      "kalabalığın": 4373,
      "bulamadığı": 4374,
      "görevi": 4375,
      "kitapta": 4376,
      "bitirdi": 4377,
      "dolaşırken": 4378,
      "yapılması": 4379,
      "kaldırdı": 4380,
      "kaldırır": 4381,
      "dibindeki": 4382,
      "eldivenleri": 4383,
      "eldivenlerle": 4384,
      "görünmüyorlardı": 4385,
      "santime": 4386,
      "##sınızdır": 4387,
      "sözcükler": 4388,
      "bahçıv": 4389,
      "aksırma": 4390,
      "aksırıyor": 4391,
      "aksırması": 4392,
      "masaya": 4393,
      "Başka": 4394,
      "Pekala": 4395,
      "SENİ": 4396,
      "emz": 4397,
      "sefer": 4398,
      "tane": 4399,
      "tanış": 4400,
      "tembel": 4401,
      "tempo": 4402,
      "tıkırtı": 4403,
      "tavşanın": 4404,
      "öttürdü": 4405,
      "ıstakozları": 4406,
      "ıstakozlarla": 4407,
      "##gaç": 4408,
      "##elendi": 4409,
      "dolusu": 4410,
      "boğaz": 4411,
      "boğuk": 4412,
      "büyümem": 4413,
      "denizde": 4414,
      "susturuldu": 4415,
      "sevindi": 4416,
      "sevinerek": 4417,
      "sevindim": 4418,
      "sevinmişti": 4419,
      "karıştırıyor": 4420,
      "ilgilendir": 4421,
      "bebeğe": 4422,
      "ikincisi": 4423,
      "Oğlanı": 4424,
      "ağızlarında": 4425,
      "Ayn": 4426,
      "Ayak": 4427,
      "Ayrıca": 4428,
      "Oyun": 4429,
      "dünya": 4430,
      "eğil": 4431,
      "eğildi": 4432,
      "edecek": 4433,
      "edemedi": 4434,
      "edemez": 4435,
      "fikri": 4436,
      "okumuş": 4437,
      "sars": 4438,
      "saray": 4439,
      "savunmaya": 4440,
      "sebeb": 4441,
      "yanındaki": 4442,
      "çare": 4443,
      "çaresine": 4444,
      "özel": 4445,
      "özür": 4446,
      "özenle": 4447,
      "##lırlar": 4448,
      "burnunu": 4449,
      "burnunun": 4450,
      "##düğü": 4451,
      "hiçbiri": 4452,
      "şekerleme": 4453,
      "anlayamıyorum": 4454,
      "anlayamadım": 4455,
      "uzatarak": 4456,
      "aklından": 4457,
      "çözmek": 4458,
      "çözebilirim": 4459,
      "alışmıştı": 4460,
      "biliyorsundur": 4461,
      "sırıttı": 4462,
      "gücüyle": 4463,
      "yavrusu": 4464,
      "yavaşça": 4465,
      "kazanmaya": 4466,
      "kazanmış": 4467,
      "sabırla": 4468,
      "Kıyı": 4469,
      "Kural": 4470,
      "Nereden": 4471,
      "OLAN": 4472,
      "Seninle": 4473,
      "avuç": 4474,
      "kelimeyi": 4475,
      "mırıldandı": 4476,
      "oraya": 4477,
      "oradan": 4478,
      "oradaki": 4479,
      "sağlaya": 4480,
      "tırma": 4481,
      "turtaları": 4482,
      "turtalarla": 4483,
      "çaldı": 4484,
      "çalmaya": 4485,
      "çeşme": 4486,
      "İçinde": 4487,
      "ısırır": 4488,
      "ısırık": 4489,
      "ısırıp": 4490,
      "##dekini": 4491,
      "##vetli": 4492,
      "##fakta": 4493,
      "##NDAN": 4494,
      "##mamışsınızdır": 4495,
      "yapıyorsun": 4496,
      "yapıyordunuz": 4497,
      "anlatacağım": 4498,
      "anlatabilirim": 4499,
      "insanlar": 4500,
      "tekrarlamaya": 4501,
      "denedim": 4502,
      "şaşırmadı": 4503,
      "edildi": 4504,
      "havuzda": 4505,
      "arkadaşı": 4506,
      "kalkışmadı": 4507,
      "kulağı": 4508,
      "yapacaklar": 4509,
      "çevresinde": 4510,
      "öykünü": 4511,
      "öykümü": 4512,
      "şişeden": 4513,
      "tereyağıydı": 4514,
      "öfkelendi": 4515,
      "görevlilerinden": 4516,
      "Norman": 4517,
      "North": 4518,
      "Yarışı": 4519,
      "aptalca": 4520,
      "beyn": 4521,
      "belirginleş": 4522,
      "diyorsam": 4523,
      "düzeltir": 4524,
      "düzeltip": 4525,
      "duyacak": 4526,
      "ihtima": 4527,
      "kesilecek": 4528,
      "kullan": 4529,
      "kullandı": 4530,
      "müddet": 4531,
      "nargil": 4532,
      "otlar": 4533,
      "utanmalısın": 4534,
      "utangaç": 4535,
      "verecek": 4536,
      "Çenesi": 4537,
      "Çeneni": 4538,
      "##AMAN": 4539,
      "katıl": 4540,
      "katıldı": 4541,
      "kalemi": 4542,
      "##ünüzde": 4543,
      "oluşan": 4544,
      "olmayacağını": 4545,
      "anımsa": 4546,
      "Buraya": 4547,
      "biliyordum": 4548,
      "yaprakların": 4549,
      "etkisini": 4550,
      "şeklinde": 4551,
      "Tavşanının": 4552,
      "Kapıyı": 4553,
      "söylüyorum": 4554,
      "köşeye": 4555,
      "köşeyi": 4556,
      "yaşıyorlar": 4557,
      "hayvanı": 4558,
      "aşçıya": 4559,
      "merdivenlerden": 4560,
      "zorlukla": 4561,
      "parmağını": 4562,
      "kuralları": 4563,
      "açıklamasını": 4564,
      "kırıntısı": 4565,
      "esnedi": 4566,
      "döndüğünde": 4567,
      "becerebilir": 4568,
      "çığlığı": 4569,
      "Tamamen": 4570,
      "çağırın": 4571,
      "fincanını": 4572,
      "fincanlarının": 4573,
      "hıçkırıkları": 4574,
      "Duruşma": 4575,
      "Kimse": 4576,
      "Mercia": 4577,
      "acıklı": 4578,
      "cebine": 4579,
      "dinlen": 4580,
      "düğüm": 4581,
      "harika": 4582,
      "kanat": 4583,
      "not": 4584,
      "sanıyorum": 4585,
      "sanıyorsun": 4586,
      "serseme": 4587,
      "tonda": 4588,
      "tonuyla": 4589,
      "şıpırtıları": 4590,
      "##amayacağım": 4591,
      "##dres": 4592,
      "##AĞI": 4593,
      "birikinti": 4594,
      "desteklen": 4595,
      "kahka": 4596,
      "kasvetli": 4597,
      "bacaklarından": 4598,
      "olmuyor": 4599,
      "olmuyordu": 4600,
      "dayayarak": 4601,
      "düşürdü": 4602,
      "kilit": 4603,
      "inceliyordu": 4604,
      "##lerinizi": 4605,
      "maceralarını": 4606,
      "suçlu": 4607,
      "suratını": 4608,
      "sıkıştırıp": 4609,
      "beklemeden": 4610,
      "kuyusundan": 4611,
      "çöreğin": 4612,
      "benzediğini": 4613,
      "endişeliydi": 4614,
      "pencerenin": 4615,
      "ikişerli": 4616,
      "hatırlayamıyorum": 4617,
      "##ERİDE": 4618,
      "Kafaları": 4619,
      "Kafasını": 4620,
      "harfiyle": 4621,
      "Saçma": 4622,
      "vurguladı": 4623,
      "dönüştüğ": 4624,
      "tıkırdaması": 4625,
      "Görüntü": 4626,
      "bölümü": 4627,
      "çeşitli": 4628,
      "arkadaşım": 4629,
      "gülümsedi": 4630,
      "beğendiğim": 4631,
      "marpucu": 4632,
      "marpucunu": 4633,
      "Ayağa": 4634,
      "Baba": 4635,
      "Balık": 4636,
      "Bitir": 4637,
      "Edwin": 4638,
      "KUPA": 4639,
      "Kararını": 4640,
      "biçim": 4641,
      "ezil": 4642,
      "etiket": 4643,
      "huylu": 4644,
      "imz": 4645,
      "ilerlersiniz": 4646,
      "iskambil": 4647,
      "kâğıt": 4648,
      "kemirmeye": 4649,
      "mecbur": 4650,
      "mesele": 4651,
      "minik": 4652,
      "oturacağım": 4653,
      "ocağın": 4654,
      "raflardan": 4655,
      "sivri": 4656,
      "tüyleri": 4657,
      "tuzlu": 4658,
      "zevkli": 4659,
      "Özür": 4660,
      "Üzer": 4661,
      "çakıl": 4662,
      "çember": 4663,
      "çizerek": 4664,
      "çimdikle": 4665,
      "İkinci": 4666,
      "Şişeyi": 4667,
      "##MİNE": 4668,
      "##ilirsiniz": 4669,
      "burun": 4670,
      "gönül": 4671,
      "gizlendi": 4672,
      "doluydu": 4673,
      "düşününce": 4674,
      "konuklar": 4675,
      "bakınıyordu": 4676,
      "değneğe": 4677,
      "kopardı": 4678,
      "kıtayı": 4679,
      "kısm": 4680,
      "gözetim": 4681,
      "karanlıktı": 4682,
      "karmaşık": 4683,
      "inanmıyorum": 4684,
      "göründüğünden": 4685,
      "büyüyüp": 4686,
      "duygularını": 4687,
      "günlerce": 4688,
      "fırsatı": 4689,
      "fırlattı": 4690,
      "girmemişken": 4691,
      "sıkılmaya": 4692,
      "çaydanlığın": 4693,
      "kurtuldum": 4694,
      "öğretmen": 4695,
      "mahkemenin": 4696,
      "pençesini": 4697,
      "haykırış": 4698,
      "sakinleşti": 4699,
      "hayatında": 4700,
      "kavuşturmuş": 4701,
      "Baykuşa": 4702,
      "öldürür": 4703,
      "hissediyordu": 4704,
      "oğluna": 4705,
      "tırmanmaya": 4706,
      "yoruldum": 4707,
      "Biliyorsunuz": 4708,
      "ihtiyar": 4709,
      "nargilesini": 4710,
      "hikaye": 4711,
      "listesini": 4712,
      "Çarpıtmayı": 4713,
      "kitabında": 4714,
      "Yavrusu": 4715,
      "borazanı": 4716,
      "ciyaklıyordu": 4717,
      "hediyeler": 4718,
      "heyecanla": 4719,
      "pastalardan": 4720,
      "*****": 4721,
      "ASLA": 4722,
      "Ağaç": 4723,
      "Ablasının": 4724,
      "Bebek": 4725,
      "Carrol": 4726,
      "Devam": 4727,
      "Eminim": 4728,
      "HEPSİ": 4729,
      "Hakim": 4730,
      "Hımm": 4731,
      "Harikalar": 4732,
      "Hayatım": 4733,
      "Kriket": 4734,
      "Kavanoz": 4735,
      "Kartal": 4736,
      "KORO": 4737,
      "Lewis": 4738,
      "Mantarın": 4739,
      "Mary": 4740,
      "Morcar": 4741,
      "Marie": 4742,
      "Mahkeme": 4743,
      "Nihayet": 4744,
      "Olabildiğince": 4745,
      "Paris": 4746,
      "Roma": 4747,
      "Reddedi": 4748,
      "Söz": 4749,
      "ZORUNDA": 4750,
      "adam": 4751,
      "beraber": 4752,
      "bıyıklarım": 4753,
      "duvar": 4754,
      "falan": 4755,
      "fokurda": 4756,
      "güzergah": 4757,
      "itiraz": 4758,
      "kellesini": 4759,
      "kükr": 4760,
      "küstah": 4761,
      "lezz": 4762,
      "nöbet": 4763,
      "normal": 4764,
      "rica": 4765,
      "rüzg": 4766,
      "süs": 4767,
      "sekiz": 4768,
      "tokat": 4769,
      "tarih": 4770,
      "zavallının": 4771,
      "zafer": 4772,
      "Çorbası": 4773,
      "Çevir": 4774,
      "Ödüller": 4775,
      "çukur": 4776,
      "çılgınca": 4777,
      "ünifor": 4778,
      "İYİ": 4779,
      "İKİ": 4780,
      "ŞÖMİNE": 4781,
      "Şüphesiz": 4782,
      "şevkle": 4783,
      "şapkacı": 4784,
      "##şağın": 4785,
      "##ederse": 4786,
      "##kopos": 4787,
      "kaşığı": 4788,
      "basit": 4789,
      "##umbria": 4790,
      "başkentidir": 4791,
      "başpiskopos": 4792,
      "salatalık": 4793,
      "anlayınca": 4794,
      "Askerler": 4795,
      "karmakarışık": 4796,
      "büyütür": 4797,
      "bulduğuna": 4798,
      "vermiyorlar": 4799,
      "kızkardeş": 4800,
      "koridor": 4801,
      "kaynaklandığını": 4802,
      "Maceraları": 4803,
      "koltuğunun": 4804,
      "tutulmuş": 4805,
      "unutuyordum": 4806,
      "titremekte": 4807,
      "Kadril": 4808,
      "İngiltere": 4809,
      "yumrukladı": 4810,
      "Northumbria": 4811,
      "nargilenin": 4812,
      "Carroll": 4813,
      "!!": 4814,
      "\"-": 4815,
      "\"\"": 4816,
      "\"'": 4817,
      "\"..": 4818,
      ");": 4819,
      ",.": 4820,
      "-.": 4821,
      ".--": 4822,
      "12": 4823,
      "25": 4824,
      "20": 4825,
      "24": 4826,
      "40": 4827,
      ":\"": 4828,
      "?)": 4829,
      "Am": 4830,
      "Av": 4831,
      "Ac": 4832,
      "AV": 4833,
      "AŞ": 4834,
      "AZ": 4835,
      "Ada": 4836,
      "Arada": 4837,
      "Ayı": 4838,
      "Alay": 4839,
      "Ayın": 4840,
      "Aldı": 4841,
      "Aff": 4842,
      "Ath": 4843,
      "Ateş": 4844,
      "Adres": 4845,
      "BO": 4846,
      "Bek": 4847,
      "Bur": 4848,
      "Bağ": 4849,
      "Bal": 4850,
      "Berek": 4851,
      "Boz": 4852,
      "Bağlı": 4853,
      "BAY": 4854,
      "Bıyık": 4855,
      "BİLİR": 4856,
      "Co": 4857,
      "CE": 4858,
      "Cam": 4859,
      "Cez": 4860,
      "DI": 4861,
      "DO": 4862,
      "DE": 4863,
      "Diy": 4864,
      "Dün": 4865,
      "Dem": 4866,
      "Dav": 4867,
      "Diyor": 4868,
      "Ders": 4869,
      "Değ": 4870,
      "Dinle": 4871,
      "Derken": 4872,
      "Durun": 4873,
      "DEL": 4874,
      "Dör": 4875,
      "Ek": 4876,
      "Elim": 4877,
      "Epey": 4878,
      "EMİN": 4879,
      "EĞER": 4880,
      "FAR": 4881,
      "FAZ": 4882,
      "Gaz": 4883,
      "Gine": 4884,
      "Gön": 4885,
      "Gül": 4886,
      "Giyim": 4887,
      "Gelen": 4888,
      "GİY": 4889,
      "GEL": 4890,
      "Gide": 4891,
      "GERİDE": 4892,
      "Hj": 4893,
      "Hap": 4894,
      "Hal": 4895,
      "Hah": 4896,
      "Hop": 4897,
      "HER": 4898,
      "HAR": 4899,
      "Henüz": 4900,
      "Iş": 4901,
      "II": 4902,
      "IV": 4903,
      "IX": 4904,
      "III": 4905,
      "Kİ": 4906,
      "KO": 4907,
      "Kö": 4908,
      "Kla": 4909,
      "Kir": 4910,
      "Kek": 4911,
      "Kur": 4912,
      "Kum": 4913,
      "Kay": 4914,
      "Kiş": 4915,
      "Küt": 4916,
      "Kıp": 4917,
      "KEN": 4918,
      "Kala": 4919,
      "KAL": 4920,
      "KANI": 4921,
      "Keyif": 4922,
      "Kuzgun": 4923,
      "Kedinin": 4924,
      "KİLİM": 4925,
      "La": 4926,
      "LÜ": 4927,
      "Lon": 4928,
      "Latince": 4929,
      "Mum": 4930,
      "Muz": 4931,
      "Mez": 4932,
      "Mayı": 4933,
      "MAR": 4934,
      "MİL": 4935,
      "Mezgit": 4936,
      "MAH": 4937,
      "MES": 4938,
      "Matince": 4939,
      "NA": 4940,
      "Nil": 4941,
      "Niye": 4942,
      "Num": 4943,
      "Not": 4944,
      "NERE": 4945,
      "Ol": 4946,
      "Ou": 4947,
      "OR": 4948,
      "Of": 4949,
      "Orada": 4950,
      "Oku": 4951,
      "Off": 4952,
      "ONU": 4953,
      "Olamaz": 4954,
      "ONDAN": 4955,
      "Pi": 4956,
      "Pen": 4957,
      "Peri": 4958,
      "PAR": 4959,
      "Parlak": 4960,
      "POR": 4961,
      "Rak": 4962,
      "Si": 4963,
      "Sh": 4964,
      "SA": 4965,
      "SO": 4966,
      "SÖ": 4967,
      "Sir": 4968,
      "Sak": 4969,
      "Sor": 4970,
      "Sür": 4971,
      "Sti": 4972,
      "Sık": 4973,
      "Sah": 4974,
      "Sanı": 4975,
      "Sesi": 4976,
      "Seb": 4977,
      "Size": 4978,
      "Seç": 4979,
      "SAĞ": 4980,
      "SANA": 4981,
      "SAY": 4982,
      "SİZ": 4983,
      "Te": 4984,
      "Ter": 4985,
      "Tok": 4986,
      "Tüy": 4987,
      "Tep": 4988,
      "Top": 4989,
      "TEN": 4990,
      "Turta": 4991,
      "Tilli": 4992,
      "TANI": 4993,
      "TAM": 4994,
      "TEK": 4995,
      "Tutu": 4996,
      "TEM": 4997,
      "Tog": 4998,
      "TAV": 4999,
      "Up": 5000,
      "Uc": 5001,
      "UZ": 5002,
      "UC": 5003,
      "Uşağın": 5004,
      "Va": 5005,
      "VI": 5006,
      "Var": 5007,
      "Won": 5008,
      "XI": 5009,
      "XII": 5010,
      "Yo": 5011,
      "YÜ": 5012,
      "Yir": 5013,
      "Yiye": 5014,
      "Yem": 5015,
      "Yum": 5016,
      "Yük": 5017,
      "Yüz": 5018,
      "Yanın": 5019,
      "Yelpaz": 5020,
      "Yemek": 5021,
      "YAL": 5022,
      "Yazı": 5023,
      "YANI": 5024,
      "YIK": 5025,
      "YERE": 5026,
      "Ze": 5027,
      "Zin": 5028,
      "Zor": 5029,
      "Zam": 5030,
      "Zev": 5031,
      "Zamanı": 5032,
      "Zarif": 5033,
      "ZAMAN": 5034,
      "am": 5035,
      "ai": 5036,
      "ac": 5037,
      "ale": 5038,
      "adı": 5039,
      "alan": 5040,
      "adın": 5041,
      "alama": 5042,
      "alarak": 5043,
      "ayıp": 5044,
      "alaya": 5045,
      "alacak": 5046,
      "adım": 5047,
      "alamaz": 5048,
      "alana": 5049,
      "asık": 5050,
      "apa": 5051,
      "asıyordu": 5052,
      "ateş": 5053,
      "alamıyordu": 5054,
      "adres": 5055,
      "ban": 5056,
      "bar": 5057,
      "büz": 5058,
      "bari": 5059,
      "beyle": 5060,
      "bezg": 5061,
      "bemb": 5062,
      "ci": 5063,
      "cır": 5064,
      "cim": 5065,
      "cum": 5066,
      "cılı": 5067,
      "cebi": 5068,
      "chat": 5069,
      "cümle": 5070,
      "du": 5071,
      "dar": 5072,
      "dim": 5073,
      "dum": 5074,
      "diş": 5075,
      "düm": 5076,
      "dara": 5077,
      "dere": 5078,
      "düne": 5079,
      "eden": 5080,
      "est": 5081,
      "ete": 5082,
      "esin": 5083,
      "edeceğim": 5084,
      "eliyle": 5085,
      "edeyim": 5086,
      "fış": 5087,
      "ga": 5088,
      "gur": 5089,
      "gal": 5090,
      "güm": 5091,
      "giyim": 5092,
      "hin": 5093,
      "han": 5094,
      "hey": 5095,
      "hat": 5096,
      "ham": 5097,
      "hok": 5098,
      "hük": 5099,
      "hiz": 5100,
      "hüz": 5101,
      "haş": 5102,
      "hev": 5103,
      "huk": 5104,
      "huz": 5105,
      "hip": 5106,
      "hele": 5107,
      "hanım": 5108,
      "idi": 5109,
      "ilan": 5110,
      "isa": 5111,
      "ipi": 5112,
      "ker": 5113,
      "kek": 5114,
      "kra": 5115,
      "kış": 5116,
      "kumu": 5117,
      "kuzgun": 5118,
      "kırdım": 5119,
      "kedinin": 5120,
      "lü": 5121,
      "le": 5122,
      "lam": 5123,
      "lok": 5124,
      "lay": 5125,
      "lev": 5126,
      "lüt": 5127,
      "laf": 5128,
      "mo": 5129,
      "mak": 5130,
      "mor": 5131,
      "mey": 5132,
      "mel": 5133,
      "mum": 5134,
      "mav": 5135,
      "mal": 5136,
      "muy": 5137,
      "müt": 5138,
      "miydi": 5139,
      "na": 5140,
      "ney": 5141,
      "nde": 5142,
      "neydi": 5143,
      "oya": 5144,
      "oran": 5145,
      "pu": 5146,
      "pr": 5147,
      "pir": 5148,
      "pan": 5149,
      "pey": 5150,
      "pat": 5151,
      "pay": 5152,
      "payı": 5153,
      "papağan": 5154,
      "patır": 5155,
      "pemb": 5156,
      "rok": 5157,
      "rul": 5158,
      "red": 5159,
      "razı": 5160,
      "sun": 5161,
      "saz": 5162,
      "sem": 5163,
      "sını": 5164,
      "sam": 5165,
      "sük": 5166,
      "sardı": 5167,
      "sop": 5168,
      "saha": 5169,
      "size": 5170,
      "sildi": 5171,
      "ster": 5172,
      "soyun": 5173,
      "sinir": 5174,
      "suyun": 5175,
      "to": 5176,
      "ten": 5177,
      "tes": 5178,
      "tün": 5179,
      "tim": 5180,
      "tüt": 5181,
      "tıp": 5182,
      "tıpkı": 5183,
      "uca": 5184,
      "ulu": 5185,
      "uşağın": 5186,
      "vu": 5187,
      "vat": 5188,
      "vaz": 5189,
      "vara": 5190,
      "vers": 5191,
      "vaya": 5192,
      "vurun": 5193,
      "versin": 5194,
      "yu": 5195,
      "yiye": 5196,
      "yılı": 5197,
      "yemek": 5198,
      "ydım": 5199,
      "yıldı": 5200,
      "yutu": 5201,
      "yengeç": 5202,
      "yesem": 5203,
      "yılda": 5204,
      "za": 5205,
      "zı": 5206,
      "zan": 5207,
      "zeki": 5208,
      "zıp": 5209,
      "zik": 5210,
      "Ça": 5211,
      "Çı": 5212,
      "Çak": 5213,
      "Çek": 5214,
      "Çal": 5215,
      "Çalı": 5216,
      "Çit": 5217,
      "Çimdi": 5218,
      "ÇEN": 5219,
      "ÇAL": 5220,
      "Çorba": 5221,
      "Çayla": 5222,
      "Çılgın": 5223,
      "ÇIK": 5224,
      "Çör": 5225,
      "Öp": 5226,
      "Öh": 5227,
      "ÖY": 5228,
      "Öf": 5229,
      "ÖZ": 5230,
      "ÖT": 5231,
      "Üst": 5232,
      "Ülk": 5233,
      "çu": 5234,
      "çi": 5235,
      "çın": 5236,
      "çır": 5237,
      "çit": 5238,
      "çeki": 5239,
      "ör": 5240,
      "öv": 5241,
      "ödü": 5242,
      "örn": 5243,
      "ölecek": 5244,
      "örneğin": 5245,
      "ömr": 5246,
      "üş": 5247,
      "ül": 5248,
      "üm": 5249,
      "üste": 5250,
      "İŞ": 5251,
      "İS": 5252,
      "İste": 5253,
      "ıvır": 5254,
      "ılım": 5255,
      "Şö": 5256,
      "ŞU": 5257,
      "Şar": 5258,
      "Şun": 5259,
      "Şap": 5260,
      "Şiir": 5261,
      "şir": 5262,
      "şak": 5263,
      "şim": 5264,
      "şok": 5265,
      "şık": 5266,
      "şuna": 5267,
      "şunun": 5268,
      "şüp": 5269,
      "##oya": 5270,
      "##olik": 5271,
      "##osunu": 5272,
      "##osu": 5273,
      "##ocaman": 5274,
      "##olana": 5275,
      "##şet": 5276,
      "##şlarına": 5277,
      "##şuma": 5278,
      "##şarken": 5279,
      "##şkan": 5280,
      "##şımdan": 5281,
      "##lg": 5282,
      "##lin": 5283,
      "##lir": 5284,
      "##ldi": 5285,
      "##lın": 5286,
      "##lma": 5287,
      "##lde": 5288,
      "##lmiş": 5289,
      "##lüyor": 5290,
      "##lop": 5291,
      "##ldığını": 5292,
      "##lunun": 5293,
      "##lüğ": 5294,
      "##ldiniz": 5295,
      "##lnız": 5296,
      "##ltup": 5297,
      "##lülük": 5298,
      "##losu": 5299,
      "##as": 5300,
      "##aj": 5301,
      "##ama": 5302,
      "##aları": 5303,
      "##abil": 5304,
      "##asını": 5305,
      "##asına": 5306,
      "##asında": 5307,
      "##abilirsin": 5308,
      "##amadım": 5309,
      "##abilmek": 5310,
      "##atıp": 5311,
      "##amazdı": 5312,
      "##acını": 5313,
      "##abiliyor": 5314,
      "##ni": 5315,
      "##nir": 5316,
      "##net": 5317,
      "##ndü": 5318,
      "##nunu": 5319,
      "##nenin": 5320,
      "##niniz": 5321,
      "##miye": 5322,
      "##mine": 5323,
      "##manı": 5324,
      "##marı": 5325,
      "##mut": 5326,
      "##müyor": 5327,
      "##mana": 5328,
      "##muyordu": 5329,
      "##manız": 5330,
      "##meyen": 5331,
      "##mdüler": 5332,
      "##monlar": 5333,
      "##ze": 5334,
      "##zan": 5335,
      "##zın": 5336,
      "##zak": 5337,
      "##zına": 5338,
      "##zeye": 5339,
      "##ziniyor": 5340,
      "##dö": 5341,
      "##dar": 5342,
      "##des": 5343,
      "##dde": 5344,
      "##dine": 5345,
      "##dön": 5346,
      "##deyle": 5347,
      "##desini": 5348,
      "##dünüz": 5349,
      "##ıma": 5350,
      "##ıcı": 5351,
      "##ıca": 5352,
      "##ıyı": 5353,
      "##ıtır": 5354,
      "##ısından": 5355,
      "##ılacağını": 5356,
      "##ula": 5357,
      "##ust": 5358,
      "##ularak": 5359,
      "##ulacak": 5360,
      "##uğunu": 5361,
      "##ulup": 5362,
      "##uğun": 5363,
      "##gar": 5364,
      "##gel": 5365,
      "##gür": 5366,
      "##gası": 5367,
      "##ginin": 5368,
      "##gırtı": 5369,
      "##gaya": 5370,
      "##gırak": 5371,
      "##üler": 5372,
      "##üte": 5373,
      "##üdüğ": 5374,
      "##pe": 5375,
      "##per": 5376,
      "##plar": 5377,
      "##pını": 5378,
      "##pmış": 5379,
      "##prü": 5380,
      "##ec": 5381,
      "##ela": 5382,
      "##ema": 5383,
      "##eler": 5384,
      "##eda": 5385,
      "##elik": 5386,
      "##elerden": 5387,
      "##ebilirsin": 5388,
      "##edeydi": 5389,
      "##kr": 5390,
      "##kap": 5391,
      "##kel": 5392,
      "##kam": 5393,
      "##kine": 5394,
      "##kanı": 5395,
      "##kına": 5396,
      "##kmek": 5397,
      "##kinde": 5398,
      "##küm": 5399,
      "##kinin": 5400,
      "##kinden": 5401,
      "##klu": 5402,
      "##kırdı": 5403,
      "##kının": 5404,
      "##ketti": 5405,
      "##klerinin": 5406,
      "##klerinden": 5407,
      "##kilen": 5408,
      "##klarından": 5409,
      "##kuyla": 5410,
      "##kanlık": 5411,
      "##klenince": 5412,
      "##kolik": 5413,
      "##klunun": 5414,
      "##rh": 5415,
      "##rın": 5416,
      "##ron": 5417,
      "##rını": 5418,
      "##rdü": 5419,
      "##rinin": 5420,
      "##rıldı": 5421,
      "##rülük": 5422,
      "##ili": 5423,
      "##iler": 5424,
      "##ici": 5425,
      "##bey": 5426,
      "##biy": 5427,
      "##bini": 5428,
      "##biye": 5429,
      "##bap": 5430,
      "##bah": 5431,
      "##baş": 5432,
      "##bere": 5433,
      "##bayı": 5434,
      "##bayla": 5435,
      "##beğe": 5436,
      "##bede": 5437,
      "##blosu": 5438,
      "##he": 5439,
      "##han": 5440,
      "##har": 5441,
      "##hem": 5442,
      "##hiş": 5443,
      "##hbet": 5444,
      "##hsiz": 5445,
      "##hangi": 5446,
      "##hayı": 5447,
      "##hşet": 5448,
      "##hrinin": 5449,
      "##tla": 5450,
      "##tli": 5451,
      "##tun": 5452,
      "##tma": 5453,
      "##tlar": 5454,
      "##ttı": 5455,
      "##tına": 5456,
      "##ttu": 5457,
      "##tüm": 5458,
      "##tardı": 5459,
      "##timdi": 5460,
      "##teki": 5461,
      "##tmam": 5462,
      "##ttan": 5463,
      "##tsız": 5464,
      "##tiyle": 5465,
      "##tlarına": 5466,
      "##tlarında": 5467,
      "##ttiğini": 5468,
      "##teyim": 5469,
      "##ttığı": 5470,
      "##tülü": 5471,
      "##vış": 5472,
      "##val": 5473,
      "##vardı": 5474,
      "##vinin": 5475,
      "##varında": 5476,
      "##veda": 5477,
      "##ğu": 5478,
      "##ğür": 5479,
      "##ğum": 5480,
      "##ğım": 5481,
      "##ğiz": 5482,
      "##ğanı": 5483,
      "##ğiniz": 5484,
      "##ğazla": 5485,
      "##ğunun": 5486,
      "##ğünde": 5487,
      "##ğüne": 5488,
      "##ğrı": 5489,
      "##ğımı": 5490,
      "##ğundan": 5491,
      "##ğumda": 5492,
      "##ğrafya": 5493,
      "##cü": 5494,
      "##cir": 5495,
      "##cim": 5496,
      "##canı": 5497,
      "##canın": 5498,
      "##cit": 5499,
      "##cenin": 5500,
      "##cından": 5501,
      "##cının": 5502,
      "##ciydi": 5503,
      "##cuyu": 5504,
      "##camak": 5505,
      "##ckr": 5506,
      "##çu": 5507,
      "##çan": 5508,
      "##çın": 5509,
      "##çok": 5510,
      "##çkaya": 5511,
      "##YU": 5512,
      "##YS": 5513,
      "##RE": 5514,
      "##RU": 5515,
      "##RT": 5516,
      "##RİL": 5517,
      "##IL": 5518,
      "##IĞ": 5519,
      "##IDE": 5520,
      "##LU": 5521,
      "##LERİ": 5522,
      "##LMA": 5523,
      "##LIĞ": 5524,
      "##ME": 5525,
      "##MB": 5526,
      "##MALI": 5527,
      "##AT": 5528,
      "##AB": 5529,
      "##KO": 5530,
      "##KÜ": 5531,
      "##KİL": 5532,
      "##KEM": 5533,
      "##KES": 5534,
      "##KİNDE": 5535,
      "##KLIĞ": 5536,
      "##sla": 5537,
      "##sak": 5538,
      "##slan": 5539,
      "##sal": 5540,
      "##sah": 5541,
      "##sanı": 5542,
      "##seni": 5543,
      "##sana": 5544,
      "##slarla": 5545,
      "##siydi": 5546,
      "##sünden": 5547,
      "##sağan": 5548,
      "##soya": 5549,
      "##yak": 5550,
      "##ylar": 5551,
      "##yır": 5552,
      "##yon": 5553,
      "##yur": 5554,
      "##yış": 5555,
      "##ydü": 5556,
      "##yiz": 5557,
      "##yanı": 5558,
      "##yerek": 5559,
      "##yesini": 5560,
      "##ysan": 5561,
      "##ysam": 5562,
      "##yeyim": 5563,
      "##yemedi": 5564,
      "##fe": 5565,
      "##fta": 5566,
      "##fol": 5567,
      "##federse": 5568,
      "##İSİ": 5569,
      "##İCE": 5570,
      "##İKAL": 5571,
      "##NLAR": 5572,
      "##ELE": 5573,
      "##ESİ": 5574,
      "##EDEN": 5575,
      "##-\"": 5576,
      "##ĞU": 5577,
      "##ĞİN": 5578,
      "##ĞIN": 5579,
      "##ĞİLİM": 5580,
      "##ĞRU": 5581,
      "##Dİ": 5582,
      "##DU": 5583,
      "##DİĞ": 5584,
      "##DİLER": 5585,
      "##DRİL": 5586,
      "##VG": 5587,
      "##âr": 5588,
      "##UN": 5589,
      "##UZ": 5590,
      "##ŞAN": 5591,
      "##ŞAM": 5592,
      "##SÜ": 5593,
      "##SAN": 5594,
      "##SİN": 5595,
      "##SIN": 5596,
      "##SIL": 5597,
      "##ZEM": 5598,
      "##TI": 5599,
      "##TE": 5600,
      "##TF": 5601,
      "##TLAR": 5602,
      "##TSAN": 5603,
      "##CI": 5604,
      "##CAMAN": 5605,
      "##ÜR": 5606,
      "##FRE": 5607,
      "##PLU": 5608,
      "##BEL": 5609,
      "##BİNDEN": 5610,
      "##GIDE": 5611,
      "##13": 5612,
      "##JI": 5613,
      "##lade": 5614,
      "##laması": 5615,
      "##lağının": 5616,
      "##latıp": 5617,
      "##latıyor": 5618,
      "##labilmeyi": 5619,
      "##laplar": 5620,
      "##erdi": 5621,
      "##erim": 5622,
      "##eriye": 5623,
      "##eral": 5624,
      "##erlerin": 5625,
      "##ermeyi": 5626,
      "##ing": 5627,
      "##inleri": 5628,
      "##inmek": 5629,
      "##inesi": 5630,
      "##inmiş": 5631,
      "##inseydi": 5632,
      "##indekini": 5633,
      "##irerek": 5634,
      "##iriyor": 5635,
      "##irmez": 5636,
      "##irid": 5637,
      "##iriyordu": 5638,
      "##irtti": 5639,
      "##ende": 5640,
      "##eniyor": 5641,
      "##engi": 5642,
      "##eniyordu": 5643,
      "##enlikle": 5644,
      "##enekli": 5645,
      "##diya": 5646,
      "##dife": 5647,
      "##anla": 5648,
      "##anma": 5649,
      "##ansın": 5650,
      "##anse": 5651,
      "##aneyle": 5652,
      "##arya": 5653,
      "##arlan": 5654,
      "##arladı": 5655,
      "##armaya": 5656,
      "##arsa": 5657,
      "##arsın": 5658,
      "##arından": 5659,
      "##arının": 5660,
      "##arlardı": 5661,
      "##arlarım": 5662,
      "##arsanız": 5663,
      "##areti": 5664,
      "##ınmış": 5665,
      "bire": 5666,
      "birinden": 5667,
      "biris": 5668,
      "birindeki": 5669,
      "birçok": 5670,
      "##lit": 5671,
      "##lime": 5672,
      "##liğe": 5673,
      "##lihsiz": 5674,
      "##akes": 5675,
      "##akları": 5676,
      "##aklak": 5677,
      "##aklarından": 5678,
      "##aktaki": 5679,
      "dek": 5680,
      "demedi": 5681,
      "defa": 5682,
      "demem": 5683,
      "dedin": 5684,
      "demeleri": 5685,
      "delir": 5686,
      "##cede": 5687,
      "##unet": 5688,
      "##unlu": 5689,
      "##unması": 5690,
      "##leler": 5691,
      "##lebil": 5692,
      "##lesi": 5693,
      "##lese": 5694,
      "##lemiş": 5695,
      "##lebilir": 5696,
      "##leye": 5697,
      "##lemeyi": 5698,
      "##lemesi": 5699,
      "##leyecek": 5700,
      "##lebeğe": 5701,
      "##leyerek": 5702,
      "##ekti": 5703,
      "##eksiz": 5704,
      "##ekke": 5705,
      "##eklerle": 5706,
      "##eklendir": 5707,
      "##malar": 5708,
      "##mada": 5709,
      "##mamak": 5710,
      "##maca": 5711,
      "##masına": 5712,
      "##maması": 5713,
      "##malarına": 5714,
      "##masından": 5715,
      "##mağan": 5716,
      "##masızlık": 5717,
      "##maslarla": 5718,
      "##orit": 5719,
      "##lardaki": 5720,
      "##dıktan": 5721,
      "##ram": 5722,
      "##radı": 5723,
      "##radaki": 5724,
      "##rayım": 5725,
      "##rabilmek": 5726,
      "##rağıyla": 5727,
      "##racağı": 5728,
      "##ratını": 5729,
      "kaya": 5730,
      "kaba": 5731,
      "kazı": 5732,
      "kayıp": 5733,
      "kabalı": 5734,
      "kalıyordu": 5735,
      "kadife": 5736,
      "##eymiş": 5737,
      "##dular": 5738,
      "##duklarında": 5739,
      "##iyi": 5740,
      "##lerken": 5741,
      "##lerdim": 5742,
      "##lıp": 5743,
      "##lıverdi": 5744,
      "dediler": 5745,
      "dediğim": 5746,
      "dediğinde": 5747,
      "dediklerini": 5748,
      "##esli": 5749,
      "##esiydi": 5750,
      "##dağına": 5751,
      "##daymış": 5752,
      "##tılarını": 5753,
      "##tıyla": 5754,
      "##tıyorum": 5755,
      "##tığın": 5756,
      "##tılırlar": 5757,
      "##tırayım": 5758,
      "##ündeki": 5759,
      "##ünecek": 5760,
      "##ünlü": 5761,
      "##ünsen": 5762,
      "##üntülü": 5763,
      "##deden": 5764,
      "##değin": 5765,
      "##debileceğini": 5766,
      "##ilsin": 5767,
      "##ildiğini": 5768,
      "##ırı": 5769,
      "##ıran": 5770,
      "##ırmamıştı": 5771,
      "##ırsam": 5772,
      "##ırdandı": 5773,
      "##ırırsın": 5774,
      "baya": 5775,
      "batan": 5776,
      "basıl": 5777,
      "balığa": 5778,
      "batırıp": 5779,
      "balığını": 5780,
      "balığının": 5781,
      "battan": 5782,
      "bacanın": 5783,
      "bayanı": 5784,
      "olun": 5785,
      "olmanın": 5786,
      "oldun": 5787,
      "oluncaya": 5788,
      "##yormuş": 5789,
      "##yorlardı": 5790,
      "##yordunuz": 5791,
      "##ondan": 5792,
      "##imleri": 5793,
      "##imdey": 5794,
      "buz": 5795,
      "bulaş": 5796,
      "bulu": 5797,
      "bulacak": 5798,
      "buydu": 5799,
      "buhar": 5800,
      "buyur": 5801,
      "##yamadı": 5802,
      "##yabilecek": 5803,
      "##yamadığı": 5804,
      "##yaşlarına": 5805,
      "##yaslan": 5806,
      "dair": 5807,
      "dadı": 5808,
      "dağı": 5809,
      "dalaş": 5810,
      "dağıt": 5811,
      "##urmak": 5812,
      "##urunda": 5813,
      "##ursuz": 5814,
      "##urdun": 5815,
      "##urulan": 5816,
      "##aplarını": 5817,
      "gök": 5818,
      "gölg": 5819,
      "gömdüler": 5820,
      "##land": 5821,
      "##lanma": 5822,
      "##landa": 5823,
      "##lanları": 5824,
      "##lanların": 5825,
      "##lanıyor": 5826,
      "##lanmıştı": 5827,
      "##lanıyordu": 5828,
      "##lanması": 5829,
      "##langı": 5830,
      "##lanırsa": 5831,
      "##lanmaları": 5832,
      "##lankolik": 5833,
      "##attığı": 5834,
      "##atiler": 5835,
      "##elde": 5836,
      "##eldiğini": 5837,
      "##eltti": 5838,
      "##eling": 5839,
      "diyelim": 5840,
      "diyebildi": 5841,
      "##deni": 5842,
      "##denin": 5843,
      "##emem": 5844,
      "##eminin": 5845,
      "##emdeki": 5846,
      "##emeyle": 5847,
      "##emesini": 5848,
      "##emleye": 5849,
      "##dana": 5850,
      "##danma": 5851,
      "##danarak": 5852,
      "!\",": 5853,
      "##üşüyordu": 5854,
      "##üşteyim": 5855,
      "##amlar": 5856,
      "##amıyordu": 5857,
      "##uşmak": 5858,
      "##uşmuş": 5859,
      "##uşuyordu": 5860,
      "##uşuverdi": 5861,
      "##tisi": 5862,
      "##tisinin": 5863,
      "##tiğimde": 5864,
      "##tiğin": 5865,
      "##tikçe": 5866,
      "##tiverir": 5867,
      "##tisiydi": 5868,
      "##umak": 5869,
      "##umuz": 5870,
      "##umuyordu": 5871,
      "başlarını": 5872,
      "başından": 5873,
      "başlarına": 5874,
      "başlarının": 5875,
      "başlarından": 5876,
      "başındaki": 5877,
      "başarıyla": 5878,
      "başlangı": 5879,
      "##ağını": 5880,
      "##ağına": 5881,
      "##ağının": 5882,
      "##ağımda": 5883,
      "##etiyordu": 5884,
      "##etmeyecek": 5885,
      "##etaklak": 5886,
      "##etlemiş": 5887,
      "onay": 5888,
      "onlardan": 5889,
      "gidin": 5890,
      "gideceğim": 5891,
      "##sısının": 5892,
      "##ışmış": 5893,
      "##ışlayın": 5894,
      "içi": 5895,
      "içmem": 5896,
      "içmeden": 5897,
      "içip": 5898,
      "içsem": 5899,
      "içiyorlardı": 5900,
      "içiyorlarmış": 5901,
      "içime": 5902,
      "içerseniz": 5903,
      "içece": 5904,
      "içmeseydim": 5905,
      "içiriyordu": 5906,
      "##kacak": 5907,
      "##kalarından": 5908,
      "##stir": 5909,
      "##sten": 5910,
      "##düm": 5911,
      "##ıkları": 5912,
      "##ıklığa": 5913,
      "##ıklayan": 5914,
      "##ıklığına": 5915,
      "##üktü": 5916,
      "##üklerinde": 5917,
      "##aydı": 5918,
      "##ayıp": 5919,
      "##ayip": 5920,
      "##aydılar": 5921,
      "kadarı": 5922,
      "kadardı": 5923,
      "kadarsa": 5924,
      "##ımla": 5925,
      "##ımın": 5926,
      "##ımıyordu": 5927,
      "kenarından": 5928,
      "kenetlemiş": 5929,
      "görme": 5930,
      "görmenin": 5931,
      "görmekten": 5932,
      "görmemişti": 5933,
      "görmedim": 5934,
      "görmeli": 5935,
      "görmüyorum": 5936,
      "gördün": 5937,
      "görülür": 5938,
      "göremeyeceği": 5939,
      "gördünüz": 5940,
      "görüşteyim": 5941,
      "şeye": 5942,
      "şeyde": 5943,
      "şeyim": 5944,
      "##ediğini": 5945,
      "##edilecek": 5946,
      "##edildiniz": 5947,
      "##izde": 5948,
      "##izden": 5949,
      "##izdir": 5950,
      "##izali": 5951,
      "nehrinin": 5952,
      "söndü": 5953,
      "?\",": 5954,
      "Krala": 5955,
      "düşme": 5956,
      "düşlerini": 5957,
      "düşledi": 5958,
      "düşüyordu": 5959,
      "düşecek": 5960,
      "düşüp": 5961,
      "düşsem": 5962,
      "düşmeleri": 5963,
      "düşüşten": 5964,
      "##aldı": 5965,
      "##altır": 5966,
      "##alttığı": 5967,
      "##işlik": 5968,
      "##iştin": 5969,
      "andan": 5970,
      "anında": 5971,
      "anlık": 5972,
      "anana": 5973,
      "anlardı": 5974,
      "anlıyor": 5975,
      "olduysam": 5976,
      "Bulma": 5977,
      "içinin": 5978,
      "içinden": 5979,
      "içindeydi": 5980,
      "içindekini": 5981,
      "sonlarında": 5982,
      "##cısın": 5983,
      "##cığım": 5984,
      "##anıyordu": 5985,
      "##anılacağını": 5986,
      "kibir": 5987,
      "##kili": 5988,
      "##kilerek": 5989,
      "biberi": 5990,
      "bitiverir": 5991,
      "##mayacağı": 5992,
      "dolarken": 5993,
      "dolamadı": 5994,
      "dolayı": 5995,
      "dolanırken": 5996,
      "doğum": 5997,
      "dolaplar": 5998,
      "düşünmek": 5999,
      "düşünüyor": 6000,
      "düşündeki": 6001,
      "düşünmeden": 6002,
      "düşünmüş": 6003,
      "düşünmüştü": 6004,
      "düşüneyim": 6005,
      "düşünmüyorum": 6006,
      "düşünmemiştim": 6007,
      "konmaya": 6008,
      "konyak": 6009,
      "##talar": 6010,
      "##taya": 6011,
      "##tacak": 6012,
      "##talardan": 6013,
      "##tuf": 6014,
      "##tuyordu": 6015,
      "##tuba": 6016,
      "##tuğa": 6017,
      "##tusu": 6018,
      "##tuğunu": 6019,
      "##tulup": 6020,
      "bakmış": 6021,
      "bakıp": 6022,
      "baksan": 6023,
      "bakmadan": 6024,
      "bakınca": 6025,
      "bakayım": 6026,
      "bakacağım": 6027,
      "bakmalısınız": 6028,
      "baktıktan": 6029,
      "bakmalıyım": 6030,
      "bakıma": 6031,
      "gelmek": 6032,
      "geldiğ": 6033,
      "gelse": 6034,
      "gelenin": 6035,
      "gelmeye": 6036,
      "geleni": 6037,
      "geldim": 6038,
      "gelince": 6039,
      "geldiğim": 6040,
      "gelmemişti": 6041,
      "##salar": 6042,
      "##saya": 6043,
      "##salanıp": 6044,
      "##tebilmek": 6045,
      "##mışlar": 6046,
      "##mışsın": 6047,
      "##mışlardı": 6048,
      "değmez": 6049,
      "##melerini": 6050,
      "##meğini": 6051,
      "##medin": 6052,
      "##mecenin": 6053,
      "##metiğin": 6054,
      "##kenin": 6055,
      "##ruğunun": 6056,
      "##aşıp": 6057,
      "yapanı": 6058,
      "yapsın": 6059,
      "yapıyordu": 6060,
      "yapmaz": 6061,
      "yapması": 6062,
      "yapmanın": 6063,
      "yapılan": 6064,
      "yapmıyor": 6065,
      "yapaya": 6066,
      "yapmamıştı": 6067,
      "yaparken": 6068,
      "yapsam": 6069,
      "yaptırmaya": 6070,
      "yapmamak": 6071,
      "yaprağıyla": 6072,
      "yapışmış": 6073,
      "etmiş": 6074,
      "etmeye": 6075,
      "etmez": 6076,
      "etmiyor": 6077,
      "etmem": 6078,
      "etmişti": 6079,
      "etmeyi": 6080,
      "etmenin": 6081,
      "etkin": 6082,
      "##bilme": 6083,
      "##bilse": 6084,
      "##bilmenin": 6085,
      "##iyormuş": 6086,
      "kendilerini": 6087,
      "kendilerine": 6088,
      "kendisinin": 6089,
      "##maksın": 6090,
      "##maklarının": 6091,
      "##maksızın": 6092,
      "##uyan": 6093,
      "##uyken": 6094,
      "##uyarak": 6095,
      "##uyup": 6096,
      "bence": 6097,
      "bende": 6098,
      "benden": 6099,
      "bense": 6100,
      "##cadan": 6101,
      "##calara": 6102,
      "çoktan": 6103,
      "çokça": 6104,
      "yerin": 6105,
      "yerlerini": 6106,
      "yerlerim": 6107,
      "yerlerine": 6108,
      "yersem": 6109,
      "yerlerinden": 6110,
      "yerdeyim": 6111,
      "##mekle": 6112,
      "alın": 6113,
      "almak": 6114,
      "almadı": 6115,
      "almam": 6116,
      "almaz": 6117,
      "alması": 6118,
      "almıyor": 6119,
      "almalı": 6120,
      "almadan": 6121,
      "almayı": 6122,
      "allak": 6123,
      "algı": 6124,
      "almakla": 6125,
      "almalısınız": 6126,
      "almamıştım": 6127,
      "allah": 6128,
      "alınacak": 6129,
      "aldığımı": 6130,
      "konuşarak": 6131,
      "konuşmadı": 6132,
      "konuşul": 6133,
      "konuşuyordu": 6134,
      "konuşmakta": 6135,
      "konuşacak": 6136,
      "konuşmasıydı": 6137,
      "##caksın": 6138,
      "##caklarını": 6139,
      "##caklarıydı": 6140,
      "---\"": 6141,
      "sormaya": 6142,
      "sormadı": 6143,
      "sorul": 6144,
      "soruyordu": 6145,
      "sormadan": 6146,
      "sormayı": 6147,
      "sormazsanız": 6148,
      "soruyorsun": 6149,
      "sormalarına": 6150,
      "şekilli": 6151,
      "Birden": 6152,
      "Birlikte": 6153,
      "##ğıdı": 6154,
      "##ğıldı": 6155,
      "olduğuydu": 6156,
      "olduğumda": 6157,
      "kool": 6158,
      "komik": 6159,
      "komut": 6160,
      "öne": 6161,
      "önden": 6162,
      "öncek": 6163,
      "önlerinde": 6164,
      "önermeyi": 6165,
      "önündeki": 6166,
      "bol": 6167,
      "bot": 6168,
      "bozu": 6169,
      "bozan": 6170,
      "geçe": 6171,
      "geziniyor": 6172,
      "kıyı": 6173,
      "kılım": 6174,
      "kısık": 6175,
      "kısılır": 6176,
      "kıyaslan": 6177,
      "kıtaya": 6178,
      "##üyü": 6179,
      "##çeği": 6180,
      "olmasa": 6181,
      "olmamış": 6182,
      "olmasın": 6183,
      "olmasından": 6184,
      "olmayın": 6185,
      "olmadığı": 6186,
      "olmamasıydı": 6187,
      "##sie": 6188,
      "##sik": 6189,
      "##sisi": 6190,
      "##diğinin": 6191,
      "bunlardan": 6192,
      "##seler": 6193,
      "herhangi": 6194,
      "##laşla": 6195,
      "##laştı": 6196,
      "##laşıyordu": 6197,
      "##laşılan": 6198,
      "##laşmamıştı": 6199,
      "kalmayı": 6200,
      "kalmıyordu": 6201,
      "kalbini": 6202,
      "kalkacak": 6203,
      "küçümsey": 6204,
      "##ümler": 6205,
      "##ümleri": 6206,
      "##ümüne": 6207,
      "##ümdar": 6208,
      "göze": 6209,
      "gözle": 6210,
      "gözler": 6211,
      "gözünde": 6212,
      "gözlerinde": 6213,
      "gözlemek": 6214,
      "gözlemekte": 6215,
      "gözünün": 6216,
      "gözümle": 6217,
      "gözkap": 6218,
      "gözyaşlarına": 6219,
      "gözüktü": 6220,
      "saçı": 6221,
      "salarım": 6222,
      "sadeydi": 6223,
      "yanan": 6224,
      "yanımız": 6225,
      "yanaşıp": 6226,
      "##alır": 6227,
      "##alısın": 6228,
      "anlatan": 6229,
      "anlayıp": 6230,
      "anlamıyorum": 6231,
      "anlamakta": 6232,
      "anlamadım": 6233,
      "anlamadığını": 6234,
      "anlamazsın": 6235,
      "anlayış": 6236,
      "dili": 6237,
      "dilemekte": 6238,
      "dilerdim": 6239,
      "karlı": 6240,
      "karid": 6241,
      "karaya": 6242,
      "kartal": 6243,
      "karanlı": 6244,
      "karşımdan": 6245,
      "karnenin": 6246,
      "karımla": 6247,
      "##yici": 6248,
      "doğruları": 6249,
      "doğrularak": 6250,
      "doğrudur": 6251,
      "doğruydu": 6252,
      "doğruysa": 6253,
      "doğrultup": 6254,
      "olacağım": 6255,
      "olabilirim": 6256,
      "olacağı": 6257,
      "olamayacağını": 6258,
      "olacağına": 6259,
      "olamıyorsun": 6260,
      "olabileceğini": 6261,
      "olaylar": 6262,
      "olamayacağı": 6263,
      "##bağaya": 6264,
      "düşündüklerini": 6265,
      "düşündükten": 6266,
      "düşündüğünde": 6267,
      "inin": 6268,
      "indi": 6269,
      "iniyor": 6270,
      "insin": 6271,
      "inmem": 6272,
      "inecek": 6273,
      "incele": 6274,
      "inildi": 6275,
      "inmeni": 6276,
      "inebilirsin": 6277,
      "incit": 6278,
      "uzuyor": 6279,
      "uzman": 6280,
      "uzatır": 6281,
      "uzayıncaya": 6282,
      "uzatıp": 6283,
      "uzayıp": 6284,
      "uzanıyordu": 6285,
      "##arlamak": 6286,
      "##arlayarak": 6287,
      "durmaya": 6288,
      "durmuştu": 6289,
      "durmayı": 6290,
      "durdur": 6291,
      "duruma": 6292,
      "durgun": 6293,
      "durmaktan": 6294,
      "durduğunu": 6295,
      "durmayın": 6296,
      "durmanı": 6297,
      "tekerlerin": 6298,
      "üzül": 6299,
      "üzmüştü": 6300,
      "üzüntülü": 6301,
      "üzümleri": 6302,
      "Kapının": 6303,
      "Kapamayacağım": 6304,
      "isteğ": 6305,
      "istiyordu": 6306,
      "istersin": 6307,
      "isteyecek": 6308,
      "istersiniz": 6309,
      "istas": 6310,
      "istirid": 6311,
      "isteniyor": 6312,
      "isteksiz": 6313,
      "yokmuş": 6314,
      "yoklu": 6315,
      "yoktan": 6316,
      "işler": 6317,
      "işleri": 6318,
      "işten": 6319,
      "işareti": 6320,
      "işlese": 6321,
      "##arası": 6322,
      "##aramazlar": 6323,
      "Faresiyle": 6324,
      "sürer": 6325,
      "sürdü": 6326,
      "sürmedi": 6327,
      "sürüyordu": 6328,
      "sürümler": 6329,
      "çıkış": 6330,
      "çıkmak": 6331,
      "çıkmıştı": 6332,
      "çıktık": 6333,
      "çıkıp": 6334,
      "çıkmanın": 6335,
      "çıkarken": 6336,
      "çıkıntı": 6337,
      "çıkamıyorum": 6338,
      "çıkıncaya": 6339,
      "çıkılacağını": 6340,
      "çıkaramazlar": 6341,
      "##ukla": 6342,
      "##ukların": 6343,
      "##uktan": 6344,
      "##uklarını": 6345,
      "##uklayan": 6346,
      "##yız": 6347,
      "bilemem": 6348,
      "bileyim": 6349,
      "bileceğini": 6350,
      "bilemezsin": 6351,
      "faraş": 6352,
      "faresi": 6353,
      "fareyle": 6354,
      "haber": 6355,
      "##mişim": 6356,
      "##mişini": 6357,
      "##mişiz": 6358,
      "##mişsin": 6359,
      "##miştim": 6360,
      "##miştin": 6361,
      "##suna": 6362,
      "kendinin": 6363,
      "kendinden": 6364,
      "yüzdü": 6365,
      "yüzerek": 6366,
      "yüzlerini": 6367,
      "yüzüyor": 6368,
      "yüzmeyi": 6369,
      "yüzdüğ": 6370,
      "yüzemez": 6371,
      "yüzmekten": 6372,
      "yüzdüler": 6373,
      "##itimi": 6374,
      "##itsizce": 6375,
      "##itmetiğin": 6376,
      "##ceksiniz": 6377,
      "eni": 6378,
      "enine": 6379,
      "engel": 6380,
      "söyleme": 6381,
      "söylese": 6382,
      "söyledim": 6383,
      "söylemem": 6384,
      "söylememişti": 6385,
      "söyleyin": 6386,
      "söylemey": 6387,
      "söylemesini": 6388,
      "söylediler": 6389,
      "söylemiştim": 6390,
      "yazın": 6391,
      "yazmak": 6392,
      "yazıyor": 6393,
      "yazmakta": 6394,
      "yazmadım": 6395,
      "yazacak": 6396,
      "yazmakla": 6397,
      "yazacağım": 6398,
      "yazdıklarını": 6399,
      "yazdığımı": 6400,
      "yazabil": 6401,
      "##ersem": 6402,
      "kaptı": 6403,
      "kaplayan": 6404,
      "kapanları": 6405,
      "kapayıncaya": 6406,
      "kapansın": 6407,
      "Kraliçelerden": 6408,
      "Kaplumbağayı": 6409,
      "Kaplumbağaydı": 6410,
      "##ılları": 6411,
      "##ılmıştı": 6412,
      "##ılmaz": 6413,
      "##ılması": 6414,
      "##ılmanın": 6415,
      "##ıldığını": 6416,
      "##ılmalı": 6417,
      "##ılınca": 6418,
      "##ılmazdı": 6419,
      "##ılmaları": 6420,
      "##ılsık": 6421,
      "##arıyorum": 6422,
      "##lıklarla": 6423,
      "küçükken": 6424,
      "küçüktü": 6425,
      "elleri": 6426,
      "eliniz": 6427,
      "ellerim": 6428,
      "elindekini": 6429,
      "elmaslarla": 6430,
      "görünmek": 6431,
      "görüntü": 6432,
      "görünüyor": 6433,
      "görünmeden": 6434,
      "görünüp": 6435,
      "görünmeyecek": 6436,
      "görünmesinin": 6437,
      "Kantlı": 6438,
      "Kanarya": 6439,
      "arı": 6440,
      "aranıp": 6441,
      "arzu": 6442,
      "ardından": 6443,
      "arpa": 6444,
      "armağan": 6445,
      "aritmetiğin": 6446,
      "büyüyor": 6447,
      "büyüyorsun": 6448,
      "büyülü": 6449,
      "Şapkacının": 6450,
      "##erebilme": 6451,
      "birazdan": 6452,
      "Bende": 6453,
      "sandı": 6454,
      "saniye": 6455,
      "sanmıştı": 6456,
      "sandığı": 6457,
      "santimdi": 6458,
      "##ıyorsam": 6459,
      "##utmuştu": 6460,
      "##ülme": 6461,
      "##ülüyor": 6462,
      "##ülmüş": 6463,
      "##ülmes": 6464,
      "##üldüler": 6465,
      "Aslanla": 6466,
      "##muşsun": 6467,
      "##muştum": 6468,
      "##uzun": 6469,
      "##uzlarla": 6470,
      "##bilirler": 6471,
      "##bilirsem": 6472,
      "boyun": 6473,
      "boylama": 6474,
      "boylam": 6475,
      "boyundan": 6476,
      "Şapkacıdan": 6477,
      "Şapkacıyı": 6478,
      "Şapkacıydı": 6479,
      "sığır": 6480,
      "sıvış": 6481,
      "sıyır": 6482,
      "##meyeceğim": 6483,
      "##ezelik": 6484,
      "dönmüş": 6485,
      "dönerken": 6486,
      "dönebilirim": 6487,
      "dönerdi": 6488,
      "döneminin": 6489,
      "zamandan": 6490,
      "zamanında": 6491,
      "zamanların": 6492,
      "zamandır": 6493,
      "zamanımız": 6494,
      "zamankinden": 6495,
      "##gide": 6496,
      "##gite": 6497,
      "##gisi": 6498,
      "##gisini": 6499,
      "##tırken": 6500,
      "##tırmam": 6501,
      "##tırılan": 6502,
      "##tırlamak": 6503,
      "##tırıcı": 6504,
      "olduğunuzu": 6505,
      "açsa": 6506,
      "açtık": 6507,
      "açmakta": 6508,
      "açmadım": 6509,
      "açıldı": 6510,
      "açamadı": 6511,
      "açıldığı": 6512,
      "açılıyordu": 6513,
      "açısından": 6514,
      "açıldığını": 6515,
      "ayın": 6516,
      "ayındaki": 6517,
      "ayrıldı": 6518,
      "ayırmamıştı": 6519,
      "ayıklayan": 6520,
      "öylece": 6521,
      "öyledir": 6522,
      "öylesin": 6523,
      "##lenme": 6524,
      "##lendiğim": 6525,
      "##lenmeli": 6526,
      "##lenime": 6527,
      "##lenece": 6528,
      "##lenmişler": 6529,
      "geçer": 6530,
      "geçse": 6531,
      "geçsin": 6532,
      "geçince": 6533,
      "geçid": 6534,
      "geçmesi": 6535,
      "geçinir": 6536,
      "geçiyorlardı": 6537,
      "geçide": 6538,
      "geçirdiği": 6539,
      "geçmiyordu": 6540,
      "geçirmez": 6541,
      "geçmişini": 6542,
      "Kaplumbağaya": 6543,
      "##turdu": 6544,
      "devirdiği": 6545,
      "##madıkları": 6546,
      "##madıysan": 6547,
      "Tavşandan": 6548,
      "Tavşanını": 6549,
      "##lucan": 6550,
      "##luçkaya": 6551,
      "Bunlara": 6552,
      "uyurken": 6553,
      "uyuya": 6554,
      "uyduğunu": 6555,
      "uymazdı": 6556,
      "uyurum": 6557,
      "uyarının": 6558,
      "uyumuyordu": 6559,
      "uyuyup": 6560,
      "uyuklayan": 6561,
      "uyarıyorum": 6562,
      "##direcek": 6563,
      "##dirmekten": 6564,
      "##ütler": 6565,
      "##tüleri": 6566,
      "ilgisi": 6567,
      "##tıkça": 6568,
      "##ırdıyordu": 6569,
      "##inize": 6570,
      "gitme": 6571,
      "gitmeye": 6572,
      "gitmem": 6573,
      "gittim": 6574,
      "gitmeyi": 6575,
      "gitmemiş": 6576,
      "gitmeleri": 6577,
      "gitseydim": 6578,
      "gitmişler": 6579,
      "gitgide": 6580,
      "üzeri": 6581,
      "üzerindeki": 6582,
      "üzerlerinde": 6583,
      "üzerinize": 6584,
      "Düşüş": 6585,
      "Düşesi": 6586,
      "Düşünde": 6587,
      "Düşünsen": 6588,
      "ağlar": 6589,
      "ağlama": 6590,
      "ağrı": 6591,
      "ağlamanın": 6592,
      "ağladığı": 6593,
      "ağladığında": 6594,
      "bilmedi": 6595,
      "bildiği": 6596,
      "bildiğini": 6597,
      "bilmeden": 6598,
      "bilsem": 6599,
      "bilseydi": 6600,
      "bilinseydi": 6601,
      "devamı": 6602,
      "ikili": 6603,
      "ikisine": 6604,
      "bulurken": 6605,
      "bulduğu": 6606,
      "bullak": 6607,
      "bulmasını": 6608,
      "bulmalıyım": 6609,
      "bulmaca": 6610,
      "sözü": 6611,
      "sözdü": 6612,
      "sözüm": 6613,
      "sözlerin": 6614,
      "sözlerle": 6615,
      "sordular": 6616,
      "sorduğun": 6617,
      "sorduğumda": 6618,
      "vermek": 6619,
      "verdim": 6620,
      "vermeyi": 6621,
      "vermes": 6622,
      "verirdi": 6623,
      "veremez": 6624,
      "verdiğin": 6625,
      "vermemişti": 6626,
      "veririm": 6627,
      "vermeli": 6628,
      "verirken": 6629,
      "vermeni": 6630,
      "veremeyeceği": 6631,
      "verilsin": 6632,
      "veriyormuş": 6633,
      "vermiştin": 6634,
      "##lediyor": 6635,
      "##ledildi": 6636,
      "baktığı": 6637,
      "holde": 6638,
      "##kusuz": 6639,
      "##kulade": 6640,
      "önceden": 6641,
      "arayan": 6642,
      "aradığını": 6643,
      "aradığ": 6644,
      "aramıyorum": 6645,
      "aralığı": 6646,
      "aramız": 6647,
      "aradıktan": 6648,
      "yakında": 6649,
      "yakıp": 6650,
      "yakmalı": 6651,
      "yakmadığını": 6652,
      "yakalar": 6653,
      "yanılıyorsun": 6654,
      "yanıldığını": 6655,
      "##yanlardan": 6656,
      "##yandığı": 6657,
      "##larınız": 6658,
      "Düşese": 6659,
      "##dern": 6660,
      "##derli": 6661,
      "##deriyor": 6662,
      "##dermiş": 6663,
      "##dermesi": 6664,
      "##derland": 6665,
      "##çasını": 6666,
      "##sinler": 6667,
      "ettiği": 6668,
      "ettiğimi": 6669,
      "Onlardan": 6670,
      "Onsuz": 6671,
      "hepsiyle": 6672,
      "hepimiz": 6673,
      "hepimizin": 6674,
      "hepinizin": 6675,
      "##mediğini": 6676,
      "##mediği": 6677,
      "##eğinin": 6678,
      "##ırtısından": 6679,
      "Neden": 6680,
      "Nedir": 6681,
      "köklerini": 6682,
      "kötüy": 6683,
      "yaşı": 6684,
      "yaşar": 6685,
      "yaşını": 6686,
      "yaşında": 6687,
      "yaşta": 6688,
      "yaşmak": 6689,
      "yaşından": 6690,
      "yaşlarım": 6691,
      "yaşlarında": 6692,
      "yaşarken": 6693,
      "yaşındaki": 6694,
      "yaşamaya": 6695,
      "yaşarlar": 6696,
      "yaşlandın": 6697,
      "##dırdığını": 6698,
      "##dırga": 6699,
      "##mezse": 6700,
      "##mezsem": 6701,
      "##mezdiniz": 6702,
      "Elinde": 6703,
      "Ellerini": 6704,
      "Ellerinde": 6705,
      "Elveda": 6706,
      "Elsie": 6707,
      "böylesine": 6708,
      "duyar": 6709,
      "duymaya": 6710,
      "duymak": 6711,
      "duyarak": 6712,
      "duyul": 6713,
      "duyduğ": 6714,
      "duymadan": 6715,
      "duymamıştı": 6716,
      "duyduğu": 6717,
      "duyuldu": 6718,
      "duymamış": 6719,
      "duymamıştım": 6720,
      "duyulan": 6721,
      "duymadın": 6722,
      "duymuyordu": 6723,
      "duyulacak": 6724,
      "duymuştum": 6725,
      "nasıldı": 6726,
      "##arttını": 6727,
      "gerer": 6728,
      "gerçeği": 6729,
      "çeker": 6730,
      "çekmeyi": 6731,
      "çektiğini": 6732,
      "çekersin": 6733,
      "çekebil": 6734,
      "çekilmesi": 6735,
      "çekilirsiniz": 6736,
      "çekildiğini": 6737,
      "##iksizce": 6738,
      "##tirde": 6739,
      "##tirmek": 6740,
      "##tiremiyordu": 6741,
      "kızma": 6742,
      "kızlar": 6743,
      "kızına": 6744,
      "kızarak": 6745,
      "kızıl": 6746,
      "kızlardan": 6747,
      "kızdığı": 6748,
      "kızdığım": 6749,
      "kızdırdığını": 6750,
      "kızarttını": 6751,
      "...'": 6752,
      "kime": 6753,
      "kimmiş": 6754,
      "##üyorsan": 6755,
      "bağlamaz": 6756,
      "bağladın": 6757,
      "bağlayın": 6758,
      "Martın": 6759,
      "haydi": 6760,
      "hayret": 6761,
      "oyuklarını": 6762,
      "taç": 6763,
      "tasalanıp": 6764,
      "büyüklük": 6765,
      "denir": 6766,
      "denli": 6767,
      "dendiğini": 6768,
      "deneme": 6769,
      "denizin": 6770,
      "deneyecek": 6771,
      "denmesinin": 6772,
      "denesem": 6773,
      "denemesini": 6774,
      "güne": 6775,
      "günde": 6776,
      "günden": 6777,
      "günlerini": 6778,
      "gününde": 6779,
      "günlerim": 6780,
      "gerekiyor": 6781,
      "gerekmişti": 6782,
      "gerekiyordu": 6783,
      "gerekçelerini": 6784,
      "##ızdaki": 6785,
      "##dimi": 6786,
      "##anacağını": 6787,
      "--\",": 6788,
      "fırlayıp": 6789,
      "fırlayan": 6790,
      "fırlarken": 6791,
      "fırdön": 6792,
      "fırtına": 6793,
      "fırçasını": 6794,
      "oturun": 6795,
      "otururken": 6796,
      "oturmakta": 6797,
      "oturumu": 6798,
      "oturduğunu": 6799,
      "oturuverdi": 6800,
      "oturuyorlardı": 6801,
      "oturmanız": 6802,
      "oturttu": 6803,
      "sallar": 6804,
      "sallarım": 6805,
      "sallayıp": 6806,
      "sallıyordu": 6807,
      "sallandır": 6808,
      "sallanan": 6809,
      "##opot": 6810,
      "##liyorlar": 6811,
      "##liyormuş": 6812,
      "bahsede": 6813,
      "bahtsız": 6814,
      "bahaneyle": 6815,
      "gördüklerinde": 6816,
      "gördüklerinden": 6817,
      "farkına": 6818,
      "farkederse": 6819,
      "aklım": 6820,
      "akıtır": 6821,
      "aktardı": 6822,
      "akılları": 6823,
      "ekseni": 6824,
      "ekmeğini": 6825,
      "ekmişiz": 6826,
      "fazlası": 6827,
      "fazlasını": 6828,
      "fazlalığı": 6829,
      "haldeki": 6830,
      "halkı": 6831,
      "haltlar": 6832,
      "halledildi": 6833,
      "Kedisini": 6834,
      "Kedilerden": 6835,
      "Kedisidir": 6836,
      "aşırı": 6837,
      "madem": 6838,
      "madde": 6839,
      "masal": 6840,
      "madeni": 6841,
      "yinelemek": 6842,
      "olurlar": 6843,
      "olurken": 6844,
      "olurdum": 6845,
      "olursunuz": 6846,
      "diğeri": 6847,
      "diğerine": 6848,
      "diğerinden": 6849,
      "diğerlerinin": 6850,
      "kapılar": 6851,
      "kapıda": 6852,
      "kapısı": 6853,
      "kapıları": 6854,
      "kapısına": 6855,
      "kapısının": 6856,
      "tarafım": 6857,
      "tarafları": 6858,
      "tarafındaki": 6859,
      "çalışır": 6860,
      "çalışmak": 6861,
      "çalışıyor": 6862,
      "çalışmam": 6863,
      "çalışmanın": 6864,
      "çalışıyorlardı": 6865,
      "çalışabilirsin": 6866,
      "çalıştırmam": 6867,
      "Tırtılın": 6868,
      "derdi": 6869,
      "derli": 6870,
      "derim": 6871,
      "derdin": 6872,
      "derstir": 6873,
      "çoğunu": 6874,
      "çoğun": 6875,
      "çobanın": 6876,
      "çoğu": 6877,
      "##minenin": 6878,
      "##minci": 6879,
      "##miyorsun": 6880,
      "##cie": 6881,
      "başlama": 6882,
      "başlasın": 6883,
      "başlayıp": 6884,
      "başlamadan": 6885,
      "başlayarak": 6886,
      "başlamazsa": 6887,
      "durumdan": 6888,
      "durumum": 6889,
      "durummuş": 6890,
      "yanıtın": 6891,
      "yanıtlar": 6892,
      "yanıtını": 6893,
      "girerek": 6894,
      "girmek": 6895,
      "girmen": 6896,
      "girsem": 6897,
      "girebil": 6898,
      "girerim": 6899,
      "girmedin": 6900,
      "koruya": 6901,
      "koruyun": 6902,
      "korunması": 6903,
      "sular": 6904,
      "sudan": 6905,
      "sularını": 6906,
      "şaştı": 6907,
      "şaşarak": 6908,
      "şaşkına": 6909,
      "##meme": 6910,
      "##memek": 6911,
      "##memeye": 6912,
      "##memenin": 6913,
      "##mazdım": 6914,
      "değişme": 6915,
      "değişmesi": 6916,
      "değişirdi": 6917,
      "değiştiğini": 6918,
      "yazısını": 6919,
      "yazılacağını": 6920,
      "yazısıyla": 6921,
      "yazılanları": 6922,
      "edilebilir": 6923,
      "yalar": 6924,
      "yada": 6925,
      "yalayıp": 6926,
      "yatış": 6927,
      "yatıyordu": 6928,
      "yadırga": 6929,
      "##dekiler": 6930,
      "##ünüp": 6931,
      "hava": 6932,
      "havladı": 6933,
      "havalı": 6934,
      "havası": 6935,
      "havlama": 6936,
      "havlıyordu": 6937,
      "havlaması": 6938,
      "sever": 6939,
      "sevgi": 6940,
      "sevmem": 6941,
      "sevdiği": 6942,
      "sevdiğini": 6943,
      "sevinci": 6944,
      "sevgidir": 6945,
      "sevec": 6946,
      "varmadan": 6947,
      "şeylerin": 6948,
      "arkaya": 6949,
      "arkadan": 6950,
      "arkasını": 6951,
      "dersin": 6952,
      "dersen": 6953,
      "dersler": 6954,
      "derslerin": 6955,
      "derslerde": 6956,
      "merhem": 6957,
      "olana": 6958,
      "olanlar": 6959,
      "yüklüyor": 6960,
      "##ğime": 6961,
      "##ğimizin": 6962,
      "##ENİ": 6963,
      "alttan": 6964,
      "##cağınız": 6965,
      "köpeğe": 6966,
      "köprülük": 6967,
      "dakikalığına": 6968,
      "Eve": 6969,
      "Evi": 6970,
      "Evde": 6971,
      "Evimizin": 6972,
      "Evimdey": 6973,
      "kesin": 6974,
      "kesti": 6975,
      "kestim": 6976,
      "keskin": 6977,
      "kesmekten": 6978,
      "kesmeli": 6979,
      "keserseniz": 6980,
      "kesmeyeceğim": 6981,
      "kessinler": 6982,
      "kestiremiyordu": 6983,
      "kesmemeye": 6984,
      "yarışı": 6985,
      "yargıç": 6986,
      "yarattığı": 6987,
      "yaramıyordu": 6988,
      "zordu": 6989,
      "zorlama": 6990,
      "zorunlu": 6991,
      "zorlanıyordu": 6992,
      "##verim": 6993,
      "##vermek": 6994,
      "##verengi": 6995,
      "##sizliği": 6996,
      "kayda": 6997,
      "kaygan": 6998,
      "buradalar": 6999,
      "önemini": 7000,
      "kalkarak": 7001,
      "kalkmadı": 7002,
      "kalkmıştı": 7003,
      "kalkmadan": 7004,
      "kalkarsa": 7005,
      "sürece": 7006,
      "süredir": 7007,
      "ayaklarını": 7008,
      "bağırdılar": 7009,
      "aşağılık": 7010,
      "aşağıdaki": 7011,
      "aşağılıyorsun": 7012,
      "aşağılayı": 7013,
      "aşağılardaki": 7014,
      "Doğal": 7015,
      "güzeldi": 7016,
      "güzellemeyi": 7017,
      "parladı": 7018,
      "parmakla": 7019,
      "partisiydi": 7020,
      "sıkmayın": 7021,
      "sıkıca": 7022,
      "##çıvan": 7023,
      "##ANMA": 7024,
      "##ANTA": 7025,
      "##ANCI": 7026,
      "konuşmalar": 7027,
      "konuşmayan": 7028,
      "konuşmasından": 7029,
      "konuşmamalısın": 7030,
      "konuşmacısın": 7031,
      "konuşmamışsın": 7032,
      "koşup": 7033,
      "koşuyor": 7034,
      "koşmayı": 7035,
      "koşuda": 7036,
      "anlattı": 7037,
      "anlatmak": 7038,
      "anlatayım": 7039,
      "anlattığı": 7040,
      "anlatmalısınız": 7041,
      "uzaklık": 7042,
      "uzaklara": 7043,
      "uzundu": 7044,
      "uzununu": 7045,
      "uzunluk": 7046,
      "gittiğini": 7047,
      "gittiğinde": 7048,
      "gittiğinin": 7049,
      "gittiğimizin": 7050,
      "jürisiz": 7051,
      "Hayret": 7052,
      "astı": 7053,
      "asarak": 7054,
      "hakim": 7055,
      "hakları": 7056,
      "haketti": 7057,
      "haklısın": 7058,
      "mısınız": 7059,
      "mıydın": 7060,
      "mığrı": 7061,
      "yarama": 7062,
      "yaradığını": 7063,
      "yaramayacağını": 7064,
      "yarayacak": 7065,
      "yaratığın": 7066,
      "çayla": 7067,
      "çaylar": 7068,
      "çayımı": 7069,
      "kafaları": 7070,
      "kafalarını": 7071,
      "kafasının": 7072,
      "##duğun": 7073,
      "##duğundan": 7074,
      "olduklarını": 7075,
      "yükselt": 7076,
      "yükseltti": 7077,
      "Bildik": 7078,
      "Bildiğin": 7079,
      "Bilmecenin": 7080,
      "Bilgisini": 7081,
      "Masa": 7082,
      "Masanın": 7083,
      "atın": 7084,
      "atarak": 7085,
      "atmadı": 7086,
      "atarım": 7087,
      "attıklarında": 7088,
      "atlatıp": 7089,
      "bekler": 7090,
      "beklemek": 7091,
      "beklemekte": 7092,
      "bekliyorlar": 7093,
      "kucağına": 7094,
      "kuyuya": 7095,
      "okuduğunu": 7096,
      "okuyordum": 7097,
      "okumadın": 7098,
      "okuyordunuz": 7099,
      "okuyabilecek": 7100,
      "sende": 7101,
      "senden": 7102,
      "toplamaya": 7103,
      "toplanıp": 7104,
      "toparlandı": 7105,
      "toparladı": 7106,
      "toparlayarak": 7107,
      "topuzlarla": 7108,
      "öğlen": 7109,
      "öğütler": 7110,
      "##kecek": 7111,
      "##dığınızı": 7112,
      "kaçıp": 7113,
      "kaçmasın": 7114,
      "kaçıran": 7115,
      "geldiler": 7116,
      "Fareden": 7117,
      "sıraya": 7118,
      "sıradan": 7119,
      "sırasının": 7120,
      "sıralanıp": 7121,
      "sırasıydı": 7122,
      "çocuklar": 7123,
      "çocuktu": 7124,
      "çocukken": 7125,
      "çocuklarım": 7126,
      "çocuklarla": 7127,
      "çocukluk": 7128,
      "çocuklarından": 7129,
      "çocukluğunu": 7130,
      "evden": 7131,
      "kurtar": 7132,
      "kuruma": 7133,
      "kuruya": 7134,
      "kurbağa": 7135,
      "kurumuş": 7136,
      "kuryenin": 7137,
      "kurtulup": 7138,
      "kuruyken": 7139,
      "kurbağaya": 7140,
      "kediyi": 7141,
      "kedisiz": 7142,
      "kedilerin": 7143,
      "kediydi": 7144,
      "kedilerinin": 7145,
      "çömel": 7146,
      "çökmek": 7147,
      "çökecek": 7148,
      "##ayacak": 7149,
      "##lerindek": 7150,
      "benzemez": 7151,
      "benzemiyordu": 7152,
      "fareler": 7153,
      "fareleri": 7154,
      "farelerin": 7155,
      "açıklaya": 7156,
      "açıklamanın": 7157,
      "ağaca": 7158,
      "ağabey": 7159,
      "söylenmeye": 7160,
      "söylenecek": 7161,
      "söylenip": 7162,
      "söylenirken": 7163,
      "söylenmesinden": 7164,
      "alıyor": 7165,
      "alıyordu": 7166,
      "alıyorum": 7167,
      "kuşları": 7168,
      "kuştu": 7169,
      "kuşlardan": 7170,
      "kuşlarıydı": 7171,
      "kuşkuyla": 7172,
      "yürü": 7173,
      "yürüyordu": 7174,
      "yürürken": 7175,
      "yürüyorlardı": 7176,
      "yürüdü": 7177,
      "yüreği": 7178,
      "yüreklendir": 7179,
      "çorbanın": 7180,
      "çorbayı": 7181,
      "çoraplarını": 7182,
      "##ecektim": 7183,
      "##kılar": 7184,
      "##kıyı": 7185,
      "##kesinden": 7186,
      "##dişeyle": 7187,
      "deliler": 7188,
      "delilik": 7189,
      "delidir": 7190,
      "delisin": 7191,
      "delilerin": 7192,
      "deliğe": 7193,
      "deliyiz": 7194,
      "##ettiğinden": 7195,
      "kolları": 7196,
      "kolunun": 7197,
      "kollarından": 7198,
      "kollarıyla": 7199,
      "koltuğa": 7200,
      "merakı": 7201,
      "meraklandı": 7202,
      "önemlisi": 7203,
      "öğretir": 7204,
      "öğrenince": 7205,
      "kırılmasın": 7206,
      "kırpmış": 7207,
      "kırıklığına": 7208,
      "kırılması": 7209,
      "mahkumu": 7210,
      "##İNLE": 7211,
      "yapacağını": 7212,
      "yapacağım": 7213,
      "yapabilirsin": 7214,
      "yapamazlar": 7215,
      "yapamazsın": 7216,
      "yapabilse": 7217,
      "benimkinin": 7218,
      "olmalıydı": 7219,
      "olmalısınız": 7220,
      "olmalıydın": 7221,
      "istedim": 7222,
      "istediği": 7223,
      "istediğine": 7224,
      "istediğimde": 7225,
      "istediğin": 7226,
      "istediğiniz": 7227,
      "endişesiyle": 7228,
      "gerçekliğe": 7229,
      "tamamı": 7230,
      "tamamla": 7231,
      "tamamlaya": 7232,
      "tamamlamıştı": 7233,
      "kaybolana": 7234,
      "kaybedilecek": 7235,
      "Sanır": 7236,
      "aziz": 7237,
      "azının": 7238,
      "azarlardı": 7239,
      "azaldı": 7240,
      "azalır": 7241,
      "aceleden": 7242,
      "acelesi": 7243,
      "aceleye": 7244,
      "canını": 7245,
      "canımı": 7246,
      "dördü": 7247,
      "döverim": 7248,
      "güller": 7249,
      "gülmeye": 7250,
      "güldüğü": 7251,
      "peniye": 7252,
      "rahatladı": 7253,
      "rahatça": 7254,
      "rahatlayacak": 7255,
      "tutup": 7256,
      "tutan": 7257,
      "tutmaya": 7258,
      "tuttu": 7259,
      "tutmak": 7260,
      "tutması": 7261,
      "tutuştur": 7262,
      "tutmakta": 7263,
      "tutarlar": 7264,
      "tutuşmuştu": 7265,
      "tutarsanız": 7266,
      "tutuşmuş": 7267,
      "uçma": 7268,
      "uçarak": 7269,
      "uçtan": 7270,
      "uçup": 7271,
      "uçarsın": 7272,
      "uçuşuyordu": 7273,
      "yeteri": 7274,
      "yetinmek": 7275,
      "yetenekli": 7276,
      "yetkili": 7277,
      "Şimdiki": 7278,
      "Şimdilik": 7279,
      "##alamadıysan": 7280,
      "##diklerinizi": 7281,
      "Buradayım": 7282,
      "etrafları": 7283,
      "etraftaki": 7284,
      "Kraliçem": 7285,
      "karıştı": 7286,
      "karışmış": 7287,
      "karışmıştı": 7288,
      "karışıyordu": 7289,
      "karışırsam": 7290,
      "karışıklığa": 7291,
      "işiterek": 7292,
      "işitmiş": 7293,
      "işitmişti": 7294,
      "işittim": 7295,
      "işitmeden": 7296,
      "işitmedim": 7297,
      "işitemiyor": 7298,
      "işitmediği": 7299,
      "yaklaşıyor": 7300,
      "yaklaşmıştı": 7301,
      "yaklaşana": 7302,
      "yaklaşırken": 7303,
      "yaklaşmakta": 7304,
      "yaklaştığını": 7305,
      "yaklaşırsın": 7306,
      "yaklaştığında": 7307,
      "yaklaştırdı": 7308,
      "yaklaştıklarında": 7309,
      "yaklaşamadı": 7310,
      "telaşlı": 7311,
      "telaşlanma": 7312,
      "yanıtladım": 7313,
      "yanıtladılar": 7314,
      "hakkın": 7315,
      "hakkım": 7316,
      "Anlaya": 7317,
      "Anlat": 7318,
      "Anlamıyorum": 7319,
      "Antip": 7320,
      "Ansızın": 7321,
      "Anlaşılan": 7322,
      "Güverc": 7323,
      "dansın": 7324,
      "getirin": 7325,
      "getirir": 7326,
      "getiren": 7327,
      "getirmek": 7328,
      "getirirdi": 7329,
      "getirinceye": 7330,
      "getiririm": 7331,
      "getirecektim": 7332,
      "ortalık": 7333,
      "ortasından": 7334,
      "ortasında": 7335,
      "ortalıkta": 7336,
      "serdi": 7337,
      "serilmesi": 7338,
      "takla": 7339,
      "takar": 7340,
      "taklit": 7341,
      "takılınca": 7342,
      "taktirde": 7343,
      "tahtı": 7344,
      "tahtlarında": 7345,
      "yönelen": 7346,
      "yönlere": 7347,
      "yönelt": 7348,
      "yöneldiğini": 7349,
      "çevre": 7350,
      "şarkının": 7351,
      "##isel": 7352,
      "##ishan": 7353,
      "##sayarak": 7354,
      "##saydım": 7355,
      "başınıza": 7356,
      "başınızın": 7357,
      "konuştuğunu": 7358,
      "konuştukları": 7359,
      "saate": 7360,
      "saatin": 7361,
      "saatler": 7362,
      "saatinde": 7363,
      "dikti": 7364,
      "dikiş": 7365,
      "dikleş": 7366,
      "dikdö": 7367,
      "kararını": 7368,
      "kararsız": 7369,
      "kararlarının": 7370,
      "kararsızlık": 7371,
      "bulunarak": 7372,
      "bulunmuş": 7373,
      "bulunmuştu": 7374,
      "bulunmamıştı": 7375,
      "bulundur": 7376,
      "bulunduğunu": 7377,
      "bulunduğun": 7378,
      "hoşlanmadı": 7379,
      "hoşlanmam": 7380,
      "hoşlanıp": 7381,
      "hoşlanıyordu": 7382,
      "hoşlandın": 7383,
      "hoşlanmadığını": 7384,
      "hoşlanmazdı": 7385,
      "hoşlanmıyordu": 7386,
      "hoşlanmayacağını": 7387,
      "hoşlanmazdım": 7388,
      "kaybolmaya": 7389,
      "kaybolmaktan": 7390,
      "kaybolmayın": 7391,
      "Amacı": 7392,
      "Böylelikle": 7393,
      "ayağına": 7394,
      "ayağının": 7395,
      "ayağıyla": 7396,
      "ayağından": 7397,
      "ederiz": 7398,
      "edermiş": 7399,
      "emindi": 7400,
      "eminsin": 7401,
      "hızını": 7402,
      "hızım": 7403,
      "ikiye": 7404,
      "ikimizin": 7405,
      "ikinizin": 7406,
      "sırtını": 7407,
      "sırtları": 7408,
      "sırrın": 7409,
      "sırtlarına": 7410,
      "sırılsık": 7411,
      "##inçten": 7412,
      "demekten": 7413,
      "##mayız": 7414,
      "##dururum": 7415,
      "##lerimle": 7416,
      "##lerimizde": 7417,
      "##ırdadılar": 7418,
      "##ırdatarak": 7419,
      "##ırdayacak": 7420,
      "giderdi": 7421,
      "giderse": 7422,
      "giderlerken": 7423,
      "sessizdiler": 7424,
      "bitki": 7425,
      "bitse": 7426,
      "bitmiş": 7427,
      "bitince": 7428,
      "bitmişti": 7429,
      "bitinceye": 7430,
      "bitmesini": 7431,
      "bitmeyen": 7432,
      "gelene": 7433,
      "aldım": 7434,
      "aldık": 7435,
      "aldılar": 7436,
      "kısalıyordu": 7437,
      "kısalacağını": 7438,
      "kısalabilmeyi": 7439,
      "kaldım": 7440,
      "kaldığı": 7441,
      "##cağımı": 7442,
      "aynanın": 7443,
      "söylerdi": 7444,
      "oyunlar": 7445,
      "oyunları": 7446,
      "oyununa": 7447,
      "oyundaki": 7448,
      "oyuncağım": 7449,
      "oyuncuyu": 7450,
      "korkak": 7451,
      "korkmuş": 7452,
      "korkmam": 7453,
      "korkması": 7454,
      "korkmuştu": 7455,
      "korktuğu": 7456,
      "korkutmuştu": 7457,
      "!')": 7458,
      "Kendin": 7459,
      "Kendimi": 7460,
      "dışına": 7461,
      "dışında": 7462,
      "dışındaki": 7463,
      "dizinde": 7464,
      "dizinin": 7465,
      "dizenin": 7466,
      "dizlerinin": 7467,
      "dizlerinde": 7468,
      "dizlerindeki": 7469,
      "dizilirsiniz": 7470,
      "dizdiğinin": 7471,
      "genişlik": 7472,
      "##mesidir": 7473,
      "##layamaz": 7474,
      "##layamazlar": 7475,
      "olsaydını": 7476,
      "gösterebilme": 7477,
      "sesidir": 7478,
      "konularda": 7479,
      "yaptığının": 7480,
      "saçları": 7481,
      "saçlarını": 7482,
      "saçlarım": 7483,
      "saçlarla": 7484,
      "saçlarının": 7485,
      "saçlarından": 7486,
      "saçılmanın": 7487,
      "karşılık": 7488,
      "karşılarında": 7489,
      "karşılamaya": 7490,
      "karşılaşır": 7491,
      "karşılaşmamıştı": 7492,
      "sürdürürken": 7493,
      "hatırlarım": 7494,
      "hatırlamaya": 7495,
      "hatırlat": 7496,
      "hatırlamıyordu": 7497,
      "Benimle": 7498,
      "Benimki": 7499,
      "döndüm": 7500,
      "kızgındı": 7501,
      "kızgınlığını": 7502,
      "bahçenin": 7503,
      "bahçeyi": 7504,
      "bahçesindeki": 7505,
      "gördüğü": 7506,
      "gördüğünde": 7507,
      "gördüğüne": 7508,
      "gördüğüme": 7509,
      "gördüğünüz": 7510,
      "gördüğümü": 7511,
      "yüksekliğinde": 7512,
      "Dinahcığım": 7513,
      "Aklı": 7514,
      "Aksi": 7515,
      "Aklında": 7516,
      "Aklın": 7517,
      "BÖYLE": 7518,
      "izi": 7519,
      "izlemek": 7520,
      "izniniz": 7521,
      "izlenime": 7522,
      "mutsuz": 7523,
      "mutfakta": 7524,
      "oradayken": 7525,
      "oradaydılar": 7526,
      "taşları": 7527,
      "taşlardan": 7528,
      "taşlarının": 7529,
      "taşırsın": 7530,
      "taşıyorum": 7531,
      "taşırırsın": 7532,
      "taşımıyordu": 7533,
      "yedin": 7534,
      "##berci": 7535,
      "##türüyor": 7536,
      "birileri": 7537,
      "birisi": 7538,
      "birilerine": 7539,
      "birilerinin": 7540,
      "kazık": 7541,
      "kazanı": 7542,
      "kazanın": 7543,
      "kazayla": 7544,
      "kazasında": 7545,
      "kafanı": 7546,
      "kafamı": 7547,
      "kafalısın": 7548,
      "burasında": 7549,
      "##uşturmaya": 7550,
      "görebilirim": 7551,
      "görebildiği": 7552,
      "görebiliyor": 7553,
      "görebiliyordu": 7554,
      "domuzu": 7555,
      "domuzdu": 7556,
      "domuzların": 7557,
      "düşünceler": 7558,
      "düşünceleri": 7559,
      "düşüncesini": 7560,
      "düşüncelerin": 7561,
      "düşünceleriniz": 7562,
      "herkese": 7563,
      "herkesten": 7564,
      "sabrı": 7565,
      "sabrını": 7566,
      "isterim": 7567,
      "isterdin": 7568,
      "istermişim": 7569,
      "uykuda": 7570,
      "uykusunu": 7571,
      "bilmiyorum": 7572,
      "bilmiyorsun": 7573,
      "bilmiyordur": 7574,
      "bilmiyorsunuz": 7575,
      "bilmiyorsanız": 7576,
      "bilmiyormuşsun": 7577,
      "beklediler": 7578,
      "bekledikten": 7579,
      "şarkıda": 7580,
      "şarkısını": 7581,
      "şarkısına": 7582,
      "göstererek": 7583,
      "göstermiş": 7584,
      "gösterdiği": 7585,
      "gösteremem": 7586,
      "titrek": 7587,
      "titrerken": 7588,
      "titreyerek": 7589,
      "harcamak": 7590,
      "krema": 7591,
      "krizali": 7592,
      "ninni": 7593,
      "sakince": 7594,
      "saklamıştı": 7595,
      "saksısının": 7596,
      "ucunu": 7597,
      "ucuyla": 7598,
      "yılanları": 7599,
      "yılansın": 7600,
      "yelpazesini": 7601,
      "şuradaki": 7602,
      "şişeyi": 7603,
      "şişesini": 7604,
      "##menize": 7605,
      "##mandaki": 7606,
      "##mesem": 7607,
      "##meseler": 7608,
      "##ılıp": 7609,
      "##iydiler": 7610,
      "davranılacağını": 7611,
      "davranacağını": 7612,
      "##emekten": 7613,
      "çıktığında": 7614,
      "hayatı": 7615,
      "buldukları": 7616,
      "durumdayım": 7617,
      "durumdaysa": 7618,
      "öğrenme": 7619,
      "öğrenmeye": 7620,
      "öğrenmem": 7621,
      "öğrendik": 7622,
      "öğrendiniz": 7623,
      "öğreniyorlardı": 7624,
      "öğreniyorlarmış": 7625,
      "öğrenirken": 7626,
      "tahtasına": 7627,
      "tahtasında": 7628,
      "tahtasının": 7629,
      "unutan": 7630,
      "unutmaktan": 7631,
      "unuttum": 7632,
      "unutmadığı": 7633,
      "unutmazlar": 7634,
      "unutmuşum": 7635,
      "unuttuğunu": 7636,
      "unutturdu": 7637,
      "BUNU": 7638,
      "BUNDAN": 7639,
      "BUNLAR": 7640,
      "Baksana": 7641,
      "Endişeyle": 7642,
      "NEDİR": 7643,
      "NELERİ": 7644,
      "NESİN": 7645,
      "NEFRE": 7646,
      "Sabah": 7647,
      "bizlerle": 7648,
      "dinlemek": 7649,
      "dinlesin": 7650,
      "dinlediğini": 7651,
      "dinlediğin": 7652,
      "dinleyin": 7653,
      "dinleyecek": 7654,
      "dinlemiyorsun": 7655,
      "kiraz": 7656,
      "sayın": 7657,
      "sayarak": 7658,
      "sayılmazdı": 7659,
      "ummuştu": 7660,
      "umarım": 7661,
      "umduğu": 7662,
      "umardım": 7663,
      "umurunda": 7664,
      "umduğundan": 7665,
      "üstünü": 7666,
      "üstüne": 7667,
      "üstlerine": 7668,
      "üstünden": 7669,
      "üstlerindeki": 7670,
      "İnsanın": 7671,
      "İnsan": 7672,
      "İnsanı": 7673,
      "##luklar": 7674,
      "##ıtmanın": 7675,
      "##gundu": 7676,
      "##gunluğa": 7677,
      "##rısı": 7678,
      "##rier": 7679,
      "##rilik": 7680,
      "kavuşmuştu": 7681,
      "kavgaya": 7682,
      "kavradı": 7683,
      "kavuşmak": 7684,
      "dalmak": 7685,
      "dalların": 7686,
      "dallara": 7687,
      "daldığını": 7688,
      "dalga": 7689,
      "anahtarın": 7690,
      "anahtara": 7691,
      "koyar": 7692,
      "koymak": 7693,
      "koyduğunu": 7694,
      "koyuyorsun": 7695,
      "boşluğa": 7696,
      "boşalttığı": 7697,
      "anlamı": 7698,
      "anlamını": 7699,
      "anlamına": 7700,
      "anlamsız": 7701,
      "üzgündü": 7702,
      "istemem": 7703,
      "sanacaklarını": 7704,
      "salonu": 7705,
      "salonda": 7706,
      "salondan": 7707,
      "salonunu": 7708,
      "salonunda": 7709,
      "salonunun": 7710,
      "derindi": 7711,
      "derinliğinde": 7712,
      "yazılır": 7713,
      "kuyrukları": 7714,
      "kuyruklarını": 7715,
      "çorbaya": 7716,
      "çorbadan": 7717,
      "dışarıdan": 7718,
      "Majestelerinin": 7719,
      "atıyla": 7720,
      "atıverdi": 7721,
      "atılanların": 7722,
      "beyazdı": 7723,
      "beyazlaştı": 7724,
      "bıraktı": 7725,
      "bırakmak": 7726,
      "bırakmıştı": 7727,
      "bıraksan": 7728,
      "bıraktığında": 7729,
      "bırakıyorlardı": 7730,
      "bırakabiliyor": 7731,
      "mantara": 7732,
      "sahilde": 7733,
      "sahası": 7734,
      "sahip": 7735,
      "terket": 7736,
      "terketti": 7737,
      "terbiye": 7738,
      "terrier": 7739,
      "tavana": 7740,
      "tavalar": 7741,
      "tavanlı": 7742,
      "tanımadı": 7743,
      "tanığın": 7744,
      "tanıdığı": 7745,
      "tanıyormuş": 7746,
      "tepesinden": 7747,
      "tepesindeki": 7748,
      "tepiniyor": 7749,
      "tepetaklak": 7750,
      "tepsisi": 7751,
      "vurarak": 7752,
      "vurmanın": 7753,
      "vururdun": 7754,
      "vurdururum": 7755,
      "Önemli": 7756,
      "çarpsa": 7757,
      "çarpmış": 7758,
      "çarptırıp": 7759,
      "çarpıtmanın": 7760,
      "üyelerine": 7761,
      "üyelerinden": 7762,
      "##cıklar": 7763,
      "##lakları": 7764,
      "##ıntılar": 7765,
      "##emeyecek": 7766,
      "##emeyeceğim": 7767,
      "##emeyeceğini": 7768,
      "içeriden": 7769,
      "içeridekiler": 7770,
      "küçülmeye": 7771,
      "küçülmüş": 7772,
      "küçültür": 7773,
      "küçüldüğü": 7774,
      "küçülmüyor": 7775,
      "küçülmeme": 7776,
      "istiyorlar": 7777,
      "istiyorsan": 7778,
      "çıkarıp": 7779,
      "çıkarıyordu": 7780,
      "çıkarıyorlar": 7781,
      "açtığında": 7782,
      "geçtiği": 7783,
      "geçtiklerinde": 7784,
      "hayvanla": 7785,
      "hayvanlara": 7786,
      "hayvanlarla": 7787,
      "şaşkındı": 7788,
      "şaşkınlığa": 7789,
      "şaşkınlığını": 7790,
      "değiştirdi": 7791,
      "değiştirerek": 7792,
      "değiştirmek": 7793,
      "ediyorsa": 7794,
      "ediyorsunuz": 7795,
      "parçadan": 7796,
      "parçasını": 7797,
      "parçalarını": 7798,
      "parçasına": 7799,
      "parçalanıyor": 7800,
      "uzaklaşmak": 7801,
      "uzaklaşırken": 7802,
      "uzaklaştığını": 7803,
      "uzaklaştığında": 7804,
      "uzaklaşmasına": 7805,
      "uzaklaştıkça": 7806,
      "ağaçların": 7807,
      "ağaçtan": 7808,
      "ağaçlıkta": 7809,
      "##bileceği": 7810,
      "##bileceğim": 7811,
      "##bileceğinden": 7812,
      "nefeseydi": 7813,
      "davrandı": 7814,
      "davransın": 7815,
      "davranmanın": 7816,
      "davranmaktan": 7817,
      "davranırsa": 7818,
      "davranmalısın": 7819,
      "kirpiye": 7820,
      "kirpinin": 7821,
      "kirpiyle": 7822,
      "kirpiyi": 7823,
      "Bayım": 7824,
      "Bayana": 7825,
      "hissede": 7826,
      "kişiydiler": 7827,
      "omuzları": 7828,
      "omuzunun": 7829,
      "omuzlarının": 7830,
      "seninle": 7831,
      "seninki": 7832,
      "tersiyle": 7833,
      "ulaştı": 7834,
      "ulaşana": 7835,
      "ulaşmayı": 7836,
      "ulaştıklarında": 7837,
      "ulaşamayacağım": 7838,
      "yolcu": 7839,
      "yollamış": 7840,
      "yuvarlandı": 7841,
      "yuvasına": 7842,
      "yuvarlan": 7843,
      "yuvarlamak": 7844,
      "çabası": 7845,
      "çatıp": 7846,
      "çabu": 7847,
      "ölüme": 7848,
      "öfkesinden": 7849,
      "##muru": 7850,
      "##murdanma": 7851,
      "##edersiniz": 7852,
      "##kleyin": 7853,
      "##kırmış": 7854,
      "##ALİÇ": 7855,
      "##ALARI": 7856,
      "##seyerek": 7857,
      "##sattı": 7858,
      "kalacağım": 7859,
      "kalamıyorum": 7860,
      "kalabilirsin": 7861,
      "##dettiği": 7862,
      "bulacağını": 7863,
      "bulabilirsin": 7864,
      "bulamadım": 7865,
      "bulabildiğ": 7866,
      "bulabildiği": 7867,
      "bulabilmeyi": 7868,
      "bulabilirsem": 7869,
      "götürdü": 7870,
      "götürüyordu": 7871,
      "götürmeyi": 7872,
      "götürmesi": 7873,
      "götürsem": 7874,
      "götürmezsem": 7875,
      "götüremeyeceğini": 7876,
      "##azıma": 7877,
      "##uşmasını": 7878,
      "görevini": 7879,
      "kitapların": 7880,
      "kitaplardan": 7881,
      "kitaptaki": 7882,
      "bitirmek": 7883,
      "bitirmeden": 7884,
      "bitirecek": 7885,
      "bitirinceye": 7886,
      "bitirebil": 7887,
      "bitirmemiştim": 7888,
      "dolaştı": 7889,
      "dolaşmaya": 7890,
      "dolaşarak": 7891,
      "dolaşıyor": 7892,
      "dolaşmakta": 7893,
      "dolaştılar": 7894,
      "dolaştıktan": 7895,
      "gelmezdin": 7896,
      "yapılmayacak": 7897,
      "kaldırın": 7898,
      "kaldırılmalı": 7899,
      "dibine": 7900,
      "eldivenle": 7901,
      "eldivenler": 7902,
      "eldivenlerinden": 7903,
      "eldivenleriyle": 7904,
      "eldivenlerimi": 7905,
      "görünmüyorum": 7906,
      "dönüşü": 7907,
      "dönüşecek": 7908,
      "dönüşüp": 7909,
      "dönüşmediğini": 7910,
      "dönüşüyorsan": 7911,
      "yakınan": 7912,
      "yakınından": 7913,
      "yakınırken": 7914,
      "yaşlıyım": 7915,
      "çektiler": 7916,
      "farklılık": 7917,
      "aksırmaya": 7918,
      "aksırmak": 7919,
      "aksırıyordu": 7920,
      "masaları": 7921,
      "masasına": 7922,
      "zorundayım": 7923,
      "askerle": 7924,
      "askerlerin": 7925,
      "yaratıktı": 7926,
      "yaratıkların": 7927,
      "ilginçti": 7928,
      "ilginçmiş": 7929,
      "dikkate": 7930,
      "dikkatlice": 7931,
      "fısıltılar": 7932,
      "Başı": 7933,
      "Başına": 7934,
      "Başından": 7935,
      "Büyüyor": 7936,
      "Büyüyorum": 7937,
      "Büyüdüğ": 7938,
      "BİRAZ": 7939,
      "BİRİSİ": 7940,
      "Konukların": 7941,
      "Konuşmasını": 7942,
      "cesur": 7943,
      "camdan": 7944,
      "emre": 7945,
      "hazırdı": 7946,
      "peşe": 7947,
      "peşlerinden": 7948,
      "türden": 7949,
      "türlü": 7950,
      "tıkırtıları": 7951,
      "tıkılmaları": 7952,
      "yağmaya": 7953,
      "yağından": 7954,
      "yağmuru": 7955,
      "çenen": 7956,
      "çenesi": 7957,
      "çenesine": 7958,
      "çenesinin": 7959,
      "çenemdeki": 7960,
      "ötesinde": 7961,
      "ıstakozla": 7962,
      "ıstakozun": 7963,
      "ıstakozlar": 7964,
      "##afet": 7965,
      "##affer": 7966,
      "##rtgen": 7967,
      "##bürtü": 7968,
      "##bürlenme": 7969,
      "##skocaman": 7970,
      "##samıyorsam": 7971,
      "birbirini": 7972,
      "birbirlerine": 7973,
      "##leştirmek": 7974,
      "##ralya": 7975,
      "olmaktan": 7976,
      "gidecek": 7977,
      "gidebilir": 7978,
      "gidemem": 7979,
      "gidebilmenin": 7980,
      "boğuldu": 7981,
      "boğmayın": 7982,
      "boğularak": 7983,
      "boğazıma": 7984,
      "çıkaran": 7985,
      "çıkarmaya": 7986,
      "çıkaranın": 7987,
      "çıkardın": 7988,
      "çıkarmadan": 7989,
      "çıkarmadılar": 7990,
      "çıkarırdım": 7991,
      "büyümeye": 7992,
      "büyümesi": 7993,
      "büyümeyecek": 7994,
      "ağzın": 7995,
      "ağzına": 7996,
      "yakalamakta": 7997,
      "yakalayamadı": 7998,
      "oynarken": 7999,
      "oynamaya": 8000,
      "oynamak": 8001,
      "oynuyorlardı": 8002,
      "oynayacak": 8003,
      "denizinin": 8004,
      "denizdeki": 8005,
      "fırsattı": 8006,
      "fırsatını": 8007,
      "fırsattan": 8008,
      "ekmekle": 8009,
      "ekmekler": 8010,
      "susturulan": 8011,
      "sustuktan": 8012,
      "attılar": 8013,
      "attığını": 8014,
      "attığın": 8015,
      "kuruladı": 8016,
      "kurulu": 8017,
      "kurumazsa": 8018,
      "kuruduklarında": 8019,
      "kurutacak": 8020,
      "##bileceklerimin": 8021,
      "tuhaftı": 8022,
      "karıştırdı": 8023,
      "karıştırsın": 8024,
      "karıştırmıştı": 8025,
      "karıştırıyordu": 8026,
      "karıştırırsa": 8027,
      "karıştırmakla": 8028,
      "ilgilense": 8029,
      "ilgilendim": 8030,
      "ilgilenmesidir": 8031,
      "ilgilenemeyecek": 8032,
      "bebeğini": 8033,
      "hissetmeye": 8034,
      "kişiler": 8035,
      "kişiden": 8036,
      "kişisi": 8037,
      "kişilik": 8038,
      "fısıldayarak": 8039,
      "fısıldadığında": 8040,
      "Oğlana": 8041,
      "ağızlarını": 8042,
      "ağızlarına": 8043,
      "flamingonun": 8044,
      "gürültüy": 8045,
      "!...": 8046,
      "Arkam": 8047,
      "Arkalarından": 8048,
      "ALİCE": 8049,
      "Hatırlamak": 8050,
      "Haberci": 8051,
      "Tablosu": 8052,
      "Talihsiz": 8053,
      "aittir": 8054,
      "eğdi": 8055,
      "eğitimi": 8056,
      "eğlenece": 8057,
      "edelim": 8058,
      "fikir": 8059,
      "hıçkırdı": 8060,
      "niyetin": 8061,
      "niyetli": 8062,
      "okurken": 8063,
      "okurmak": 8064,
      "okumak": 8065,
      "okuyan": 8066,
      "oğlumu": 8067,
      "sarardı": 8068,
      "sarkan": 8069,
      "sarsıyordu": 8070,
      "sokmaya": 8071,
      "sokuldu": 8072,
      "sokabilir": 8073,
      "sokarlar": 8074,
      "savunarak": 8075,
      "savuşturmaya": 8076,
      "sizleri": 8077,
      "sizlere": 8078,
      "sebep": 8079,
      "sebze": 8080,
      "yanındak": 8081,
      "çağırıl": 8082,
      "çağrısı": 8083,
      "özleyecek": 8084,
      "ürper": 8085,
      "üretiyordu": 8086,
      "ısrar": 8087,
      "ısırdı": 8088,
      "ıslak": 8089,
      "ıslanmış": 8090,
      "##LEĞİN": 8091,
      "kabını": 8092,
      "kabıyla": 8093,
      "kabuğunu": 8094,
      "kabinleri": 8095,
      "olmuşsa": 8096,
      "olmuşsun": 8097,
      "olmuştur": 8098,
      "burnunda": 8099,
      "burnuna": 8100,
      "burnuyla": 8101,
      "gidiyor": 8102,
      "gidiyorum": 8103,
      "gelirim": 8104,
      "gelirken": 8105,
      "hiçbirini": 8106,
      "hiçbirinin": 8107,
      "şekerlemesi": 8108,
      "şekerlenmeli": 8109,
      "kıpkırmızı": 8110,
      "kıpırdandı": 8111,
      "kıpırtısından": 8112,
      "olmadığımdan": 8113,
      "anlayamadı": 8114,
      "anlayamamıştı": 8115,
      "anlayacaksın": 8116,
      "uzatmalarını": 8117,
      "uzatabilmek": 8118,
      "işitebilmek": 8119,
      "söyleyebilir": 8120,
      "söyleyebilirdi": 8121,
      "söyleyebileceklerimin": 8122,
      "görünürdü": 8123,
      "sıçanları": 8124,
      "pekmezini": 8125,
      "pekmezinin": 8126,
      "homurdanarak": 8127,
      "yararlı": 8128,
      "yararlanıp": 8129,
      "yararlanarak": 8130,
      "nerededir": 8131,
      "##ANIN": 8132,
      "çözmesi": 8133,
      "çözüme": 8134,
      "çözülmes": 8135,
      "benzerim": 8136,
      "alıştı": 8137,
      "alışırsın": 8138,
      "alışıldığı": 8139,
      "alışamadım": 8140,
      "alışkanlık": 8141,
      "dörtlüğ": 8142,
      "işittiler": 8143,
      "işittiği": 8144,
      "çevirir": 8145,
      "çeviren": 8146,
      "çevirmeye": 8147,
      "çevirdiniz": 8148,
      "çevirmenin": 8149,
      "çevirebilir": 8150,
      "kaybolduktan": 8151,
      "sırıtması": 8152,
      "sırıttığını": 8153,
      "gücü": 8154,
      "yavrusuydu": 8155,
      "yavrusuna": 8156,
      "saçmalarını": 8157,
      "saçmaydı": 8158,
      "saçmalamaya": 8159,
      "saçmalıklarla": 8160,
      "kazanan": 8161,
      "kazandı": 8162,
      "kazanını": 8163,
      "bahçıvanlar": 8164,
      "bahçıvanları": 8165,
      "bahçıvanların": 8166,
      "bahçıvanlara": 8167,
      "cesaretine": 8168,
      "hazırlanmış": 8169,
      "flamingolar": 8170,
      "flamingosu": 8171,
      "gürültüyle": 8172,
      "gürültüsü": 8173,
      "Kısılır": 8174,
      "Kulağının": 8175,
      "Kutusu": 8176,
      "Kuluçkaya": 8177,
      "Kulakları": 8178,
      "Neredes": 8179,
      "OLMA": 8180,
      "OLMALI": 8181,
      "OLAB": 8182,
      "OLDU": 8183,
      "Patates": 8184,
      "Patron": 8185,
      "Seninkine": 8186,
      "ahbap": 8187,
      "ahmaksın": 8188,
      "avlarken": 8189,
      "asılmış": 8190,
      "böğür": 8191,
      "böbürlenme": 8192,
      "fincanı": 8193,
      "kediniz": 8194,
      "kelime": 8195,
      "kelebeğe": 8196,
      "kederli": 8197,
      "mırıldama": 8198,
      "mezgitle": 8199,
      "mezgitleme": 8200,
      "neresinden": 8201,
      "neresiydi": 8202,
      "soğan": 8203,
      "soğuk": 8204,
      "somonlar": 8205,
      "sohbet": 8206,
      "soğanı": 8207,
      "solucan": 8208,
      "soluk": 8209,
      "soluyarak": 8210,
      "solgundu": 8211,
      "tırnak": 8212,
      "turtası": 8213,
      "yordu": 8214,
      "yorulup": 8215,
      "yorgunluğa": 8216,
      "yarısı": 8217,
      "yarısına": 8218,
      "yukarısı": 8219,
      "çalmanın": 8220,
      "çalmadan": 8221,
      "öbürüne": 8222,
      "üyesine": 8223,
      "İçeri": 8224,
      "İçerken": 8225,
      "İçlerinde": 8226,
      "İçeriye": 8227,
      "##geçip": 8228,
      "##retmesi": 8229,
      "##retmen": 8230,
      "##vırın": 8231,
      "##ğınının": 8232,
      "##cuların": 8233,
      "##suzluğunu": 8234,
      "##DEYS": 8235,
      "##SİDİR": 8236,
      "##ekkep": 8237,
      "basarak": 8238,
      "basmaktan": 8239,
      "bastırarak": 8240,
      "bastırmaya": 8241,
      "bastırılan": 8242,
      "baskılar": 8243,
      "anladığı": 8244,
      "anladığında": 8245,
      "biberle": 8246,
      "biberden": 8247,
      "biberdir": 8248,
      "aldırış": 8249,
      "aldırmış": 8250,
      "aldırmam": 8251,
      "aldırmadan": 8252,
      "aldırmazdı": 8253,
      "aldırmaksızın": 8254,
      "yanlışlıkla": 8255,
      "anlatacak": 8256,
      "anlatacağına": 8257,
      "insanları": 8258,
      "tekrarlaması": 8259,
      "tekrarlamaktan": 8260,
      "tekrarlatmaya": 8261,
      "tekrarlamazsanız": 8262,
      "söylemedim": 8263,
      "söylediklerini": 8264,
      "söylediklerimin": 8265,
      "söylediklerimizde": 8266,
      "yazılması": 8267,
      "yazıldığını": 8268,
      "yazılmamış": 8269,
      "kapatıyorum": 8270,
      "boyuca": 8271,
      "şaşırmış": 8272,
      "şaşırmıştı": 8273,
      "şaşırması": 8274,
      "şaşırmamalı": 8275,
      "değişiklikler": 8276,
      "değişiklikten": 8277,
      "değişikliklerle": 8278,
      "edilmeden": 8279,
      "edilmekten": 8280,
      "edildiğinde": 8281,
      "edilmenize": 8282,
      "havuzun": 8283,
      "havuzdan": 8284,
      "havuzunda": 8285,
      "kesilir": 8286,
      "kesilmek": 8287,
      "kesilmişti": 8288,
      "kesilmeyi": 8289,
      "kesilinceye": 8290,
      "kesilmeyecek": 8291,
      "kalkıştı": 8292,
      "kalkışmanın": 8293,
      "kalkışmayacak": 8294,
      "kalkışmayız": 8295,
      "kulağıyla": 8296,
      "yürümen": 8297,
      "mahkemeden": 8298,
      "çevresindeki": 8299,
      "öykünüz": 8300,
      "öyküyü": 8301,
      "Kendinden": 8302,
      "yetişti": 8303,
      "yetişmiyor": 8304,
      "yetişecek": 8305,
      "yetişmen": 8306,
      "yetişkin": 8307,
      "yetişmesinin": 8308,
      "sakindir": 8309,
      "şişede": 8310,
      "İngilizler": 8311,
      "tereyağının": 8312,
      "üyeleridir": 8313,
      "kirpisi": 8314,
      "kirpisini": 8315,
      "kirpilerin": 8316,
      "kirpisine": 8317,
      "görevlileri": 8318,
      "görevlilerden": 8319,
      "Konuşmaya": 8320,
      "Konuşmayı": 8321,
      "selamlamak": 8322,
      "tavşandan": 8323,
      "tavşanlardan": 8324,
      "hıçkırarak": 8325,
      "sıçradı": 8326,
      "sıçrayan": 8327,
      "sıçratıp": 8328,
      "Kertenkel": 8329,
      "efendimiz": 8330,
      "şiddetli": 8331,
      "Biber": 8332,
      "Biberi": 8333,
      "Celladı": 8334,
      "Celladın": 8335,
      "Fransaya": 8336,
      "Istakozlar": 8337,
      "Istakozları": 8338,
      "Kolu": 8339,
      "Komik": 8340,
      "Kolumu": 8341,
      "Koşarken": 8342,
      "Koskocaman": 8343,
      "Normal": 8344,
      "Söyledin": 8345,
      "Söylediğin": 8346,
      "Söyleyecek": 8347,
      "Söylediklerinizi": 8348,
      "Yanlış": 8349,
      "Yanaklarından": 8350,
      "Yarış": 8351,
      "Yarına": 8352,
      "Yargıç": 8353,
      "ablasına": 8354,
      "ablasının": 8355,
      "beyden": 8356,
      "belirten": 8357,
      "belirlemek": 8358,
      "belirleyi": 8359,
      "düzine": 8360,
      "diyordunuz": 8361,
      "düzeltmek": 8362,
      "duyamaz": 8363,
      "duyabiliyordu": 8364,
      "duyabildi": 8365,
      "eşi": 8366,
      "eşlik": 8367,
      "eşit": 8368,
      "eşele": 8369,
      "eşlerinizi": 8370,
      "giymişti": 8371,
      "giydiğini": 8372,
      "giymeden": 8373,
      "giyinmiş": 8374,
      "giydirecek": 8375,
      "hırlar": 8376,
      "hırlama": 8377,
      "hırlarım": 8378,
      "hırçın": 8379,
      "hırsla": 8380,
      "ileride": 8381,
      "ileriden": 8382,
      "ilerideki": 8383,
      "kesiliyordu": 8384,
      "kesilip": 8385,
      "kesilemez": 8386,
      "kullandığını": 8387,
      "otların": 8388,
      "otlara": 8389,
      "otorit": 8390,
      "odada": 8391,
      "odaya": 8392,
      "peruk": 8393,
      "peruğun": 8394,
      "perende": 8395,
      "perdeden": 8396,
      "perdenin": 8397,
      "planlamaya": 8398,
      "planlıyorsun": 8399,
      "planımın": 8400,
      "utancından": 8401,
      "verebilir": 8402,
      "vereceğini": 8403,
      "verebileceğinden": 8404,
      "Çenesini": 8405,
      "çiçeğinin": 8406,
      "##eleyin": 8407,
      "##buklar": 8408,
      "##AMİY": 8409,
      "##EKİ": 8410,
      "##lamaktır": 8411,
      "##ceğimden": 8412,
      "katılım": 8413,
      "kalemine": 8414,
      "kalemleri": 8415,
      "bacaları": 8416,
      "bacasından": 8417,
      "##kabaz": 8418,
      "anımsayarak": 8419,
      "anımsattı": 8420,
      "anımsamıyorsam": 8421,
      "Buradan": 8422,
      "Buradaki": 8423,
      "Buralarda": 8424,
      "bitenleri": 8425,
      "bitenlerden": 8426,
      "düşünüyordum": 8427,
      "yaprakları": 8428,
      "yapraklardan": 8429,
      "etkisi": 8430,
      "etkiledi": 8431,
      "etkilemez": 8432,
      "alkışlama": 8433,
      "alkışlamaya": 8434,
      "konuşmaksızın": 8435,
      "konuşuyorum": 8436,
      "konuşuyorsun": 8437,
      "konuşuyorlardı": 8438,
      "şeklin": 8439,
      "şeklinin": 8440,
      "şeklindeydi": 8441,
      "Kapıya": 8442,
      "Kapıdan": 8443,
      "isterseniz": 8444,
      "boyundaydı": 8445,
      "uygulamanın": 8446,
      "uygulamaktır": 8447,
      "bilgisi": 8448,
      "bilgilerini": 8449,
      "bilgisini": 8450,
      "bilgisiz": 8451,
      "bilgisine": 8452,
      "söylüyor": 8453,
      "söylüyordu": 8454,
      "söylüyorsun": 8455,
      "köşelerden": 8456,
      "yaşıyorlardı": 8457,
      "başlayayım": 8458,
      "başlayacağı": 8459,
      "başlayalım": 8460,
      "başlayamamıştım": 8461,
      "başlayacağımı": 8462,
      "başlayanlar": 8463,
      "korkuya": 8464,
      "korkuyorlar": 8465,
      "korkutuyordu": 8466,
      "şaşırdığını": 8467,
      "sevinçlerde": 8468,
      "merdivenden": 8469,
      "merdivenleri": 8470,
      "zorlukları": 8471,
      "koştular": 8472,
      "açıklamalar": 8473,
      "ağacına": 8474,
      "ağacının": 8475,
      "söylenenlerdi": 8476,
      "Herkese": 8477,
      "Herkesin": 8478,
      "kırıntılar": 8479,
      "kırıntıları": 8480,
      "kırıntıyla": 8481,
      "gülümseyerek": 8482,
      "Anne": 8483,
      "danstı": 8484,
      "danstır": 8485,
      "dansetmeye": 8486,
      "esniyor": 8487,
      "esneyerek": 8488,
      "esnekti": 8489,
      "güvenli": 8490,
      "güveniyor": 8491,
      "güvenilir": 8492,
      "güvenimiz": 8493,
      "döndüğünü": 8494,
      "döndüğümde": 8495,
      "döndüğünüzde": 8496,
      "emirler": 8497,
      "ötekiler": 8498,
      "değerlendirdi": 8499,
      "değerlendirme": 8500,
      "değerlendirmiş": 8501,
      "değerlendirmeye": 8502,
      "değerlendirdiğinde": 8503,
      "Tamamiyle": 8504,
      "çağırıyor": 8505,
      "çağırmalarını": 8506,
      "ürkmüş": 8507,
      "sabırsızlanarak": 8508,
      "yürümeyebilirler": 8509,
      "hıçkırıklarla": 8510,
      "hıçkırıklarının": 8511,
      "hıçkırıklarıyla": 8512,
      "Korkardım": 8513,
      "çiftlik": 8514,
      "çiftçi": 8515,
      ",).": 8516,
      "Azarla": 8517,
      "Azarlarım": 8518,
      "Açıkça": 8519,
      "Açıklanırsa": 8520,
      "Açıklayamaz": 8521,
      "Bizi": 8522,
      "Bizler": 8523,
      "Denemekten": 8524,
      "Genellikle": 8525,
      "Hangisini": 8526,
      "Hangisiy": 8527,
      "Merak": 8528,
      "Merakla": 8529,
      "Neyin": 8530,
      "acıdı": 8531,
      "acımamıştı": 8532,
      "acımasızlık": 8533,
      "alayın": 8534,
      "alaylar": 8535,
      "acıkmamış": 8536,
      "acıktığını": 8537,
      "cebinde": 8538,
      "cebinden": 8539,
      "dinler": 8540,
      "dinliyormuş": 8541,
      "dirsek": 8542,
      "dokuz": 8543,
      "dokunmaya": 8544,
      "dokunarak": 8545,
      "dokuzu": 8546,
      "düğün": 8547,
      "düğmelerini": 8548,
      "eğip": 8549,
      "hile": 8550,
      "haritalar": 8551,
      "harikulade": 8552,
      "ismi": 8553,
      "kanar": 8554,
      "kancalara": 8555,
      "kürkle": 8556,
      "kürkleri": 8557,
      "kürküm": 8558,
      "küreklerle": 8559,
      "kanıtlamaz": 8560,
      "kanıtlayamazlar": 8561,
      "lider": 8562,
      "notu": 8563,
      "noelde": 8564,
      "papa": 8565,
      "resimler": 8566,
      "resimlerindek": 8567,
      "süzen": 8568,
      "süzülen": 8569,
      "süzülür": 8570,
      "süzülürken": 8571,
      "sersem": 8572,
      "sersemli": 8573,
      "tatil": 8574,
      "tatmaya": 8575,
      "tatsız": 8576,
      "yıkaya": 8577,
      "yığıldı": 8578,
      "yığınının": 8579,
      "yiyince": 8580,
      "yediğimi": 8581,
      "yediklerinin": 8582,
      "yalvardı": 8583,
      "yuttu": 8584,
      "yutması": 8585,
      "yutmakta": 8586,
      "yuttun": 8587,
      "yeşili": 8588,
      "yardımcı": 8589,
      "Çarpım": 8590,
      "İÇİNDE": 8591,
      "İÇERİDE": 8592,
      "şunlar": 8593,
      "şunları": 8594,
      "şunların": 8595,
      "şunlardı": 8596,
      "şıpırdayan": 8597,
      "şıpırdatarak": 8598,
      "##metli": 8599,
      "##metçi": 8600,
      "##RILMA": 8601,
      "##LATI": 8602,
      "##AĞANIN": 8603,
      "##seklerde": 8604,
      "##NUNDA": 8605,
      "birikmişti": 8606,
      "biriktiğini": 8607,
      "destesi": 8608,
      "destesinin": 8609,
      "##lemeler": 8610,
      "kahval": 8611,
      "kahverengi": 8612,
      "kasenin": 8613,
      "kağıtta": 8614,
      "##esizlik": 8615,
      "bacaklarını": 8616,
      "bacaklarım": 8617,
      "balığıyla": 8618,
      "bugüne": 8619,
      "dayayıp": 8620,
      "dayamışlar": 8621,
      "davetkar": 8622,
      "başımdan": 8623,
      "görmüşsün": 8624,
      "görmüştüm": 8625,
      "düşürmüş": 8626,
      "düşürecek": 8627,
      "anlaşıla": 8628,
      "anlaşılmasın": 8629,
      "anlaşılıyordu": 8630,
      "anlaşılmaz": 8631,
      "Bugüne": 8632,
      "kilide": 8633,
      "kilidine": 8634,
      "kitaba": 8635,
      "##tabildi": 8636,
      "##tabildiğini": 8637,
      "yaparsa": 8638,
      "yaparsanız": 8639,
      "yapılıyor": 8640,
      "yerleşti": 8641,
      "gecede": 8642,
      "geceyle": 8643,
      "geliyorum": 8644,
      "geliyorlardı": 8645,
      "kıvırarak": 8646,
      "kıvırıp": 8647,
      "küçülerek": 8648,
      "incelmiş": 8649,
      "bilemiyordu": 8650,
      "kaplıdır": 8651,
      "kaplıydı": 8652,
      "kapalıydı": 8653,
      "görünmediği": 8654,
      "görünmedikçe": 8655,
      "##lerinize": 8656,
      "geçirdiler": 8657,
      "uyandı": 8658,
      "uyandığım": 8659,
      "uyandığımda": 8660,
      "ağırlığı": 8661,
      "ağırbaş": 8662,
      "ağzıyla": 8663,
      "hopladı": 8664,
      "hoplayarak": 8665,
      "hoplayıp": 8666,
      "hoplatıyor": 8667,
      "bağırarak": 8668,
      "bağırmıştı": 8669,
      "bağırıp": 8670,
      "bağırmayı": 8671,
      "tabaklar": 8672,
      "bahsettiğinden": 8673,
      "halledeceğim": 8674,
      "halletmek": 8675,
      "hallettiğini": 8676,
      "halledebileceğini": 8677,
      "maceraları": 8678,
      "maceralarımı": 8679,
      "başkasıymış": 8680,
      "suçum": 8681,
      "suçlamayı": 8682,
      "sussun": 8683,
      "susup": 8684,
      "susmuştu": 8685,
      "suratlı": 8686,
      "suratla": 8687,
      "yastık": 8688,
      "yaslanırken": 8689,
      "yaslayacak": 8690,
      "yaslanmıştı": 8691,
      "altındaydılar": 8692,
      "köprülerin": 8693,
      "sıkıştırdı": 8694,
      "sıkışmışlardı": 8695,
      "konuşmayız": 8696,
      "bekletti": 8697,
      "bekleyeyim": 8698,
      "kulaklarına": 8699,
      "kulaklarım": 8700,
      "kuyusuydu": 8701,
      "çörek": 8702,
      "çöreği": 8703,
      "benzediklerini": 8704,
      "yürüyen": 8705,
      "yürüyüş": 8706,
      "yürüyüp": 8707,
      "yürüyüşten": 8708,
      "kırmızıya": 8709,
      "endişeli": 8710,
      "dökmüştü": 8711,
      "dökülen": 8712,
      "dökülürken": 8713,
      "döküldüler": 8714,
      "pencereye": 8715,
      "pencereyi": 8716,
      "penceredeki": 8717,
      "Kendisine": 8718,
      "hatırladım": 8719,
      "hatırlayabildiği": 8720,
      "hatırlayamıyorsun": 8721,
      "mutludur": 8722,
      "mutlulukla": 8723,
      "mutluluklar": 8724,
      "taşıdı": 8725,
      "taşıyan": 8726,
      "taşıdığı": 8727,
      "taşıyacağını": 8728,
      "sabahın": 8729,
      "Kafanız": 8730,
      "harfi": 8731,
      "harflerle": 8732,
      "hareketi": 8733,
      "Saçların": 8734,
      "Saçlarınız": 8735,
      "kavgacı": 8736,
      "kuyruğuna": 8737,
      "kuyruğunun": 8738,
      "kuyruğuma": 8739,
      "kuyruğumu": 8740,
      "Hepinizin": 8741,
      "vurgusunu": 8742,
      "vurgulayarak": 8743,
      "becerdim": 8744,
      "becerdin": 8745,
      "beceremiyor": 8746,
      "beceriksizce": 8747,
      "kalabalıklaşıyordu": 8748,
      "haftada": 8749,
      "haftadan": 8750,
      "haftadır": 8751,
      "temizler": 8752,
      "temizleyerek": 8753,
      "tıkırdama": 8754,
      "tıkırdamıyordu": 8755,
      "sustular": 8756,
      "susturabilmek": 8757,
      "Görüyorum": 8758,
      "Görünüp": 8759,
      "fikrin": 8760,
      "fikrim": 8761,
      "fikrini": 8762,
      "fikriniz": 8763,
      "kıpırdamadı": 8764,
      "kıpırdamadan": 8765,
      "kıpırdatmam": 8766,
      "kıpırdayamadığı": 8767,
      "söyleyeceksin": 8768,
      "söyleyecektim": 8769,
      "gücenmişti": 8770,
      "gücenmesinden": 8771,
      "gücendirmekten": 8772,
      "gücenmeseler": 8773,
      "ahçısıydı": 8774,
      "bölüşüyordu": 8775,
      "bölümüne": 8776,
      "arkadaşları": 8777,
      "arkadaşlarının": 8778,
      "İngilizceden": 8779,
      "İngilizceydi": 8780,
      "çiçeklere": 8781,
      "##kabıların": 8782,
      "gülümsüyordu": 8783,
      "gülümserken": 8784,
      "beğenmemişti": 8785,
      "beğenirim": 8786,
      "uğradı": 8787,
      "zayıfladı": 8788,
      "zayıflayan": 8789,
      "Altın": 8790,
      "Allah": 8791,
      "Ayağını": 8792,
      "Boğuk": 8793,
      "Boğazla": 8794,
      "Boyandığı": 8795,
      "Bacadan": 8796,
      "Balıkları": 8797,
      "Bitap": 8798,
      "Boyu": 8799,
      "Boylu": 8800,
      "Boynunu": 8801,
      "Bazıları": 8802,
      "Edgar": 8803,
      "Geride": 8804,
      "Havuz": 8805,
      "Havada": 8806,
      "Havuzu": 8807,
      "KUŞAM": 8808,
      "Kesin": 8809,
      "Kesinlikle": 8810,
      "Kırk": 8811,
      "Kırılan": 8812,
      "Kırıntılar": 8813,
      "Kollarını": 8814,
      "Kollarım": 8815,
      "Oraya": 8816,
      "Orası": 8817,
      "Oradaki": 8818,
      "Susun": 8819,
      "Suçu": 8820,
      "Suratını": 8821,
      "Sizler": 8822,
      "Sizinle": 8823,
      "Salon": 8824,
      "Salyangoz": 8825,
      "Salonun": 8826,
      "YEDİM": 8827,
      "YELEĞİN": 8828,
      "Yerlerinize": 8829,
      "Yapacak": 8830,
      "Yapacağım": 8831,
      "Yapamam": 8832,
      "Yaşlı": 8833,
      "Yaşlısın": 8834,
      "Yaşlandın": 8835,
      "Yukarıdan": 8836,
      "Zamanla": 8837,
      "Zamanım": 8838,
      "atamadan": 8839,
      "atabilirim": 8840,
      "atamamış": 8841,
      "belli": 8842,
      "beline": 8843,
      "belirdi": 8844,
      "biçare": 8845,
      "beşi": 8846,
      "beşinci": 8847,
      "bıçak": 8848,
      "bıçakla": 8849,
      "bıçağını": 8850,
      "ezginin": 8851,
      "ermeyecek": 8852,
      "ermesinden": 8853,
      "edindiği": 8854,
      "huyunu": 8855,
      "imza": 8856,
      "ilerliyor": 8857,
      "ifade": 8858,
      "ifadesi": 8859,
      "ifadeyle": 8860,
      "ilerleme": 8861,
      "ilerlemeye": 8862,
      "ilerleyen": 8863,
      "iskemleye": 8864,
      "kâğıdı": 8865,
      "kemirerek": 8866,
      "keyifli": 8867,
      "keyiflenince": 8868,
      "keyiflendiğim": 8869,
      "melankolik": 8870,
      "miyiz": 8871,
      "miydim": 8872,
      "miydiniz": 8873,
      "mesaj": 8874,
      "minicik": 8875,
      "otuz": 8876,
      "ocağa": 8877,
      "rafları": 8878,
      "sicim": 8879,
      "sapı": 8880,
      "sapan": 8881,
      "sapına": 8882,
      "sayılır": 8883,
      "sayılırlar": 8884,
      "sizinki": 8885,
      "tüyleriyle": 8886,
      "tarlada": 8887,
      "tarlaları": 8888,
      "tuzla": 8889,
      "yirmi": 8890,
      "yirmiye": 8891,
      "yirminci": 8892,
      "yatan": 8893,
      "yatma": 8894,
      "yatmanın": 8895,
      "yemediğini": 8896,
      "zevki": 8897,
      "Özellikle": 8898,
      "Üzülme": 8899,
      "çaktı": 8900,
      "çattı": 8901,
      "çatarak": 8902,
      "çatalı": 8903,
      "çembere": 8904,
      "çizdi": 8905,
[...]
