{
  "version": "1.0",
  "truncation": null,
  "padding": null,
  "added_tokens": [
    {
      "id": 0,
      "content": "<bos>",
      "single_word": false,
      "lstrip": false,
      "rstrip": false,
      "normalized": false,
      "special": true
    },
    {
      "id": 1,
      "content": "<eos>",
      "single_word": false,
      "lstrip": false,
      "rstrip": false,
      "normalized": false,
      "special": true
    },
    {
      "id": 2,
      "content": "<unk>",
      "single_word": false,
      "lstrip": false,
      "rstrip": false,
      "normalized": false,
      "special": true
    },
    {
      "id": 3,
      "content": "<pad>",
      "single_word": false,
      "lstrip": false,
      "rstrip": false,
      "normalized": false,
      "special": true
    },
    {
      "id": 4,
      "content": "<start_of_turn>",
      "single_word": false,
      "lstrip": false,
      "rstrip": false,
      "normalized": false,
      "special": true
    },
    {
      "id": 5,
      "content": "<end_of_turn>",
      "single_word": false,
      "lstrip": false,
      "rstrip": false,
      "normalized": false,
      "special": true
    }
  ],
  "normalizer": null,
  "pre_tokenizer": {
    "type": "Whitespace"
  },
  "post_processor": null,
  "decoder": null,
  "model": {
    "type": "BPE",
    "dropout": null,
    "unk_token": "<unk>",
    "continuing_subword_prefix": null,
    "end_of_word_suffix": null,
    "fuse_unk": false,
    "byte_fallback": false,
    "ignore_merges": false,
    "vocab": {
      "<bos>": 0,
      "<eos>": 1,
      "<unk>": 2,
      "<pad>": 3,
      "<start_of_turn>": 4,
      "<end_of_turn>": 5,
      "!": 6,
      "\"": 7,
      "#": 8,
      "$": 9,
      "%": 10,
      "&": 11,
      "'": 12,
      "(": 13,
      ")": 14,
      "*": 15,
      "+": 16,
      ",": 17,
      "-": 18,
      ".": 19,
      "/": 20,
      "0": 21,
      "1": 22,
      "2": 23,
      "3": 24,
      "4": 25,
      "5": 26,
      "6": 27,
      "7": 28,
      "8": 29,
      "9": 30,
      ":": 31,
      ";": 32,
      "<": 33,
      "=": 34,
      ">": 35,
      "?": 36,
      "@": 37,
      "A": 38,
      "B": 39,
      "C": 40,
      "D": 41,
      "E": 42,
      "F": 43,
      "G": 44,
      "H": 45,
      "I": 46,
      "J": 47,
      "K": 48,
      "L": 49,
      "M": 50,
      "N": 51,
      "O": 52,
      "P": 53,
      "Q": 54,
      "R": 55,
      "S": 56,
      "T": 57,
      "U": 58,
      "V": 59,
      "W": 60,
      "X": 61,
      "Y": 62,
      "Z": 63,
      "[": 64,
      "\\": 65,
      "]": 66,
      "^": 67,
      "_": 68,
      "`": 69,
      "a": 70,
      "b": 71,
      "c": 72,
      "d": 73,
      "e": 74,
      "f": 75,
      "g": 76,
      "h": 77,
      "i": 78,
      "j": 79,
      "k": 80,
      "l": 81,
      "m": 82,
      "n": 83,
      "o": 84,
      "p": 85,
      "q": 86,
      "r": 87,
      "s": 88,
      "t": 89,
      "u": 90,
      "v": 91,
      "w": 92,
      "x": 93,
      "y": 94,
      "z": 95,
      "{": 96,
      "|": 97,
      "}": 98,
      "~": 99,
      "¡": 100,
      "£": 101,
      "¥": 102,
      "¦": 103,
      "§": 104,
      "«": 105,
      "­": 106,
      "®": 107,
      "°": 108,
      "±": 109,
      "²": 110,
      "³": 111,
      "´": 112,
      "µ": 113,
      "·": 114,
      "¹": 115,
      "º": 116,
      "»": 117,
      "½": 118,
      "¿": 119,
      "À": 120,
      "Á": 121,
      "Â": 122,
      "Ä": 123,
      "Å": 124,
      "Æ": 125,
      "Ç": 126,
      "È": 127,
      "É": 128,
      "Ê": 129,
      "Í": 130,
      "Î": 131,
      "Ñ": 132,
      "Ó": 133,
      "Ô": 134,
      "Ö": 135,
      "×": 136,
      "Ø": 137,
      "Ú": 138,
      "Û": 139,
      "Ü": 140,
      "Þ": 141,
      "ß": 142,
      "à": 143,
      "á": 144,
      "â": 145,
      "ã": 146,
      "ä": 147,
      "å": 148,
      "æ": 149,
      "ç": 150,
      "è": 151,
      "é": 152,
      "ê": 153,
      "ë": 154,
      "ì": 155,
      "í": 156,
      "î": 157,
      "ï": 158,
      "ð": 159,
      "ñ": 160,
      "ò": 161,
      "ó": 162,
      "ô": 163,
      "õ": 164,
      "ö": 165,
      "ø": 166,
      "ù": 167,
      "ú": 168,
      "û": 169,
      "ü": 170,
      "ý": 171,
      "þ": 172,
      "ÿ": 173,
      "Ā": 174,
      "ā": 175,
      "ă": 176,
      "ą": 177,
      "Ć": 178,
      "ć": 179,
      "Č": 180,
      "č": 181,
      "Đ": 182,
      "đ": 183,
      "Ē": 184,
      "ē": 185,
      "ĕ": 186,
      "ė": 187,
      "ę": 188,
      "ě": 189,
      "ĝ": 190,
      "Ğ": 191,
      "ğ": 192,
      "ġ": 193,
      "ĥ": 194,
      "Ħ": 195,
      "ħ": 196,
      "ĩ": 197,
      "ī": 198,
      "ĭ": 199,
      "į": 200,
      "İ": 201,
      "ı": 202,
      "ķ": 203,
      "ļ": 204,
      "Ľ": 205,
      "ľ": 206,
      "Ł": 207,
      "ł": 208,
      "ń": 209,
      "ņ": 210,
      "ň": 211,
      "ŋ": 212,
      "Ō": 213,
      "ō": 214,
      "ŏ": 215,
      "ő": 216,
      "Œ": 217,
      "œ": 218,
      "ř": 219,
      "Ś": 220,
      "ś": 221,
      "Ş": 222,
      "ş": 223,
      "Š": 224,
      "š": 225,
      "ţ": 226,
      "ť": 227,
      "ū": 228,
      "ŭ": 229,
      "ů": 230,
      "ű": 231,
      "ų": 232,
      "ź": 233,
      "Ż": 234,
      "ż": 235,
      "Ž": 236,
      "ž": 237,
      "Ə": 238,
      "ƒ": 239,
      "ơ": 240,
      "ư": 241,
      "ǎ": 242,
      "ǐ": 243,
      "ǒ": 244,
      "ǔ": 245,
      "ǫ": 246,
      "Ș": 247,
      "ș": 248,
      "Ț": 249,
      "ț": 250,
      "ȟ": 251,
      "ɐ": 252,
      "ɑ": 253,
      "ɔ": 254,
      "ɕ": 255,
      "ə": 256,
      "ɛ": 257,
      "ɡ": 258,
      "ɣ": 259,
      "ɪ": 260,
      "ɾ": 261,
      "ʁ": 262,
      "ʃ": 263,
      "ʊ": 264,
      "ʒ": 265,
      "ʔ": 266,
      "ʙ": 267,
      "ʰ": 268,
      "ʲ": 269,
      "ʷ": 270,
      "ʻ": 271,
      "ʼ": 272,
      "ʾ": 273,
      "ʿ": 274,
      "ˈ": 275,
      "ˌ": 276,
      "ː": 277,
      "̀": 278,
      "́": 279,
      "̂": 280,
      "̃": 281,
      "̇": 282,
      "̣": 283,
      "͡": 284,
      "Ά": 285,
      "Έ": 286,
      "Α": 287,
      "Β": 288,
      "Γ": 289,
      "Δ": 290,
      "Ε": 291,
      "Ζ": 292,
      "Η": 293,
      "Θ": 294,
      "Ι": 295,
      "Κ": 296,
      "Λ": 297,
      "Μ": 298,
      "Ν": 299,
      "Ξ": 300,
      "Ο": 301,
      "Π": 302,
      "Ρ": 303,
      "Σ": 304,
      "Τ": 305,
      "Υ": 306,
      "Φ": 307,
      "Χ": 308,
      "Ω": 309,
      "ά": 310,
      "έ": 311,
      "ή": 312,
      "ί": 313,
      "α": 314,
      "β": 315,
      "γ": 316,
      "δ": 317,
      "ε": 318,
      "ζ": 319,
      "η": 320,
      "θ": 321,
      "ι": 322,
      "κ": 323,
      "λ": 324,
      "μ": 325,
      "ν": 326,
      "ξ": 327,
      "ο": 328,
      "π": 329,
      "ρ": 330,
      "ς": 331,
      "σ": 332,
      "τ": 333,
      "υ": 334,
      "φ": 335,
      "χ": 336,
      "ψ": 337,
      "ω": 338,
      "ό": 339,
      "ύ": 340,
      "ώ": 341,
      "І": 342,
      "Ј": 343,
      "А": 344,
      "Б": 345,
      "В": 346,
      "Г": 347,
      "Д": 348,
      "Е": 349,
      "Ж": 350,
      "З": 351,
      "И": 352,
      "Й": 353,
      "К": 354,
      "Л": 355,
      "М": 356,
      "Н": 357,
      "О": 358,
      "П": 359,
      "Р": 360,
      "С": 361,
      "Т": 362,
      "У": 363,
      "Ф": 364,
      "Х": 365,
      "Ц": 366,
      "Ч": 367,
      "Ш": 368,
      "Ы": 369,
      "Ь": 370,
      "Э": 371,
      "Ю": 372,
      "Я": 373,
      "а": 374,
      "б": 375,
      "в": 376,
      "г": 377,
      "д": 378,
      "е": 379,
      "ж": 380,
      "з": 381,
      "и": 382,
      "й": 383,
      "к": 384,
      "л": 385,
      "м": 386,
      "н": 387,
      "о": 388,
      "п": 389,
      "р": 390,
      "с": 391,
      "т": 392,
      "у": 393,
      "ф": 394,
      "х": 395,
      "ц": 396,
      "ч": 397,
      "ш": 398,
      "щ": 399,
      "ъ": 400,
      "ы": 401,
      "ь": 402,
      "э": 403,
      "ю": 404,
      "я": 405,
      "ё": 406,
      "є": 407,
      "і": 408,
      "ї": 409,
      "ј": 410,
      "ћ": 411,
      "ў": 412,
      "ғ": 413,
      "Қ": 414,
      "қ": 415,
      "ң": 416,
      "ү": 417,
      "ұ": 418,
      "Ӏ": 419,
      "ӏ": 420,
      "Ә": 421,
      "ә": 422,
      "Ө": 423,
      "ө": 424,
      "Ա": 425,
      "Գ": 426,
      "Ե": 427,
      "Կ": 428,
      "Հ": 429,
      "Մ": 430,
      "Ս": 431,
      "ա": 432,
      "բ": 433,
      "գ": 434,
      "դ": 435,
      "ե": 436,
      "զ": 437,
      "է": 438,
      "ը": 439,
      "թ": 440,
      "ի": 441,
      "լ": 442,
      "կ": 443,
      "հ": 444,
      "ղ": 445,
      "մ": 446,
      "յ": 447,
      "ն": 448,
      "շ": 449,
      "ո": 450,
      "պ": 451,
      "ռ": 452,
      "ս": 453,
      "վ": 454,
      "տ": 455,
      "ր": 456,
      "ց": 457,
      "ւ": 458,
      "ք": 459,
      "ְ": 460,
      "ִ": 461,
      "ֵ": 462,
      "ֶ": 463,
      "ַ": 464,
      "ָ": 465,
      "ֹ": 466,
      "ּ": 467,
      "ׁ": 468,
      "א": 469,
      "ב": 470,
      "ג": 471,
      "ד": 472,
      "ה": 473,
      "ו": 474,
      "ז": 475,
      "ח": 476,
      "ט": 477,
      "י": 478,
      "ך": 479,
      "כ": 480,
      "ל": 481,
      "ם": 482,
      "מ": 483,
      "ן": 484,
      "נ": 485,
      "ס": 486,
      "ע": 487,
      "פ": 488,
      "צ": 489,
      "ק": 490,
      "ר": 491,
      "ש": 492,
      "ת": 493,
      "،": 494,
      "ء": 495,
      "آ": 496,
      "أ": 497,
      "إ": 498,
      "ئ": 499,
      "ا": 500,
      "ب": 501,
      "ة": 502,
      "ت": 503,
      "ث": 504,
      "ج": 505,
      "ح": 506,
      "خ": 507,
      "د": 508,
      "ذ": 509,
      "ر": 510,
      "ز": 511,
      "س": 512,
      "ش": 513,
      "ص": 514,
      "ض": 515,
      "ط": 516,
      "ظ": 517,
      "ع": 518,
      "غ": 519,
      "ـ": 520,
      "ف": 521,
      "ق": 522,
      "ك": 523,
      "ل": 524,
      "م": 525,
      "ن": 526,
      "ه": 527,
      "و": 528,
      "ى": 529,
      "ي": 530,
      "َ": 531,
      "ُ": 532,
      "ِ": 533,
      "ّ": 534,
      "ْ": 535,
      "٠": 536,
      "١": 537,
      "پ": 538,
      "چ": 539,
      "ک": 540,
      "گ": 541,
      "ھ": 542,
      "ہ": 543,
      "ۇ": 544,
      "ی": 545,
      "ە": 546,
      "ܐ": 547,
      "ܘ": 548,
      "ܝ": 549,
      "ܪ": 550,
      "क": 551,
      "ग": 552,
      "ज": 553,
      "त": 554,
      "द": 555,
      "न": 556,
      "प": 557,
      "म": 558,
      "य": 559,
      "र": 560,
      "ल": 561,
      "व": 562,
      "स": 563,
      "ह": 564,
      "ा": 565,
      "ि": 566,
      "ी": 567,
      "ु": 568,
      "े": 569,
      "्": 570,
      "া": 571,
      "்": 572,
      "ก": 573,
      "ง": 574,
      "น": 575,
      "ม": 576,
      "ย": 577,
      "ร": 578,
      "ล": 579,
      "ว": 580,
      "อ": 581,
      "ั": 582,
      "า": 583,
      "ิ": 584,
      "ี": 585,
      "เ": 586,
      "่": 587,
      "་": 588,
      "်": 589,
      "ა": 590,
      "ბ": 591,
      "გ": 592,
      "დ": 593,
      "ე": 594,
      "ვ": 595,
      "ზ": 596,
      "თ": 597,
      "ი": 598,
      "კ": 599,
      "ლ": 600,
      "მ": 601,
      "ნ": 602,
      "ო": 603,
      "პ": 604,
      "რ": 605,
      "ს": 606,
      "ტ": 607,
      "უ": 608,
      "ფ": 609,
      "ქ": 610,
      "ღ": 611,
      "ყ": 612,
      "შ": 613,
      "ჩ": 614,
      "ც": 615,
      "ძ": 616,
      "წ": 617,
      "ჭ": 618,
      "ხ": 619,
      "ჯ": 620,
      "ᐃ": 621,
      "ᐊ": 622,
      "ᑦ": 623,
      "ᒃ": 624,
      "ᖅ": 625,
      "្": 626,
      "ᴀ": 627,
      "ḍ": 628,
      "ḗ": 629,
      "Ḥ": 630,
      "ḥ": 631,
      "ḫ": 632,
      "ḳ": 633,
      "ṇ": 634,
      "ṣ": 635,
      "Ṭ": 636,
      "ṭ": 637,
      "ạ": 638,
      "ả": 639,
      "ầ": 640,
      "ế": 641,
      "ễ": 642,
      "ệ": 643,
      "ị": 644,
      "ọ": 645,
      "ố": 646,
      "ồ": 647,
      "ộ": 648,
      "ἀ": 649,
      "Ἀ": 650,
      "ἐ": 651,
      "ὁ": 652,
      "ὐ": 653,
      "ὶ": 654,
      "ὸ": 655,
      "ῆ": 656,
      "ῖ": 657,
      "ῦ": 658,
      "ῶ": 659,
      "​": 660,
      "‌": 661,
      "‎": 662,
      "‏": 663,
      "‐": 664,
      "‑": 665,
      "–": 666,
      "—": 667,
      "‘": 668,
      "’": 669,
      "‚": 670,
      "“": 671,
      "”": 672,
      "„": 673,
      "‟": 674,
      "†": 675,
      "‡": 676,
      "•": 677,
      "…": 678,
      "‬": 679,
      "‭": 680,
      "′": 681,
      "″": 682,
      "⁄": 683,
      "€": 684,
      "₺": 685,
      "ℓ": 686,
      "№": 687,
      "™": 688,
      "←": 689,
      "↑": 690,
      "→": 691,
      "↔": 692,
      "⇒": 693,
      "∈": 694,
      "−": 695,
      "∞": 696,
      "≈": 697,
      "≠": 698,
      "≤": 699,
      "≥": 700,
      "⋅": 701,
      "─": 702,
      "│": 703,
      "└": 704,
      "●": 705,
      "☆": 706,
      "☉": 707,
      "♦": 708,
      "♭": 709,
      "♯": 710,
      "⟨": 711,
      "⟩": 712,
      "、": 713,
      "《": 714,
      "》": 715,
      "「": 716,
      "」": 717,
      "『": 718,
      "』": 719,
      "い": 720,
      "う": 721,
      "え": 722,
      "か": 723,
      "き": 724,
      "く": 725,
      "け": 726,
      "さ": 727,
      "し": 728,
      "た": 729,
      "ち": 730,
      "て": 731,
      "と": 732,
      "な": 733,
      "に": 734,
      "の": 735,
      "は": 736,
      "ま": 737,
      "も": 738,
      "ら": 739,
      "り": 740,
      "る": 741,
      "れ": 742,
      "を": 743,
      "ん": 744,
      "ア": 745,
      "ィ": 746,
      "イ": 747,
      "ウ": 748,
      "エ": 749,
      "オ": 750,
      "カ": 751,
      "ガ": 752,
      "キ": 753,
      "ク": 754,
      "グ": 755,
      "コ": 756,
      "サ": 757,
      "シ": 758,
      "ジ": 759,
      "ス": 760,
      "ズ": 761,
      "タ": 762,
      "ダ": 763,
      "チ": 764,
      "ッ": 765,
      "テ": 766,
      "デ": 767,
      "ト": 768,
      "ド": 769,
      "ナ": 770,
      "ニ": 771,
      "ハ": 772,
      "バ": 773,
      "パ": 774,
      "フ": 775,
      "ブ": 776,
      "プ": 777,
      "ボ": 778,
      "マ": 779,
      "ミ": 780,
      "ム": 781,
      "メ": 782,
      "モ": 783,
      "ャ": 784,
      "ラ": 785,
      "リ": 786,
      "ル": 787,
      "レ": 788,
      "ロ": 789,
      "ン": 790,
      "・": 791,
      "ー": 792,
      "一": 793,
      "三": 794,
      "上": 795,
      "下": 796,
      "东": 797,
      "中": 798,
      "主": 799,
      "之": 800,
      "九": 801,
      "乡": 802,
      "事": 803,
      "二": 804,
      "于": 805,
      "五": 806,
      "京": 807,
      "人": 808,
      "代": 809,
      "伊": 810,
      "会": 811,
      "元": 812,
      "光": 813,
      "克": 814,
      "八": 815,
      "公": 816,
      "兵": 817,
      "化": 818,
      "北": 819,
      "区": 820,
      "十": 821,
      "南": 822,
      "原": 823,
      "县": 824,
      "古": 825,
      "可": 826,
      "史": 827,
      "号": 828,
      "司": 829,
      "合": 830,
      "吉": 831,
      "和": 832,
      "四": 833,
      "回": 834,
      "国": 835,
      "國": 836,
      "地": 837,
      "城": 838,
      "大": 839,
      "天": 840,
      "太": 841,
      "女": 842,
      "子": 843,
      "学": 844,
      "安": 845,
      "宗": 846,
      "家": 847,
      "小": 848,
      "尔": 849,
      "山": 850,
      "島": 851,
      "川": 852,
      "州": 853,
      "市": 854,
      "平": 855,
      "年": 856,
      "式": 857,
      "後": 858,
      "德": 859,
      "愛": 860,
      "我": 861,
      "戦": 862,
      "文": 863,
      "新": 864,
      "方": 865,
      "族": 866,
      "日": 867,
      "明": 868,
      "書": 869,
      "月": 870,
      "朝": 871,
      "木": 872,
      "本": 873,
      "李": 874,
      "東": 875,
      "松": 876,
      "林": 877,
      "機": 878,
      "正": 879,
      "武": 880,
      "氏": 881,
      "民": 882,
      "水": 883,
      "汗": 884,
      "江": 885,
      "河": 886,
      "治": 887,
      "法": 888,
      "洞": 889,
      "海": 890,
      "清": 891,
      "特": 892,
      "玉": 893,
      "王": 894,
      "生": 895,
      "田": 896,
      "白": 897,
      "百": 898,
      "的": 899,
      "石": 900,
      "社": 901,
      "神": 902,
      "空": 903,
      "第": 904,
      "美": 905,
      "自": 906,
      "花": 907,
      "英": 908,
      "行": 909,
      "衛": 910,
      "西": 911,
      "記": 912,
      "語": 913,
      "谷": 914,
      "軍": 915,
      "道": 916,
      "那": 917,
      "郎": 918,
      "部": 919,
      "都": 920,
      "里": 921,
      "野": 922,
      "金": 923,
      "镇": 924,
      "長": 925,
      "門": 926,
      "阳": 927,
      "阿": 928,
      "隊": 929,
      "集": 930,
      "高": 931,
      "黄": 932,
      "龍": 933,
      "가": 934,
      "경": 935,
      "고": 936,
      "공": 937,
      "구": 938,
      "국": 939,
      "기": 940,
      "김": 941,
      "나": 942,
      "는": 943,
      "다": 944,
      "대": 945,
      "도": 946,
      "동": 947,
      "라": 948,
      "로": 949,
      "리": 950,
      "마": 951,
      "무": 952,
      "미": 953,
      "민": 954,
      "박": 955,
      "보": 956,
      "부": 957,
      "비": 958,
      "사": 959,
      "산": 960,
      "상": 961,
      "서": 962,
      "선": 963,
      "성": 964,
      "소": 965,
      "수": 966,
      "스": 967,
      "시": 968,
      "신": 969,
      "아": 970,
      "안": 971,
      "어": 972,
      "에": 973,
      "연": 974,
      "영": 975,
      "왕": 976,
      "우": 977,
      "원": 978,
      "유": 979,
      "은": 980,
      "의": 981,
      "이": 982,
      "인": 983,
      "일": 984,
      "자": 985,
      "장": 986,
      "전": 987,
      "정": 988,
      "제": 989,
      "조": 990,
      "주": 991,
      "지": 992,
      "진": 993,
      "트": 994,
      "하": 995,
      "한": 996,
      "해": 997,
      "현": 998,
      "화": 999,
      "（": 1000,
      "）": 1001,
      "，": 1002,
      "：": 1003,
      "～": 1004,
      "🏆": 1005,
      "ar": 1006,
      "an": 1007,
      "er": 1008,
      "in": 1009,
      "en": 1010,
      "ın": 1011,
      "il": 1012,
      "ir": 1013,
      "al": 1014,
      "lar": 1015,
      "da": 1016,
      "de": 1017,
      "ak": 1018,
      "ol": 1019,
      "ya": 1020,
      "on": 1021,
      "el": 1022,
      "et": 1023,
      "ve": 1024,
      "un": 1025,
      "as": 1026,
      "es": 1027,
      "ler": 1028,
      "is": 1029,
      "ik": 1030,
      "ek": 1031,
      "ay": 1032,
      "or": 1033,
      "am": 1034,
      "at": 1035,
      "ır": 1036,
      "ıl": 1037,
      "bir": 1038,
      "ur": 1039,
      "le": 1040,
      "ad": 1041,
      "ul": 1042,
      "19": 1043,
      "im": 1044,
      "aş": 1045,
      "it": 1046,
      "iy": 1047,
      "ür": 1048,
      "ış": 1049,
      "20": 1050,
      "em": 1051,
      "ed": 1052,
      "ında": 1053,
      "iş": 1054,
      "ün": 1055,
      "lı": 1056,
      "di": 1057,
      "lan": 1058,
      "us": 1059,
      "ları": 1060,
      "li": 1061,
      "ağ": 1062,
      "dan": 1063,
      "ey": 1064,
      "az": 1065,
      "ım": 1066,
      "inde": 1067,
      "st": 1068,
      "ah": 1069,
      "um": 1070,
      "ki": 1071,
      "iz": 1072,
      "ör": 1073,
      "ık": 1074,
      "ön": 1075,
      "ut": 1076,
      "leri": 1077,
      "üz": 1078,
      "ro": 1079,
      "ab": 1080,
      "yıl": 1081,
      "ev": 1082,
      "ine": 1083,
      "ti": 1084,
      "du": 1085,
      "iç": 1086,
      "den": 1087,
      "esi": 1088,
      "dı": 1089,
      "ası": 1090,
      "la": 1091,
      "tar": 1092,
      "tı": 1093,
      "eri": 1094,
      "te": 1095,
      "af": 1096,
      "ile": 1097,
      "oğ": 1098,
      "ac": 1099,
      "ok": 1100,
      "om": 1101,
      "ük": 1102,
      "ist": 1103,
      "ilm": 1104,
      "ül": 1105,
      "üm": 1106,
      "cu": 1107,
      "son": 1108,
      "olar": 1109,
      "=\"": 1110,
      "ini": 1111,
      "lu": 1112,
      "olarak": 1113,
      "ma": 1114,
      "ez": 1115,
      "ından": 1116,
      "dir": 1117,
      "tir": 1118,
      "ını": 1119,
      "ig": 1120,
      "öl": 1121,
      "av": 1122,
      "ıs": 1123,
      "ap": 1124,
      "baş": 1125,
      "ter": 1126,
      "yap": 1127,
      "200": 1128,
      "kar": 1129,
      "oy": 1130,
      "uş": 1131,
      "man": 1132,
      "tır": 1133,
      "os": 1134,
      "ic": 1135,
      "op": 1136,
      "dır": 1137,
      "ayn": 1138,
      "201": 1139,
      "inin": 1140,
      "ına": 1141,
      "ta": 1142,
      "bağ": 1143,
      "ver": 1144,
      "alar": 1145,
      "ce": 1146,
      "bol": 1147,
      "isi": 1148,
      "ği": 1149,
      "ğı": 1150,
      "gör": 1151,
      "ih": 1152,
      "ra": 1153,
      "lik": 1154,
      "bu": 1155,
      "mak": 1156,
      "iler": 1157,
      "mış": 1158,
      "bul": 1159,
      "uz": 1160,
      "için": 1161,
      "ark": 1162,
      "gel": 1163,
      "eç": 1164,
      "lam": 1165,
      "ürk": 1166,
      "alı": 1167,
      "adı": 1168,
      "ça": 1169,
      "tan": 1170,
      "ken": 1171,
      "ca": 1172,
      "Türk": 1173,
      "ib": 1174,
      "mer": 1175,
      "An": 1176,
      "eş": 1177,
      "he": 1178,
      "ru": 1179,
      "aynak": 1180,
      "olan": 1181,
      "utbol": 1182,
      "üy": 1183,
      "id": 1184,
      "yer": 1185,
      "ip": 1186,
      "ız": 1187,
      "ının": 1188,
      "ha": 1189,
      "ot": 1190,
      "00": 1191,
      "iştir": 1192,
      "aç": 1193,
      "art": 1194,
      "futbol": 1195,
      "ran": 1196,
      "doğ": 1197,
      "yon": 1198,
      "oldu": 1199,
      "bil": 1200,
      "len": 1201,
      "Al": 1202,
      "taraf": 1203,
      "öz": 1204,
      "iye": 1205,
      "Kaynak": 1206,
      "tur": 1207,
      "199": 1208,
      "ekt": 1209,
      "ign": 1210,
      "asında": 1211,
      "re": 1212,
      "yılında": 1213,
      "Kaynakça": 1214,
      "sp": 1215,
      "kul": 1216,
      "align": 1217,
      "Ar": 1218,
      "eh": 1219,
      "san": 1220,
      "kur": 1221,
      "Bu": 1222,
      "tarafından": 1223,
      "leş": 1224,
      "ci": 1225,
      "let": 1226,
      "yan": 1227,
      "üş": 1228,
      "lık": 1229,
      "öy": 1230,
      "der": 1231,
      "tak": 1232,
      "eler": 1233,
      "si": 1234,
      "18": 1235,
      "futbolcu": 1236,
      "),": 1237,
      "ada": 1238,
      "bulun": 1239,
      "col": 1240,
      "oyun": 1241,
      "sa": 1242,
      "nin": 1243,
      "yar": 1244,
      "kan": 1245,
      "tad": 1246,
      "ov": 1247,
      "kad": 1248,
      "yaz": 1249,
      "gen": 1250,
      "yla": 1251,
      "men": 1252,
      "ğu": 1253,
      "alan": 1254,
      "sonra": 1255,
      "ması": 1256,
      "ch": 1257,
      "ili": 1258,
      "Bir": 1259,
      "bağlan": 1260,
      "mıştır": 1261,
      "me": 1262,
      "nın": 1263,
      "ayı": 1264,
      "tılar": 1265,
      "kon": 1266,
      "198": 1267,
      "tadır": 1268,
      "cı": 1269,
      "tarih": 1270,
      "kullan": 1271,
      "Dış": 1272,
      "ne": 1273,
      "if": 1274,
      "film": 1275,
      "inden": 1276,
      "cak": 1277,
      "|-": 1278,
      "tek": 1279,
      "unda": 1280,
      "ger": 1281,
      "eden": 1282,
      "met": 1283,
      "tür": 1284,
      "yen": 1285,
      "ların": 1286,
      "uk": 1287,
      "par": 1288,
      "||": 1289,
      "bel": 1290,
      "ilen": 1291,
      "bağlantılar": 1292,
      "dur": 1293,
      "önem": 1294,
      "çık": 1295,
      "ilk": 1296,
      "ec": 1297,
      "böl": 1298,
      "sah": 1299,
      "sür": 1300,
      "yas": 1301,
      "ing": 1302,
      "çok": 1303,
      "üç": 1304,
      "geç": 1305,
      "of": 1306,
      "kez": 1307,
      "gün": 1308,
      "eb": 1309,
      "ısı": 1310,
      "daki": 1311,
      "ri": 1312,
      "daha": 1313,
      "Amer": 1314,
      "Amerik": 1315,
      "var": 1316,
      "ayan": 1317,
      "cen": 1318,
      "ni": 1319,
      "197": 1320,
      "edir": 1321,
      "yön": 1322,
      "kal": 1323,
      "unu": 1324,
      "ibi": 1325,
      "üyük": 1326,
      "üzer": 1327,
      "iyet": 1328,
      "tr": 1329,
      "up": 1330,
      "ılan": 1331,
      "İn": 1332,
      "uştur": 1333,
      "sel": 1334,
      "ise": 1335,
      "ildi": 1336,
      "değ": 1337,
      "sit": 1338,
      "çek": 1339,
      "yüz": 1340,
      "kat": 1341,
      "olm": 1342,
      "har": 1343,
      "span": 1344,
      "yaş": 1345,
      "rı": 1346,
      "aman": 1347,
      "th": 1348,
      "center": 1349,
      "yat": 1350,
      "alış": 1351,
      "og": 1352,
      "uy": 1353,
      "futbolcuları": 1354,
      "Ay": 1355,
      "yay": 1356,
      "iyle": 1357,
      "lem": 1358,
      "ren": 1359,
      "hal": 1360,
      "arasında": 1361,
      "laş": 1362,
      "umlu": 1363,
      "rup": 1364,
      "top": 1365,
      "iyon": 1366,
      "ag": 1367,
      "gö": 1368,
      "maktadır": 1369,
      "ektedir": 1370,
      "196": 1371,
      "Kar": 1372,
      "bağlı": 1373,
      "res": 1374,
      "takım": 1375,
      "tal": 1376,
      "han": 1377,
      "üs": 1378,
      "karş": 1379,
      "etm": 1380,
      "dür": 1381,
      "Av": 1382,
      "çalış": 1383,
      "eleri": 1384,
      "deki": 1385,
      "ıldı": 1386,
      "dev": 1387,
      "gibi": 1388,
      "ef": 1389,
      "ard": 1390,
      "dü": 1391,
      "ladı": 1392,
      "En": 1393,
      "gil": 1394,
      "Er": 1395,
      "usu": 1396,
      "ack": 1397,
      "amp": 1398,
      "The": 1399,
      "arkı": 1400,
      "esine": 1401,
      "Fran": 1402,
      "und": 1403,
      "say": 1404,
      "ge": 1405,
      "üt": 1406,
      "Türkiye": 1407,
      "sır": 1408,
      "pro": 1409,
      "doğumlu": 1410,
      "mil": 1411,
      "eli": 1412,
      "alt": 1413,
      "veya": 1414,
      "avaş": 1415,
      "and": 1416,
      "her": 1417,
      "mas": 1418,
      "etti": 1419,
      "gi": 1420,
      "istan": 1421,
      "arı": 1422,
      "ub": 1423,
      "lerin": 1424,
      "aya": 1425,
      "yak": 1426,
      "10": 1427,
      "eye": 1428,
      "ilir": 1429,
      "çe": 1430,
      "ser": 1431,
      "for": 1432,
      "aları": 1433,
      "raf": 1434,
      "lü": 1435,
      "büyük": 1436,
      "unun": 1437,
      "iki": 1438,
      "od": 1439,
      "yle": 1440,
      "ade": 1441,
      "kadar": 1442,
      "esinde": 1443,
      "ask": 1444,
      "üf": 1445,
      "uç": 1446,
      "oz": 1447,
      "ğer": 1448,
      "larında": 1449,
      "dül": 1450,
      "ünya": 1451,
      "ft": 1452,
      "ster": 1453,
      "Or": 1454,
      "sız": 1455,
      "E9": 1456,
      "şeh": 1457,
      "ılı": 1458,
      "yol": 1459,
      "anı": 1460,
      "liği": 1461,
      "İs": 1462,
      "sal": 1463,
      "zaman": 1464,
      "tem": 1465,
      "ileri": 1466,
      "kaz": 1467,
      "ber": 1468,
      "style": 1469,
      "kurul": 1470,
      "asyon": 1471,
      "oj": 1472,
      "bak": 1473,
      "ans": 1474,
      "ram": 1475,
      "15": 1476,
      "Dev": 1477,
      "imi": 1478,
      "seç": 1479,
      "colspan": 1480,
      "17": 1481,
      "sahip": 1482,
      "ep": 1483,
      "insan": 1484,
      "left": 1485,
      "İngil": 1486,
      "lığı": 1487,
      "İst": 1488,
      "rıca": 1489,
      "larda": 1490,
      "versit": 1491,
      "ten": 1492,
      "göre": 1493,
      "rak": 1494,
      "195": 1495,
      "gro": 1496,
      "color": 1497,
      "back": 1498,
      "ow": 1499,
      "inci": 1500,
      "kiş": 1501,
      "dönem": 1502,
      "ağı": 1503,
      "ia": 1504,
      "ground": 1505,
      "194": 1506,
      "12": 1507,
      "merkez": 1508,
      "çi": 1509,
      "16": 1510,
      "background": 1511,
      "van": 1512,
      "yeni": 1513,
      "ye": 1514,
      "ion": 1515,
      "yet": 1516,
      "düz": 1517,
      "yük": 1518,
      "köy": 1519,
      "tam": 1520,
      "sek": 1521,
      "büm": 1522,
      "Par": 1523,
      "doğumlular": 1524,
      "eğ": 1525,
      "öğ": 1526,
      "birlik": 1527,
      "na": 1528,
      "ellik": 1529,
      "ede": 1530,
      "düş": 1531,
      "ust": 1532,
      "Kon": 1533,
      "Ch": 1534,
      "şek": 1535,
      "mek": 1536,
      "21": 1537,
      "lara": 1538,
      "Alman": 1539,
      "se": 1540,
      "İl": 1541,
      "est": 1542,
      "görev": 1543,
      "mi": 1544,
      "una": 1545,
      "mad": 1546,
      "şarkı": 1547,
      "niversit": 1548,
      "gir": 1549,
      "kazan": 1550,
      "göster": 1551,
      "miş": 1552,
      "sı": 1553,
      "Ak": 1554,
      "Baş": 1555,
      "miştir": 1556,
      "aldı": 1557,
      "yüzyıl": 1558,
      "ezon": 1559,
      "taş": 1560,
      "Mar": 1561,
      "edi": 1562,
      ":#": 1563,
      "Gen": 1564,
      "maya": 1565,
      "olduğu": 1566,
      "sağ": 1567,
      "oloj": 1568,
      "ğini": 1569,
      "atı": 1570,
      "ant": 1571,
      "edilm": 1572,
      "ent": 1573,
      "arak": 1574,
      "Os": 1575,
      "Oy": 1576,
      "anbul": 1577,
      "kap": 1578,
      "Gün": 1579,
      "per": 1580,
      "Devlet": 1581,
      "14": 1582,
      "can": 1583,
      "larını": 1584,
      "ide": 1585,
      "su": 1586,
      "İstanbul": 1587,
      "Part": 1588,
      "diz": 1589,
      "neden": 1590,
      "hak": 1591,
      "ret": 1592,
      "eder": 1593,
      "St": 1594,
      "hur": 1595,
      "nde": 1596,
      "ama": 1597,
      "ob": 1598,
      "ımı": 1599,
      "alık": 1600,
      "the": 1601,
      "mektedir": 1602,
      "müz": 1603,
      "ilç": 1604,
      "enler": 1605,
      "kim": 1606,
      "yönet": 1607,
      "istem": 1608,
      "mah": 1609,
      "azı": 1610,
      "lerini": 1611,
      "yal": 1612,
      "yayın": 1613,
      "ral": 1614,
      "Dünya": 1615,
      "13": 1616,
      "Rus": 1617,
      "cü": 1618,
      "II": 1619,
      "Le": 1620,
      "all": 1621,
      "erk": 1622,
      "193": 1623,
      "ordu": 1624,
      "Üniversit": 1625,
      "iyat": 1626,
      "diğer": 1627,
      "sen": 1628,
      "km": 1629,
      "etk": 1630,
      "Tar": 1631,
      "tarihinde": 1632,
      "ünde": 1633,
      "ampiyon": 1634,
      "oluş": 1635,
      "belir": 1636,
      "nda": 1637,
      "Ayrıca": 1638,
      "bulunan": 1639,
      "oyuncu": 1640,
      "albüm": 1641,
      "lat": 1642,
      "kom": 1643,
      "ast": 1644,
      "ck": 1645,
      "sezon": 1646,
      "umhur": 1647,
      "inal": 1648,
      "kab": 1649,
      "birlikte": 1650,
      "E9E9": 1651,
      "Amerikalı": 1652,
      "kıs": 1653,
      "Br": 1654,
      "Avrup": 1655,
      "tel": 1656,
      "Partisi": 1657,
      "larının": 1658,
      "maç": 1659,
      "ana": 1660,
      "22": 1661,
      "dön": 1662,
      "eti": 1663,
      "uv": 1664,
      "İngiliz": 1665,
      "Bel": 1666,
      "ka": 1667,
      "Ne": 1668,
      "oyn": 1669,
      "ill": 1670,
      "Ödül": 1671,
      "Birleş": 1672,
      "yaptı": 1673,
      "ülk": 1674,
      "Lig": 1675,
      "malar": 1676,
      "Öz": 1677,
      "kay": 1678,
      "As": 1679,
      "karşı": 1680,
      "wid": 1681,
      "Avrupa": 1682,
      "Osman": 1683,
      "kı": 1684,
      "width": 1685,
      "sin": 1686,
      "25": 1687,
      "luk": 1688,
      "üst": 1689,
      "Pro": 1690,
      "indeki": 1691,
      "cin": 1692,
      "lerde": 1693,
      "eyi": 1694,
      "Kur": 1695,
      "sil": 1696,
      "\"|": 1697,
      "mo": 1698,
      "eni": 1699,
      "San": 1700,
      "nun": 1701,
      "lus": 1702,
      "üfus": 1703,
      "rol": 1704,
      "Son": 1705,
      "rik": 1706,
      "aynı": 1707,
      "acı": 1708,
      "Yaş": 1709,
      "olduğ": 1710,
      "ou": 1711,
      "cek": 1712,
      "mes": 1713,
      "bur": 1714,
      "lim": 1715,
      "000": 1716,
      "ton": 1717,
      "Birleşik": 1718,
      "gerçek": 1719,
      "In": 1720,
      "spor": 1721,
      "içer": 1722,
      "diği": 1723,
      "açık": 1724,
      "lerinin": 1725,
      "Mart": 1726,
      "abilir": 1727,
      "kadın": 1728,
      "ilg": 1729,
      "kend": 1730,
      "leştir": 1731,
      "Cumhur": 1732,
      "şehir": 1733,
      "ılır": 1734,
      "kor": 1735,
      "23": 1736,
      "yl": 1737,
      "hem": 1738,
      "Amerika": 1739,
      "bölüm": 1740,
      "lığ": 1741,
      "kö": 1742,
      "11": 1743,
      "por": 1744,
      "Ağ": 1745,
      "düzen": 1746,
      "Savaş": 1747,
      "kil": 1748,
      "ayr": 1749,
      "uzey": 1750,
      "ellikle": 1751,
      "lerinde": 1752,
      "ina": 1753,
      "başkan": 1754,
      "2010": 1755,
      "yi": 1756,
      "ko": 1757,
      "30": 1758,
      "gelen": 1759,
      "arası": 1760,
      "ator": 1761,
      "larına": 1762,
      "erek": 1763,
      "bilir": 1764,
      "ers": 1765,
      "Hal": 1766,
      "Üniversitesi": 1767,
      "Kas": 1768,
      "dik": 1769,
      "şekil": 1770,
      "başladı": 1771,
      "ocu": 1772,
      "uyg": 1773,
      "eski": 1774,
      "nik": 1775,
      "eg": 1776,
      "ancak": 1777,
      "yı": 1778,
      "üp": 1779,
      "sistem": 1780,
      "oluştur": 1781,
      "landı": 1782,
      "adlı": 1783,
      "lanan": 1784,
      "ünü": 1785,
      "Tem": 1786,
      "ilik": 1787,
      "bilin": 1788,
      "eşit": 1789,
      "oğlu": 1790,
      "Rom": 1791,
      "ord": 1792,
      "Di": 1793,
      "fark": 1794,
      "Osmanlı": 1795,
      "savaş": 1796,
      "landır": 1797,
      "mu": 1798,
      "Top": 1799,
      "çı": 1800,
      "El": 1801,
      "ht": 1802,
      "söz": 1803,
      "Har": 1804,
      "mü": 1805,
      "May": 1806,
      "Tarih": 1807,
      "to": 1808,
      "rat": 1809,
      "bo": 1810,
      "Jo": 1811,
      "irk": 1812,
      "vet": 1813,
      "orta": 1814,
      "pol": 1815,
      "ıştır": 1816,
      "mal": 1817,
      "iyi": 1818,
      "24": 1819,
      "Doğ": 1820,
      "çev": 1821,
      "ölüm": 1822,
      "list": 1823,
      "..": 1824,
      "ılık": 1825,
      "öğren": 1826,
      "hat": 1827,
      "dış": 1828,
      "siyon": 1829,
      "gü": 1830,
      "gerek": 1831,
      "ell": 1832,
      "mesi": 1833,
      "üret": 1834,
      "tor": 1835,
      "Haz": 1836,
      "Ulus": 1837,
      "ulu": 1838,
      ").": 1839,
      "önemli": 1840,
      "futbolcular": 1841,
      "Film": 1842,
      "liğ": 1843,
      "Mer": 1844,
      "lendir": 1845,
      "biri": 1846,
      "ıt": 1847,
      "kit": 1848,
      "ılmıştır": 1849,
      "lere": 1850,
      "fa": 1851,
      "sor": 1852,
      "hil": 1853,
      "Mu": 1854,
      "durum": 1855,
      "Cumhuriyet": 1856,
      "dar": 1857,
      "ley": 1858,
      "kr": 1859,
      "tamam": 1860,
      "ost": 1861,
      "yalı": 1862,
      "ilçesine": 1863,
      "tü": 1864,
      "faz": 1865,
      "zer": 1866,
      "inc": 1867,
      "yüksek": 1868,
      "gan": 1869,
      "aştır": 1870,
      "kaç": 1871,
      "las": 1872,
      "tüm": 1873,
      "ue": 1874,
      "önce": 1875,
      "ation": 1876,
      "fer": 1877,
      "asar": 1878,
      "Kan": 1879,
      "lis": 1880,
      "ud": 1881,
      "İtal": 1882,
      "müş": 1883,
      "bit": 1884,
      "bg": 1885,
      "ındaki": 1886,
      "parator": 1887,
      "Ad": 1888,
      "alın": 1889,
      "sun": 1890,
      "lardan": 1891,
      "enin": 1892,
      "şekilde": 1893,
      "AB": 1894,
      "At": 1895,
      "iya": 1896,
      "get": 1897,
      "bgcolor": 1898,
      "Man": 1899,
      "alet": 1900,
      "acak": 1901,
      "iran": 1902,
      "luğu": 1903,
      "ara": 1904,
      "yapılan": 1905,
      "sat": 1906,
      "oğraf": 1907,
      "hay": 1908,
      "erkek": 1909,
      "bölg": 1910,
      "Kal": 1911,
      "kol": 1912,
      "tik": 1913,
      "din": 1914,
      "bet": 1915,
      "grup": 1916,
      "Ro": 1917,
      "2008": 1918,
      "yor": 1919,
      "insanlar": 1920,
      "Bak": 1921,
      "end": 1922,
      "2012": 1923,
      "sanat": 1924,
      "mir": 1925,
      "Oyun": 1926,
      "28": 1927,
      "Af": 1928,
      "elik": 1929,
      "2009": 1930,
      "Mayıs": 1931,
      "öyle": 1932,
      "ilmiştir": 1933,
      "üçük": 1934,
      "değiş": 1935,
      "del": 1936,
      "Şampiyon": 1937,
      "üzere": 1938,
      "Kom": 1939,
      "bin": 1940,
      "onya": 1941,
      "filmler": 1942,
      "olduğunu": 1943,
      "kes": 1944,
      "tu": 1945,
      "lay": 1946,
      "işk": 1947,
      "bas": 1948,
      "lerine": 1949,
      "2011": 1950,
      "Kral": 1951,
      "amil": 1952,
      "imleri": 1953,
      "br": 1954,
      "elen": 1955,
      "Ocak": 1956,
      "olmak": 1957,
      "gal": 1958,
      "ich": 1959,
      "devam": 1960,
      "2007": 1961,
      "mill": 1962,
      "ses": 1963,
      "larından": 1964,
      "bazı": 1965,
      "Kup": 1966,
      "ben": 1967,
      "2000": 1968,
      "getir": 1969,
      "Fransız": 1970,
      "yazar": 1971,
      "Nis": 1972,
      "itim": 1973,
      "Kasım": 1974,
      "muz": 1975,
      "kara": 1976,
      "Eyl": 1977,
      "fes": 1978,
      "Eylül": 1979,
      "iv": 1980,
      "Her": 1981,
      "içinde": 1982,
      "dil": 1983,
      "dest": 1984,
      "ılmış": 1985,
      "anlam": 1986,
      "kabul": 1987,
      "2006": 1988,
      "Ekim": 1989,
      "edildi": 1990,
      "ğını": 1991,
      "İm": 1992,
      "Bur": 1993,
      "eviz": 1994,
      "Ödülü": 1995,
      "Haziran": 1996,
      "şa": 1997,
      "esinin": 1998,
      "hük": 1999,
      "mez": 2000,
      "Sh": 2001,
      "ida": 2002,
      "26": 2003,
      "Dem": 2004,
      "adan": 2005,
      "aret": 2006,
      "Pol": 2007,
      "New": 2008,
      "iyor": 2009,
      "çocu": 2010,
      "üzerine": 2011,
      "yarış": 2012,
      "Am": 2013,
      "tes": 2014,
      "Kat": 2015,
      "Ada": 2016,
      "gram": 2017,
      "ucu": 2018,
      "lerinden": 2019,
      "çiler": 2020,
      "uzun": 2021,
      "ham": 2022,
      "ie": 2023,
      "tut": 2024,
      "siyas": 2025,
      "çıkar": 2026,
      "İlk": 2027,
      "itib": 2028,
      "ınır": 2029,
      "siz": 2030,
      "Nisan": 2031,
      "dığı": 2032,
      "Temmuz": 2033,
      "alle": 2034,
      "unan": 2035,
      "genel": 2036,
      "ektör": 2037,
      "vardır": 2038,
      "ven": 2039,
      "Mil": 2040,
      "devlet": 2041,
      "lin": 2042,
      "Kor": 2043,
      "uc": 2044,
      "asına": 2045,
      "ari": 2046,
      "ğü": 2047,
      "olmuştur": 2048,
      "dol": 2049,
      "birçok": 2050,
      "Devletleri": 2051,
      "ustos": 2052,
      "ici": 2053,
      "aha": 2054,
      "27": 2055,
      "lak": 2056,
      "yaklaş": 2057,
      "gaz": 2058,
      "Bil": 2059,
      "Jap": 2060,
      "ölenler": 2061,
      "Gal": 2062,
      "Kad": 2063,
      "eket": 2064,
      "Yaşayan": 2065,
      "2014": 2066,
      "Ağustos": 2067,
      "ABD": 2068,
      "uzak": 2069,
      "net": 2070,
      "göz": 2071,
      "2013": 2072,
      "ulan": 2073,
      "çeşit": 2074,
      "ry": 2075,
      "fazla": 2076,
      "onom": 2077,
      "üne": 2078,
      "Aralık": 2079,
      "güç": 2080,
      "Savaşı": 2081,
      "min": 2082,
      "layan": 2083,
      "parç": 2084,
      "lararası": 2085,
      "gu": 2086,
      "evizyon": 2087,
      "çoğ": 2088,
      "atan": 2089,
      "Şub": 2090,
      "şirk": 2091,
      "2005": 2092,
      "onu": 2093,
      "millî": 2094,
      "Büyük": 2095,
      "siyaset": 2096,
      "2015": 2097,
      "Car": 2098,
      "Th": 2099,
      "Ab": 2100,
      "tif": 2101,
      "Fransa": 2102,
      "ültür": 2103,
      "edilen": 2104,
      "ikinci": 2105,
      "ardından": 2106,
      "muştur": 2107,
      "med": 2108,
      "gur": 2109,
      "ire": 2110,
      "yard": 2111,
      "tep": 2112,
      "Han": 2113,
      "Tek": 2114,
      "=\"#": 2115,
      "ört": 2116,
      "ilmiş": 2117,
      "haf": 2118,
      "land": 2119,
      "Güney": 2120,
      "yo": 2121,
      "Bar": 2122,
      "müzik": 2123,
      "Kupası": 2124,
      "atik": 2125,
      "2016": 2126,
      "aj": 2127,
      "gru": 2128,
      "başar": 2129,
      "2004": 2130,
      "be": 2131,
      "lo": 2132,
      "isinde": 2133,
      "lama": 2134,
      "co": 2135,
      "bah": 2136,
      "isim": 2137,
      "ork": 2138,
      "tah": 2139,
      "sırasında": 2140,
      "Tur": 2141,
      "Den": 2142,
      "ali": 2143,
      "ind": 2144,
      "Şubat": 2145,
      "lük": 2146,
      "Co": 2147,
      "geri": 2148,
      "Tr": 2149,
      "aber": 2150,
      "takımı": 2151,
      "sik": 2152,
      "farklı": 2153,
      "ova": 2154,
      "Müz": 2155,
      "özel": 2156,
      "ograf": 2157,
      "Es": 2158,
      "ail": 2159,
      "hav": 2160,
      "üc": 2161,
      "bilim": 2162,
      "boyun": 2163,
      "ga": 2164,
      "Yunan": 2165,
      "ınız": 2166,
      "yum": 2167,
      "ban": 2168,
      "geçir": 2169,
      "yakın": 2170,
      "Ber": 2171,
      "bask": 2172,
      "git": 2173,
      "kariy": 2174,
      "esini": 2175,
      "29": 2176,
      "Res": 2177,
      "kendi": 2178,
      "ond": 2179,
      "tab": 2180,
      "ünün": 2181,
      "ulus": 2182,
      "ilgili": 2183,
      "Yar": 2184,
      "üzerinde": 2185,
      "ımcı": 2186,
      "İmparator": 2187,
      "kır": 2188,
      "ilişk": 2189,
      "hn": 2190,
      "sayısı": 2191,
      "Re": 2192,
      "filmleri": 2193,
      "kız": 2194,
      "pr": 2195,
      "Be": 2196,
      "mey": 2197,
      "üsü": 2198,
      "bay": 2199,
      "Ankara": 2200,
      "2020": 2201,
      "ime": 2202,
      "karak": 2203,
      "50": 2204,
      "osyal": 2205,
      "Daha": 2206,
      "Ser": 2207,
      "Genel": 2208,
      "olu": 2209,
      "Pr": 2210,
      "final": 2211,
      "ort": 2212,
      "La": 2213,
      "kişi": 2214,
      "duğu": 2215,
      "yaşam": 2216,
      "üb": 2217,
      "izmet": 2218,
      "gı": 2219,
      "küçük": 2220,
      "E9E9E9": 2221,
      "zor": 2222,
      "dav": 2223,
      "ehir": 2224,
      "mahalle": 2225,
      "deniz": 2226,
      "eme": 2227,
      "Almanya": 2228,
      "tiv": 2229,
      "ema": 2230,
      "rek": 2231,
      "tanım": 2232,
      "sev": 2233,
      "Der": 2234,
      "ediy": 2235,
      "2018": 2236,
      "ulaş": 2237,
      "sınır": 2238,
      "doğru": 2239,
      "ener": 2240,
      "famil": 2241,
      "2017": 2242,
      "rar": 2243,
      "izm": 2244,
      "ris": 2245,
      "geliştir": 2246,
      "nı": 2247,
      "yerleş": 2248,
      "leme": 2249,
      "190": 2250,
      "io": 2251,
      "görün": 2252,
      "süre": 2253,
      "deş": 2254,
      "Hol": 2255,
      "ug": 2256,
      "Parti": 2257,
      "dağ": 2258,
      "Köy": 2259,
      "Ancak": 2260,
      "lenen": 2261,
      "ele": 2262,
      "nedeniyle": 2263,
      "bar": 2264,
      "Ev": 2265,
      "Avus": 2266,
      "roman": 2267,
      "bakınız": 2268,
      "sayı": 2269,
      "Alt": 2270,
      "yapı": 2271,
      "Gür": 2272,
      "tarihi": 2273,
      "Başkan": 2274,
      "Mo": 2275,
      "kurulan": 2276,
      "Fak": 2277,
      "FA": 2278,
      "Mac": 2279,
      "has": 2280,
      "Çin": 2281,
      "Sa": 2282,
      "sh": 2283,
      "ök": 2284,
      "ortaya": 2285,
      "yeniden": 2286,
      "saldır": 2287,
      "düşün": 2288,
      "eser": 2289,
      "kent": 2290,
      "muş": 2291,
      "dal": 2292,
      "2002": 2293,
      "ian": 2294,
      "görül": 2295,
      "maları": 2296,
      "asker": 2297,
      "ff": 2298,
      "ron": 2299,
      "haz": 2300,
      "Bo": 2301,
      "uvvet": 2302,
      "limp": 2303,
      "olup": 2304,
      "bun": 2305,
      "lerden": 2306,
      "anan": 2307,
      "Olimp": 2308,
      "program": 2309,
      "nes": 2310,
      "üncü": 2311,
      "İspan": 2312,
      "FC": 2313,
      "ilinin": 2314,
      "Nor": 2315,
      "çeşitli": 2316,
      "yılı": 2317,
      "önc": 2318,
      "meye": 2319,
      "ümüz": 2320,
      "2019": 2321,
      "Kuzey": 2322,
      "oloji": 2323,
      "kaynak": 2324,
      "gar": 2325,
      "televizyon": 2326,
      "Dan": 2327,
      "yılları": 2328,
      "Sp": 2329,
      "isyon": 2330,
      "değer": 2331,
      "gurbet": 2332,
      "nüfus": 2333,
      "itik": 2334,
      "tip": 2335,
      "üdür": 2336,
      "masına": 2337,
      "alya": 2338,
      "ilerin": 2339,
      "det": 2340,
      "destek": 2341,
      "Wil": 2342,
      "tic": 2343,
      "bab": 2344,
      "Sov": 2345,
      "boyunca": 2346,
      "familyas": 2347,
      "Yeni": 2348,
      "oc": 2349,
      "onun": 2350,
      "2003": 2351,
      "Nüfus": 2352,
      "çocuk": 2353,
      "dünya": 2354,
      "kel": 2355,
      "hayvan": 2356,
      "ısında": 2357,
      "ait": 2358,
      "mem": 2359,
      "John": 2360,
      "gin": 2361,
      "hakk": 2362,
      "tere": 2363,
      "int": 2364,
      "sade": 2365,
      "gol": 2366,
      "karar": 2367,
      "adığı": 2368,
      "işim": 2369,
      "larla": 2370,
      "aşa": 2371,
      "bulunmaktadır": 2372,
      "Mah": 2373,
      "Sovyet": 2374,
      "teknik": 2375,
      "hareket": 2376,
      "şirket": 2377,
      "masını": 2378,
      "zamanda": 2379,
      "altı": 2380,
      "İyi": 2381,
      "kullanıl": 2382,
      "eğitim": 2383,
      "yaklaşık": 2384,
      "ner": 2385,
      "2001": 2386,
      "mar": 2387,
      "asıl": 2388,
      "sk": 2389,
      "Ali": 2390,
      "luğ": 2391,
      "hız": 2392,
      "sonr": 2393,
      "ğin": 2394,
      "tör": 2395,
      "Olimpiyat": 2396,
      "Ah": 2397,
      "sar": 2398,
      "dahil": 2399,
      "ecek": 2400,
      "yok": 2401,
      "Bey": 2402,
      "ödül": 2403,
      "sadece": 2404,
      "Yaz": 2405,
      "hizmet": 2406,
      "Ge": 2407,
      "fak": 2408,
      "Orta": 2409,
      "usunda": 2410,
      "De": 2411,
      "gür": 2412,
      "edilmiştir": 2413,
      "ırak": 2414,
      "topl": 2415,
      "duy": 2416,
      "qu": 2417,
      "des": 2418,
      "Rusya": 2419,
      "karakter": 2420,
      "plan": 2421,
      "dak": 2422,
      "\",": 2423,
      "gön": 2424,
      "ölç": 2425,
      "bilg": 2426,
      "mik": 2427,
      "lüm": 2428,
      "ımsız": 2429,
      "les": 2430,
      "Tak": 2431,
      "mat": 2432,
      "yayım": 2433,
      "Mon": 2434,
      "Per": 2435,
      "sını": 2436,
      "ideo": 2437,
      "kas": 2438,
      "sam": 2439,
      "Kul": 2440,
      "rağ": 2441,
      "halk": 2442,
      "İngiltere": 2443,
      "araştır": 2444,
      "1990": 2445,
      "ûmet": 2446,
      "iydi": 2447,
      "ae": 2448,
      "On": 2449,
      "Ben": 2450,
      "olay": 2451,
      "sav": 2452,
      "geniş": 2453,
      "sef": 2454,
      "bile": 2455,
      "İz": 2456,
      "ong": 2457,
      "Yay": 2458,
      "öldür": 2459,
      "isinin": 2460,
      "dık": 2461,
      "mev": 2462,
      "ift": 2463,
      "Mal": 2464,
      "Tan": 2465,
      "vil": 2466,
      "şehr": 2467,
      "189": 2468,
      "yüzyılda": 2469,
      "tığı": 2470,
      "uan": 2471,
      "40": 2472,
      "toplam": 2473,
      "udi": 2474,
      "yıldı": 2475,
      "üfusu": 2476,
      "maz": 2477,
      "ona": 2478,
      "cısı": 2479,
      "Ma": 2480,
      "Yıl": 2481,
      "1999": 2482,
      "bırak": 2483,
      "İk": 2484,
      "dem": 2485,
      "ace": 2486,
      "asının": 2487,
      "rist": 2488,
      "def": 2489,
      "ılım": 2490,
      "merkezine": 2491,
      "dok": 2492,
      "şarkıcı": 2493,
      "sık": 2494,
      "osu": 2495,
      "müştür": 2496,
      "Sam": 2497,
      "beri": 2498,
      "Toplam": 2499,
      "ly": 2500,
      "aktadır": 2501,
      "etmek": 2502,
      "Sal": 2503,
      "söy": 2504,
      "Hav": 2505,
      "tasar": 2506,
      "hi": 2507,
      "ünden": 2508,
      "isini": 2509,
      "anın": 2510,
      "gın": 2511,
      "Cumhuriyeti": 2512,
      "mam": 2513,
      "siya": 2514,
      "Sch": 2515,
      "İş": 2516,
      "Halk": 2517,
      "sem": 2518,
      "lor": 2519,
      "undan": 2520,
      "yerine": 2521,
      "bat": 2522,
      "değil": 2523,
      "our": 2524,
      "dört": 2525,
      "altında": 2526,
      "elekt": 2527,
      "ros": 2528,
      "yaptığı": 2529,
      "Roma": 2530,
      "kü": 2531,
      "veç": 2532,
      "geler": 2533,
      "TV": 2534,
      "rad": 2535,
      "asını": 2536,
      "Bul": 2537,
      "60": 2538,
      "nit": 2539,
      "Su": 2540,
      "Amerikan": 2541,
      "Eur": 2542,
      "kayı": 2543,
      "uygul": 2544,
      "Mad": 2545,
      "ho": 2546,
      "ılması": 2547,
      "kem": 2548,
      "Birliği": 2549,
      "Yer": 2550,
      "Yah": 2551,
      "letve": 2552,
      "iyan": 2553,
      "Sel": 2554,
      "Şarkı": 2555,
      "ettiği": 2556,
      "sol": 2557,
      "100": 2558,
      "He": 2559,
      "öğret": 2560,
      "kısa": 2561,
      "İtalya": 2562,
      "Afrik": 2563,
      "yıldız": 2564,
      "red": 2565,
      "1998": 2566,
      "mayı": 2567,
      "kazandı": 2568,
      "anlaş": 2569,
      "kuzey": 2570,
      "Kadın": 2571,
      "temsil": 2572,
      "ier": 2573,
      "İngilizce": 2574,
      "gazet": 2575,
      "sonuç": 2576,
      "kültür": 2577,
      "hazır": 2578,
      "şampiyon": 2579,
      "ince": 2580,
      "Col": 2581,
      "ağır": 2582,
      "etbol": 2583,
      "ori": 2584,
      "Sü": 2585,
      "bulunur": 2586,
      "şu": 2587,
      "uluk": 2588,
      "imler": 2589,
      "geliş": 2590,
      "ydı": 2591,
      "iddi": 2592,
      "Se": 2593,
      "genellikle": 2594,
      "hayat": 2595,
      "Tarihçe": 2596,
      "Şampiyonası": 2597,
      "bi": 2598,
      "ice": 2599,
      "trol": 2600,
      "York": 2601,
      "geldi": 2602,
      "rağmen": 2603,
      "2021": 2604,
      "asyonu": 2605,
      "Mic": 2606,
      "listesi": 2607,
      "güney": 2608,
      "Doğu": 2609,
      "No": 2610,
      "ight": 2611,
      "lardır": 2612,
      "nüfusu": 2613,
      "otor": 2614,
      "Por": 2615,
      "rans": 2616,
      "fi": 2617,
      "okrat": 2618,
      "Kaz": 2619,
      "mit": 2620,
      "karşıl": 2621,
      "yüksel": 2622,
      "inan": 2623,
      "gerçekleştir": 2624,
      "ann": 2625,
      "Meh": 2626,
      "Merkez": 2627,
      "istik": 2628,
      "esel": 2629,
      "1996": 2630,
      "ish": 2631,
      "ize": 2632,
      "boy": 2633,
      "madde": 2634,
      "Pet": 2635,
      "oğrafya": 2636,
      "ach": 2637,
      "Dav": 2638,
      "direktör": 2639,
      "anda": 2640,
      "uzaklık": 2641,
      "gönder": 2642,
      "Böl": 2643,
      "For": 2644,
      "ph": 2645,
      "kuş": 2646,
      "inşa": 2647,
      "1997": 2648,
      "elde": 2649,
      "So": 2650,
      "33": 2651,
      "milyon": 2652,
      "ayrıca": 2653,
      "nek": 2654,
      "Sur": 2655,
      "ji": 2656,
      "olog": 2657,
      "başkanı": 2658,
      "66": 2659,
      "ika": 2660,
      "başlam": 2661,
      "isine": 2662,
      "lanmıştır": 2663,
      "sidir": 2664,
      "pat": 2665,
      "Ed": 2666,
      "Com": 2667,
      "And": 2668,
      "belirt": 2669,
      "Sar": 2670,
      "dönüş": 2671,
      "yür": 2672,
      "ült": 2673,
      "ba": 2674,
      "yönetmen": 2675,
      "188": 2676,
      "Kır": 2677,
      "sınıf": 2678,
      "olması": 2679,
      "Deniz": 2680,
      "Gaz": 2681,
      "Sen": 2682,
      "Met": 2683,
      "com": 2684,
      "ilmesi": 2685,
      "lerle": 2686,
      "kitap": 2687,
      "1995": 2688,
      "1994": 2689,
      "1992": 2690,
      "idae": 2691,
      "ğında": 2692,
      "yolu": 2693,
      "ale": 2694,
      "Bunun": 2695,
      "Con": 2696,
      "Sanat": 2697,
      "olur": 2698,
      "nok": 2699,
      "değiştir": 2700,
      "kayb": 2701,
      "üler": 2702,
      "tekrar": 2703,
      "idi": 2704,
      "Kız": 2705,
      "Mill": 2706,
      "ick": 2707,
      "fik": 2708,
      "başka": 2709,
      "merkezi": 2710,
      "lendi": 2711,
      "landa": 2712,
      "mahall": 2713,
      "Mat": 2714,
      "don": 2715,
      "F2": 2716,
      "Ulusal": 2717,
      "cular": 2718,
      "2022": 2719,
      "31": 2720,
      "Aş": 2721,
      "hakkında": 2722,
      "1993": 2723,
      "mı": 2724,
      "bert": 2725,
      "eral": 2726,
      "verdi": 2727,
      "keş": 2728,
      "ışı": 2729,
      "lek": 2730,
      "olduk": 2731,
      "mut": 2732,
      "okul": 2733,
      "Bay": 2734,
      "familyasına": 2735,
      "Ko": 2736,
      "187": 2737,
      "so": 2738,
      "konuş": 2739,
      "1980": 2740,
      "gurbetçi": 2741,
      "rim": 2742,
      "seçim": 2743,
      "ami": 2744,
      "dizi": 2745,
      "bek": 2746,
      "beş": 2747,
      "aren": 2748,
      "ekonom": 2749,
      "almıştır": 2750,
      "adıyla": 2751,
      "best": 2752,
      "sahiptir": 2753,
      "ite": 2754,
      "Coğrafya": 2755,
      "BM": 2756,
      "Pa": 2757,
      "mon": 2758,
      "arasındaki": 2759,
      "Has": 2760,
      "urt": 2761,
      "ece": 2762,
      "Kol": 2763,
      "temel": 2764,
      "kop": 2765,
      "gem": 2766,
      "bes": 2767,
      "eyalet": 2768,
      "GC": 2769,
      "IS": 2770,
      "oyuncuları": 2771,
      "ifade": 2772,
      "umu": 2773,
      "Paşa": 2774,
      "milletve": 2775,
      "Bab": 2776,
      "birkaç": 2777,
      "ediye": 2778,
      "Bölüm": 2779,
      "Arap": 2780,
      "sak": 2781,
      "yanı": 2782,
      "Uluslararası": 2783,
      "liam": 2784,
      "ED": 2785,
      "uğ": 2786,
      "pop": 2787,
      "bakan": 2788,
      "Ligi": 2789,
      "Sır": 2790,
      "organ": 2791,
      "Mus": 2792,
      "Can": 2793,
      "ğinde": 2794,
      "İmparatorluğu": 2795,
      "sırada": 2796,
      "yaşında": 2797,
      "dün": 2798,
      "kav": 2799,
      "aw": 2800,
      "lav": 2801,
      "ütün": 2802,
      "kullanılan": 2803,
      "geçen": 2804,
      "hiç": 2805,
      "toprak": 2806,
      "ıcı": 2807,
      "Em": 2808,
      "Te": 2809,
      "kontrol": 2810,
      "hükûmet": 2811,
      "tık": 2812,
      "kardeş": 2813,
      "özellikle": 2814,
      "bilinen": 2815,
      "adaş": 2816,
      "yapan": 2817,
      "form": 2818,
      "İtalyan": 2819,
      "filmi": 2820,
      "ülkeler": 2821,
      "konu": 2822,
      "one": 2823,
      "olojik": 2824,
      "etmiştir": 2825,
      "alır": 2826,
      "komut": 2827,
      "Azer": 2828,
      "ague": 2829,
      "kayıt": 2830,
      "ılığı": 2831,
      "pek": 2832,
      "vur": 2833,
      "1991": 2834,
      "ıp": 2835,
      "Yön": 2836,
      "ker": 2837,
      "seb": 2838,
      "ity": 2839,
      "gelir": 2840,
      "SS": 2841,
      "katıl": 2842,
      "burg": 2843,
      "çıktı": 2844,
      "evi": 2845,
      "günümüz": 2846,
      "kut": 2847,
      "uma": 2848,
      "yası": 2849,
      "Tiyat": 2850,
      "lanmış": 2851,
      "Sul": 2852,
      "tay": 2853,
      "ore": 2854,
      "katıldı": 2855,
      "öğrenim": 2856,
      "oluşan": 2857,
      "rah": 2858,
      "Ör": 2859,
      "sonunda": 2860,
      "iss": 2861,
      "imz": 2862,
      "çiz": 2863,
      "yardım": 2864,
      "kin": 2865,
      "web": 2866,
      "yn": 2867,
      "Müzik": 2868,
      "row": 2869,
      "taki": 2870,
      "güven": 2871,
      "Bun": 2872,
      "şark": 2873,
      "ebilir": 2874,
      "Az": 2875,
      "adlandır": 2876,
      "Tiyatro": 2877,
      "teki": 2878,
      "Altın": 2879,
      "NA": 2880,
      "Ermen": 2881,
      "elem": 2882,
      "rom": 2883,
      "FI": 2884,
      "Lo": 2885,
      "90": 2886,
      "adem": 2887,
      "yönetim": 2888,
      "Kit": 2889,
      "ung": 2890,
      "cusu": 2891,
      "ett": 2892,
      "ang": 2893,
      "ision": 2894,
      "özellik": 2895,
      "boş": 2896,
      "Bağ": 2897,
      "baycan": 2898,
      "era": 2899,
      "num": 2900,
      "1970": 2901,
      "çalışmalar": 2902,
      "olmayan": 2903,
      "bölge": 2904,
      "no": 2905,
      "anlar": 2906,
      "giy": 2907,
      "genç": 2908,
      "ukuk": 2909,
      "ate": 2910,
      "Sin": 2911,
      "larak": 2912,
      "80": 2913,
      "üyesi": 2914,
      "32": 2915,
      "izik": 2916,
      "eleş": 2917,
      "rap": 2918,
      "tern": 2919,
      "ısır": 2920,
      "Batı": 2921,
      "part": 2922,
      "ke": 2923,
      "İslam": 2924,
      "yapım": 2925,
      "sanatçı": 2926,
      "League": 2927,
      "İran": 2928,
      "uzaklıktadır": 2929,
      "Azerbaycan": 2930,
      "daş": 2931,
      "itibarı": 2932,
      "anlığı": 2933,
      "Bal": 2934,
      "iyordu": 2935,
      "Yarış": 2936,
      "görüş": 2937,
      "video": 2938,
      "fesyon": 2939,
      "Don": 2940,
      "değişik": 2941,
      "sıra": 2942,
      "Ter": 2943,
      "ciler": 2944,
      "meler": 2945,
      "çap": 2946,
      "anya": 2947,
      "dele": 2948,
      "35": 2949,
      "Yap": 2950,
      "fesyonel": 2951,
      "politik": 2952,
      "Afrika": 2953,
      "Yük": 2954,
      "kın": 2955,
      "uyar": 2956,
      "kuvvet": 2957,
      "Paris": 2958,
      "öldü": 2959,
      "Go": 2960,
      "Mak": 2961,
      "Sc": 2962,
      "dayan": 2963,
      "model": 2964,
      "1989": 2965,
      "eleştir": 2966,
      "fon": 2967,
      "ilmektedir": 2968,
      "Uz": 2969,
      "Anad": 2970,
      "Char": 2971,
      "Lis": 2972,
      "müca": 2973,
      "almaktadır": 2974,
      "bey": 2975,
      "teş": 2976,
      "Fer": 2977,
      "atör": 2978,
      "afa": 2979,
      "arkadaş": 2980,
      "dana": 2981,
      "Aynı": 2982,
      "kam": 2983,
      "trans": 2984,
      "esinden": 2985,
      "yu": 2986,
      "Fil": 2987,
      "Mek": 2988,
      "aday": 2989,
      "kalan": 2990,
      "tanın": 2991,
      "edilir": 2992,
      "Japon": 2993,
      "kek": 2994,
      "Gir": 2995,
      "tion": 2996,
      "97": 2997,
      "basketbol": 2998,
      "Ger": 2999,
      "raki": 3000,
      "eyen": 3001,
      "itibaren": 3002,
      "dern": 3003,
      "sine": 3004,
      "kariyer": 3005,
      "İç": 3006,
      "çıkan": 3007,
      "ayet": 3008,
      "sim": 3009,
      "):": 3010,
      "au": 3011,
      "hangi": 3012,
      "Türkçe": 3013,
      "Aday": 3014,
      "Fakült": 3015,
      "ras": 3016,
      "45": 3017,
      "ografi": 3018,
      "resmi": 3019,
      "Biz": 3020,
      "silah": 3021,
      "poz": 3022,
      "suç": 3023,
      "saat": 3024,
      "şi": 3025,
      "kitab": 3026,
      "Cen": 3027,
      "Anadolu": 3028,
      "Geç": 3029,
      "ekli": 3030,
      "yordu": 3031,
      "Ver": 3032,
      "taşı": 3033,
      "1988": 3034,
      "şey": 3035,
      "Tel": 3036,
      "biç": 3037,
      "fil": 3038,
      "oğun": 3039,
      "ai": 3040,
      "pan": 3041,
      "sinema": 3042,
      "işlem": 3043,
      "org": 3044,
      "''": 3045,
      "hüküm": 3046,
      "dae": 3047,
      "Yayın": 3048,
      "FF": 3049,
      "sağlam": 3050,
      "cut": 3051,
      "sahipleri": 3052,
      "cih": 3053,
      "1986": 3054,
      ".\"": 3055,
      "Me": 3056,
      "ayar": 3057,
      "çıkış": 3058,
      "1987": 3059,
      "bağımsız": 3060,
      "Mas": 3061,
      "mağ": 3062,
      "isyen": 3063,
      "Futbol": 3064,
      "Ön": 3065,
      "beraber": 3066,
      "do": 3067,
      "bölgeler": 3068,
      "Ham": 3069,
      "Mec": 3070,
      "ku": 3071,
      "Kı": 3072,
      "verilen": 3073,
      "dek": 3074,
      "oyunları": 3075,
      "kuruluş": 3076,
      "sosyal": 3077,
      "sonucu": 3078,
      "uygulam": 3079,
      "Lond": 3080,
      "Et": 3081,
      "döneminde": 3082,
      "Hak": 3083,
      "büy": 3084,
      "ica": 3085,
      "lig": 3086,
      "Gu": 3087,
      "abile": 3088,
      "nız": 3089,
      "çağ": 3090,
      "gerçekleş": 3091,
      "imar": 3092,
      "by": 3093,
      "Yönet": 3094,
      "Brit": 3095,
      "suz": 3096,
      "iri": 3097,
      "adını": 3098,
      "amacı": 3099,
      "anlat": 3100,
      "Sonuç": 3101,
      "İspanya": 3102,
      "biy": 3103,
      "Kür": 3104,
      "stit": 3105,
      "yapımı": 3106,
      "rail": 3107,
      "yarı": 3108,
      "bunun": 3109,
      "manın": 3110,
      "Erkek": 3111,
      "Ol": 3112,
      "antin": 3113,
      "ens": 3114,
      "65": 3115,
      "kral": 3116,
      "Japonya": 3117,
      "üyeleri": 3118,
      "Mısır": 3119,
      "yapıl": 3120,
      "kaldı": 3121,
      "adet": 3122,
      "Beş": 3123,
      "siyasi": 3124,
      "savun": 3125,
      "aldığı": 3126,
      "Ho": 3127,
      "Li": 3128,
      "Hat": 3129,
      "iliği": 3130,
      "sezonunda": 3131,
      "HP": 3132,
      "üldü": 3133,
      "Mor": 3134,
      "liğini": 3135,
      "William": 3136,
      "ty": 3137,
      "lah": 3138,
      "hend": 3139,
      "70": 3140,
      "arka": 3141,
      "Vol": 3142,
      "Eğ": 3143,
      "po": 3144,
      "ani": 3145,
      "Genç": 3146,
      "NGC": 3147,
      "Val": 3148,
      "fel": 3149,
      "1960": 3150,
      "dışında": 3151,
      "oranı": 3152,
      "ary": 3153,
      "lüğ": 3154,
      "çift": 3155,
      "Cor": 3156,
      "şekl": 3157,
      "Sultan": 3158,
      "hen": 3159,
      "tiyat": 3160,
      "asıyla": 3161,
      "forman": 3162,
      "neğin": 3163,
      "ts": 3164,
      "Diğer": 3165,
      "aliyet": 3166,
      "Asya": 3167,
      "lev": 3168,
      "dük": 3169,
      "mî": 3170,
      "mahalleleri": 3171,
      "yapmıştır": 3172,
      "Mur": 3173,
      "ışık": 3174,
      "DA": 3175,
      "Gör": 3176,
      "sürdür": 3177,
      "Kö": 3178,
      "1984": 3179,
      "lad": 3180,
      "are": 3181,
      "boz": 3182,
      "etik": 3183,
      "TBM": 3184,
      "lüğü": 3185,
      "yerleşim": 3186,
      "atış": 3187,
      "işi": 3188,
      "doğdu": 3189,
      "Ha": 3190,
      "TBMM": 3191,
      "isti": 3192,
      "azar": 3193,
      "kariyeri": 3194,
      "ortak": 3195,
      "Avustur": 3196,
      "MÖ": 3197,
      "Sosyal": 3198,
      "Gök": 3199,
      "doğu": 3200,
      "Pat": 3201,
      "ino": 3202,
      "Albüm": 3203,
      "saldırı": 3204,
      "Bat": 3205,
      "çoğu": 3206,
      "Bor": 3207,
      "ww": 3208,
      "Mehmet": 3209,
      "dolayı": 3210,
      "söyle": 3211,
      "elerin": 3212,
      "lanır": 3213,
      "yaygın": 3214,
      "teor": 3215,
      "BA": 3216,
      "nden": 3217,
      "yerel": 3218,
      "grubu": 3219,
      "pl": 3220,
      "cel": 3221,
      "kaldır": 3222,
      "str": 3223,
      "uluslararası": 3224,
      "47": 3225,
      "belediy": 3226,
      "Avustr": 3227,
      "sitesi": 3228,
      "lider": 3229,
      "edilmiş": 3230,
      "Krallık": 3231,
      "keşf": 3232,
      "kullanılır": 3233,
      "sistemi": 3234,
      "izi": 3235,
      "lerdir": 3236,
      "lisi": 3237,
      "Kem": 3238,
      "omo": 3239,
      "itesi": 3240,
      "çöz": 3241,
      "Macar": 3242,
      "batı": 3243,
      "Ban": 3244,
      "alam": 3245,
      "Şeh": 3246,
      "faaliyet": 3247,
      "Say": 3248,
      "ows": 3249,
      "Gr": 3250,
      "Je": 3251,
      "omet": 3252,
      "1985": 3253,
      "ezil": 3254,
      "benzer": 3255,
      "sahibi": 3256,
      "ith": 3257,
      "tiği": 3258,
      "Spor": 3259,
      "Ken": 3260,
      "ahr": 3261,
      "alarında": 3262,
      "ilçe": 3263,
      "eği": 3264,
      "izin": 3265,
      "Dr": 3266,
      "proj": 3267,
      "kulüp": 3268,
      "pen": 3269,
      "ıdır": 3270,
      "İsrail": 3271,
      "çar": 3272,
      "yarat": 3273,
      "pit": 3274,
      "cinsidir": 3275,
      "Kr": 3276,
      "Müs": 3277,
      "yanın": 3278,
      "parçası": 3279,
      "tiyatro": 3280,
      "renk": 3281,
      "yılından": 3282,
      "Brezil": 3283,
      "Must": 3284,
      "eci": 3285,
      "iel": 3286,
      "ata": 3287,
      "görenler": 3288,
      "larıyla": 3289,
      "Kil": 3290,
      "üçüncü": 3291,
      "Bas": 3292,
      "ağını": 3293,
      "yoğun": 3294,
      "kâ": 3295,
      "etkin": 3296,
      "gid": 3297,
      "leyen": 3298,
      "güt": 3299,
      "mevcut": 3300,
      "veren": 3301,
      "aca": 3302,
      "işleri": 3303,
      "askeri": 3304,
      "37": 3305,
      "babası": 3306,
      "hüc": 3307,
      "İsveç": 3308,
      "yöntem": 3309,
      "ifor": 3310,
      "Si": 3311,
      "Ac": 3312,
      "Kap": 3313,
      "aların": 3314,
      "tin": 3315,
      "ürün": 3316,
      "Yüksek": 3317,
      "birbir": 3318,
      "dönemde": 3319,
      "ames": 3320,
      "gesi": 3321,
      "Üç": 3322,
      "yasal": 3323,
      "Olimpiyatları": 3324,
      "bulundu": 3325,
      "bütün": 3326,
      "ayak": 3327,
      "İkinci": 3328,
      "talık": 3329,
      "1983": 3330,
      "Ödülleri": 3331,
      "ğine": 3332,
      "1982": 3333,
      "giz": 3334,
      "ümü": 3335,
      "lemek": 3336,
      "leriyle": 3337,
      "göç": 3338,
      "ces": 3339,
      "rin": 3340,
      "fır": 3341,
      "may": 3342,
      "ternet": 3343,
      "amaç": 3344,
      "karşılaş": 3345,
      "asıllı": 3346,
      "Sim": 3347,
      "Demokrat": 3348,
      "sur": 3349,
      "düzenlenen": 3350,
      "Jos": 3351,
      "48": 3352,
      "Eski": 3353,
      "diler": 3354,
      "ikâ": 3355,
      "lığını": 3356,
      "III": 3357,
      "çevr": 3358,
      "olabilir": 3359,
      "Ukr": 3360,
      "Gru": 3361,
      "val": 3362,
      "ileş": 3363,
      "laştır": 3364,
      "yağ": 3365,
      "Gre": 3366,
      "kulüb": 3367,
      "yalnız": 3368,
      "cer": 3369,
      "itibarıyla": 3370,
      "Hen": 3371,
      "Ukrayn": 3372,
      "F2F2": 3373,
      "hy": 3374,
      "toplum": 3375,
      "motor": 3376,
      "ilebilir": 3377,
      "Ven": 3378,
      "Hrist": 3379,
      "Is": 3380,
      "sonraki": 3381,
      "Eurov": 3382,
      "1979": 3383,
      "esiyle": 3384,
      "My": 3385,
      "ledi": 3386,
      "BN": 3387,
      ".)": 3388,
      "38": 3389,
      "İzmir": 3390,
      "Seç": 3391,
      "hendis": 3392,
      "Eurovision": 3393,
      "Demir": 3394,
      "vat": 3395,
      "ism": 3396,
      "mahalledir": 3397,
      "Hay": 3398,
      "uldu": 3399,
      "konusunda": 3400,
      "burada": 3401,
      "|}": 3402,
      "Şehir": 3403,
      "örnek": 3404,
      "alanı": 3405,
      "Far": 3406,
      "FIFA": 3407,
      "koy": 3408,
      "yıllarında": 3409,
      "oper": 3410,
      "Fo": 3411,
      "36": 3412,
      "belde": 3413,
      "albümleri": 3414,
      "içeren": 3415,
      "Yol": 3416,
      "demir": 3417,
      "ilan": 3418,
      "oyuncular": 3419,
      "sey": 3420,
      "hava": 3421,
      "yazı": 3422,
      "Final": 3423,
      "ersiz": 3424,
      "oks": 3425,
      "yem": 3426,
      "%|": 3427,
      "2023": 3428,
      "Oyuncu": 3429,
      "Grup": 3430,
      "Ok": 3431,
      "nam": 3432,
      "vardı": 3433,
      "old": 3434,
      "albümü": 3435,
      "Gran": 3436,
      "ayrı": 3437,
      "1974": 3438,
      "Ef": 3439,
      "hes": 3440,
      "Okul": 3441,
      "Hristiyan": 3442,
      "fakat": 3443,
      "Yak": 3444,
      "piya": 3445,
      "üd": 3446,
      "müzi": 3447,
      "1973": 3448,
      "ila": 3449,
      "Ek": 3450,
      "Kızıl": 3451,
      "Sol": 3452,
      "mız": 3453,
      "hareb": 3454,
      "Bizans": 3455,
      "langı": 3456,
      "Paul": 3457,
      "öylece": 3458,
      "aceae": 3459,
      "Bulgar": 3460,
      "seri": 3461,
      "34": 3462,
      "1981": 3463,
      "yapıldı": 3464,
      "soy": 3465,
      "çu": 3466,
      "gez": 3467,
      "Mustafa": 3468,
      "aşağı": 3469,
      "Kay": 3470,
      "Süper": 3471,
      "araç": 3472,
      "Qu": 3473,
      "test": 3474,
      "1975": 3475,
      "etmiş": 3476,
      "tekiz": 3477,
      "Tüm": 3478,
      "ilet": 3479,
      "Portekiz": 3480,
      "sü": 3481,
      "1972": 3482,
      "Geor": 3483,
      "Mes": 3484,
      "ünlü": 3485,
      "Angel": 3486,
      "Pan": 3487,
      "nokt": 3488,
      "omb": 3489,
      "Naz": 3490,
      "ISBN": 3491,
      "Fes": 3492,
      "Not": 3493,
      "turn": 3494,
      "ingle": 3495,
      "CO": 3496,
      "kili": 3497,
      "mücadele": 3498,
      "1978": 3499,
      "Mc": 3500,
      "Mel": 3501,
      "madan": 3502,
      "ayında": 3503,
      "amı": 3504,
      "bor": 3505,
      "sayıda": 3506,
      "hâ": 3507,
      "berg": 3508,
      "Ap": 3509,
      "ceki": 3510,
      "baz": 3511,
      "herhangi": 3512,
      "dın": 3513,
      "1976": 3514,
      "tez": 3515,
      "başı": 3516,
      "oda": 3517,
      "İki": 3518,
      "1977": 3519,
      "Ste": 3520,
      "Sev": 3521,
      "siyasetçi": 3522,
      "sona": 3523,
      "hemen": 3524,
      "fot": 3525,
      "tart": 3526,
      "sonuc": 3527,
      "Fakültesi": 3528,
      "erken": 3529,
      "derg": 3530,
      "ülke": 3531,
      "Un": 3532,
      "ld": 3533,
      "zar": 3534,
      "cez": 3535,
      "lenmiştir": 3536,
      "64": 3537,
      "kür": 3538,
      "Wor": 3539,
      ".,": 3540,
      "anlı": 3541,
      "va": 3542,
      "masının": 3543,
      "Kim": 3544,
      "bulunduğu": 3545,
      "Rad": 3546,
      "biçim": 3547,
      "ders": 3548,
      "İspanyol": 3549,
      "Müslüm": 3550,
      "39": 3551,
      "dikkat": 3552,
      "çalıştı": 3553,
      "mesine": 3554,
      "Kam": 3555,
      "eth": 3556,
      "ps": 3557,
      "bildir": 3558,
      "İr": 3559,
      "Sil": 3560,
      "Polonya": 3561,
      "isimli": 3562,
      "MS": 3563,
      "xt": 3564,
      "asından": 3565,
      "ius": 3566,
      "girdi": 3567,
      "Londra": 3568,
      "engel": 3569,
      "ory": 3570,
      "1968": 3571,
      "zem": 3572,
      "üzel": 3573,
      "go": 3574,
      "başlayan": 3575,
      "adam": 3576,
      "giriş": 3577,
      "Gel": 3578,
      "Yüz": 3579,
      "geçti": 3580,
      "kenin": 3581,
      "Ros": 3582,
      "sayım": 3583,
      "biyat": 3584,
      "ital": 3585,
      "Med": 3586,
      "55": 3587,
      "Lu": 3588,
      "futbolcudur": 3589,
      "1971": 3590,
      "işgal": 3591,
      "Özel": 3592,
      "uygun": 3593,
      "Fin": 3594,
      "gr": 3595,
      "Suriye": 3596,
      "Min": 3597,
      "puan": 3598,
      "Mü": 3599,
      "çoğun": 3600,
      "Festiv": 3601,
      "za": 3602,
      "kir": 3603,
      "performan": 3604,
      "Tay": 3605,
      "oynam": 3606,
      "fizik": 3607,
      "teh": 3608,
      "Adalet": 3609,
      "isayar": 3610,
      "SA": 3611,
      "Lin": 3612,
      "Mos": 3613,
      "David": 3614,
      "pe": 3615,
      "Da": 3616,
      "Tun": 3617,
      "Tor": 3618,
      "şehirler": 3619,
      "transfer": 3620,
      "yine": 3621,
      "siyasetçiler": 3622,
      "ash": 3623,
      "içerisinde": 3624,
      "lov": 3625,
      "my": 3626,
      "ceği": 3627,
      "ilere": 3628,
      "hey": 3629,
      "itler": 3630,
      "War": 3631,
      "ment": 3632,
      "yıllık": 3633,
      "Men": 3634,
      "pay": 3635,
      "Ot": 3636,
      "iversit": 3637,
      "CA": 3638,
      "off": 3639,
      "Bakanlığı": 3640,
      "ford": 3641,
      "Phil": 3642,
      "tekn": 3643,
      "vol": 3644,
      "bon": 3645,
      "öm": 3646,
      "umlar": 3647,
      "Belediy": 3648,
      "hard": 3649,
      "lenir": 3650,
      "taşım": 3651,
      "emi": 3652,
      "dair": 3653,
      "neği": 3654,
      "Çağ": 3655,
      "ematik": 3656,
      "Wind": 3657,
      "altın": 3658,
      "Feder": 3659,
      "Yunanistan": 3660,
      "anlamına": 3661,
      "1969": 3662,
      "olmuş": 3663,
      "sezonu": 3664,
      "Robert": 3665,
      "hale": 3666,
      "koş": 3667,
      "küt": 3668,
      "ederek": 3669,
      "yazarı": 3670,
      "ümüş": 3671,
      "oynadı": 3672,
      "tartış": 3673,
      "üniversit": 3674,
      "dram": 3675,
      "Ölüm": 3676,
      "numar": 3677,
      "masıyla": 3678,
      "biridir": 3679,
      "Bazı": 3680,
      "haline": 3681,
      "Oyunları": 3682,
      "tas": 3683,
      "arş": 3684,
      "Ahmet": 3685,
      "saya": 3686,
      "yaşayan": 3687,
      "köken": 3688,
      "Başkanı": 3689,
      "cis": 3690,
      "Dis": 3691,
      "Yarışması": 3692,
      "metre": 3693,
      "SK": 3694,
      "başarı": 3695,
      "seslendir": 3696,
      "serbest": 3697,
      "ze": 3698,
      "okal": 3699,
      "Tim": 3700,
      "dam": 3701,
      "Lat": 3702,
      "Ale": 3703,
      "usal": 3704,
      "Star": 3705,
      "gelenek": 3706,
      "ins": 3707,
      "hael": 3708,
      "ndeki": 3709,
      "Çek": 3710,
      "tespit": 3711,
      "ehri": 3712,
      "sıcak": 3713,
      "pozisyon": 3714,
      "Sonuçlar": 3715,
      "Ül": 3716,
      "rag": 3717,
      "öğretim": 3718,
      "yaban": 3719,
      "1950": 3720,
      "tanıt": 3721,
      "madalya": 3722,
      "yık": 3723,
      "hiçbir": 3724,
      "etmektedir": 3725,
      "ney": 3726,
      "bilgi": 3727,
      "ilerini": 3728,
      "şeklinde": 3729,
      "işlet": 3730,
      "başına": 3731,
      "1C": 3732,
      "Avusturya": 3733,
      "ational": 3734,
      "Kore": 3735,
      "Arn": 3736,
      "emen": 3737,
      "milletvekil": 3738,
      "bitir": 3739,
      "yürüt": 3740,
      "köyleri": 3741,
      "ira": 3742,
      "güçlü": 3743,
      "Merkezi": 3744,
      "...": 3745,
      "yana": 3746,
      "kenti": 3747,
      "Dağ": 3748,
      "dağı": 3749,
      "1967": 3750,
      "başarılı": 3751,
      "meyi": 3752,
      "dizileri": 3753,
      "taşın": 3754,
      "hedef": 3755,
      "sorun": 3756,
      "taj": 3757,
      "mesini": 3758,
      "hast": 3759,
      "Art": 3760,
      "elerinin": 3761,
      "Mez": 3762,
      "Kara": 3763,
      "inç": 3764,
      "türü": 3765,
      "zen": 3766,
      "Pal": 3767,
      "pet": 3768,
      "Van": 3769,
      "You": 3770,
      "Lit": 3771,
      "yıllarda": 3772,
      "Enstit": 3773,
      "mekt": 3774,
      "Cal": 3775,
      "ünkü": 3776,
      "Tok": 3777,
      "cil": 3778,
      "masında": 3779,
      "köydür": 3780,
      "UE": 3781,
      "doğr": 3782,
      "isel": 3783,
      "ita": 3784,
      "uel": 3785,
      "Cam": 3786,
      "verildi": 3787,
      "eph": 3788,
      "indir": 3789,
      "birleş": 3790,
      "Kültür": 3791,
      "başlat": 3792,
      "sab": 3793,
      "güreş": 3794,
      "siyonu": 3795,
      "yalnızca": 3796,
      "Kuvvet": 3797,
      "seçildi": 3798,
      "Cem": 3799,
      "yanında": 3800,
      "deney": 3801,
      "ilerek": 3802,
      "profesyonel": 3803,
      "Millî": 3804,
      "Gül": 3805,
      "madı": 3806,
      "İnsan": 3807,
      "mezun": 3808,
      "uygulan": 3809,
      "kamp": 3810,
      "malı": 3811,
      "maçta": 3812,
      "astr": 3813,
      "çak": 3814,
      "Michael": 3815,
      "yardımcı": 3816,
      "ood": 3817,
      "cep": 3818,
      "Söz": 3819,
      "Şah": 3820,
      "sub": 3821,
      "yılına": 3822,
      "World": 3823,
      "Kıbr": 3824,
      "beyaz": 3825,
      "iforni": 3826,
      "Coun": 3827,
      "açıklam": 3828,
      "James": 3829,
      "atif": 3830,
      "Kıbrıs": 3831,
      "modern": 3832,
      "aba": 3833,
      "çatış": 3834,
      "ateş": 3835,
      "ahraman": 3836,
      "irler": 3837,
      "benz": 3838,
      "lilik": 3839,
      "şarkıları": 3840,
      "kapsam": 3841,
      "imparator": 3842,
      "rit": 3843,
      "edik": 3844,
      "merkezli": 3845,
      "1965": 3846,
      "Gü": 3847,
      "şehri": 3848,
      "göl": 3849,
      "günü": 3850,
      "iddia": 3851,
      "1928": 3852,
      "//": 3853,
      "iken": 3854,
      "mark": 3855,
      "ano": 3856,
      "ilim": 3857,
      "düşük": 3858,
      "shire": 3859,
      "sch": 3860,
      "değildir": 3861,
      "bölgesinde": 3862,
      "canlandır": 3863,
      "Bro": 3864,
      "Dar": 3865,
      "che": 3866,
      "1966": 3867,
      "atistik": 3868,
      "Trab": 3869,
      "57": 3870,
      "Bah": 3871,
      "44": 3872,
      "68": 3873,
      "üyle": 3874,
      "çalışan": 3875,
      "Avustralya": 3876,
      "kullanım": 3877,
      "Po": 3878,
      "ny": 3879,
      "Sav": 3880,
      "bahçe": 3881,
      "zon": 3882,
      "oyunu": 3883,
      "laya": 3884,
      "gitar": 3885,
      "Mir": 3886,
      "ndan": 3887,
      "manı": 3888,
      "yani": 3889,
      "Tom": 3890,
      "Hollanda": 3891,
      "amacıyla": 3892,
      "Wal": 3893,
      "ğın": 3894,
      "Kanada": 3895,
      "Sah": 3896,
      "Göl": 3897,
      "rop": 3898,
      "Ric": 3899,
      "önceki": 3900,
      "açı": 3901,
      "Sak": 3902,
      "We": 3903,
      "yayınlandı": 3904,
      "Kariy": 3905,
      "mac": 3906,
      "içi": 3907,
      "Mag": 3908,
      "kuruldu": 3909,
      "Dur": 3910,
      "nor": 3911,
      "own": 3912,
      "ij": 3913,
      "haber": 3914,
      "ceğini": 3915,
      "üretim": 3916,
      "1964": 3917,
      "uluğu": 3918,
      "Sovyetler": 3919,
      "UEFA": 3920,
      "cisi": 3921,
      "Ren": 3922,
      "Yahudi": 3923,
      "ress": 3924,
      "kardeşi": 3925,
      "Ex": 3926,
      "hap": 3927,
      "oldukça": 3928,
      "eşil": 3929,
      "hane": 3930,
      "Do": 3931,
      "kanal": 3932,
      "ısına": 3933,
      "nedenle": 3934,
      "ves": 3935,
      "alarda": 3936,
      "Pas": 3937,
      "tepe": 3938,
      "taydı": 3939,
      "sefer": 3940,
      "ati": 3941,
      "Resmi": 3942,
      "anal": 3943,
      "ulusal": 3944,
      "uçak": 3945,
      "Ukrayna": 3946,
      "Ana": 3947,
      "ayır": 3948,
      "his": 3949,
      "şarkısı": 3950,
      "Tarihi": 3951,
      "Fener": 3952,
      "kazanan": 3953,
      "Lib": 3954,
      "tarz": 3955,
      "Fat": 3956,
      "alarak": 3957,
      "67": 3958,
      "Gar": 3959,
      "gördü": 3960,
      "Bla": 3961,
      "49": 3962,
      "Uy": 3963,
      "arac": 3964,
      "ısını": 3965,
      "ste": 3966,
      "Eğitim": 3967,
      "vir": 3968,
      "ded": 3969,
      "lığına": 3970,
      "ısından": 3971,
      "58": 3972,
      "birliği": 3973,
      "1945": 3974,
      "tamamen": 3975,
      "fab": 3976,
      "tul": 3977,
      "istler": 3978,
      "türüdür": 3979,
      "doğan": 3980,
      "hikâ": 3981,
      "Windows": 3982,
      "tarihli": 3983,
      "line": 3984,
      "ladığı": 3985,
      "viç": 3986,
      "forma": 3987,
      "Fakat": 3988,
      "jinal": 3989,
      "makta": 3990,
      "sonucunda": 3991,
      "lenmiş": 3992,
      "Rec": 3993,
      "kale": 3994,
      "çileri": 3995,
      "Muham": 3996,
      "Pap": 3997,
      "ediği": 3998,
      "ziy": 3999,
      "boyut": 4000,
      "Del": 4001,
      "oran": 4002,
      "elerde": 4003,
      "layı": 4004,
      "Ord": 4005,
      "yayınlanan": 4006,
      "cılık": 4007,
      "fe": 4008,
      "aşır": 4009,
      "yorum": 4010,
      "alyalı": 4011,
      "251C": 4012,
      "DA251C": 4013,
      "Bask": 4014,
      "meydana": 4015,
      "culuk": 4016,
      "konum": 4017,
      "Hüs": 4018,
      "kişiler": 4019,
      "ınar": 4020,
      "illa": 4021,
      "Sup": 4022,
      "single": 4023,
      "Pen": 4024,
      "Millet": 4025,
      "cm": 4026,
      "Hind": 4027,
      "Meksik": 4028,
      "belediye": 4029,
      "masından": 4030,
      "Küçük": 4031,
      "ane": 4032,
      "iyeti": 4033,
      "öner": 4034,
      "lasik": 4035,
      "Müslüman": 4036,
      "1961": 4037,
      "cuları": 4038,
      "meden": 4039,
      "mel": 4040,
      "macı": 4041,
      "başında": 4042,
      "ington": 4043,
      "kurdu": 4044,
      "lanması": 4045,
      "Bakanı": 4046,
      "elerinde": 4047,
      "ılmaktadır": 4048,
      "Mark": 4049,
      "Yard": 4050,
      "döndü": 4051,
      "doğal": 4052,
      "tük": 4053,
      "resmî": 4054,
      "OS": 4055,
      "Rum": 4056,
      "Yahud": 4057,
      "derec": 4058,
      "Ant": 4059,
      "elerini": 4060,
      "alim": 4061,
      "mada": 4062,
      "eğit": 4063,
      "öv": 4064,
      "Dok": 4065,
      "bugün": 4066,
      "Berlin": 4067,
      "Sür": 4068,
      "use": 4069,
      "car": 4070,
      "başlamıştır": 4071,
      "ilmek": 4072,
      "sayf": 4073,
      "ski": 4074,
      "age": 4075,
      "Kemal": 4076,
      "Grubu": 4077,
      "olacak": 4078,
      "alarını": 4079,
      "yazarları": 4080,
      "Taş": 4081,
      "ekonomik": 4082,
      "nan": 4083,
      "luğunda": 4084,
      "we": 4085,
      "mec": 4086,
      "mızı": 4087,
      "ölçü": 4088,
      "Kut": 4089,
      "bunu": 4090,
      "yüzyılın": 4091,
      "kelim": 4092,
      "devr": 4093,
      "Samsun": 4094,
      "Erz": 4095,
      "1963": 4096,
      "con": 4097,
      "kavram": 4098,
      "8000": 4099,
      "saha": 4100,
      "bal": 4101,
      "Peter": 4102,
      "ülkenin": 4103,
      "çalışmaları": 4104,
      "üzerinden": 4105,
      "başlar": 4106,
      "kayn": 4107,
      "dizisi": 4108,
      "geçmiş": 4109,
      "hafta": 4110,
      "htt": 4111,
      "endi": 4112,
      "gul": 4113,
      "://": 4114,
      "ismi": 4115,
      "tat": 4116,
      "ward": 4117,
      "lidir": 4118,
      "rens": 4119,
      "Nehri": 4120,
      "elektrik": 4121,
      "je": 4122,
      "eybol": 4123,
      "avut": 4124,
      "Play": 4125,
      "çevir": 4126,
      "63": 4127,
      "tav": 4128,
      "kalın": 4129,
      "sonrasında": 4130,
      "Hindistan": 4131,
      "Tat": 4132,
      "Bill": 4133,
      "Siv": 4134,
      "Thom": 4135,
      "Akadem": 4136,
      "CD": 4137,
      "Yen": 4138,
      "geçer": 4139,
      "ıldığı": 4140,
      "milletvekilleri": 4141,
      "zorunda": 4142,
      "Çocu": 4143,
      "ester": 4144,
      "sahn": 4145,
      "ife": 4146,
      "99": 4147,
      "Ordu": 4148,
      "Sab": 4149,
      "miktar": 4150,
      "01": 4151,
      "Mem": 4152,
      "Tiyatrosu": 4153,
      "siy": 4154,
      "çarp": 4155,
      "Hava": 4156,
      "bilinir": 4157,
      "hızlı": 4158,
      "vi": 4159,
      "Belç": 4160,
      "haya": 4161,
      "leşme": 4162,
      "Fenerbahçe": 4163,
      "Ph": 4164,
      "yönelik": 4165,
      "ansı": 4166,
      "1962": 4167,
      "gözlem": 4168,
      "ülü": 4169,
      "ülen": 4170,
      "Festivali": 4171,
      "fotoğraf": 4172,
      "Galat": 4173,
      "hukuk": 4174,
      "komün": 4175,
      "uyu": 4176,
      "kızı": 4177,
      "Trabzon": 4178,
      "galak": 4179,
      "ott": 4180,
      "Hük": 4181,
      "yken": 4182,
      "sonrası": 4183,
      "ED8000": 4184,
      "İsviç": 4185,
      "Araştır": 4186,
      "piyasaya": 4187,
      "tedav": 4188,
      "Norveç": 4189,
      "0000": 4190,
      "muh": 4191,
      "şehrin": 4192,
      "bilgisayar": 4193,
      "duyur": 4194,
      "Lou": 4195,
      "stand": 4196,
      "ula": 4197,
      "Nik": 4198,
      "City": 4199,
      "nu": 4200,
      "şid": 4201,
      "liğinde": 4202,
      "Irak": 4203,
      "Arnavut": 4204,
      "oyuncusu": 4205,
      "ortal": 4206,
      "Hır": 4207,
      "Enstitüsü": 4208,
      "alarının": 4209,
      "Jack": 4210,
      "kurum": 4211,
      "verir": 4212,
      "başlangı": 4213,
      "vatan": 4214,
      "Alex": 4215,
      "Takım": 4216,
      "Kıs": 4217,
      "yabancı": 4218,
      "text": 4219,
      "ziyaret": 4220,
      "onları": 4221,
      "müzisyen": 4222,
      "acağı": 4223,
      "54": 4224,
      "tiya": 4225,
      "alığı": 4226,
      "ilerine": 4227,
      "Hor": 4228,
      "olojisi": 4229,
      "tekli": 4230,
      "ys": 4231,
      "mıştı": 4232,
      "dis": 4233,
      "katkı": 4234,
      "ura": 4235,
      "nak": 4236,
      "Park": 4237,
      "Gürcü": 4238,
      "davran": 4239,
      "hip": 4240,
      "örgüt": 4241,
      "çıkışlı": 4242,
      "Kadınlar": 4243,
      "cam": 4244,
      "yör": 4245,
      "George": 4246,
      "koç": 4247,
      "seviy": 4248,
      "brah": 4249,
      "Bol": 4250,
      "etmeye": 4251,
      "görüntü": 4252,
      "üle": 4253,
      "kli": 4254,
      "TA": 4255,
      "eyin": 4256,
      "asit": 4257,
      "Str": 4258,
      "Haya": 4259,
      "içerir": 4260,
      "teri": 4261,
      "lardı": 4262,
      "takip": 4263,
      "üstü": 4264,
      "deri": 4265,
      "mimar": 4266,
      "diya": 4267,
      "gesel": 4268,
      "Muhammed": 4269,
      "los": 4270,
      "ima": 4271,
      "cumhur": 4272,
      "To": 4273,
      "que": 4274,
      "Yas": 4275,
      "Dil": 4276,
      "seçimleri": 4277,
      "95": 4278,
      "Akdeniz": 4279,
      "Var": 4280,
      "Dönem": 4281,
      "düzey": 4282,
      "çısı": 4283,
      "omi": 4284,
      "metal": 4285,
      "mayan": 4286,
      "pil": 4287,
      "uğr": 4288,
      "popüler": 4289,
      "asaray": 4290,
      "urum": 4291,
      "uth": 4292,
      "Çocuk": 4293,
      "kolay": 4294,
      "olik": 4295,
      "yazılım": 4296,
      "Müdür": 4297,
      "Küt": 4298,
      "Kulüp": 4299,
      "uvar": 4300,
      "chi": 4301,
      "kısm": 4302,
      "birinci": 4303,
      "Galatasaray": 4304,
      "lamak": 4305,
      "esidir": 4306,
      "Bağımsız": 4307,
      "oft": 4308,
      "yazdığı": 4309,
      "doktor": 4310,
      "ğe": 4311,
      "not": 4312,
      "ekip": 4313,
      "Tab": 4314,
      "kg": 4315,
      "Örneğin": 4316,
      "hastalık": 4317,
      "Sağ": 4318,
      "1940": 4319,
      "Pe": 4320,
      "turnuv": 4321,
      "500": 4322,
      "ordusu": 4323,
      "civil": 4324,
      "Los": 4325,
      "pi": 4326,
      "Seri": 4327,
      "örd": 4328,
      "diye": 4329,
      "oluşur": 4330,
      "sas": 4331,
      "oku": 4332,
      "kün": 4333,
      "ınca": 4334,
      "derece": 4335,
      "kısmı": 4336,
      "Resim": 4337,
      "ısının": 4338,
      "Stan": 4339,
      "1959": 4340,
      "Kitap": 4341,
      "Kilis": 4342,
      "stat": 4343,
      "paylaş": 4344,
      "parish": 4345,
      "ence": 4346,
      "ej": 4347,
      "veri": 4348,
      "alındı": 4349,
      "adık": 4350,
      "uyordu": 4351,
      "ndaki": 4352,
      "Topl": 4353,
      "Arj": 4354,
      "Adam": 4355,
      "75": 4356,
      "VI": 4357,
      "felsef": 4358,
      "ical": 4359,
      "Birinci": 4360,
      "ling": 4361,
      "kendisine": 4362,
      "bölümü": 4363,
      "ortam": 4364,
      "Jean": 4365,
      "aktif": 4366,
      "aşam": 4367,
      "söyledi": 4368,
      "Cez": 4369,
      "Alan": 4370,
      "Çan": 4371,
      "olmasına": 4372,
      "Eyal": 4373,
      "elere": 4374,
      "ılarak": 4375,
      "Jon": 4376,
      "Muhareb": 4377,
      "oluşturulan": 4378,
      "satın": 4379,
      "ola": 4380,
      "fir": 4381,
      "ilerinin": 4382,
      "iklet": 4383,
      "layarak": 4384,
      "tren": 4385,
      "değerlendir": 4386,
      "kasab": 4387,
      "tle": 4388,
      "lit": 4389,
      "kötü": 4390,
      "lament": 4391,
      "alarına": 4392,
      "ücü": 4393,
      "kaya": 4394,
      "ılabilir": 4395,
      "Love": 4396,
      "olf": 4397,
      "Mosk": 4398,
      "altına": 4399,
      "stüd": 4400,
      "izasyon": 4401,
      "Vak": 4402,
      "verdiği": 4403,
      "cins": 4404,
      "88": 4405,
      "Derneği": 4406,
      "Frank": 4407,
      "Gi": 4408,
      "şun": 4409,
      "ult": 4410,
      "69": 4411,
      "Brezilya": 4412,
      "osa": 4413,
      "ğunu": 4414,
      "olmadı": 4415,
      "Teknik": 4416,
      "fesör": 4417,
      "şar": 4418,
      "Din": 4419,
      "başkanlığı": 4420,
      "Gürc": 4421,
      "korum": 4422,
      "yeten": 4423,
      "bileş": 4424,
      "karı": 4425,
      "akistan": 4426,
      "tipi": 4427,
      "ördüncü": 4428,
      "edil": 4429,
      "sebeb": 4430,
      "şiir": 4431,
      "ğinden": 4432,
      "kesin": 4433,
      "Beyaz": 4434,
      "BB": 4435,
      "parti": 4436,
      "Kaliforni": 4437,
      "Yu": 4438,
      "Boy": 4439,
      "elerine": 4440,
      "alanında": 4441,
      "tasarım": 4442,
      "ago": 4443,
      "dikten": 4444,
      "sebep": 4445,
      "dünyanın": 4446,
      "Gürcistan": 4447,
      "Pop": 4448,
      "Def": 4449,
      "lılık": 4450,
      "tanrı": 4451,
      "polis": 4452,
      "Kaliforniya": 4453,
      "uyor": 4454,
      "Mik": 4455,
      "kurtar": 4456,
      "yapmak": 4457,
      "ihtiya": 4458,
      "çuk": 4459,
      "1958": 4460,
      "ısıyla": 4461,
      "astronom": 4462,
      "1944": 4463,
      "Kuvvetleri": 4464,
      "Bilim": 4465,
      "1920": 4466,
      "para": 4467,
      "beste": 4468,
      "Charles": 4469,
      "ıyor": 4470,
      "uzay": 4471,
      "1956": 4472,
      "meyen": 4473,
      "ure": 4474,
      "von": 4475,
      "Saint": 4476,
      "ğa": 4477,
      "yıldızı": 4478,
      "Arjantin": 4479,
      "yav": 4480,
      "vatandaş": 4481,
      "iet": 4482,
      "eksiyon": 4483,
      "çevres": 4484,
      "omobil": 4485,
      "RT": 4486,
      "olsa": 4487,
      "Universit": 4488,
      "arlar": 4489,
      "yapmış": 4490,
      "42": 4491,
      "vak": 4492,
      "toplan": 4493,
      "konser": 4494,
      "belirli": 4495,
      "SP": 4496,
      "Hayatı": 4497,
      "inae": 4498,
      "etin": 4499,
      "esir": 4500,
      "cinsine": 4501,
      "Göz": 4502,
      "kınma": 4503,
      "6600": 4504,
      "Rock": 4505,
      "Hukuk": 4506,
      "bis": 4507,
      "seçmen": 4508,
      "1930": 4509,
      "Yerel": 4510,
      "ellow": 4511,
      "yapılmıştır": 4512,
      "Güneş": 4513,
      "üzerindeki": 4514,
      "attı": 4515,
      "cinsel": 4516,
      "sul": 4517,
      "milletvekili": 4518,
      "6600FF": 4519,
      "telef": 4520,
      "Belediye": 4521,
      "Macaristan": 4522,
      "ağaç": 4523,
      "59": 4524,
      "mm": 4525,
      "wa": 4526,
      "şair": 4527,
      "Günümüz": 4528,
      "ıldız": 4529,
      "bitki": 4530,
      "acağını": 4531,
      "(\"": 4532,
      "sunu": 4533,
      "kov": 4534,
      "Wh": 4535,
      "Danim": 4536,
      "ref": 4537,
      "Yıldız": 4538,
      "direktörleri": 4539,
      "kum": 4540,
      "âr": 4541,
      "kariyerine": 4542,
      "tis": 4543,
      "Record": 4544,
      "gun": 4545,
      "Tal": 4546,
      "46": 4547,
      "Jul": 4548,
      "plat": 4549,
      "yeri": 4550,
      "geleneksel": 4551,
      "maçında": 4552,
      "ilinde": 4553,
      "IV": 4554,
      "1957": 4555,
      "canlı": 4556,
      "ısız": 4557,
      "ressam": 4558,
      "ame": 4559,
      "ics": 4560,
      "küm": 4561,
      "Air": 4562,
      "yayıl": 4563,
      "aden": 4564,
      "Yo": 4565,
      "hid": 4566,
      "adına": 4567,
      "lukla": 4568,
      "Beşik": 4569,
      "Sezon": 4570,
      "Uzun": 4571,
      "Ameri": 4572,
      "Sy": 4573,
      "üye": 4574,
      "Bununla": 4575,
      "astik": 4576,
      "aşık": 4577,
      "tutuk": 4578,
      "Okulu": 4579,
      "artık": 4580,
      "isidir": 4581,
      "öğretmen": 4582,
      "adi": 4583,
      "Richard": 4584,
      "amaz": 4585,
      "matematik": 4586,
      "Müzesi": 4587,
      "yönünde": 4588,
      "Hasan": 4589,
      "Ede": 4590,
      "komedi": 4591,
      "Bölgesi": 4592,
      "Çev": 4593,
      "hesap": 4594,
      "Ermeni": 4595,
      "eydi": 4596,
      "çesi": 4597,
      "tesi": 4598,
      "afer": 4599,
      "değişiklik": 4600,
      "Öğ": 4601,
      "ex": 4602,
      "ony": 4603,
      "Kurulu": 4604,
      "maçı": 4605,
      "egor": 4606,
      "mekan": 4607,
      "çünkü": 4608,
      "Buna": 4609,
      "Web": 4610,
      "Aydın": 4611,
      ";\"": 4612,
      "Il": 4613,
      "iller": 4614,
      "Bos": 4615,
      "doğrudan": 4616,
      "ath": 4617,
      "kişinin": 4618,
      "vokal": 4619,
      "duvar": 4620,
      "1955": 4621,
      "isinden": 4622,
      "Yayınları": 4623,
      "kurulmuştur": 4624,
      "1946": 4625,
      "Kab": 4626,
      "Moskova": 4627,
      "Çok": 4628,
      "Ba": 4629,
      "yurt": 4630,
      "1941": 4631,
      "Sek": 4632,
      "Akademisi": 4633,
      "Konusu": 4634,
      "Nur": 4635,
      "Sun": 4636,
      "egen": 4637,
      "tahmin": 4638,
      "Black": 4639,
      "cihaz": 4640,
      "Çalış": 4641,
      "ündeki": 4642,
      "Cas": 4643,
      "dışı": 4644,
      "rich": 4645,
      "(),": 4646,
      "mühendis": 4647,
      "brahim": 4648,
      "dat": 4649,
      "Flor": 4650,
      "tim": 4651,
      "cus": 4652,
      "satış": 4653,
      "larındaki": 4654,
      "AK": 4655,
      "edilmektedir": 4656,
      "başkenti": 4657,
      "Demokratik": 4658,
      "menin": 4659,
      "günümüzde": 4660,
      "Bank": 4661,
      "Des": 4662,
      "1954": 4663,
      "Mi": 4664,
      "Kürt": 4665,
      "mann": 4666,
      "Güven": 4667,
      "Sey": 4668,
      "Devleti": 4669,
      "87": 4670,
      "ple": 4671,
      "dağıt": 4672,
      "Burada": 4673,
      "cileri": 4674,
      "enerji": 4675,
      "adır": 4676,
      "eylem": 4677,
      "müm": 4678,
      "defa": 4679,
      "ticaret": 4680,
      "Kir": 4681,
      "41": 4682,
      "alara": 4683,
      "buz": 4684,
      "yse": 4685,
      "County": 4686,
      "ess": 4687,
      "kullanıcı": 4688,
      "ölçüde": 4689,
      "43": 4690,
      "All": 4691,
      "kış": 4692,
      "öne": 4693,
      "Tanrı": 4694,
      "56": 4695,
      "elektron": 4696,
      "Plan": 4697,
      "tarihleri": 4698,
      "mesiyle": 4699,
      "soğ": 4700,
      "ena": 4701,
      "Ekon": 4702,
      "çalışma": 4703,
      "şirketi": 4704,
      "liğe": 4705,
      "yazdı": 4706,
      "Gö": 4707,
      "birey": 4708,
      "Beşiktaş": 4709,
      "1943": 4710,
      "Ku": 4711,
      "Chris": 4712,
      "laşması": 4713,
      "onz": 4714,
      "emin": 4715,
      "lıklı": 4716,
      "sekiz": 4717,
      "bl": 4718,
      "Kaf": 4719,
      "ora": 4720,
      "buna": 4721,
      "şı": 4722,
      "ayi": 4723,
      "medi": 4724,
      "gurbetçiler": 4725,
      "karşılık": 4726,
      "gusal": 4727,
      "Cami": 4728,
      "maktaydı": 4729,
      "yerleştir": 4730,
      "Liga": 4731,
      "kendini": 4732,
      "lass": 4733,
      "Grand": 4734,
      "rock": 4735,
      "eşi": 4736,
      "iyetçi": 4737,
      "diren": 4738,
      "Ta": 4739,
      "arken": 4740,
      "08": 4741,
      "yönettiği": 4742,
      "normal": 4743,
      "Zaman": 4744,
      "vin": 4745,
      "bahs": 4746,
      "performans": 4747,
      "internet": 4748,
      "Ey": 4749,
      "Hırvat": 4750,
      "cılar": 4751,
      "eyaletinde": 4752,
      "halinde": 4753,
      "durumu": 4754,
      "dul": 4755,
      "eki": 4756,
      "olas": 4757,
      "lisans": 4758,
      "dıktan": 4759,
      "53": 4760,
      "Rob": 4761,
      "Unit": 4762,
      "Belediyesi": 4763,
      "ırken": 4764,
      "raz": 4765,
      "ildiği": 4766,
      "amak": 4767,
      "ıştı": 4768,
      "Kalkınma": 4769,
      "mümkün": 4770,
      "Erkekler": 4771,
      "şiddet": 4772,
      "elli": 4773,
      "Bursa": 4774,
      "dikleri": 4775,
      "Maç": 4776,
      "etkil": 4777,
      "iro": 4778,
      "abı": 4779,
      "stein": 4780,
      "psik": 4781,
      "ğına": 4782,
      "İbrahim": 4783,
      "karşısında": 4784,
      "Uni": 4785,
      "Bot": 4786,
      "düğ": 4787,
      "ilecek": 4788,
      "oph": 4789,
      "kanıt": 4790,
      "ruh": 4791,
      "lâ": 4792,
      "ato": 4793,
      "lığa": 4794,
      "idari": 4795,
      "Red": 4796,
      "\")": 4797,
      "alog": 4798,
      "işaret": 4799,
      "site": 4800,
      "tanı": 4801,
      "yüzey": 4802,
      "Ten": 4803,
      "Yılın": 4804,
      "Krallığı": 4805,
      "University": 4806,
      "eleme": 4807,
      "Ast": 4808,
      "dönemi": 4809,
      "şarkılar": 4810,
      "omatik": 4811,
      "Super": 4812,
      "zengin": 4813,
      "Mit": 4814,
      "77": 4815,
      "1942": 4816,
      "aile": 4817,
      "orman": 4818,
      "nerede": 4819,
      "tarım": 4820,
      "King": 4821,
      "1948": 4822,
      "ope": 4823,
      "52": 4824,
      "kişilik": 4825,
      "bağlantı": 4826,
      "ja": 4827,
      "doğusunda": 4828,
      "ırlar": 4829,
      "süreç": 4830,
      "Cel": 4831,
      "Bit": 4832,
      "www": 4833,
      "1939": 4834,
      "pazar": 4835,
      "Akade": 4836,
      "cy": 4837,
      "Açık": 4838,
      "balık": 4839,
      "lıkla": 4840,
      "Şirk": 4841,
      "sürekli": 4842,
      "09": 4843,
      "CHP": 4844,
      "Ru": 4845,
      "1953": 4846,
      "feder": 4847,
      "lenmesi": 4848,
      "İsviçre": 4849,
      "oto": 4850,
      "gök": 4851,
      "dünyaya": 4852,
      "doğum": 4853,
      "civar": 4854,
      "sandık": 4855,
      "geçmektedir": 4856,
      "amam": 4857,
      "donan": 4858,
      "araştırma": 4859,
      "Tour": 4860,
      "alg": 4861,
      "Lisesi": 4862,
      "dolar": 4863,
      "sahne": 4864,
      "lanma": 4865,
      "rekor": 4866,
      "iyar": 4867,
      "Kons": 4868,
      "isyonu": 4869,
      "özgür": 4870,
      "kadro": 4871,
      "fı": 4872,
      "ald": 4873,
      "landalı": 4874,
      "sayesinde": 4875,
      "ella": 4876,
      "ındır": 4877,
      "Fri": 4878,
      "arkadaşı": 4879,
      "İrlanda": 4880,
      "nis": 4881,
      "grubun": 4882,
      "ón": 4883,
      "General": 4884,
      "Eli": 4885,
      "ükle": 4886,
      "04": 4887,
      "reak": 4888,
      "üyor": 4889,
      "Press": 4890,
      "Ordusu": 4891,
      "yoluyla": 4892,
      "51": 4893,
      "Mich": 4894,
      "Lan": 4895,
      "Meclisi": 4896,
      "kendisi": 4897,
      "ters": 4898,
      "Komut": 4899,
      "bakım": 4900,
      "1952": 4901,
      "Kuş": 4902,
      "Slov": 4903,
      "odak": 4904,
      "61": 4905,
      "Tah": 4906,
      "senar": 4907,
      "Ref": 4908,
      "yerini": 4909,
      "dans": 4910,
      "birleştir": 4911,
      "üphan": 4912,
      "aşağıdaki": 4913,
      "sporcular": 4914,
      "Cap": 4915,
      "Video": 4916,
      "basın": 4917,
      "şah": 4918,
      "yellow": 4919,
      "Max": 4920,
      "asındaki": 4921,
      "öncesi": 4922,
      "ister": 4923,
      "West": 4924,
      "Fa": 4925,
      "araz": 4926,
      "adında": 4927,
      "Üniversitesinde": 4928,
      "ağan": 4929,
      "Tw": 4930,
      "fonk": 4931,
      "lamıştır": 4932,
      "aka": 4933,
      "orijinal": 4934,
      "meleri": 4935,
      "Thomas": 4936,
      "ball": 4937,
      "way": 4938,
      "inler": 4939,
      "kullanarak": 4940,
      "İskoç": 4941,
      "Belçika": 4942,
      "Arab": 4943,
      "şim": 4944,
      "mekte": 4945,
      "okulu": 4946,
      "yayımlanan": 4947,
      "Britanya": 4948,
      "açıkladı": 4949,
      "etkili": 4950,
      "ket": 4951,
      "Antal": 4952,
      "elt": 4953,
      "yoktur": 4954,
      "müziği": 4955,
      "sağlar": 4956,
      "62": 4957,
      "kaf": 4958,
      "07": 4959,
      "Andre": 4960,
      "Records": 4961,
      "ux": 4962,
      "koşul": 4963,
      "pas": 4964,
      "Antik": 4965,
      "Roman": 4966,
      "ilçesinde": 4967,
      "kitabı": 4968,
      "Lev": 4969,
      "rid": 4970,
      "Ka": 4971,
      "harek": 4972,
      "isa": 4973,
      "birim": 4974,
      "yılının": 4975,
      "Meksika": 4976,
      "jen": 4977,
      "hücr": 4978,
      "dini": 4979,
      "Cer": 4980,
      "List": 4981,
      "ole": 4982,
      "gösteren": 4983,
      "konusu": 4984,
      "Katolik": 4985,
      "fin": 4986,
      "Sırp": 4987,
      "Ker": 4988,
      "Angeles": 4989,
      "Muharebesi": 4990,
      "resim": 4991,
      "Kend": 4992,
      "BT": 4993,
      "işe": 4994,
      "nü": 4995,
      "annesi": 4996,
      "kamu": 4997,
      "with": 4998,
      "atürk": 4999,
      "kilis": 5000,
      "tain": 5001,
      "nasıl": 5002,
      "Est": 5003,
      "grupları": 5004,
      "köpr": 5005,
      "siyah": 5006,
      "05": 5007,
      "durumda": 5008,
      "kalı": 5009,
      "Antalya": 5010,
      "vis": 5011,
      "ordus": 5012,
      "çer": 5013,
      "görevi": 5014,
      "kıy": 5015,
      "sorumlu": 5016,
      "tifak": 5017,
      "Hareket": 5018,
      "Sw": 5019,
      "lediği": 5020,
      "cilik": 5021,
      "taşıyan": 5022,
      "Ra": 5023,
      "sis": 5024,
      "acılık": 5025,
      "Köyün": 5026,
      "otomobil": 5027,
      "Hüseyin": 5028,
      "zi": 5029,
      "yedi": 5030,
      "leyman": 5031,
      "Siya": 5032,
      "Stad": 5033,
      "Elekt": 5034,
      "Fu": 5035,
      "Dir": 5036,
      "derin": 5037,
      "Hint": 5038,
      "yapımcı": 5039,
      "dili": 5040,
      "Prof": 5041,
      "çocuğu": 5042,
      "sap": 5043,
      "()": 5044,
      "terk": 5045,
      "Karak": 5046,
      "lub": 5047,
      "ric": 5048,
      "98": 5049,
      "sok": 5050,
      "Oper": 5051,
      "Gazet": 5052,
      "fan": 5053,
      "Sat": 5054,
      "1949": 5055,
      "Ve": 5056,
      "Du": 5057,
      "Vic": 5058,
      "çisi": 5059,
      "Bon": 5060,
      "Aşağı": 5061,
      "hep": 5062,
      "gitti": 5063,
      "ettir": 5064,
      "Nev": 5065,
      "Micros": 5066,
      "1947": 5067,
      "bölgesi": 5068,
      "onay": 5069,
      "gre": 5070,
      "aranan": 5071,
      "anlık": 5072,
      "aktiv": 5073,
      "Net": 5074,
      "antik": 5075,
      "İdar": 5076,
      "rif": 5077,
      "alandı": 5078,
      "bilimsel": 5079,
      "kayıtlarında": 5080,
      "gösterir": 5081,
      "İb": 5082,
      "edebiyat": 5083,
      "Sem": 5084,
      "stüdyo": 5085,
      "Haned": 5086,
      "Oğ": 5087,
      "ruk": 5088,
      "ümcek": 5089,
      "kurulmuş": 5090,
      "Atatürk": 5091,
      "liğine": 5092,
      "F2F2F2": 5093,
      "Süleyman": 5094,
      "Anton": 5095,
      "tercih": 5096,
      "Geçersiz": 5097,
      "laması": 5098,
      "bakır": 5099,
      "hikây": 5100,
      "aban": 5101,
      "Div": 5102,
      "kod": 5103,
      "dipl": 5104,
      "pa": 5105,
      "Eser": 5106,
      "uçuş": 5107,
      "sivil": 5108,
      "1938": 5109,
      "Şi": 5110,
      "Bilg": 5111,
      "kazanmıştır": 5112,
      "Fre": 5113,
      "Plat": 5114,
      "güc": 5115,
      "Miss": 5116,
      "Ur": 5117,
      "United": 5118,
      "ction": 5119,
      "kategor": 5120,
      "Vir": 5121,
      "sion": 5122,
      "oynanan": 5123,
      "Başkanlığı": 5124,
      "aracılığı": 5125,
      "ayrıl": 5126,
      "rowspan": 5127,
      "Böylece": 5128,
      "lılar": 5129,
      "vaz": 5130,
      "Sivas": 5131,
      "bazen": 5132,
      "igh": 5133,
      "tane": 5134,
      "dolay": 5135,
      "ayrıldı": 5136,
      "malzem": 5137,
      "Christ": 5138,
      "liler": 5139,
      "geçirdi": 5140,
      "Microsoft": 5141,
      "almış": 5142,
      "erler": 5143,
      "Şey": 5144,
      "Chan": 5145,
      "etraf": 5146,
      "etkinlik": 5147,
      "alınan": 5148,
      "standart": 5149,
      "gisi": 5150,
      "yasak": 5151,
      "bölgede": 5152,
      "kıyı": 5153,
      "korun": 5154,
      "takımına": 5155,
      "almak": 5156,
      "İt": 5157,
      "Na": 5158,
      "atom": 5159,
      "kendisini": 5160,
      "sürüm": 5161,
      "Henry": 5162,
      "yayınladı": 5163,
      "Ag": 5164,
      "fet": 5165,
      "ebek": 5166,
      "etkilen": 5167,
      "yazarlar": 5168,
      "Kent": 5169,
      "yönetimi": 5170,
      "1918": 5171,
      "batısında": 5172,
      "süren": 5173,
      "tılı": 5174,
      "Bulgaristan": 5175,
      "girişim": 5176,
      "Pri": 5177,
      "wood": 5178,
      "One": 5179,
      "etkisi": 5180,
      "lıca": 5181,
      "1951": 5182,
      "Kısa": 5183,
      "eld": 5184,
      "lında": 5185,
      "MA": 5186,
      "acık": 5187,
      "Off": 5188,
      "lığın": 5189,
      "okras": 5190,
      "1936": 5191,
      "ander": 5192,
      "eliği": 5193,
      "Martin": 5194,
      "arr": 5195,
      "ferans": 5196,
      "Selçuk": 5197,
      "eğitimi": 5198,
      "Sistem": 5199,
      "ić": 5200,
      "ille": 5201,
      "Boğ": 5202,
      "mol": 5203,
      "dos": 5204,
      "Nat": 5205,
      "ES": 5206,
      "sayımına": 5207,
      "Cy": 5208,
      "fat": 5209,
      "takımyıldızı": 5210,
      "mail": 5211,
      "Balık": 5212,
      "ala": 5213,
      "oug": 5214,
      "yönetic": 5215,
      "lıklar": 5216,
      "anti": 5217,
      "kiler": 5218,
      "Konya": 5219,
      "aladı": 5220,
      "oth": 5221,
      "cev": 5222,
      "Kilisesi": 5223,
      "Yaşamı": 5224,
      "Gro": 5225,
      "Profesyonel": 5226,
      "gelmiştir": 5227,
      "kırmızı": 5228,
      "birimleri": 5229,
      "Hy": 5230,
      "blem": 5231,
      "açısından": 5232,
      "nün": 5233,
      "Erzurum": 5234,
      "yapısı": 5235,
      "unvan": 5236,
      "ilgi": 5237,
      "tadan": 5238,
      "Dom": 5239,
      "Karab": 5240,
      "Jac": 5241,
      "Zel": 5242,
      "şarkıcıları": 5243,
      "neredeyse": 5244,
      "Komün": 5245,
      "ğinin": 5246,
      "Biy": 5247,
      "Şehrin": 5248,
      "dördüncü": 5249,
      "Ke": 5250,
      "hakim": 5251,
      "post": 5252,
      "yapılmış": 5253,
      "elerinden": 5254,
      "rapor": 5255,
      "atlet": 5256,
      "03": 5257,
      "genin": 5258,
      "apın": 5259,
      "sc": 5260,
      "baskı": 5261,
      "Düz": 5262,
      "kentinde": 5263,
      "kaydet": 5264,
      "06": 5265,
      "stad": 5266,
      "hala": 5267,
      "gezegen": 5268,
      "kısım": 5269,
      "kullanılmaktadır": 5270,
      "kararı": 5271,
      "deli": 5272,
      "radyo": 5273,
      "avi": 5274,
      "diy": 5275,
      "şehirdir": 5276,
      "oluşturul": 5277,
      "rem": 5278,
      "aşırı": 5279,
      "hayatını": 5280,
      "Fransızca": 5281,
      "yemek": 5282,
      "dit": 5283,
      "aes": 5284,
      "oslav": 5285,
      "mişti": 5286,
      "Moğ": 5287,
      "elle": 5288,
      "yapılır": 5289,
      "isyan": 5290,
      "tiğini": 5291,
      "Lee": 5292,
      "açtı": 5293,
      "Prem": 5294,
      "tuğu": 5295,
      "endü": 5296,
      "madalyalı": 5297,
      "kapat": 5298,
      "NBA": 5299,
      "mesaf": 5300,
      "Op": 5301,
      "general": 5302,
      "maddeleri": 5303,
      "bölümünde": 5304,
      "abilecek": 5305,
      "Moğol": 5306,
      "yıllar": 5307,
      "Sor": 5308,
      "sırasıyla": 5309,
      "gec": 5310,
      "bistan": 5311,
      "çıkmıştır": 5312,
      "Başarı": 5313,
      "teslim": 5314,
      "sağlamak": 5315,
      "aktar": 5316,
      "işlev": 5317,
      "söylem": 5318,
      "yarar": 5319,
      "oynan": 5320,
      "plak": 5321,
      "Cat": 5322,
      "aki": 5323,
      "89": 5324,
      "ect": 5325,
      "düşünül": 5326,
      "hayatı": 5327,
      "Yal": 5328,
      "anları": 5329,
      "Hist": 5330,
      "saray": 5331,
      "Roy": 5332,
      "Adana": 5333,
      "ois": 5334,
      "Ann": 5335,
      "etme": 5336,
      "kullanılmıştır": 5337,
      "Maked": 5338,
      "Adaylık": 5339,
      "diş": 5340,
      "1933": 5341,
      "Eş": 5342,
      "Ob": 5343,
      "85": 5344,
      "oyu": 5345,
      "eyn": 5346,
      "ücret": 5347,
      "Üy": 5348,
      "böylece": 5349,
      "sınırları": 5350,
      "Konseyi": 5351,
      "yeter": 5352,
      "rolü": 5353,
      "müs": 5354,
      "AP": 5355,
      "Haf": 5356,
      "iter": 5357,
      "ğından": 5358,
      "voleybol": 5359,
      "abak": 5360,
      "makin": 5361,
      "Konst": 5362,
      "cüm": 5363,
      "tamamladı": 5364,
      "onlar": 5365,
      "verilmiştir": 5366,
      "800": 5367,
      "Tam": 5368,
      "şehrinde": 5369,
      "yavaş": 5370,
      "Tic": 5371,
      "Ox": 5372,
      "uman": 5373,
      "idar": 5374,
      "asa": 5375,
      "yılındaki": 5376,
      "Yeşil": 5377,
      "düşman": 5378,
      "Hot": 5379,
      "umb": 5380,
      "gücü": 5381,
      "Hel": 5382,
      "rast": 5383,
      "Intern": 5384,
      "unt": 5385,
      "zo": 5386,
      "stir": 5387,
      "bakanı": 5388,
      "çoğunlukla": 5389,
      "ân": 5390,
      "söyler": 5391,
      "rey": 5392,
      "bomb": 5393,
      "Danimarka": 5394,
      "zarar": 5395,
      "DP": 5396,
      "EP": 5397,
      "oluşturur": 5398,
      "Belde": 5399,
      "süz": 5400,
      "gizli": 5401,
      "artır": 5402,
      "askerî": 5403,
      "Cla": 5404,
      "set": 5405,
      "ât": 5406,
      "klasik": 5407,
      "ailesi": 5408,
      "ero": 5409,
      "bilen": 5410,
      "hel": 5411,
      "day": 5412,
      "âh": 5413,
      "etmesi": 5414,
      "kayded": 5415,
      "profesör": 5416,
      "CB": 5417,
      "istin": 5418,
      "istedi": 5419,
      "Program": 5420,
      "çizgi": 5421,
      "Kariyeri": 5422,
      "akım": 5423,
      "araya": 5424,
      "kökenli": 5425,
      "Ele": 5426,
      "ikti": 5427,
      "iti": 5428,
      "heykel": 5429,
      "Televizyon": 5430,
      "Mün": 5431,
      "mith": 5432,
      "1934": 5433,
      "birinc": 5434,
      "1935": 5435,
      "oni": 5436,
      "finalde": 5437,
      "uzman": 5438,
      "Ray": 5439,
      "çta": 5440,
      "insanları": 5441,
      "Abdul": 5442,
      "North": 5443,
      "meş": 5444,
      "kurucu": 5445,
      "amadı": 5446,
      "galaksidir": 5447,
      "görülür": 5448,
      "1937": 5449,
      "imli": 5450,
      "yapılar": 5451,
      "http": 5452,
      "ekran": 5453,
      "vey": 5454,
      "çal": 5455,
      "olmadığı": 5456,
      "sağlayan": 5457,
      "kilomet": 5458,
      "Kardeş": 5459,
      "yapmaktadır": 5460,
      "Of": 5461,
      "mezar": 5462,
      "atandı": 5463,
      "zir": 5464,
      "araj": 5465,
      "denk": 5466,
      "sanatçıları": 5467,
      "aracılığıyla": 5468,
      "iline": 5469,
      "ucusu": 5470,
      "Gümüş": 5471,
      "Cup": 5472,
      "lop": 5473,
      "alıdır": 5474,
      "Bölge": 5475,
      "filmin": 5476,
      "Mezar": 5477,
      "Mey": 5478,
      "edilmesi": 5479,
      "şarkıcılar": 5480,
      "vik": 5481,
      "bulunmuştur": 5482,
      "Abdül": 5483,
      "kup": 5484,
      "apol": 5485,
      "Kralı": 5486,
      "Yönetmen": 5487,
      "ene": 5488,
      "pak": 5489,
      "1919": 5490,
      "Nic": 5491,
      "Mut": 5492,
      "açıl": 5493,
      "Hem": 5494,
      "graf": 5495,
      "Som": 5496,
      "Louis": 5497,
      "iste": 5498,
      "ortalama": 5499,
      "ediyor": 5500,
      "fen": 5501,
      "başlarında": 5502,
      "Les": 5503,
      "tok": 5504,
      "uydu": 5505,
      "ear": 5506,
      "jital": 5507,
      "kural": 5508,
      "lıkları": 5509,
      "kullanıldı": 5510,
      "acaktır": 5511,
      "Çift": 5512,
      "dep": 5513,
      "Wash": 5514,
      "dakik": 5515,
      "sembol": 5516,
      "02": 5517,
      "Alek": 5518,
      "cinstir": 5519,
      "adamı": 5520,
      "enerj": 5521,
      "makam": 5522,
      "Emir": 5523,
      "kuşat": 5524,
      "Kiş": 5525,
      "Kart": 5526,
      "--": 5527,
      "gece": 5528,
      "istasyon": 5529,
      "Meclis": 5530,
      "çapında": 5531,
      "taşımaktadır": 5532,
      "Federasyonu": 5533,
      "mos": 5534,
      "Doktor": 5535,
      "Camii": 5536,
      "lideri": 5537,
      "içindeki": 5538,
      "edit": 5539,
      "1925": 5540,
      "yetiştir": 5541,
      "anim": 5542,
      "Fel": 5543,
      "Boz": 5544,
      "FK": 5545,
      "giren": 5546,
      "örümcek": 5547,
      "Güzel": 5548,
      "SC": 5549,
      "ayıf": 5550,
      "Fir": 5551,
      "Bin": 5552,
      "eter": 5553,
      "Modern": 5554,
      "mus": 5555,
      "üretilen": 5556,
      "chen": 5557,
      "Fi": 5558,
      "Wat": 5559,
      "Hükûmet": 5560,
      "götür": 5561,
      "teles": 5562,
      "ekten": 5563,
      "strat": 5564,
      "kültürel": 5565,
      "Notlar": 5566,
      "mur": 5567,
      "günlük": 5568,
      "ese": 5569,
      "Rev": 5570,
      "ning": 5571,
      "\".": 5572,
      "güvenlik": 5573,
      "ebe": 5574,
      "geçiş": 5575,
      "düğü": 5576,
      "oğul": 5577,
      "türk": 5578,
      "kullanımı": 5579,
      "Haç": 5580,
      "hükümdar": 5581,
      "Joseph": 5582,
      "pozisyonunda": 5583,
      "Saf": 5584,
      "köş": 5585,
      "vanya": 5586,
      "arab": 5587,
      "Dağı": 5588,
      "lie": 5589,
      "Milletler": 5590,
      "Let": 5591,
      "mevcuttur": 5592,
      "yazılan": 5593,
      "vad": 5594,
      "Günümüzde": 5595,
      "itir": 5596,
      "tehlik": 5597,
      "örneğin": 5598,
      "serg": 5599,
      "başarısız": 5600,
      "Ri": 5601,
      "sağlık": 5602,
      "yumu": 5603,
      "It": 5604,
      "Cr": 5605,
      "Ul": 5606,
      "RA": 5607,
      "sert": 5608,
      "Pic": 5609,
      "Kör": 5610,
      "Kel": 5611,
      "78": 5612,
      "Tür": 5613,
      "liğin": 5614,
      "Romanya": 5615,
      "Düş": 5616,
      "içek": 5617,
      "ödülü": 5618,
      "yüzden": 5619,
      "cılı": 5620,
      "Basketbol": 5621,
      "300": 5622,
      "Blu": 5623,
      "rö": 5624,
      "Birlik": 5625,
      "Sırbistan": 5626,
      "hafif": 5627,
      "sınıflandır": 5628,
      "Niş": 5629,
      "içeri": 5630,
      "gelmektedir": 5631,
      "saf": 5632,
      "Nazi": 5633,
      "bölün": 5634,
      "adir": 5635,
      "ube": 5636,
      "mod": 5637,
      "çab": 5638,
      "Yarı": 5639,
      "ky": 5640,
      "lanmaktadır": 5641,
      "şirketleri": 5642,
      "Venedik": 5643,
      "otur": 5644,
      "oğu": 5645,
      "uzu": 5646,
      "Milliyetçi": 5647,
      "basketbolcuları": 5648,
      "davranış": 5649,
      "adım": 5650,
      "benim": 5651,
      "sayılı": 5652,
      "unma": 5653,
      "Eng": 5654,
      "TC": 5655,
      "kont": 5656,
      "kahraman": 5657,
      "Jan": 5658,
      "asıdır": 5659,
      "defn": 5660,
      "versiyon": 5661,
      "özellikleri": 5662,
      "Day": 5663,
      "Washington": 5664,
      "akar": 5665,
      "oluşumlar": 5666,
      "Ses": 5667,
      "ings": 5668,
      "leyici": 5669,
      "Step": 5670,
      "Konu": 5671,
      "mamış": 5672,
      "Ermenistan": 5673,
      "astır": 5674,
      "Özgür": 5675,
      "alimanı": 5676,
      "able": 5677,
      "omen": 5678,
      "yaşan": 5679,
      "Diz": 5680,
      "Üst": 5681,
      "Champ": 5682,
      "79": 5683,
      "kök": 5684,
      "Bi": 5685,
      "bö": 5686,
      "Soci": 5687,
      "Bölümü": 5688,
      "Hitler": 5689,
      "lış": 5690,
      "topluluk": 5691,
      "İsmail": 5692,
      "Yardım": 5693,
      "ıntı": 5694,
      "idge": 5695,
      "şöyle": 5696,
      "ölçümü": 5697,
      "Yan": 5698,
      "opa": 5699,
      "rahat": 5700,
      "şirketler": 5701,
      "Akademi": 5702,
      "1922": 5703,
      "Sinema": 5704,
      "ere": 5705,
      "Arapça": 5706,
      "kaynağı": 5707,
      "Murat": 5708,
      "Ün": 5709,
      ");": 5710,
      "başrol": 5711,
      "ısal": 5712,
      "bank": 5713,
      "Diyar": 5714,
      "Tro": 5715,
      "bölgesine": 5716,
      "denir": 5717,
      "gileri": 5718,
      "barış": 5719,
      "1923": 5720,
      "Brezilyalı": 5721,
      "Ni": 5722,
      "lup": 5723,
      "Big": 5724,
      "basit": 5725,
      "Yönetim": 5726,
      "olduğuna": 5727,
      "Şampiyonlar": 5728,
      "göstermektedir": 5729,
      "board": 5730,
      "vermiştir": 5731,
      "ticari": 5732,
      "edin": 5733,
      "Komünist": 5734,
      "kaybetti": 5735,
      "%;": 5736,
      "fikir": 5737,
      "Ama": 5738,
      "kapı": 5739,
      "durdur": 5740,
      "lili": 5741,
      "Almanca": 5742,
      "görevini": 5743,
      "Araştırma": 5744,
      "Kn": 5745,
      "Tıp": 5746,
      "Tep": 5747,
      "lıdır": 5748,
      "Ahmed": 5749,
      "oynadığı": 5750,
      "liy": 5751,
      "mutf": 5752,
      "TO": 5753,
      ")'": 5754,
      "Ir": 5755,
      "cık": 5756,
      "tıp": 5757,
      "istatistik": 5758,
      "Dışişleri": 5759,
      "án": 5760,
      "Music": 5761,
      "American": 5762,
      "akadem": 5763,
      "gam": 5764,
      "takımında": 5765,
      "çekir": 5766,
      "Sarı": 5767,
      "Dep": 5768,
      "ülük": 5769,
      "başta": 5770,
      "yerde": 5771,
      "ont": 5772,
      "tuluş": 5773,
      "enf": 5774,
      "bahar": 5775,
      "Efendi": 5776,
      "iew": 5777,
      "zayıf": 5778,
      "Hom": 5779,
      "Ty": 5780,
      "Konstantin": 5781,
      "araştırmalar": 5782,
      "ase": 5783,
      "insanların": 5784,
      "1924": 5785,
      "Edebiyat": 5786,
      "ekim": 5787,
      "memiş": 5788,
      "1921": 5789,
      "öldürül": 5790,
      "Enter": 5791,
      "avuk": 5792,
      "ota": 5793,
      "olma": 5794,
      "adalı": 5795,
      "karış": 5796,
      "National": 5797,
      "cher": 5798,
      "esindeki": 5799,
      "Silah": 5800,
      "dönüştür": 5801,
      "yaşadığı": 5802,
      "lon": 5803,
      "sektör": 5804,
      "Türkmen": 5805,
      "liga": 5806,
      "sağladı": 5807,
      "log": 5808,
      "Francis": 5809,
      "72": 5810,
      "92": 5811,
      "landiya": 5812,
      "Sef": 5813,
      "Lim": 5814,
      "fiziksel": 5815,
      "emek": 5816,
      "ray": 5817,
      "temelen": 5818,
      "arada": 5819,
      "abor": 5820,
      "rüt": 5821,
      "Yug": 5822,
      "coğraf": 5823,
      "içine": 5824,
      "yayımlandı": 5825,
      "yükseldi": 5826,
      "kralı": 5827,
      "geleri": 5828,
      "başbakan": 5829,
      "Mühendis": 5830,
      "olmadığını": 5831,
      "Edward": 5832,
      "Bunlar": 5833,
      "Fatih": 5834,
      "from": 5835,
      "Özellikle": 5836,
      "pt": 5837,
      "ilişkileri": 5838,
      "sus": 5839,
      "lenme": 5840,
      "egemen": 5841,
      "urn": 5842,
      "WW": 5843,
      "LG": 5844,
      "1932": 5845,
      "pis": 5846,
      "Vil": 5847,
      "düzenlem": 5848,
      "1926": 5849,
      "ılıç": 5850,
      "esn": 5851,
      "sky": 5852,
      "||||": 5853,
      "hatta": 5854,
      "sın": 5855,
      "eseri": 5856,
      "lığında": 5857,
      "ates": 5858,
      "right": 5859,
      "aması": 5860,
      "1927": 5861,
      "Gol": 5862,
      "sos": 5863,
      "akıl": 5864,
      "1914": 5865,
      "Finlandiya": 5866,
      "ezi": 5867,
      "etim": 5868,
      "abil": 5869,
      "Doğru": 5870,
      "Balkan": 5871,
      "belli": 5872,
      "yaptır": 5873,
      "Adası": 5874,
      "danış": 5875,
      "ilişkin": 5876,
      "sabit": 5877,
      "teleskop": 5878,
      "nokta": 5879,
      "Smith": 5880,
      "maşık": 5881,
      "Cin": 5882,
      "isiyle": 5883,
      "zat": 5884,
      "alarından": 5885,
      "programı": 5886,
      "onların": 5887,
      "Komisyonu": 5888,
      "yüzünde": 5889,
      "Real": 5890,
      "ilgilen": 5891,
      "dor": 5892,
      "ls": 5893,
      "Aziz": 5894,
      "76": 5895,
      "ıza": 5896,
      "Yugoslav": 5897,
      "imiz": 5898,
      "iliş": 5899,
      "lerce": 5900,
      "Kah": 5901,
      "PA": 5902,
      "hükûmeti": 5903,
      "ET": 5904,
      "ağa": 5905,
      "ria": 5906,
      "bazıları": 5907,
      "Eyaleti": 5908,
      "Ala": 5909,
      "oluşturan": 5910,
      "emr": 5911,
      "sanatçısı": 5912,
      "senary": 5913,
      "amik": 5914,
      "ütte": 5915,
      "Pier": 5916,
      "ges": 5917,
      "Kanadalı": 5918,
      "ihtiyaç": 5919,
      "ömür": 5920,
      "dere": 5921,
      "adeniz": 5922,
      "etnik": 5923,
      "....": 5924,
      "Kav": 5925,
      "laşma": 5926,
      "gören": 5927,
      "görülen": 5928,
      "belirtti": 5929,
      "1929": 5930,
      "süt": 5931,
      "abet": 5932,
      "nat": 5933,
      "kah": 5934,
      "ike": 5935,
      "talep": 5936,
      "sürec": 5937,
      "kart": 5938,
      "Hey": 5939,
      "yılın": 5940,
      "Kafkas": 5941,
      "Colle": 5942,
      "fonksiyon": 5943,
      "çaplı": 5944,
      "Jun": 5945,
      "Aug": 5946,
      "dom": 5947,
      "opol": 5948,
      "cia": 5949,
      "yaşadı": 5950,
      "93": 5951,
      "yahat": 5952,
      "uri": 5953,
      "olmaya": 5954,
      "orada": 5955,
      "kişisel": 5956,
      "gösterdi": 5957,
      "ölümünden": 5958,
      "Karadeniz": 5959,
      "kullanan": 5960,
      "kanun": 5961,
      "kenar": 5962,
      "Evrif": 5963,
      "aessa": 5964,
      "Evrifaessa": 5965,
      "Mehmed": 5966,
      "güneş": 5967,
      "listesinde": 5968,
      "fabrik": 5969,
      "Tu": 5970,
      "arya": 5971,
      "takımın": 5972,
      "Fars": 5973,
      "güzel": 5974,
      "yılda": 5975,
      "Show": 5976,
      "insanı": 5977,
      "hiss": 5978,
      "onyalı": 5979,
      "ükleer": 5980,
      "Güreş": 5981,
      "harf": 5982,
      "iyade": 5983,
      "illi": 5984,
      "ıktan": 5985,
      "Ömer": 5986,
      "Mary": 5987,
      "Kos": 5988,
      "Mol": 5989,
      "Rap": 5990,
      "uru": 5991,
      "86": 5992,
      "itz": 5993,
      "Kahraman": 5994,
      "üny": 5995,
      "Leon": 5996,
      "mikro": 5997,
      "başvur": 5998,
      "terim": 5999,
      "Harek": 6000,
      "ısıt": 6001,
      "gerekli": 6002,
      "uzan": 6003,
      "Ard": 6004,
      "Başbakan": 6005,
      "komp": 6006,
      "Sağlık": 6007,
      "tanesi": 6008,
      "kabil": 6009,
      "ülkede": 6010,
      "evlendi": 6011,
      "tian": 6012,
      "ulaştı": 6013,
      "nehir": 6014,
      "Proj": 6015,
      "İstatistik": 6016,
      "abilen": 6017,
      "Dal": 6018,
      "ettiler": 6019,
      "Chic": 6020,
      "Kulüb": 6021,
      "rie": 6022,
      "yapar": 6023,
      "galib": 6024,
      "Barış": 6025,
      "yanlış": 6026,
      "hakları": 6027,
      "96": 6028,
      "eriş": 6029,
      "rip": 6030,
      "84": 6031,
      "osunu": 6032,
      "Muh": 6033,
      "Parlament": 6034,
      "duk": 6035,
      "parça": 6036,
      "içe": 6037,
      "1931": 6038,
      "Bilimler": 6039,
      "reddet": 6040,
      "amet": 6041,
      "ılımı": 6042,
      "medya": 6043,
      "ower": 6044,
      "Bis": 6045,
      "Kurt": 6046,
      "rib": 6047,
      "milyar": 6048,
      "ozof": 6049,
      "UN": 6050,
      "amaya": 6051,
      "mini": 6052,
      "arke": 6053,
      "paşa": 6054,
      "iner": 6055,
      "bilinmektedir": 6056,
      "sebebiyle": 6057,
      "ush": 6058,
      "ks": 6059,
      "rian": 6060,
      "Adaları": 6061,
      "evren": 6062,
      "kesim": 6063,
      "Bek": 6064,
      "ırh": 6065,
      "ıyordu": 6066,
      "espor": 6067,
      "mesinden": 6068,
      "alanda": 6069,
      "Nec": 6070,
      "desi": 6071,
      "Diyarbakır": 6072,
      "Filmografi": 6073,
      "400": 6074,
      "dramatik": 6075,
      "tec": 6076,
      "Sosyalist": 6077,
      "iletişim": 6078,
      "ér": 6079,
      "1912": 6080,
      "isten": 6081,
      "teklif": 6082,
      "Nas": 6083,
      "çatışmalar": 6084,
      "cağı": 6085,
      "Cumhurbaşkanı": 6086,
      "yapmaya": 6087,
      "halef": 6088,
      "ternatif": 6089,
      "Prens": 6090,
      "metin": 6091,
      "yetik": 6092,
      "genişlet": 6093,
      "makal": 6094,
      "ikisi": 6095,
      "kadınlar": 6096,
      "US": 6097,
      "Fır": 6098,
      "pınar": 6099,
      "Fe": 6100,
      "kendine": 6101,
      "fos": 6102,
      "MP": 6103,
      "sahipliği": 6104,
      "eleştirmen": 6105,
      "olk": 6106,
      "indi": 6107,
      "otik": 6108,
      "lendiği": 6109,
      "çağr": 6110,
      "keşfedilmiştir": 6111,
      "Vik": 6112,
      "ihan": 6113,
      "Ki": 6114,
      "ölmüştür": 6115,
      "Life": 6116,
      "fig": 6117,
      "pap": 6118,
      "Aşk": 6119,
      "tiler": 6120,
      "Bern": 6121,
      "rej": 6122,
      "dönemin": 6123,
      "Milli": 6124,
      "emiştir": 6125,
      "kanat": 6126,
      "Victor": 6127,
      "subay": 6128,
      "yapımcısı": 6129,
      "Koreli": 6130,
      "Dor": 6131,
      "şık": 6132,
      "katılan": 6133,
      "düşünc": 6134,
      ")\"": 6135,
      "Filistin": 6136,
      "Müdürlüğü": 6137,
      "biya": 6138,
      "takımının": 6139,
      "Ram": 6140,
      "usuf": 6141,
      "Ort": 6142,
      "müdür": 6143,
      "Sad": 6144,
      "yatır": 6145,
      "rü": 6146,
      "sonuçları": 6147,
      "hapis": 6148,
      "Rod": 6149,
      "Sitesi": 6150,
      "layıcı": 6151,
      "Sez": 6152,
      "kender": 6153,
      "lob": 6154,
      "pilot": 6155,
      "şart": 6156,
      "civarında": 6157,
      "74": 6158,
      "çalışmaya": 6159,
      "bozuk": 6160,
      "ild": 6161,
      "getirdi": 6162,
      "aktör": 6163,
      "culu": 6164,
      "oluşmaktadır": 6165,
      "Ga": 6166,
      "sup": 6167,
      "filminde": 6168,
      "Rol": 6169,
      "kuzeyinde": 6170,
      "ikat": 6171,
      "bür": 6172,
      "gerektir": 6173,
      "yere": 6174,
      "alma": 6175,
      "giden": 6176,
      "azalt": 6177,
      "Asker": 6178,
      "field": 6179,
      "öldürüldü": 6180,
      "Pek": 6181,
      "Rusça": 6182,
      "FE": 6183,
      "Madrid": 6184,
      "orum": 6185,
      "Win": 6186,
      "lığının": 6187,
      "adlandırılan": 6188,
      "sonlarında": 6189,
      "sand": 6190,
      "miyor": 6191,
      "gelebilir": 6192,
      "Yunanca": 6193,
      "Nobel": 6194,
      "iyel": 6195,
      "Yılmaz": 6196,
      "tral": 6197,
      "Mih": 6198,
      "Kurul": 6199,
      "1917": 6200,
      "savunma": 6201,
      "mis": 6202,
      "Yine": 6203,
      "lardaki": 6204,
      "ream": 6205,
      "Turn": 6206,
      "Studi": 6207,
      "Inter": 6208,
      "Oyuncular": 6209,
      "verilir": 6210,
      "Dün": 6211,
      "üstün": 6212,
      "ilişkiler": 6213,
      "İskender": 6214,
      "önceleri": 6215,
      "depr": 6216,
      "esas": 6217,
      "sıv": 6218,
      "stil": 6219,
      "Ori": 6220,
      "problem": 6221,
      "ern": 6222,
      "ikinc": 6223,
      "tıkları": 6224,
      ";\"|": 6225,
      "Kud": 6226,
      "idir": 6227,
      "ettik": 6228,
      "getirildi": 6229,
      "Viy": 6230,
      "ulur": 6231,
      "atıcı": 6232,
      "Denizi": 6233,
      "ezya": 6234,
      "Eğer": 6235,
      "ship": 6236,
      "Çanak": 6237,
      "ilaç": 6238,
      "Latin": 6239,
      "nesn": 6240,
      "kullandı": 6241,
      "PS": 6242,
      "tuğ": 6243,
      "Foot": 6244,
      "sözleşme": 6245,
      "operasyon": 6246,
      "82": 6247,
      "IA": 6248,
      "dedi": 6249,
      "International": 6250,
      "hit": 6251,
      "nüfusunun": 6252,
      "tank": 6253,
      "Köpr": 6254,
      "esin": 6255,
      "üretimi": 6256,
      "94": 6257,
      "Hayat": 6258,
      "ute": 6259,
      "ografisi": 6260,
      "yerek": 6261,
      "Yusuf": 6262,
      "vel": 6263,
      "Hanedanı": 6264,
      "Mev": 6265,
      "yasa": 6266,
      "olduğundan": 6267,
      "Anth": 6268,
      "Tokyo": 6269,
      "Daniel": 6270,
      "Şark": 6271,
      "Vakfı": 6272,
      "Üçüncü": 6273,
      "hakkı": 6274,
      "ello": 6275,
      "iyileş": 6276,
      "filmde": 6277,
      "analiz": 6278,
      "Ca": 6279,
      "bisiklet": 6280,
      "liğinden": 6281,
      "Dam": 6282,
      "şampiyonu": 6283,
      "ciddi": 6284,
      "köyü": 6285,
      "chester": 6286,
      "Kış": 6287,
      "Aster": 6288,
      "hidro": 6289,
      "Hon": 6290,
      "kimyasal": 6291,
      "gerekir": 6292,
      "mesinin": 6293,
      "Ep": 6294,
      "Champion": 6295,
      "önünde": 6296,
      "dıkları": 6297,
      "şif": 6298,
      "ortadan": 6299,
      "gider": 6300,
      "biçimde": 6301,
      "oma": 6302,
      "yansı": 6303,
      "ogle": 6304,
      "cük": 6305,
      "muhtemelen": 6306,
      "gül": 6307,
      "Mont": 6308,
      "kulübünde": 6309,
      "çekim": 6310,
      "ensis": 6311,
      "rolünde": 6312,
      "hor": 6313,
      "Birçok": 6314,
      "dakika": 6315,
      "büyü": 6316,
      "Sir": 6317,
      "yaparak": 6318,
      "ble": 6319,
      "mür": 6320,
      "laz": 6321,
      "emli": 6322,
      "hu": 6323,
      "dey": 6324,
      "Ür": 6325,
      "Gram": 6326,
      "Atlan": 6327,
      "ebi": 6328,
      "etkileş": 6329,
      "Şen": 6330,
      "Antlaşması": 6331,
      "Arnavutluk": 6332,
      "ous": 6333,
      "Mid": 6334,
      "led": 6335,
      "eddin": 6336,
      "Kırım": 6337,
      "Okyan": 6338,
      "serisi": 6339,
      "üretic": 6340,
      "elerden": 6341,
      "luğunu": 6342,
      "itan": 6343,
      "düşür": 6344,
      "seçimlerinde": 6345,
      "gümüş": 6346,
      "ilçesi": 6347,
      "başardı": 6348,
      "Lar": 6349,
      "eserleri": 6350,
      "çekilmiş": 6351,
      "kullanılabilir": 6352,
      "Hacı": 6353,
      "Güvenlik": 6354,
      "müsabak": 6355,
      "Bob": 6356,
      "Kullan": 6357,
      "raj": 6358,
      "ilme": 6359,
      "dolayısıyla": 6360,
      "ão": 6361,
      "Johan": 6362,
      "Değ": 6363,
      "Dört": 6364,
      "Koca": 6365,
      "uke": 6366,
      "yoloj": 6367,
      "dalg": 6368,
      "örü": 6369,
      "liste": 6370,
      "aster": 6371,
      "Babası": 6372,
      "şef": 6373,
      "Laz": 6374,
      "ikal": 6375,
      "Lak": 6376,
      "döv": 6377,
      "iktidar": 6378,
      "Live": 6379,
      "Mahkem": 6380,
      "Hit": 6381,
      "niş": 6382,
      "Indi": 6383,
      "Kutsal": 6384,
      "henüz": 6385,
      "Univer": 6386,
      "güncel": 6387,
      "Afgan": 6388,
      "akademisyen": 6389,
      "aksine": 6390,
      "festiv": 6391,
      "Şu": 6392,
      "park": 6393,
      "kalp": 6394,
      "İnternet": 6395,
      "Premier": 6396,
      "çilik": 6397,
      "prof": 6398,
      "Alp": 6399,
      "kapsamında": 6400,
      "emiş": 6401,
      "Savunma": 6402,
      "taşındı": 6403,
      "81": 6404,
      "kalmıştır": 6405,
      "sıralam": 6406,
      "çıkardı": 6407,
      "yörün": 6408,
      "müda": 6409,
      "aslında": 6410,
      "Mimar": 6411,
      "ado": 6412,
      "gereken": 6413,
      "versiyonu": 6414,
      "maçına": 6415,
      "süper": 6416,
      "win": 6417,
      "kurucusu": 6418,
      "lish": 6419,
      "ıyla": 6420,
      "91": 6421,
      "Gölü": 6422,
      "ımıyla": 6423,
      "alama": 6424,
      "Büyükşehir": 6425,
      "Metro": 6426,
      "ente": 6427,
      "Mezarlığı": 6428,
      "kurgu": 6429,
      "toplantı": 6430,
      "taht": 6431,
      "tedavi": 6432,
      "köyler": 6433,
      "mun": 6434,
      "avan": 6435,
      "cılığı": 6436,
      "Billboard": 6437,
      "rac": 6438,
      "Viyana": 6439,
      "Jim": 6440,
      "ehr": 6441,
      "elidir": 6442,
      "Ardından": 6443,
      "Olay": 6444,
      "Fas": 6445,
      "play": 6446,
      "aray": 6447,
      "Orhan": 6448,
      "eline": 6449,
      "edilebilir": 6450,
      "takv": 6451,
      "Kraliyet": 6452,
      "DE": 6453,
      "tıktan": 6454,
      "liğinin": 6455,
      "71": 6456,
      "vb": 6457,
      "kuvvetleri": 6458,
      "portaj": 6459,
      "Bilgi": 6460,
      "Bilin": 6461,
      "adayı": 6462,
      "mor": 6463,
      "paz": 6464,
      "Night": 6465,
      "üttefik": 6466,
      "ağın": 6467,
      "sonradan": 6468,
      "filozof": 6469,
      "kuy": 6470,
      "AC": 6471,
      "biraz": 6472,
      "Bran": 6473,
      "Camp": 6474,
      "karbon": 6475,
      "düştü": 6476,
      "idam": 6477,
      "güneyinde": 6478,
      "ağına": 6479,
      "İsa": 6480,
      "iği": 6481,
      "lası": 6482,
      "Komitesi": 6483,
      "Hu": 6484,
      "Hizmet": 6485,
      "Eskiş": 6486,
      "Trans": 6487,
      "yönetmeni": 6488,
      "imal": 6489,
      "83": 6490,
      "urg": 6491,
      "ograp": 6492,
      "faktör": 6493,
      "rown": 6494,
      "incelem": 6495,
      "protest": 6496,
      "rimi": 6497,
      "anıt": 6498,
      "Eskişehir": 6499,
      "elendir": 6500,
      "dy": 6501,
      "leyic": 6502,
      "kanser": 6503,
      "özelliği": 6504,
      "ıkları": 6505,
      "ii": 6506,
      "tesis": 6507,
      "ava": 6508,
      "ılıp": 6509,
      "sürdü": 6510,
      "yayınlar": 6511,
      "çekildi": 6512,
      "Post": 6513,
      "Sus": 6514,
      "aracı": 6515,
      "kemer": 6516,
      "molek": 6517,
      "Google": 6518,
      "çözüm": 6519,
      "sy": 6520,
      "hac": 6521,
      "çevre": 6522,
      "geliştirilen": 6523,
      "Zey": 6524,
      "büny": 6525,
      "Napol": 6526,
      "karmaşık": 6527,
      "ulaşım": 6528,
      "restor": 6529,
      "ahtar": 6530,
      "fay": 6531,
      "Tekn": 6532,
      "Filmin": 6533,
      "Ec": 6534,
      "edia": 6535,
      "almaya": 6536,
      "önde": 6537,
      "kurt": 6538,
      "unlu": 6539,
      "ülasyon": 6540,
      "Sand": 6541,
      "gon": 6542,
      "Mars": 6543,
      "arz": 6544,
      "türleri": 6545,
      "tören": 6546,
      "Havalimanı": 6547,
      "Doğan": 6548,
      "babasının": 6549,
      "Jackson": 6550,
      "seçilmiştir": 6551,
      "omat": 6552,
      "Bugün": 6553,
      "978": 6554,
      "73": 6555,
      "İlçe": 6556,
      "Oran": 6557,
      "Kariyer": 6558,
      "Nov": 6559,
      "Chicago": 6560,
      "ışma": 6561,
      "alılar": 6562,
      "Erdoğan": 6563,
      "Ölümü": 6564,
      "die": 6565,
      "Fen": 6566,
      "person": 6567,
      "Saray": 6568,
      "giderek": 6569,
      "gor": 6570,
      "birden": 6571,
      "Entertain": 6572,
      "barındır": 6573,
      "bunların": 6574,
      "aklı": 6575,
      "eksik": 6576,
      "parishler": 6577,
      "kıl": 6578,
      "durumunda": 6579,
      "çalışır": 6580,
      "Club": 6581,
      "mp": 6582,
      "Polonyalı": 6583,
      "yandan": 6584,
      "bec": 6585,
      "iklim": 6586,
      "Kazakistan": 6587,
      "buldu": 6588,
      "kurulu": 6589,
      "Birleşmiş": 6590,
      "Gazi": 6591,
      "ölçüm": 6592,
      "halkı": 6593,
      "galibiyet": 6594,
      "yüzünden": 6595,
      "hafız": 6596,
      "ografik": 6597,
      "platform": 6598,
      "tansiy": 6599,
      "göm": 6600,
      "Hall": 6601,
      "Football": 6602,
      "prote": 6603,
      "Kurtuluş": 6604,
      "etki": 6605,
      "ville": 6606,
      "liye": 6607,
      "görüle": 6608,
      "sarı": 6609,
      "Bart": 6610,
      "ilerde": 6611,
      "imzaladı": 6612,
      "akış": 6613,
      "gazeteci": 6614,
      "büyüm": 6615,
      "uml": 6616,
      "unsur": 6617,
      "teşvik": 6618,
      "takımları": 6619,
      "heim": 6620,
      "seyahat": 6621,
      "Selçuklu": 6622,
      "ulmuş": 6623,
      "temiz": 6624,
      "katılımcı": 6625,
      "ico": 6626,
      "aga": 6627,
      "altındaki": 6628,
      "yetkil": 6629,
      "avukat": 6630,
      "well": 6631,
      "Hollandalı": 6632,
      "başlamış": 6633,
      "Pi": 6634,
      "Rep": 6635,
      "ilişkili": 6636,
      "Lad": 6637,
      "duyurdu": 6638,
      "Bosna": 6639,
      "zade": 6640,
      "edilenler": 6641,
      "abileceği": 6642,
      "Topluluğu": 6643,
      "günde": 6644,
      "piyan": 6645,
      "isar": 6646,
      "VID": 6647,
      "karşılaştır": 6648,
      "alardan": 6649,
      "Ticaret": 6650,
      "Entertainment": 6651,
      "ider": 6652,
      "geçici": 6653,
      "Ülk": 6654,
      "Karl": 6655,
      "Fred": 6656,
      "hoş": 6657,
      "Hab": 6658,
      "Bet": 6659,
      "ugh": 6660,
      "numaralı": 6661,
      "Fab": 6662,
      "figür": 6663,
      "anlamlara": 6664,
      "alyası": 6665,
      "avatan": 6666,
      "lenmektedir": 6667,
      "Andro": 6668,
      "1913": 6669,
      "eyle": 6670,
      "Ara": 6671,
      "evlilik": 6672,
      "mesaj": 6673,
      "Carl": 6674,
      "bilgiler": 6675,
      "noktası": 6676,
      "karakterler": 6677,
      "Philip": 6678,
      "besi": 6679,
      "Maria": 6680,
      "metr": 6681,
      "hızla": 6682,
      "kayıp": 6683,
      "gerektiğini": 6684,
      "Mersin": 6685,
      "buk": 6686,
      "zamanlar": 6687,
      "ason": 6688,
      "onur": 6689,
      "zafer": 6690,
      "yardımcısı": 6691,
      "ikler": 6692,
      "Çanakkale": 6693,
      "Bost": 6694,
      "ax": 6695,
      "kontluğunda": 6696,
      "Stal": 6697,
      "tures": 6698,
      "Kazanan": 6699,
      "çeş": 6700,
      "giydi": 6701,
      "likleri": 6702,
      "COVID": 6703,
      "kullanılarak": 6704,
      "gelişim": 6705,
      "yeşil": 6706,
      "teknoloj": 6707,
      "ding": 6708,
      "MHP": 6709,
      "She": 6710,
      "Fizik": 6711,
      "işkin": 6712,
      "antren": 6713,
      "Bes": 6714,
      "elinde": 6715,
      "tehdit": 6716,
      "1915": 6717,
      "AS": 6718,
      "uf": 6719,
      "Sm": 6720,
      "muhareb": 6721,
      "leh": 6722,
      "ilmesini": 6723,
      "devrim": 6724,
      "mahk": 6725,
      "demokrat": 6726,
      "Britan": 6727,
      "Dip": 6728,
      "başkanları": 6729,
      "prens": 6730,
      "ever": 6731,
      "areti": 6732,
      "Tes": 6733,
      "cının": 6734,
      "oluştuğu": 6735,
      "class": 6736,
      "ikili": 6737,
      "gerçekleştirilen": 6738,
      "düzenli": 6739,
      "okrasi": 6740,
      "rum": 6741,
      "metro": 6742,
      "CE": 6743,
      "kulüpleri": 6744,
      "Disk": 6745,
      "benzeri": 6746,
      "ock": 6747,
      "Motor": 6748,
      "abilmektedir": 6749,
      "Time": 6750,
      "koru": 6751,
      "gazetec": 6752,
      "dalında": 6753,
      "nedeni": 6754,
      "kitapları": 6755,
      "yayınlan": 6756,
      "Amerikalılar": 6757,
      "yaşındayken": 6758,
      "Just": 6759,
      "Sec": 6760,
      "eyrek": 6761,
      "Die": 6762,
      "subu": 6763,
      "yarım": 6764,
      "Galeri": 6765,
      "undaki": 6766,
      "Up": 6767,
      "kullanır": 6768,
      "kimya": 6769,
      "sahipti": 6770,
      "bridge": 6771,
      "Yağ": 6772,
      "ayla": 6773,
      "yukarı": 6774,
      "Kulübü": 6775,
      "Eleştir": 6776,
      "telefon": 6777,
      "ture": 6778,
      "koruma": 6779,
      "ted": 6780,
      "1916": 6781,
      "mensubu": 6782,
      "finale": 6783,
      "Jer": 6784,
      "Solan": 6785,
      "sia": 6786,
      "Balıkesir": 6787,
      "Apple": 6788,
      "ations": 6789,
      "sında": 6790,
      "amin": 6791,
      "köprü": 6792,
      "Kum": 6793,
      "ool": 6794,
      "karşın": 6795,
      "RD": 6796,
      "ederken": 6797,
      "Prix": 6798,
      "Stadyumu": 6799,
      "Pir": 6800,
      "katı": 6801,
      "Makedonya": 6802,
      "Abdullah": 6803,
      "atuvar": 6804,
      "pir": 6805,
      "lemesi": 6806,
      "adası": 6807,
      "aci": 6808,
      "hr": 6809,
      "ayasa": 6810,
      "sinem": 6811,
      "Nar": 6812,
      "hatır": 6813,
      "Dol": 6814,
      "amaçlı": 6815,
      "oo": 6816,
      "oynayan": 6817,
      "kulübü": 6818,
      "hafaz": 6819,
      "Donan": 6820,
      "emez": 6821,
      "çalıştır": 6822,
      "Uzay": 6823,
      "Sı": 6824,
      "Adı": 6825,
      "gelecek": 6826,
      "cası": 6827,
      "çalışması": 6828,
      "ettiğini": 6829,
      "rez": 6830,
      "listeleri": 6831,
      "edildiği": 6832,
      "edecek": 6833,
      "ordin": 6834,
      "vanı": 6835,
      "landığı": 6836,
      "boğ": 6837,
      "sözleş": 6838,
      "şüp": 6839,
      "toplamda": 6840,
      "sıcaklık": 6841,
      "Koz": 6842,
      "Sci": 6843,
      "sistemleri": 6844,
      "DNA": 6845,
      "şap": 6846,
      "lenin": 6847,
      ".'": 6848,
      "eserler": 6849,
      "sonu": 6850,
      "potansiy": 6851,
      "mağlup": 6852,
      "şer": 6853,
      "ilendir": 6854,
      "mücadel": 6855,
      "Defans": 6856,
      "erdi": 6857,
      "dayalı": 6858,
      "ilmesine": 6859,
      "avuz": 6860,
      "adiş": 6861,
      "odoks": 6862,
      "Hırvatistan": 6863,
      "Sum": 6864,
      "soya": 6865,
      "endüstr": 6866,
      "120": 6867,
      "yazılmış": 6868,
      "davet": 6869,
      "ırk": 6870,
      "elikle": 6871,
      "Kütüphan": 6872,
      "ety": 6873,
      "(;": 6874,
      "biz": 6875,
      "Cad": 6876,
      "USS": 6877,
      "olmadan": 6878,
      "KK": 6879,
      "umsuz": 6880,
      "öğrenciler": 6881,
      "elektronik": 6882,
      "Ron": 6883,
      "ışın": 6884,
      "kadros": 6885,
      "Simon": 6886,
      "gat": 6887,
      "birbirine": 6888,
      "Türkç": 6889,
      "Scott": 6890,
      "Soy": 6891,
      "iber": 6892,
      "animasyon": 6893,
      "Port": 6894,
      "Out": 6895,
      "aydın": 6896,
      "gösterildi": 6897,
      "Katalog": 6898,
      "lüğünü": 6899,
      "Fried": 6900,
      "niyet": 6901,
      "Şam": 6902,
      "Britanyalı": 6903,
      "İşçi": 6904,
      "semt": 6905,
      "osh": 6906,
      "birimi": 6907,
      "Siyasi": 6908,
      "koz": 6909,
      "öğrenci": 6910,
      "röportaj": 6911,
      "reklam": 6912,
      "sergil": 6913,
      "1908": 6914,
      "organizasyon": 6915,
      "gerilim": 6916,
      "Çay": 6917,
      "yerli": 6918,
      "mamıştır": 6919,
      "Will": 6920,
      "aran": 6921,
      "ölümü": 6922,
      "Oh": 6923,
      "farklılık": 6924,
      "ques": 6925,
      "tihar": 6926,
      "Selim": 6927,
      "aboratuvar": 6928,
      "Song": 6929,
      "iantep": 6930,
      "ayir": 6931,
      "Pers": 6932,
      "anlay": 6933,
      "açıldı": 6934,
      "hastan": 6935,
      "Clar": 6936,
      "agu": 6937,
      "vermek": 6938,
      "Blo": 6939,
      "Cha": 6940,
      "erkes": 6941,
      "Gaziantep": 6942,
      "Anavatan": 6943,
      "gruplar": 6944,
      "göçmen": 6945,
      "Rey": 6946,
      "zırh": 6947,
      "Nişanı": 6948,
      "ilerle": 6949,
      "parlak": 6950,
      "ilenin": 6951,
      "Onur": 6952,
      "haned": 6953,
      "belediyeleri": 6954,
      "alfab": 6955,
      "size": 6956,
      "Bundes": 6957,
      "1910": 6958,
      "Kayseri": 6959,
      "belgesel": 6960,
      "bağlıdır": 6961,
      "göv": 6962,
      "peş": 6963,
      "kapasit": 6964,
      "emekli": 6965,
      "tablo": 6966,
      "sene": 6967,
      "SED": 6968,
      "alanan": 6969,
      "Yapım": 6970,
      "Oxford": 6971,
      "Lor": 6972,
      "kaçır": 6973,
      "mektup": 6974,
      "Körf": 6975,
      "Law": 6976,
      "dost": 6977,
      "Genellikle": 6978,
      "Green": 6979,
      "bıraktı": 6980,
      "madığı": 6981,
      "olumlu": 6982,
      "Filip": 6983,
      "lic": 6984,
      "dırım": 6985,
      "Pin": 6986,
      "teleskopla": 6987,
      "ilişki": 6988,
      "kazananlar": 6989,
      "port": 6990,
      "klip": 6991,
      "had": 6992,
      "istifa": 6993,
      "Pakistan": 6994,
      "çök": 6995,
      "kun": 6996,
      "Zen": 6997,
      "Dön": 6998,
      "Ekonomi": 6999,
      "ete": 7000,
      "meclis": 7001,
      "TÜ": 7002,
      "Litvanya": 7003,
      "Kudüs": 7004,
      "bro": 7005,
      "Kalesi": 7006,
      "otob": 7007,
      "hab": 7008,
      "Williams": 7009,
      "Görev": 7010,
      "Gençlik": 7011,
      "eji": 7012,
      "efsan": 7013,
      "Çu": 7014,
      "\"'": 7015,
      "programları": 7016,
      "sözcü": 7017,
      "Haw": 7018,
      "geçmiştir": 7019,
      "alanları": 7020,
      "lot": 7021,
      "VD": 7022,
      "Lüb": 7023,
      "günümüze": 7024,
      "Vlad": 7025,
      "sinir": 7026,
      "Yüzölçümü": 7027,
      "Meg": 7028,
      "Öğret": 7029,
      "önceden": 7030,
      "etler": 7031,
      "une": 7032,
      "Royal": 7033,
      "TRT": 7034,
      "ison": 7035,
      "ition": 7036,
      "Tunus": 7037,
      "IM": 7038,
      "Aj": 7039,
      "yarg": 7040,
      "Vad": 7041,
      "dünyas": 7042,
      "ğünü": 7043,
      "hasar": 7044,
      "Gökyüzünde": 7045,
      "ımız": 7046,
      "Sekret": 7047,
      "Hip": 7048,
      "kia": 7049,
      "dijital": 7050,
      "tahta": 7051,
      "beşinci": 7052,
      "ekler": 7053,
      "lal": 7054,
      "ardin": 7055,
      "girmiştir": 7056,
      "How": 7057,
      "küresel": 7058,
      "vermektedir": 7059,
      "Cezayir": 7060,
      "Hil": 7061,
      "ayıp": 7062,
      "Ceph": 7063,
      "Altı": 7064,
      "İlç": 7065,
      "SEDS": 7066,
      "Kaya": 7067,
      "beğ": 7068,
      "150": 7069,
      "basketbolcular": 7070,
      "Oli": 7071,
      "Edir": 7072,
      "evinde": 7073,
      "yaşanan": 7074,
      "maruz": 7075,
      "ayrılır": 7076,
      "gia": 7077,
      "Parkı": 7078,
      "ardo": 7079,
      "ther": 7080,
      "Baba": 7081,
      "YP": 7082,
      "incir": 7083,
      "tüket": 7084,
      "Berk": 7085,
      "direktörler": 7086,
      "lenebilir": 7087,
      "Yazar": 7088,
      "kilise": 7089,
      "görülmektedir": 7090,
      "çıkart": 7091,
      "ailesinin": 7092,
      "bot": 7093,
      "füz": 7094,
      "adağ": 7095,
      "komutanı": 7096,
      "Yardımcı": 7097,
      "yönel": 7098,
      "yir": 7099,
      "sizlik": 7100,
      "birlikleri": 7101,
      "Resmî": 7102,
      "teşkil": 7103,
      "Station": 7104,
      "Bakü": 7105,
      "kus": 7106,
      "asi": 7107,
      "Karşı": 7108,
      "katılım": 7109,
      "halka": 7110,
      "lendirme": 7111,
      "DS": 7112,
      "lum": 7113,
      "ayarak": 7114,
      "Etap": 7115,
      "gn": 7116,
      "dök": 7117,
      "Alexander": 7118,
      "arttır": 7119,
      "Fac": 7120,
      "bölgeye": 7121,
      "imari": 7122,
      "steri": 7123,
      "dilleri": 7124,
      "dayanan": 7125,
      "sürül": 7126,
      "çerçe": 7127,
      "kişidir": 7128,
      "unk": 7129,
      "desteği": 7130,
      "darı": 7131,
      "yaklaşım": 7132,
      "gerçekleşen": 7133,
      "isindeki": 7134,
      "katkıda": 7135,
      "Hill": 7136,
      "işli": 7137,
      "Örgüt": 7138,
      "birisi": 7139,
      "ré": 7140,
      "ağının": 7141,
      "Gab": 7142,
      "Harry": 7143,
      "Atina": 7144,
      "vide": 7145,
      "ydi": 7146,
      "desteğ": 7147,
      "Forvet": 7148,
      "dalga": 7149,
      "Luc": 7150,
      "font": 7151,
      "Ortodoks": 7152,
      "Gerçek": 7153,
      "History": 7154,
      "yaprak": 7155,
      "ahat": 7156,
      "abeth": 7157,
      "Yaşam": 7158,
      "flor": 7159,
      "İh": 7160,
      "petrol": 7161,
      "liliği": 7162,
      "organiz": 7163,
      "dizisinde": 7164,
      "demiryolu": 7165,
      "başlandı": 7166,
      "İlin": 7167,
      "Ever": 7168,
      "kaps": 7169,
      "modeli": 7170,
      "Hun": 7171,
      "ücut": 7172,
      "tabl": 7173,
      "Yukarı": 7174,
      "halif": 7175,
      "saç": 7176,
      "Ask": 7177,
      "lasman": 7178,
      "Len": 7179,
      "Lam": 7180,
      "bakış": 7181,
      "ies": 7182,
      "Kupa": 7183,
      "Tut": 7184,
      "ecektir": 7185,
      "sınırlı": 7186,
      "AR": 7187,
      "Pierre": 7188,
      "İttifak": 7189,
      "Sını": 7190,
      "sürdürdü": 7191,
      "lanabilir": 7192,
      "böyle": 7193,
      "sonuna": 7194,
      "Young": 7195,
      "geldiği": 7196,
      "Özbek": 7197,
      "alli": 7198,
      "ов": 7199,
      "adlandırılır": 7200,
      "denklem": 7201,
      "Solanum": 7202,
      "hayatta": 7203,
      "bitirdi": 7204,
      "Jones": 7205,
      "Gold": 7206,
      "Haber": 7207,
      "kilometre": 7208,
      "familyasıdır": 7209,
      "work": 7210,
      "imin": 7211,
      "oldukları": 7212,
      "BBC": 7213,
      "Gelen": 7214,
      "Reg": 7215,
      "rısı": 7216,
      "korku": 7217,
      "Organ": 7218,
      "Form": 7219,
      "Vas": 7220,
      "ando": 7221,
      "gemi": 7222,
      "ismini": 7223,
      "key": 7224,
      "ER": 7225,
      "DF": 7226,
      "sarmal": 7227,
      "besteci": 7228,
      "uva": 7229,
      "onlara": 7230,
      "FE0000": 7231,
      "bölümleri": 7232,
      "nie": 7233,
      "anime": 7234,
      "yetk": 7235,
      "aff": 7236,
      "ology": 7237,
      "Mis": 7238,
      "genelde": 7239,
      "tapın": 7240,
      "Milletve": 7241,
      "toplumsal": 7242,
      "{|": 7243,
      "aspor": 7244,
      "görevlendir": 7245,
      "ting": 7246,
      "Jen": 7247,
      "alternatif": 7248,
      "edip": 7249,
      "Que": 7250,
      "chel": 7251,
      "suyu": 7252,
      "Manchester": 7253,
      "alandır": 7254,
      "katıldığı": 7255,
      "ets": 7256,
      "üniversite": 7257,
      "Uygul": 7258,
      "karakteri": 7259,
      "istih": 7260,
      "Devrim": 7261,
      "anahtar": 7262,
      "1911": 7263,
      "çılık": 7264,
      "Bundesliga": 7265,
      "süs": 7266,
      "adişah": 7267,
      "ılığında": 7268,
      "Seb": 7269,
      "Öl": 7270,
      "Compan": 7271,
      "Suudi": 7272,
      "Çam": 7273,
      "cilt": 7274,
      "Ran": 7275,
      "dağılım": 7276,
      "bronz": 7277,
      "mond": 7278,
      "Kurumu": 7279,
      "God": 7280,
      "Erken": 7281,
      "pag": 7282,
      "yakınlarında": 7283,
      "öde": 7284,
      "Halil": 7285,
      "yayınlanmıştır": 7286,
      "bölgenin": 7287,
      "artış": 7288,
      "iğ": 7289,
      "mışlardır": 7290,
      "Bankası": 7291,
      "Cast": 7292,
      "uşu": 7293,
      "Vin": 7294,
      "Pub": 7295,
      "ölü": 7296,
      "Sinan": 7297,
      "ilerden": 7298,
      "Ail": 7299,
      "wik": 7300,
      "kân": 7301,
      "Başarıları": 7302,
      "Tatar": 7303,
      "biyatı": 7304,
      "evin": 7305,
      "çılar": 7306,
      "azın": 7307,
      "BC": 7308,
      "viz": 7309,
      "Hik": 7310,
      "mülk": 7311,
      "işletim": 7312,
      "ody": 7313,
      "otel": 7314,
      "Bül": 7315,
      "ution": 7316,
      "biriydi": 7317,
      "dun": 7318,
      "beden": 7319,
      "oid": 7320,
      "yetiş": 7321,
      "ides": 7322,
      "festival": 7323,
      "yaşamı": 7324,
      "Radyo": 7325,
      "aksiyon": 7326,
      "Sarayı": 7327,
      "1900": 7328,
      "değeri": 7329,
      "doğrul": 7330,
      "Yarım": 7331,
      "sezonda": 7332,
      "Güç": 7333,
      "Yugoslavya": 7334,
      "Albert": 7335,
      "Pazar": 7336,
      "Devrimi": 7337,
      "uygulama": 7338,
      "dile": 7339,
      "omik": 7340,
      "uzunluğunda": 7341,
      "malıdır": 7342,
      "Brown": 7343,
      "Emin": 7344,
      "ilerinde": 7345,
      "ert": 7346,
      "atya": 7347,
      "ibe": 7348,
      "ulmuştur": 7349,
      "Anne": 7350,
      "Dük": 7351,
      "Sing": 7352,
      "Arth": 7353,
      "olaylar": 7354,
      "başkent": 7355,
      "albümün": 7356,
      "bunlar": 7357,
      "tipik": 7358,
      "sının": 7359,
      "anne": 7360,
      "Nij": 7361,
      "yönetmenliğini": 7362,
      "Seçim": 7363,
      "rick": 7364,
      "ıf": 7365,
      "onik": 7366,
      "Avustralyalı": 7367,
      "Gön": 7368,
      "tarihsel": 7369,
      "abileceğini": 7370,
      "Latince": 7371,
      "Bra": 7372,
      "Tol": 7373,
      "tamamlanan": 7374,
      "bastır": 7375,
      "Cl": 7376,
      "aralarında": 7377,
      "yakıt": 7378,
      "ept": 7379,
      "akade": 7380,
      "zamanlarda": 7381,
      "bayrak": 7382,
      "başladığı": 7383,
      "Farsça": 7384,
      "Azeri": 7385,
      "vit": 7386,
      "akya": 7387,
      "lise": 7388,
      "tuz": 7389,
      "prodük": 7390,
      "dokuz": 7391,
      "Arabistan": 7392,
      "araştırmacı": 7393,
      "halde": 7394,
      "parçacık": 7395,
      "Nin": 7396,
      "sıvı": 7397,
      "Çar": 7398,
      "AT": 7399,
      "Cambridge": 7400,
      "okum": 7401,
      "mahkem": 7402,
      "Bad": 7403,
      "'''": 7404,
      "renkli": 7405,
      "https": 7406,
      "üyordu": 7407,
      "Nam": 7408,
      "ds": 7409,
      "kendisinin": 7410,
      "Pav": 7411,
      "urus": 7412,
      "him": 7413,
      "varlığı": 7414,
      "Sas": 7415,
      "üri": 7416,
      "Bru": 7417,
      "ekibi": 7418,
      "Evli": 7419,
      "But": 7420,
      "gerçekleşti": 7421,
      "tanış": 7422,
      "nükleer": 7423,
      "ular": 7424,
      "Vit": 7425,
      "aşı": 7426,
      "maçları": 7427,
      "sözcük": 7428,
      "nah": 7429,
      "hareketi": 7430,
      "”,": 7431,
      "olanak": 7432,
      "sınıfı": 7433,
      "Uluslar": 7434,
      "rep": 7435,
      "Hap": 7436,
      "lip": 7437,
      "liğindeki": 7438,
      "kül": 7439,
      "ıldığında": 7440,
      "bitk": 7441,
      "Kong": 7442,
      "Fakültesinde": 7443,
      "bbi": 7444,
      "Hum": 7445,
      "low": 7446,
      "Hein": 7447,
      "Vi": 7448,
      "Teş": 7449,
      "aziz": 7450,
      "gers": 7451,
      "Android": 7452,
      "kaybol": 7453,
      "Yaban": 7454,
      "teorisi": 7455,
      "imir": 7456,
      "Sade": 7457,
      "soğuk": 7458,
      "estra": 7459,
      "Bus": 7460,
      "politikacı": 7461,
      "Mahkemesi": 7462,
      "çay": 7463,
      "Afrikalı": 7464,
      "incelen": 7465,
      "Ener": 7466,
      "kolon": 7467,
      "Dağları": 7468,
      "ekleri": 7469,
      "seyir": 7470,
      "defnedilenler": 7471,
      "Viet": 7472,
      "Ze": 7473,
      "Bre": 7474,
      "komşu": 7475,
      "Hans": 7476,
      "gy": 7477,
      "sinyal": 7478,
      "August": 7479,
      "pozit": 7480,
      "lerdi": 7481,
      "silahlı": 7482,
      "alınmıştır": 7483,
      "Kastam": 7484,
      "yüzü": 7485,
      "Boğaz": 7486,
      "itar": 7487,
      "Gor": 7488,
      "ons": 7489,
      "ağında": 7490,
      "ceza": 7491,
      "Çık": 7492,
      "Manisa": 7493,
      "rab": 7494,
      "resi": 7495,
      "Mağ": 7496,
      "gazete": 7497,
      "Ateş": 7498,
      "ikleri": 7499,
      "kısıt": 7500,
      "çekti": 7501,
      "filmidir": 7502,
      "tüf": 7503,
      "hisar": 7504,
      "Şiir": 7505,
      "özgü": 7506,
      "harit": 7507,
      "piskop": 7508,
      "awa": 7509,
      "çocukları": 7510,
      "ölümüne": 7511,
      "doğa": 7512,
      "erkekler": 7513,
      "gelişmiş": 7514,
      "Şahin": 7515,
      "Sok": 7516,
      "ıma": 7517,
      "büyükel": 7518,
      "kıt": 7519,
      "nadir": 7520,
      "sezonun": 7521,
      "Madalya": 7522,
      "Best": 7523,
      "süresi": 7524,
      "odor": 7525,
      "Tasar": 7526,
      "komutan": 7527,
      "inşaat": 7528,
      "yüzde": 7529,
      "İsveçli": 7530,
      "Fot": 7531,
      "Ang": 7532,
      "Afganistan": 7533,
      "sürgün": 7534,
      "kullandığı": 7535,
      "değişken": 7536,
      "Dub": 7537,
      "rest": 7538,
      "PC": 7539,
      "korumak": 7540,
      "stadyum": 7541,
      "kaynakları": 7542,
      "Pot": 7543,
      "mişlerdir": 7544,
      "İskoçya": 7545,
      "gini": 7546,
      "Konser": 7547,
      "Ege": 7548,
      "isimler": 7549,
      "görür": 7550,
      "aska": 7551,
      "nesil": 7552,
      "eff": 7553,
      "formu": 7554,
      "London": 7555,
      "obi": 7556,
      "lemeye": 7557,
      "tabanlı": 7558,
      "mavi": 7559,
      "oğulları": 7560,
      "Ceza": 7561,
      "kazandır": 7562,
      "federasyon": 7563,
      "terör": 7564,
      "ören": 7565,
      "stratej": 7566,
      "yarışması": 7567,
      "servis": 7568,
      "gay": 7569,
      "çam": 7570,
      "Edirne": 7571,
      "Maz": 7572,
      "disi": 7573,
      "nel": 7574,
      "isteyen": 7575,
      "seçilen": 7576,
      "tris": 7577,
      "EC": 7578,
      "aittir": 7579,
      "hum": 7580,
      "rimiçi": 7581,
      "ía": 7582,
      "try": 7583,
      "dünyada": 7584,
      "Baz": 7585,
      "liman": 7586,
      "Arka": 7587,
      "Hac": 7588,
      "artan": 7589,
      "zamanında": 7590,
      "dışarı": 7591,
      "amo": 7592,
      "Euro": 7593,
      "kuz": 7594,
      "katılmıştır": 7595,
      "evlen": 7596,
      "yola": 7597,
      "cağını": 7598,
      "ücu": 7599,
      "etrafında": 7600,
      "WWE": 7601,
      "yolcu": 7602,
      "yürüy": 7603,
      "parlament": 7604,
      "opolis": 7605,
      "cal": 7606,
      "hatt": 7607,
      "deprem": 7608,
      "Ly": 7609,
      "Yerleş": 7610,
      "ölen": 7611,
      "profili": 7612,
      "hücre": 7613,
      "lamaya": 7614,
      "send": 7615,
      "grubunun": 7616,
      "Yazı": 7617,
      "kütle": 7618,
      "Good": 7619,
      "kons": 7620,
      "reh": 7621,
      "Anti": 7622,
      "yerleri": 7623,
      "traf": 7624,
      "ısındaki": 7625,
      "sezonunun": 7626,
      "tasvir": 7627,
      "grad": 7628,
      "Wolf": 7629,
      "visi": 7630,
      "eren": 7631,
      "1909": 7632,
      "LGBT": 7633,
      "Klasik": 7634,
      "Wood": 7635,
      "Championship": 7636,
      "takson": 7637,
      "Askeri": 7638,
      "elerle": 7639,
      "rakip": 7640,
      "DC": 7641,
      "SSCB": 7642,
      "komündür": 7643,
      "dası": 7644,
      "Pil": 7645,
      "oluşum": 7646,
      "Haçlı": 7647,
      "bayr": 7648,
      "cha": 7649,
      "gresi": 7650,
      "Voleybol": 7651,
      "Stand": 7652,
      "Madalyası": 7653,
      "sini": 7654,
      "şan": 7655,
      "ğun": 7656,
      "babasıdır": 7657,
      "çiçek": 7658,
      "ikast": 7659,
      "Che": 7660,
      "Dig": 7661,
      "Nil": 7662,
      "ğünde": 7663,
      "ğının": 7664,
      "|%": 7665,
      "kapalı": 7666,
      "zan": 7667,
      "uyucu": 7668,
      "taz": 7669,
      "ela": 7670,
      "usya": 7671,
      "anlaşma": 7672,
      "öval": 7673,
      "Tri": 7674,
      "Buz": 7675,
      "oksi": 7676,
      "takımlar": 7677,
      "tabak": 7678,
      "Company": 7679,
      "ette": 7680,
      "süreli": 7681,
      "Gençler": 7682,
      "Serie": 7683,
      "Onun": 7684,
      "koleksiyon": 7685,
      "Metin": 7686,
      "Oğuz": 7687,
      "ceph": 7688,
      "Grammy": 7689,
      "nö": 7690,
      "miktarda": 7691,
      "Prim": 7692,
      "ödülünü": 7693,
      "gut": 7694,
      "Eliz": 7695,
      "ordusunun": 7696,
      "sporcu": 7697,
      "Hanım": 7698,
      "bugünkü": 7699,
      "Sakarya": 7700,
      "alel": 7701,
      "karısı": 7702,
      "Beh": 7703,
      "Üniversite": 7704,
      "wor": 7705,
      "layıp": 7706,
      "IN": 7707,
      "Ödüller": 7708,
      "Kazan": 7709,
      "hakkındaki": 7710,
      "tanınan": 7711,
      "Katılım": 7712,
      "beklen": 7713,
      "kalma": 7714,
      "keşif": 7715,
      "başlıca": 7716,
      "birinin": 7717,
      "Sub": 7718,
      "barat": 7719,
      "üllü": 7720,
      "arşiv": 7721,
      "Hers": 7722,
      "oyunun": 7723,
      "İnc": 7724,
      "disk": 7725,
      "600": 7726,
      "cami": 7727,
      "romanları": 7728,
      "sağlaya": 7729,
      "larus": 7730,
      "Sonraki": 7731,
      "ales": 7732,
      "üman": 7733,
      "eşlik": 7734,
      "bakımından": 7735,
      "ürünleri": 7736,
      "E1": 7737,
      "taban": 7738,
      "Allah": 7739,
      "Zelanda": 7740,
      "Stre": 7741,
      "cinayet": 7742,
      "oman": 7743,
      "eck": 7744,
      "hayran": 7745,
      "Çeşit": 7746,
      "şehridir": 7747,
      "1907": 7748,
      "Federal": 7749,
      "Eserleri": 7750,
      "değildi": 7751,
      "iptal": 7752,
      "numaraya": 7753,
      "Sic": 7754,
      "vo": 7755,
      "Kanal": 7756,
      "yeterli": 7757,
      "nem": 7758,
      "sergilen": 7759,
      "lüğe": 7760,
      "Kastamonu": 7761,
      "Avusturyalı": 7762,
      "eğer": 7763,
      "intihar": 7764,
      "karıştır": 7765,
      "açıklandı": 7766,
      "Society": 7767,
      "senaryosunu": 7768,
      "hastalı": 7769,
      "Gam": 7770,
      "Nak": 7771,
      "idea": 7772,
      "ск": 7773,
      "eceği": 7774,
      "işler": 7775,
      "gönderildi": 7776,
      "altfamilyasına": 7777,
      "bus": 7778,
      "ulması": 7779,
      "seçen": 7780,
      "Kişisel": 7781,
      "sokak": 7782,
      "durumlarda": 7783,
      "Pren": 7784,
      "Kurgusal": 7785,
      "çevresinde": 7786,
      "Cre": 7787,
      "Hür": 7788,
      "Columb": 7789,
      "fred": 7790,
      "taarr": 7791,
      "Şirket": 7792,
      "boyu": 7793,
      "erisi": 7794,
      "senarist": 7795,
      "yonu": 7796,
      "Kes": 7797,
      "meydan": 7798,
      "uda": 7799,
      "Buff": 7800,
      "Anna": 7801,
      "böcek": 7802,
      "yaşlı": 7803,
      "Belarus": 7804,
      "soci": 7805,
      "Şeyh": 7806,
      "Santa": 7807,
      "azal": 7808,
      "üyesidir": 7809,
      "enz": 7810,
      "Başlangı": 7811,
      "Çel": 7812,
      "yargı": 7813,
      "görüldü": 7814,
      "Dun": 7815,
      "Kılıç": 7816,
      "nih": 7817,
      "Ner": 7818,
      "anlamda": 7819,
      "ılmasına": 7820,
      "vari": 7821,
      "Meydan": 7822,
      "Gil": 7823,
      "kısmen": 7824,
      "Um": 7825,
      "maden": 7826,
      "soruml": 7827,
      "dim": 7828,
      "antum": 7829,
      "Uğ": 7830,
      "ater": 7831,
      "College": 7832,
      "partiler": 7833,
      "Kütüphanesi": 7834,
      "Yıldırım": 7835,
      "tokol": 7836,
      "başlangıçta": 7837,
      "ovan": 7838,
      "geçerek": 7839,
      "yel": 7840,
      "yükselt": 7841,
      "iyer": 7842,
      "sürüldü": 7843,
      "maça": 7844,
      "yanıt": 7845,
      "yasası": 7846,
      "Bilinmiyor": 7847,
      "Aslan": 7848,
      "Sonr": 7849,
      "A7": 7850,
      "UC": 7851,
      "wig": 7852,
      "Ebu": 7853,
      "Fal": 7854,
      "Vietnam": 7855,
      "cht": 7856,
      "yazılı": 7857,
      "kırı": 7858,
      "Rem": 7859,
      "rüz": 7860,
      "lanarak": 7861,
      "Esp": 7862,
      "ikalı": 7863,
      "Yerli": 7864,
      "değişim": 7865,
      "finans": 7866,
      "tive": 7867,
      "sonuçlar": 7868,
      "House": 7869,
      "Temel": 7870,
      "Cephesi": 7871,
      "pref": 7872,
      "School": 7873,
      "Karadağ": 7874,
      "Atlet": 7875,
      "Friedrich": 7876,
      "Recep": 7877,
      "itable": 7878,
      "emir": 7879,
      "Şim": 7880,
      "Çerkes": 7881,
      "açılan": 7882,
      "öykü": 7883,
      "aşk": 7884,
      "Saadet": 7885,
      "hastalığı": 7886,
      "sanayi": 7887,
      "non": 7888,
      "lamış": 7889,
      "bulundur": 7890,
      "rul": 7891,
      "tarafında": 7892,
      "Rah": 7893,
      "özerk": 7894,
      "Down": 7895,
      "stem": 7896,
      "doldur": 7897,
      "inanç": 7898,
      "şak": 7899,
      "kalır": 7900,
      "olumsuz": 7901,
      "Özellik": 7902,
      "sisteminin": 7903,
      "Ein": 7904,
      "savaşı": 7905,
      "tezi": 7906,
      "rut": 7907,
      "Nokia": 7908,
      "şam": 7909,
      "unus": 7910,
      "halkın": 7911,
      "çan": 7912,
      "denet": 7913,
      "malarını": 7914,
      "tutar": 7915,
      "Helen": 7916,
      "ct": 7917,
      "ns": 7918,
      "LA": 7919,
      "mara": 7920,
      "olmam": 7921,
      "kontrolü": 7922,
      "Öğren": 7923,
      "sayfası": 7924,
      "karşılığında": 7925,
      "karşıtı": 7926,
      "verilm": 7927,
      "kıya": 7928,
      "uğraş": 7929,
      "açıdan": 7930,
      "PlayStation": 7931,
      "nez": 7932,
      "bünyesinde": 7933,
      "nitelendir": 7934,
      "ojen": 7935,
      "Nan": 7936,
      "köpek": 7937,
      "ligi": 7938,
      "opter": 7939,
      "statüsü": 7940,
      "süreci": 7941,
      "erişim": 7942,
      "cinsiyet": 7943,
      "üstlendi": 7944,
      "vası": 7945,
      "risk": 7946,
      "ailenin": 7947,
      "yenilen": 7948,
      "Vo": 7949,
      "mensup": 7950,
      "Polis": 7951,
      "cilerin": 7952,
      "bölgesel": 7953,
      "Konuyla": 7954,
      "komutasındaki": 7955,
      "Sof": 7956,
      "iyecek": 7957,
      "temsilcisi": 7958,
      "tarihlerinde": 7959,
      "Arthur": 7960,
      "Malatya": 7961,
      "Amatör": 7962,
      "yönlendir": 7963,
      "ülkelerde": 7964,
      "ayrımı": 7965,
      "kaydetti": 7966,
      "sürede": 7967,
      "ederler": 7968,
      "kuruluşu": 7969,
      "görsel": 7970,
      "Kanun": 7971,
      "Dizi": 7972,
      "osen": 7973,
      "Lübnan": 7974,
      "fiyat": 7975,
      "oynamıştır": 7976,
      "Yok": 7977,
      "rus": 7978,
      "rahatsız": 7979,
      "Boston": 7980,
      "White": 7981,
      "eğitimini": 7982,
      "Ky": 7983,
      "tarihte": 7984,
      "kişiden": 7985,
      "baskın": 7986,
      "DVD": 7987,
      "çeviri": 7988,
      "Bundan": 7989,
      "yayı": 7990,
      "cisimleri": 7991,
      "hattı": 7992,
      "emedi": 7993,
      "karışık": 7994,
      "olacaktır": 7995,
      "kurban": 7996,
      "Mass": 7997,
      "Kosova": 7998,
      "odi": 7999,
      "Sayısı": 8000,
      "rot": 8001,
      "SO": 8002,
      "çizg": 8003,
      "1000": 8004,
      "Holly": 8005,
      "vücut": 8006,
      "lesi": 8007,
      "Toprak": 8008,
      "110": 8009,
      "Diskografi": 8010,
      "birer": 8011,
      "Türkler": 8012,
      "Cur": 8013,
      "köyün": 8014,
      "eğlen": 8015,
      "Hersek": 8016,
      "ilerinden": 8017,
      "suy": 8018,
      "ancı": 8019,
      "wikitable": 8020,
      "Kazak": 8021,
      "Küb": 8022,
      "Mahall": 8023,
      "karakterleri": 8024,
      "Times": 8025,
      "Sloven": 8026,
      "bilm": 8027,
      "feth": 8028,
      "Papa": 8029,
      "Samsung": 8030,
      "tarzı": 8031,
      "bran": 8032,
      "dükten": 8033,
      "bı": 8034,
      "Eu": 8035,
      "France": 8036,
      "geçirdiği": 8037,
      "Had": 8038,
      "Ulu": 8039,
      "ğunda": 8040,
      "unvanı": 8041,
      "yatırım": 8042,
      "belirgin": 8043,
      "sıklıkla": 8044,
      "bölümde": 8045,
      "Teksas": 8046,
      "Tren": 8047,
      "İşlet": 8048,
      "toz": 8049,
      "Yerelnet": 8050,
      "ors": 8051,
      "Ortak": 8052,
      "slan": 8053,
      "Bölgesel": 8054,
      "avantaj": 8055,
      "görevine": 8056,
      "zirve": 8057,
      "çat": 8058,
      "yanına": 8059,
      "sitesinde": 8060,
      "ekonomi": 8061,
      "otomatik": 8062,
      "yazılmıştır": 8063,
      "maddesi": 8064,
      "Matematik": 8065,
      "Komutanlığı": 8066,
      "önüne": 8067,
      "başkanlık": 8068,
      "Tre": 8069,
      "box": 8070,
      "igan": 8071,
      "Işık": 8072,
      "Py": 8073,
      "Meslek": 8074,
      "önder": 8075,
      "Maur": 8076,
      "Bütün": 8077,
      "eo": 8078,
      "dergi": 8079,
      "türlü": 8080,
      "ross": 8081,
      "yaşamaktadır": 8082,
      "Dram": 8083,
      "Mr": 8084,
      "seviye": 8085,
      "Hüküm": 8086,
      "aleti": 8087,
      "şampiyonluğu": 8088,
      "yönetilen": 8089,
      "Exp": 8090,
      "Çünkü": 8091,
      "Sanayi": 8092,
      "MI": 8093,
      "şunlardır": 8094,
      "Listesi": 8095,
      "Eb": 8096,
      "Sadece": 8097,
      "Elizabeth": 8098,
      "denin": 8099,
      "1906": 8100,
      "performansı": 8101,
      "Tarım": 8102,
      "Sınıf": 8103,
      "geliştirme": 8104,
      "işbirliği": 8105,
      "ağız": 8106,
      "unvanını": 8107,
      "sig": 8108,
      "haft": 8109,
      "ekiplerinden": 8110,
      "1905": 8111,
      "Copa": 8112,
      "albümler": 8113,
      "aly": 8114,
      "ito": 8115,
      "Johnson": 8116,
      "Game": 8117,
      "reform": 8118,
      "dergisi": 8119,
      "South": 8120,
      "sta": 8121,
      "icial": 8122,
      "uyan": 8123,
      "prefektör": 8124,
      "seçimi": 8125,
      "şarap": 8126,
      "eman": 8127,
      "muhafaz": 8128,
      "Dream": 8129,
      "ump": 8130,
      "likler": 8131,
      "Artvin": 8132,
      "lez": 8133,
      "Jor": 8134,
      "ortasında": 8135,
      "yerler": 8136,
      "çekirdek": 8137,
      "sip": 8138,
      "çıktığı": 8139,
      "Wit": 8140,
      "ektif": 8141,
      "yenilg": 8142,
      "Ath": 8143,
      "PGC": 8144,
      "hom": 8145,
      "cho": 8146,
      "genetik": 8147,
      "Evren": 8148,
      "izmi": 8149,
      "turda": 8150,
      "sekret": 8151,
      "diğini": 8152,
      "hazırlık": 8153,
      "Laur": 8154,
      "Koç": 8155,
      "gâh": 8156,
      "Toplum": 8157,
      "Piyade": 8158,
      "zih": 8159,
      "konuk": 8160,
      "tamamı": 8161,
      "Silahlı": 8162,
      "gelmiş": 8163,
      "ılmasını": 8164,
      "Fox": 8165,
      "ista": 8166,
      "akademik": 8167,
      "büt": 8168,
      "Sanatlar": 8169,
      "By": 8170,
      "Yür": 8171,
      "şimdi": 8172,
      "Sig": 8173,
      "Münih": 8174,
      "teknoloji": 8175,
      "oyuna": 8176,
      "Det": 8177,
      "solo": 8178,
      "okun": 8179,
      "yapılması": 8180,
      "giller": 8181,
      "gerekç": 8182,
      "çiliği": 8183,
      "atıf": 8184,
      "XX": 8185,
      "Stev": 8186,
      "Sha": 8187,
      "kurtul": 8188,
      "Rize": 8189,
      "Francisco": 8190,
      "etmeyi": 8191,
      "rekabet": 8192,
      "pu": 8193,
      "ronik": 8194,
      "kendilerini": 8195,
      "250": 8196,
      "forvet": 8197,
      "asal": 8198,
      "wis": 8199,
      "GS": 8200,
      "bulut": 8201,
      "görünt": 8202,
      "okudu": 8203,
      "iyileştir": 8204,
      "Nijer": 8205,
      "024": 8206,
      "Bib": 8207,
      "uck": 8208,
      "ffff": 8209,
      "Galler": 8210,
      "hek": 8211,
      "pson": 8212,
      "terimi": 8213,
      "Ark": 8214,
      "anik": 8215,
      "ayolu": 8216,
      "Dic": 8217,
      "01A7": 8218,
      "01A7E1": 8219,
      "Tokat": 8220,
      "uçağı": 8221,
      "kıyısında": 8222,
      "imini": 8223,
      "taşıt": 8224,
      "yarışmacı": 8225,
      "olmakla": 8226,
      "liber": 8227,
      "geomet": 8228,
      "danışman": 8229,
      "düzenlendi": 8230,
      "EL": 8231,
      "ünc": 8232,
      "ımlı": 8233,
      "buluş": 8234,
      "tarihçi": 8235,
      "düşünülmektedir": 8236,
      "Joe": 8237,
      "memektedir": 8238,
      "ûm": 8239,
      "Bang": 8240,
      "ahya": 8241,
      "uzanan": 8242,
      "imza": 8243,
      "zamanlı": 8244,
      "Norman": 8245,
      "esnasında": 8246,
      "ayıcı": 8247,
      "romanı": 8248,
      "kuyruk": 8249,
      "Las": 8250,
      "Çak": 8251,
      "ayeti": 8252,
      "Büyükel": 8253,
      "önü": 8254,
      "müzikal": 8255,
      "olduktan": 8256,
      "Ligue": 8257,
      "mekteydi": 8258,
      "Bayram": 8259,
      "nar": 8260,
      "ittifak": 8261,
      "Temsil": 8262,
      "Wes": 8263,
      "ötürü": 8264,
      "Sonra": 8265,
      "şarkının": 8266,
      "GP": 8267,
      "Tru": 8268,
      "til": 8269,
      "hayatına": 8270,
      "Dik": 8271,
      "Maj": 8272,
      "yenerek": 8273,
      "seslendirme": 8274,
      "20001": 8275,
      "İmparatorluk": 8276,
      "uka": 8277,
      "latı": 8278,
      "ude": 8279,
      "bakanları": 8280,
      "gey": 8281,
      "baraj": 8282,
      "tit": 8283,
      "asist": 8284,
      "D20001": 8285,
      "Şili": 8286,
      "yazmıştır": 8287,
      "Taylor": 8288,
      "kazı": 8289,
      "reli": 8290,
      "komed": 8291,
      "tarihinin": 8292,
      "Gem": 8293,
      "sed": 8294,
      "aynalı": 8295,
      "İdari": 8296,
      "şeker": 8297,
      "derecede": 8298,
      "çoğunluğu": 8299,
      "Altay": 8300,
      "Model": 8301,
      "Şer": 8302,
      "şe": 8303,
      "Sant": 8304,
      "Marie": 8305,
      "çağdaş": 8306,
      "Team": 8307,
      "BS": 8308,
      "eygam": 8309,
      "oluşturmak": 8310,
      "Günü": 8311,
      "tanımlanan": 8312,
      "kapan": 8313,
      "Rek": 8314,
      "ien": 8315,
      "ekib": 8316,
      "Bunların": 8317,
      "Pres": 8318,
      "kanalı": 8319,
      "Cev": 8320,
      "vücu": 8321,
      "Ağa": 8322,
      "mamaktadır": 8323,
      "kesi": 8324,
      "gruba": 8325,
      "East": 8326,
      "Tony": 8327,
      "ston": 8328,
      "oluşturdu": 8329,
      "Andrew": 8330,
      "Land": 8331,
      "Your": 8332,
      "gas": 8333,
      "Performan": 8334,
      "Çevre": 8335,
      "allenin": 8336,
      "muhalef": 8337,
      "özellikler": 8338,
      "Rh": 8339,
      "zeme": 8340,
      "toplu": 8341,
      "öncesinde": 8342,
      "High": 8343,
      "rig": 8344,
      "meslek": 8345,
      "mevki": 8346,
      "devre": 8347,
      "merkezinde": 8348,
      "ough": 8349,
      "Hong": 8350,
      "ondan": 8351,
      "uku": 8352,
      "Endon": 8353,
      "varlık": 8354,
      "urdu": 8355,
      "potansiyel": 8356,
      "alım": 8357,
      "rev": 8358,
      "Kütahya": 8359,
      "kutsal": 8360,
      "CF": 8361,
      "IP": 8362,
      "sad": 8363,
      "dığını": 8364,
      "yirmi": 8365,
      "cevap": 8366,
      "devletin": 8367,
      "Kamp": 8368,
      "lamaktadır": 8369,
      "vard": 8370,
      "Keş": 8371,
      "Shak": 8372,
      "sakat": 8373,
      "Leh": 8374,
      "nüfusun": 8375,
      "takımlarından": 8376,
      "Harp": 8377,
      "hayal": 8378,
      "güçlendir": 8379,
      "milliyet": 8380,
      "Japan": 8381,
      "pin": 8382,
      "göreve": 8383,
      "Kırmızı": 8384,
      "oyunculuk": 8385,
      "Abbas": 8386,
      "proje": 8387,
      "oka": 8388,
      "şov": 8389,
      "Yaklaş": 8390,
      "Long": 8391,
      "dışındaki": 8392,
      "1902": 8393,
      "Tib": 8394,
      "İd": 8395,
      "kuru": 8396,
      "hariç": 8397,
      "Tev": 8398,
      "Psik": 8399,
      "mesinde": 8400,
      "Soğ": 8401,
      "azz": 8402,
      "maliyet": 8403,
      "bundan": 8404,
      "Nes": 8405,
      "Faz": 8406,
      "Elazı": 8407,
      "evrim": 8408,
      "Elazığ": 8409,
      "Felsef": 8410,
      "lenerek": 8411,
      "uh": 8412,
      "Michel": 8413,
      "mosfer": 8414,
      "çekilen": 8415,
      "Şeri": 8416,
      "Yardımcısı": 8417,
      "paket": 8418,
      "oh": 8419,
      "duyar": 8420,
      "romantik": 8421,
      "kütüphan": 8422,
      "bölgeleri": 8423,
      "Tip": 8424,
      "etmez": 8425,
      "dolaş": 8426,
      "işçi": 8427,
      "Ern": 8428,
      "Şanlı": 8429,
      "Antonio": 8430,
      "ium": 8431,
      "mezunu": 8432,
      "ović": 8433,
      "fırlat": 8434,
      "Jane": 8435,
      "Atletizm": 8436,
      "yaşamış": 8437,
      "aven": 8438,
      "zehir": 8439,
      "yakalan": 8440,
      "askerleri": 8441,
      "Bud": 8442,
      "oluşturduğu": 8443,
      "lular": 8444,
      "eğilim": 8445,
      "Florida": 8446,
      "Christian": 8447,
      "Nih": 8448,
      "içermektedir": 8449,
      "varsay": 8450,
      "olası": 8451,
      "larıdır": 8452,
      "opera": 8453,
      "Marmara": 8454,
      "esun": 8455,
      "mud": 8456,
      "ilham": 8457,
      "fre": 8458,
      "lag": 8459,
      "bağış": 8460,
      "ıntılı": 8461,
      "ilya": 8462,
      "nör": 8463,
      "pul": 8464,
      "mutfağı": 8465,
      "cent": 8466,
      "başlattı": 8467,
      "oynamaktadır": 8468,
      "Belediyespor": 8469,
      "kıyas": 8470,
      "Hayvan": 8471,
      "hikâye": 8472,
      "ан": 8473,
      "maddeler": 8474,
      "Uğur": 8475,
      "bina": 8476,
      "ayrılmıştır": 8477,
      "kaybeden": 8478,
      "Award": 8479,
      "Ayak": 8480,
      "karşıya": 8481,
      "Heart": 8482,
      "göstermiştir": 8483,
      "Kars": 8484,
      "çıl": 8485,
      "luğun": 8486,
      "oksit": 8487,
      "(,": 8488,
      "Sanatçı": 8489,
      "kulüplerinde": 8490,
      "out": 8491,
      "folk": 8492,
      "Tet": 8493,
      "NATO": 8494,
      "çıkmış": 8495,
      "leyerek": 8496,
      "ende": 8497,
      "makla": 8498,
      "Little": 8499,
      "Blue": 8500,
      "Örgütü": 8501,
      "güz": 8502,
      "das": 8503,
      "atlı": 8504,
      "irken": 8505,
      "sürümü": 8506,
      "kadınların": 8507,
      "çalışmalarına": 8508,
      "dişi": 8509,
      "sırt": 8510,
      "Linux": 8511,
      "Vah": 8512,
      "uzat": 8513,
      "taraftar": 8514,
      "helm": 8515,
      "savaşın": 8516,
      "Pasif": 8517,
      "Balt": 8518,
      "adının": 8519,
      "kültürü": 8520,
      "cunun": 8521,
      "olmasını": 8522,
      "Vladimir": 8523,
      "çağır": 8524,
      "bağlantılı": 8525,
      "blok": 8526,
      "YSK": 8527,
      "gız": 8528,
      "ydu": 8529,
      "Spr": 8530,
      "İlet": 8531,
      "gönderdi": 8532,
      "Group": 8533,
      "zek": 8534,
      "alıp": 8535,
      "ersey": 8536,
      "güreşçi": 8537,
      "Kafkasya": 8538,
      "Yavuz": 8539,
      "erik": 8540,
      "AD": 8541,
      "Dair": 8542,
      "etkileri": 8543,
      "Ayr": 8544,
      "gio": 8545,
      "pool": 8546,
      "ield": 8547,
      "abilmek": 8548,
      "yasyon": 8549,
      "Orman": 8550,
      "Kamu": 8551,
      "Hug": 8552,
      "lamalar": 8553,
      "gördüğü": 8554,
      "doktora": 8555,
      "frek": 8556,
      "isiz": 8557,
      "kaynaklar": 8558,
      "Cins": 8559,
      "yarışı": 8560,
      "İspanyolca": 8561,
      "02433": 8562,
      "D02433": 8563,
      "Koleji": 8564,
      "adıkları": 8565,
      "1904": 8566,
      "sömür": 8567,
      "adaki": 8568,
      "GB": 8569,
      "olun": 8570,
      "şem": 8571,
      "edile": 8572,
      "Lenin": 8573,
      "tanınır": 8574,
      "Ağır": 8575,
      "Hastanesi": 8576,
      "Pl": 8577,
      "klav": 8578,
      "Örnek": 8579,
      "kaçın": 8580,
      "Aile": 8581,
      "istatistikleri": 8582,
      "konsol": 8583,
      "Salih": 8584,
      "görünüm": 8585,
      "Kin": 8586,
      "usta": 8587,
      "ülte": 8588,
      "Vel": 8589,
      "yed": 8590,
      "olayları": 8591,
      "cumhuriyet": 8592,
      "tuk": 8593,
      "avar": 8594,
      "manyetik": 8595,
      "zu": 8596,
      "berto": 8597,
      "yolları": 8598,
      "sığın": 8599,
      "aux": 8600,
      "800000": 8601,
      "fo": 8602,
      "gemisi": 8603,
      "margin": 8604,
      "piş": 8605,
      "bölgesinin": 8606,
      "Kitab": 8607,
      "Giresun": 8608,
      "kadrosu": 8609,
      "Key": 8610,
      "Çoğu": 8611,
      "markaları": 8612,
      "Famil": 8613,
      "onia": 8614,
      "Ful": 8615,
      "alkol": 8616,
      "ölçek": 8617,
      "Gez": 8618,
      "ember": 8619,
      "bölgelerde": 8620,
      "cor": 8621,
      "ال": 8622,
      "Town": 8623,
      "irli": 8624,
      "Osmanlılar": 8625,
      "pp": 8626,
      "erat": 8627,
      "Aut": 8628,
      "yapma": 8629,
      "bireysel": 8630,
      "ME": 8631,
      "layık": 8632,
      "Kırgız": 8633,
      "ume": 8634,
      "hizmete": 8635,
      "Steve": 8636,
      "aralık": 8637,
      "Hükûmeti": 8638,
      "als": 8639,
      "sığ": 8640,
      "tüy": 8641,
      "kazandığı": 8642,
      "Carol": 8643,
      "kestr": 8644,
      "şehirde": 8645,
      "Arjantinli": 8646,
      "Ekonomik": 8647,
      "kalıntı": 8648,
      "Robin": 8649,
      "köyünde": 8650,
      "oluşuyordu": 8651,
      "maması": 8652,
      "(%": 8653,
      "Great": 8654,
      "protein": 8655,
      "izmin": 8656,
      "adel": 8657,
      "Tümeni": 8658,
      "teb": 8659,
      "bahç": 8660,
      "Turu": 8661,
      "Romalı": 8662,
      "bilecek": 8663,
      "teker": 8664,
      "Aleksand": 8665,
      "ilt": 8666,
      "lamaları": 8667,
      "kısmında": 8668,
      "ст": 8669,
      "ılıyor": 8670,
      "Vadisi": 8671,
      "ükem": 8672,
      "avy": 8673,
      "usa": 8674,
      "etiyle": 8675,
      "istanı": 8676,
      "gıda": 8677,
      "askerler": 8678,
      "Cih": 8679,
      "kalit": 8680,
      "birik": 8681,
      "och": 8682,
      "öğrencisi": 8683,
      "Hir": 8684,
      "Üret": 8685,
      "uzaklıkta": 8686,
      "özgün": 8687,
      "luğa": 8688,
      "Ash": 8689,
      "eva": 8690,
      "Üsk": 8691,
      "idare": 8692,
      "ios": 8693,
      "Çağı": 8694,
      "River": 8695,
      "lok": 8696,
      "bulur": 8697,
      "emix": 8698,
      "sburg": 8699,
      "Ander": 8700,
      "cast": 8701,
      "kişilerin": 8702,
      "İçişleri": 8703,
      "lerdeki": 8704,
      "yayımladı": 8705,
      "birisidir": 8706,
      "zorunlu": 8707,
      "kâr": 8708,
      "birini": 8709,
      "cas": 8710,
      "dolu": 8711,
      "imet": 8712,
      "rugu": 8713,
      "Geçmiş": 8714,
      "Pictures": 8715,
      "Estonya": 8716,
      "hâl": 8717,
      "Walter": 8718,
      "ımları": 8719,
      "1903": 8720,
      "Dead": 8721,
      "Kub": 8722,
      "1878": 8723,
      "Turnuv": 8724,
      "Görün": 8725,
      "Stephen": 8726,
      "Pla": 8727,
      "Çorum": 8728,
      "öt": 8729,
      "Kongresi": 8730,
      "elly": 8731,
      "Dark": 8732,
      "İktis": 8733,
      "vah": 8734,
      "Küre": 8735,
      "Erzin": 8736,
      "Mike": 8737,
      "asız": 8738,
      "andar": 8739,
      "Georg": 8740,
      "molekül": 8741,
      "manastır": 8742,
      "yerlerde": 8743,
      "eley": 8744,
      "örneği": 8745,
      "içerik": 8746,
      "attığı": 8747,
      "yürür": 8748,
      "esiydi": 8749,
      "itter": 8750,
      "1901": 8751,
      "illeri": 8752,
      "inter": 8753,
      "eller": 8754,
      "Pad": 8755,
      "Ertesi": 8756,
      "mimari": 8757,
      "gıt": 8758,
      "emesi": 8759,
      "yaşındaki": 8760,
      "Open": 8761,
      "YouT": 8762,
      "diğ": 8763,
      "ANA": 8764,
      "Doc": 8765,
      "ilah": 8766,
      "Özerk": 8767,
      "macera": 8768,
      "coğrafi": 8769,
      "ved": 8770,
      "İtalyanca": 8771,
      "1890": 8772,
      "Formula": 8773,
      "ülür": 8774,
      "elendi": 8775,
      "dağılımı": 8776,
      "saniye": 8777,
      "jo": 8778,
      "baba": 8779,
      "komünist": 8780,
      "Dergisi": 8781,
      "kuruluşlar": 8782,
      "şans": 8783,
      "hazırlanan": 8784,
      "tarif": 8785,
      "mobil": 8786,
      "height": 8787,
      "giyen": 8788,
      "bilgileri": 8789,
      "Üzer": 8790,
      "karşılan": 8791,
      "koordin": 8792,
      "hızı": 8793,
      "cılığını": 8794,
      "Venez": 8795,
      "Herschel": 8796,
      "format": 8797,
      "tıcı": 8798,
      "Kadro": 8799,
      "Yabancı": 8800,
      "yarısında": 8801,
      "genelinde": 8802,
      "Sistemi": 8803,
      "dalı": 8804,
      "Slav": 8805,
      "Teknoloji": 8806,
      "aza": 8807,
      "Wilhelm": 8808,
      "Trabzonspor": 8809,
      "rolünü": 8810,
      "Oranı": 8811,
      "Lord": 8812,
      "aver": 8813,
      "yetersiz": 8814,
      "Kimya": 8815,
      "Harris": 8816,
      "RS": 8817,
      "English": 8818,
      "Phone": 8819,
      "Konstantinopolis": 8820,
      "oba": 8821,
      "Girl": 8822,
      "atlar": 8823,
      "Vatan": 8824,
      "Cle": 8825,
      "MC": 8826,
      "arth": 8827,
      "Elektrik": 8828,
      "ebile": 8829,
      "kalab": 8830,
      "ragon": 8831,
      "riz": 8832,
      "Muğ": 8833,
      "Parlamentosu": 8834,
      "ilindeki": 8835,
      "Barb": 8836,
      "yapılmaktadır": 8837,
      "yiyecek": 8838,
      "1em": 8839,
      "Light": 8840,
      "bilimi": 8841,
      "alanlar": 8842,
      "Çinli": 8843,
      "Comp": 8844,
      "sakin": 8845,
      "ettin": 8846,
      "yapıldığı": 8847,
      "Sky": 8848,
      "cik": 8849,
      "sundu": 8850,
      "Bunu": 8851,
      "eğin": 8852,
      "karakterini": 8853,
      "iser": 8854,
      "reaksiyon": 8855,
      "hop": 8856,
      "Kâ": 8857,
      "üşü": 8858,
      "eng": 8859,
      "uss": 8860,
      "TT": 8861,
      "likle": 8862,
      "çözün": 8863,
      "lısı": 8864,
      "çilerin": 8865,
      "sunucu": 8866,
      "bağlam": 8867,
      "Anayasa": 8868,
      "Dede": 8869,
      "Tı": 8870,
      "Çat": 8871,
      "vek": 8872,
      "ikna": 8873,
      "bilmektedir": 8874,
      "tarihindeki": 8875,
      "Serbest": 8876,
      "yerinde": 8877,
      "Ret": 8878,
      "zy": 8879,
      "dönen": 8880,
      "değiştirildi": 8881,
      "çalışmalarını": 8882,
      "Oscar": 8883,
      "kriz": 8884,
      "1886": 8885,
      "krist": 8886,
      "tün": 8887,
      "nitelik": 8888,
      "aylık": 8889,
      "yöntemi": 8890,
      "drama": 8891,
      "Şanlıur": 8892,
      "oi": 8893,
      "real": 8894,
      "Bunlardan": 8895,
      "Bilgisayar": 8896,
      "Bell": 8897,
      "ayrım": 8898,
      "eceğini": 8899,
      "forması": 8900,
      "kitabında": 8901,
      "beli": 8902,
      "boyutlu": 8903,
      "tenis": 8904,
      "Hes": 8905,
      "öyk": 8906,
      "Şir": 8907,
      "Kırk": 8908,
      "ido": 8909,
      "listesine": 8910,
      "elenen": 8911,
      "RO": 8912,
      "soru": 8913,
      "sorunları": 8914,
      "caz": 8915,
      "Reich": 8916,
      "Askerî": 8917,
      "Gelenek": 8918,
      "Politik": 8919,
      "Rab": 8920,
      "bilimkurgu": 8921,
      "insanın": 8922,
      "duygu": 8923,
      "arkadaşları": 8924,
      "kısmını": 8925,
      "Liv": 8926,
      "1896": 8927,
      "Hard": 8928,
      "tasarımı": 8929,
      "pres": 8930,
      "oğl": 8931,
      "Ford": 8932,
      "lé": 8933,
      "yönetmenleri": 8934,
      "Aus": 8935,
      "aktris": 8936,
      "güçleri": 8937,
      "Yİ": 8938,
      "görevinden": 8939,
      "parçaları": 8940,
      "ekteydi": 8941,
      "alanlarda": 8942,
      "kuram": 8943,
      "gösterilmiştir": 8944,
      "altıncı": 8945,
      "İslami": 8946,
      "gerçekleştirildi": 8947,
      "mekaniz": 8948,
      "eryal": 8949,
      "ebo": 8950,
      "mitoloj": 8951,
      "olasılık": 8952,
      "çevrimiçi": 8953,
      "kalıcı": 8954,
      "ücretsiz": 8955,
      "Alfred": 8956,
      "ürette": 8957,
      "MSZ": 8958,
      "pazarı": 8959,
      "dip": 8960,
      "İmparatoru": 8961,
      "Cey": 8962,
      "alana": 8963,
      "onar": 8964,
      "İbran": 8965,
      "onna": 8966,
      "edral": 8967,
      "Kaynaklar": 8968,
      "lemiştir": 8969,
      "Mahalle": 8970,
      "bilgisi": 8971,
      "Yaşar": 8972,
      "Beldeler": 8973,
      "paralel": 8974,
      "Fik": 8975,
      "şiddetli": 8976,
      "arkeolojik": 8977,
      "yumuş": 8978,
      "Franç": 8979,
      "HA": 8980,
      "evli": 8981,
      "aft": 8982,
      "Pasifik": 8983,
      "kanı": 8984,
      "numara": 8985,
      "dizinin": 8986,
      "açılış": 8987,
      "tepki": 8988,
      "ılmasıyla": 8989,
      "kutusu": 8990,
      "Çalışma": 8991,
      "Turizm": 8992,
      "achus": 8993,
      "grafik": 8994,
      "ağırlık": 8995,
      "basınç": 8996,
      "Disney": 8997,
      "kapsamlı": 8998,
      "Afyon": 8999,
      "personel": 9000,
      "BĞ": 9001,
      "söylen": 9002,
      "bölgelerinde": 9003,
      "Oc": 9004,
      "sever": 9005,
      "posta": 9006,
      "Columbia": 9007,
      "aker": 9008,
      "fesh": 9009,
      "ilmişti": 9010,
      "BĞMSZ": 9011,
      "sabah": 9012,
      "örler": 9013,
      "modeller": 9014,
      "sche": 9015,
      "Bağdat": 9016,
      "Manastır": 9017,
      "beyin": 9018,
      "Stalin": 9019,
      "edebilir": 9020,
      "Sony": 9021,
      "turu": 9022,
      "Instit": 9023,
      "Jersey": 9024,
      "kırsal": 9025,
      "turizm": 9026,
      "Kaç": 9027,
      "here": 9028,
      "onunla": 9029,
      "Tran": 9030,
      "ebel": 9031,
      "kapsayan": 9032,
      "yardımıyla": 9033,
      "Ülke": 9034,
      "Tech": 9035,
      "Cemiyeti": 9036,
      "lif": 9037,
      "agan": 9038,
      "Berg": 9039,
      "AFC": 9040,
      "şampiyonluk": 9041,
      "oza": 9042,
      "Under": 9043,
      "eleyen": 9044,
      "zamanla": 9045,
      "HD": 9046,
      "Normal": 9047,
      "YouTube": 9048,
      "taç": 9049,
      "Hız": 9050,
      "gili": 9051,
      "tanınmış": 9052,
      "imparatorluk": 9053,
      "Lef": 9054,
      "varlığını": 9055,
      "KP": 9056,
      "olsun": 9057,
      "imer": 9058,
      "Buda": 9059,
      "Doğum": 9060,
      "Carex": 9061,
      "prat": 9062,
      "uğram": 9063,
      "icat": 9064,
      "icus": 9065,
      "gösterime": 9066,
      "kendilerine": 9067,
      "Savaşları": 9068,
      "ülkelerin": 9069,
      "alarla": 9070,
      "bulunmayan": 9071,
      "malarına": 9072,
      "Çelebi": 9073,
      "Giz": 9074,
      "Festival": 9075,
      "rolüyle": 9076,
      "yoloji": 9077,
      "olağan": 9078,
      "tüken": 9079,
      "taarruz": 9080,
      "Aşağıdaki": 9081,
      "larca": 9082,
      "1D": 9083,
      "Gur": 9084,
      "TS": 9085,
      "Tav": 9086,
      "denilen": 9087,
      "tron": 9088,
      "Lewis": 9089,
      "Yapı": 9090,
      "anus": 9091,
      "inş": 9092,
      "tekni": 9093,
      "som": 9094,
      "Associ": 9095,
      "Cav": 9096,
      "boya": 9097,
      "detay": 9098,
      "Karabağ": 9099,
      "Düzen": 9100,
      "tol": 9101,
      "dakikada": 9102,
      "uyum": 9103,
      "Fotoğraf": 9104,
      "spon": 9105,
      "iden": 9106,
      "amayan": 9107,
      "Erzincan": 9108,
      "urnal": 9109,
      "Şek": 9110,
      "alması": 9111,
      "memur": 9112,
      "Apol": 9113,
      "Brian": 9114,
      "ayaklan": 9115,
      "Hop": 9116,
      "bölümünü": 9117,
      "Gun": 9118,
      "alıyor": 9119,
      "Kost": 9120,
      "kie": 9121,
      "kaldığı": 9122,
      "tikten": 9123,
      "Nit": 9124,
      "Pel": 9125,
      "ín": 9126,
      "Juan": 9127,
      "getiren": 9128,
      "Sün": 9129,
      "vergi": 9130,
      "darbe": 9131,
      "vatuvar": 9132,
      "Amas": 9133,
      "duction": 9134,
      "değerli": 9135,
      "Körfezi": 9136,
      "mektir": 9137,
      "tanıtılan": 9138,
      "ju": 9139,
      "resmen": 9140,
      "yakınlarındaki": 9141,
      "reddetti": 9142,
      "Mun": 9143,
      "kısalt": 9144,
      "ıntılar": 9145,
      "kullanılması": 9146,
      "arasına": 9147,
      "eksiyonu": 9148,
      "üstünde": 9149,
      "organize": 9150,
      "Corn": 9151,
      "caktır": 9152,
      "İmam": 9153,
      "Prusya": 9154,
      "veti": 9155,
      "kısaca": 9156,
      "DYP": 9157,
      "başarısı": 9158,
      "nef": 9159,
      "Cumhurbaşkanlığı": 9160,
      "bölgedeki": 9161,
      "Lud": 9162,
      "inen": 9163,
      "sayılabilir": 9164,
      "Thor": 9165,
      "anlayış": 9166,
      "Hikâ": 9167,
      "Kle": 9168,
      "razam": 9169,
      "görülmüştür": 9170,
      "toplama": 9171,
      "Bing": 9172,
      "ilmeye": 9173,
      "satışa": 9174,
      "Virgini": 9175,
      "Ital": 9176,
      "Dim": 9177,
      "Harvard": 9178,
      "arama": 9179,
      "Bülent": 9180,
      "savaşa": 9181,
      "uygulamaları": 9182,
      "=#": 9183,
      "EF": 9184,
      "raft": 9185,
      "soruştur": 9186,
      "Ez": 9187,
      "olo": 9188,
      "1899": 9189,
      "felsefe": 9190,
      "davul": 9191,
      "valisi": 9192,
      "Orijinal": 9193,
      "diğerleri": 9194,
      "Gece": 9195,
      "Metal": 9196,
      "ulaşan": 9197,
      "Sinem": 9198,
      "José": 9199,
      "ideal": 9200,
      "pozitif": 9201,
      "Seg": 9202,
      "iyen": 9203,
      "Opera": 9204,
      "Hollywood": 9205,
      "Alaska": 9206,
      "çekimi": 9207,
      "mag": 9208,
      "Karaman": 9209,
      "Yaklaşık": 9210,
      "sanatçılar": 9211,
      "Hakk": 9212,
      "Rub": 9213,
      "eridi": 9214,
      "çekten": 9215,
      "dilinde": 9216,
      "ortalarında": 9217,
      "leye": 9218,
      "Jr": 9219,
      "sıradan": 9220,
      "Villa": 9221,
      "açıkça": 9222,
      "kör": 9223,
      "tıbbi": 9224,
      "araçları": 9225,
      "ahisar": 9226,
      "meli": 9227,
      "pel": 9228,
      "Takımı": 9229,
      "İlişk": 9230,
      "binlerce": 9231,
      "çalıştığı": 9232,
      "Puan": 9233,
      "RC": 9234,
      "vs": 9235,
      "yitir": 9236,
      "mercek": 9237,
      "EN": 9238,
      "Sn": 9239,
      "kolu": 9240,
      "Radio": 9241,
      "bozukluk": 9242,
      "Mahallesi": 9243,
      "на": 9244,
      "Koruma": 9245,
      "kelime": 9246,
      "edilerek": 9247,
      "Mardin": 9248,
      "Rot": 9249,
      "Yüksel": 9250,
      "Wilson": 9251,
      "mali": 9252,
      "başlangıç": 9253,
      "Mul": 9254,
      "Arda": 9255,
      "kaleme": 9256,
      "Marc": 9257,
      "dö": 9258,
      "Yakın": 9259,
      "komplek": 9260,
      "oke": 9261,
      "Got": 9262,
      "ML": 9263,
      "herkes": 9264,
      "tutul": 9265,
      "cul": 9266,
      "bırakıldı": 9267,
      "Alb": 9268,
      "belirtir": 9269,
      "feransı": 9270,
      "başlayarak": 9271,
      "cio": 9272,
      "ılmaz": 9273,
      "kampan": 9274,
      "yılların": 9275,
      "d6": 9276,
      "Karay": 9277,
      "golünü": 9278,
      "yaka": 9279,
      "İranlı": 9280,
      "Endonezya": 9281,
      "çelik": 9282,
      "IC": 9283,
      "MTV": 9284,
      "çıkardığı": 9285,
      "Sap": 9286,
      "düzeyde": 9287,
      "Jam": 9288,
      "Yemen": 9289,
      "padişah": 9290,
      "tia": 9291,
      "Pit": 9292,
      "ekte": 9293,
      "katman": 9294,
      "ake": 9295,
      "olacağını": 9296,
      "anlamı": 9297,
      "Trak": 9298,
      "salon": 9299,
      "suikast": 9300,
      "Musa": 9301,
      "element": 9302,
      "Bayan": 9303,
      "konuşma": 9304,
      "aylarında": 9305,
      "oyunlar": 9306,
      "Pom": 9307,
      "Carlos": 9308,
      "beğen": 9309,
      "yatak": 9310,
      "eland": 9311,
      "kurduğu": 9312,
      "azi": 9313,
      "Milano": 9314,
      "İli": 9315,
      "bildirdi": 9316,
      "yağış": 9317,
      "ego": 9318,
      "görünür": 9319,
      "Urugu": 9320,
      "pus": 9321,
      "Mam": 9322,
      "DD": 9323,
      "Tapın": 9324,
      "siler": 9325,
      "konferans": 9326,
      "Saldır": 9327,
      "Buffy": 9328,
      "etts": 9329,
      "şeyi": 9330,
      "Komünün": 9331,
      "Galax": 9332,
      "ağırlıklı": 9333,
      "jan": 9334,
      "müziğini": 9335,
      "Cengiz": 9336,
      "çalışmıştır": 9337,
      "Mahmut": 9338,
      "Rıza": 9339,
      "tre": 9340,
      "dadır": 9341,
      "Devletler": 9342,
      "feat": 9343,
      "doğrult": 9344,
      "şüph": 9345,
      "Çeşitli": 9346,
      "Sid": 9347,
      "Power": 9348,
      "Uç": 9349,
      "Cry": 9350,
      "far": 9351,
      "Journal": 9352,
      "entbol": 9353,
      "cad": 9354,
      "döner": 9355,
      "Denizli": 9356,
      "Çelik": 9357,
      "yetişkin": 9358,
      "Kolomb": 9359,
      "System": 9360,
      "Uruguay": 9361,
      "kurgusal": 9362,
      "kazanarak": 9363,
      "Hart": 9364,
      "eysel": 9365,
      "Fon": 9366,
      "RP": 9367,
      "ua": 9368,
      "zincir": 9369,
      "luğuna": 9370,
      "sayfalar": 9371,
      "ödüllendir": 9372,
      "FF0000": 9373,
      "orit": 9374,
      "tartışmalar": 9375,
      "Rak": 9376,
      "(?": 9377,
      "Tac": 9378,
      "kins": 9379,
      "Doug": 9380,
      "atmosfer": 9381,
      "rakam": 9382,
      "ologlar": 9383,
      "Dost": 9384,
      "rel": 9385,
      "stan": 9386,
      "senesinde": 9387,
      "Inc": 9388,
      "kub": 9389,
      "antlaş": 9390,
      "ülkeleri": 9391,
      "Who": 9392,
      "üste": 9393,
      "Island": 9394,
      "meyve": 9395,
      "700": 9396,
      "saldırısı": 9397,
      "ness": 9398,
      "eta": 9399,
      "bilimci": 9400,
      "Brun": 9401,
      "Beat": 9402,
      "yaralan": 9403,
      "ebilecek": 9404,
      "aklar": 9405,
      "fikr": 9406,
      "Center": 9407,
      "girer": 9408,
      "tabi": 9409,
      "Whit": 9410,
      "istleri": 9411,
      "düzenleme": 9412,
      "kristal": 9413,
      "cap": 9414,
      "inus": 9415,
      "uzunluğu": 9416,
      "zamana": 9417,
      "toprakları": 9418,
      "vers": 9419,
      "Boş": 9420,
      "1876": 9421,
      "DSP": 9422,
      "yüzyıldan": 9423,
      "şarkıyı": 9424,
      "Hatay": 9425,
      "gösteri": 9426,
      "eve": 9427,
      "ardı": 9428,
      "Profesör": 9429,
      "dad": 9430,
      "pencer": 9431,
      "bulgu": 9432,
      "CON": 9433,
      "Jacques": 9434,
      "vererek": 9435,
      "J1": 9436,
      "bach": 9437,
      "diplomat": 9438,
      "Virginia": 9439,
      "iko": 9440,
      "düşünce": 9441,
      "Tot": 9442,
      "Bakan": 9443,
      "Okyanusu": 9444,
      "Mob": 9445,
      "Num": 9446,
      "ei": 9447,
      "hist": 9448,
      "saygı": 9449,
      "lastı": 9450,
      "1895": 9451,
      "müzisyenler": 9452,
      "Oly": 9453,
      "takdir": 9454,
      "Eric": 9455,
      "kurmay": 9456,
      "belirsiz": 9457,
      "Street": 9458,
      "Princ": 9459,
      "Peru": 9460,
      "halkının": 9461,
      "Önc": 9462,
      "ükemmel": 9463,
      "savunu": 9464,
      "Bisiklet": 9465,
      "Tra": 9466,
      "materyal": 9467,
      "ANAP": 9468,
      "bellek": 9469,
      "öly": 9470,
      "laboratuvar": 9471,
      "lerindeki": 9472,
      "Turgut": 9473,
      "serisinin": 9474,
      "Emre": 9475,
      "parçasıdır": 9476,
      "aut": 9477,
      "gerekçesiyle": 9478,
      "Yoz": 9479,
      "Yurt": 9480,
      "savaşta": 9481,
      "Demokrasi": 9482,
      "tac": 9483,
      "130": 9484,
      "Refah": 9485,
      "adamları": 9486,
      "Buck": 9487,
      "satan": 9488,
      "masa": 9489,
      "kemik": 9490,
      "pik": 9491,
      "yang": 9492,
      "çubuk": 9493,
      "şev": 9494,
      "Ras": 9495,
      "depol": 9496,
      "ranç": 9497,
      "sözleri": 9498,
      "malzeme": 9499,
      "İstatistikleri": 9500,
      "deneyim": 9501,
      "cumhurbaşkanı": 9502,
      "uther": 9503,
      "istasyonu": 9504,
      "Cul": 9505,
      "yaları": 9506,
      "Karaca": 9507,
      "İletişim": 9508,
      "kitaplar": 9509,
      "temas": 9510,
      "Kitabı": 9511,
      "Dünyanın": 9512,
      "ülkesi": 9513,
      "dövüş": 9514,
      "Brad": 9515,
      "ullah": 9516,
      "\"),": 9517,
      "Fah": 9518,
      "eksen": 9519,
      "peten": 9520,
      "eum": 9521,
      "erv": 9522,
      "protesto": 9523,
      "Kendisi": 9524,
      "Geleneksel": 9525,
      "anth": 9526,
      "amamıştır": 9527,
      "Last": 9528,
      "Saat": 9529,
      "romu": 9530,
      "buhar": 9531,
      "başladılar": 9532,
      "projesi": 9533,
      "çının": 9534,
      "ilip": 9535,
      "düşen": 9536,
      "devleti": 9537,
      "François": 9538,
      "Liver": 9539,
      "Lincol": 9540,
      "gâr": 9541,
      "altyap": 9542,
      "oymağ": 9543,
      "Eyalet": 9544,
      "1898": 9545,
      "Massachus": 9546,
      "Ces": 9547,
      "Hur": 9548,
      "âtı": 9549,
      "mekanik": 9550,
      "Lyn": 9551,
      "ère": 9552,
      "kamera": 9553,
      "dikkate": 9554,
      "Eleştirmen": 9555,
      "Fet": 9556,
      "mümkündür": 9557,
      "Muğla": 9558,
      "Lincoln": 9559,
      "Galaxy": 9560,
      "dia": 9561,
      "Mahmud": 9562,
      "rov": 9563,
      "ılmıştı": 9564,
      "Donald": 9565,
      "1897": 9566,
      "ertesi": 9567,
      "anlaşmaz": 9568,
      "organik": 9569,
      "zı": 9570,
      "Yönetimi": 9571,
      "rütb": 9572,
      "maraş": 9573,
      "Tif": 9574,
      "Fort": 9575,
      "Hamil": 9576,
      "Kop": 9577,
      "yaptıkları": 9578,
      "AN": 9579,
      "Pul": 9580,
      "lemektedir": 9581,
      "oyunculu": 9582,
      "Ailesi": 9583,
      "kalmış": 9584,
      "eygamber": 9585,
      "ouch": 9586,
      "ра": 9587,
      "atus": 9588,
      "sına": 9589,
      "çeyrek": 9590,
      "Albümün": 9591,
      "Barcel": 9592,
      "alay": 9593,
      "Massachusetts": 9594,
      "atar": 9595,
      "protokol": 9596,
      "çın": 9597,
      "likte": 9598,
      "jin": 9599,
      "975": 9600,
      "ked": 9601,
      "oit": 9602,
      "Europe": 9603,
      "Kahramanmaraş": 9604,
      "ahlak": 9605,
      "Chi": 9606,
      "Kid": 9607,
      "vilayet": 9608,
      "Beşinci": 9609,
      "Kızılder": 9610,
      "Lük": 9611,
      "Pis": 9612,
      "giymektedir": 9613,
      "vermeye": 9614,
      "aileden": 9615,
      "direniş": 9616,
      "geçerli": 9617,
      "atıfta": 9618,
      "uşturucu": 9619,
      "ılmaya": 9620,
      "harekete": 9621,
      "iyorum": 9622,
      "Oblastı": 9623,
      "Yozgat": 9624,
      "bebek": 9625,
      "ysa": 9626,
      "hizmetleri": 9627,
      "olanlar": 9628,
      "State": 9629,
      "Cher": 9630,
      "chive": 9631,
      "ingham": 9632,
      "sıfır": 9633,
      "Book": 9634,
      "First": 9635,
      "gövde": 9636,
      "its": 9637,
      "eria": 9638,
      "gücünü": 9639,
      "esiz": 9640,
      "bulan": 9641,
      "Kongre": 9642,
      "ladıktan": 9643,
      "inger": 9644,
      "Libya": 9645,
      "antrenör": 9646,
      "rada": 9647,
      "Liber": 9648,
      "Christop": 9649,
      "px": 9650,
      "virüs": 9651,
      "isimleri": 9652,
      "amir": 9653,
      "borç": 9654,
      "piskopos": 9655,
      "işgali": 9656,
      "edy": 9657,
      "sözü": 9658,
      "yönetiminde": 9659,
      "şub": 9660,
      "ESCO": 9661,
      "abi": 9662,
      "tarihine": 9663,
      "tasarlanmış": 9664,
      "sıkı": 9665,
      "Mans": 9666,
      "müttefik": 9667,
      "Californi": 9668,
      "Yör": 9669,
      "anlatır": 9670,
      "İzlanda": 9671,
      "gelişmeler": 9672,
      "biçimi": 9673,
      "ilişkilendir": 9674,
      "luğunun": 9675,
      "hiz": 9676,
      "lileri": 9677,
      "Arch": 9678,
      "İrlandalı": 9679,
      "Rick": 9680,
      "arl": 9681,
      "Mühendisliği": 9682,
      "Öy": 9683,
      "sandal": 9684,
      "vador": 9685,
      "Mavi": 9686,
      "uer": 9687,
      "Chap": 9688,
      "partinin": 9689,
      "başlıklı": 9690,
      "üyelerinin": 9691,
      "liberal": 9692,
      "şehrinin": 9693,
      "piyano": 9694,
      "hizmeti": 9695,
      "hol": 9696,
      "Anim": 9697,
      "arasındadır": 9698,
      "Şanlıurfa": 9699,
      "Çetin": 9700,
      "yazılımları": 9701,
      "akta": 9702,
      "gösterdiği": 9703,
      "Timur": 9704,
      "CAF": 9705,
      "Yat": 9706,
      "Beni": 9707,
      "sınırı": 9708,
      "akrab": 9709,
      "Batman": 9710,
      "yetenek": 9711,
      "ahattin": 9712,
      "Jeff": 9713,
      "Birkaç": 9714,
      "koyu": 9715,
      "eus": 9716,
      "ediyordu": 9717,
      "editör": 9718,
      "karanlık": 9719,
      "VII": 9720,
      "Malta": 9721,
      "cur": 9722,
      "duruma": 9723,
      "gönüllü": 9724,
      "Work": 9725,
      "eleriyle": 9726,
      "landırma": 9727,
      "1877": 9728,
      "mediği": 9729,
      "esk": 9730,
      "yükselen": 9731,
      "parmak": 9732,
      "şirketin": 9733,
      "pandem": 9734,
      "Lady": 9735,
      "Bag": 9736,
      "ilin": 9737,
      "hib": 9738,
      "Kuşat": 9739,
      "tığını": 9740,
      "lıktan": 9741,
      "UNESCO": 9742,
      "Yorkshire": 9743,
      "dönüşüm": 9744,
      "uyarlanan": 9745,
      "Schw": 9746,
      "Hid": 9747,
      "Hakan": 9748,
      "bulunuyordu": 9749,
      "dokun": 9750,
      "Dec": 9751,
      "spekt": 9752,
      "ılaş": 9753,
      "Barcelona": 9754,
      "Rio": 9755,
      "Galerisi": 9756,
[...]
